<unk>	0
<s>	0
</s>	0
▁	-3.29448
.	-3.47904
..	-4.30693
이	-4.43943
▁영화	-4.48294
...	-4.54175
의	-4.72835
가	-4.72972
도	-4.80114
는	-4.87026
,	-5.01636
을	-5.04839
에	-5.09188
고	-5.13453
다	-5.15028
은	-5.21651
지	-5.30511
?	-5.31845
한	-5.42058
▁너무	-5.47597
!	-5.48723
를	-5.59257
▁정말	-5.60222
만	-5.61339
▁이	-5.66887
로	-5.69953
▁진짜	-5.78965
~	-5.79638
나	-5.81952
영화	-5.82686
게	-5.85381
과	-6.01607
기	-6.04381
어	-6.05231
라	-6.062
리	-6.0968
네	-6.10952
점	-6.12793
아	-6.15234
하고	-6.19065
인	-6.19804
서	-6.21534
으로	-6.25375
▁안	-6.26494
!!	-6.27328
▁잘	-6.27566
요	-6.30644
▁1	-6.32307
▁왜	-6.33987
에서	-6.34684
....	-6.36207
와	-6.36254
▁그	-6.37058
들	-6.37453
▁더	-6.39357
▁아	-6.40068
▁이런	-6.40611
▁다	-6.42927
해	-6.44244
▁수	-6.46527
네요	-6.47381
스	-6.47872
자	-6.49913
거	-6.50032
하는	-6.51176
▁그냥	-6.5226
▁드라마	-6.59511
▁본	-6.5968
음	-6.61202
면	-6.61876
▁10	-6.63492
수	-6.63667
하	-6.65639
함	-6.67853
▁평점	-6.68953
니	-6.69026
시	-6.70858
▁보고	-6.70881
야	-6.71614
대	-6.72255
지만	-6.72464
▁연기	-6.7333
사	-6.75375
▁내	-6.76116
하게	-6.78988
하다	-6.8083
▁좀	-6.81035
이다	-6.81436
▁한	-6.82252
일	-6.83276
▁ᄏᄏ	-6.83696
▁최고	-6.84012
▁영화를	-6.8501
▁이거	-6.85597
▁봤는데	-6.86031
▁최고의	-6.87485
진	-6.87736
우	-6.89635
▁못	-6.89806
▁쓰레기	-6.9013
▁참	-6.9123
데	-6.91571
▁완전	-6.91641
여	-6.91694
주	-6.91699
▁없다	-6.92308
미	-6.92337
▁없는	-6.93668
임	-6.93765
보다	-6.93972
냐	-6.95154
구	-6.95265
는데	-6.95812
안	-6.96112
▁이건	-6.96959
ᄏᄏ	-6.97352
드	-6.97966
▁내가	-6.98056
보	-6.98547
▁개	-6.99368
할	-6.99615
▁스토리	-6.99679
!!!	-7.00428
▁2	-7.00553
▁영화는	-7.00759
듯	-7.02066
▁영화가	-7.02205
정	-7.02387
성	-7.03569
▁이게	-7.03594
장	-7.03971
들이	-7.05462
▁나	-7.05761
▁좋은	-7.06506
신	-7.07114
▁있는	-7.0781
상	-7.07981
▁다시	-7.09496
^^	-7.10107
해서	-7.10161
▁이렇게	-7.10831
▁난	-7.12313
까지	-7.12358
던	-7.12602
적	-7.12683
치	-7.12683
~~	-7.13015
▁보는	-7.134
▁것	-7.15424
마	-7.15927
▁3	-7.16296
전	-7.16505
오	-7.16563
ᄏ	-7.16855
▁평점이	-7.16903
중	-7.17622
러	-7.1885
보고	-7.19016
부	-7.19171
▁재밌게	-7.19844
려	-7.19978
▁말	-7.2043
▁보	-7.21905
▁역시	-7.22473
건	-7.22786
1	-7.22862
개	-7.23288
랑	-7.23426
때	-7.23456
▁지	-7.24008
트	-7.24727
;;	-7.2499
▁넘	-7.25735
히	-7.26031
화	-7.26421
▁뭐	-7.27756
▁많이	-7.27988
분	-7.28369
▁작품	-7.28548
질	-7.28638
▁볼	-7.30918
▁재미	-7.31123
세	-7.31465
용	-7.31478
▁오	-7.31679
원	-7.31912
년	-7.32254
비	-7.33014
내	-7.33605
▁전	-7.33809
인데	-7.34372
??	-7.34489
▁감동	-7.3525
▁별로	-7.36391
2	-7.36576
▁하	-7.36584
그	-7.36767
▁무	-7.37694
적인	-7.37972
▁저	-7.38094
▁마지막	-7.39367
▁또	-7.39382
소	-7.40562
했다	-7.41319
▁꼭	-7.4138
▁ᄏᄏᄏ	-7.41691
▁주	-7.43439
습니다	-7.44144
▁하나	-7.44194
진짜	-7.44751
▁별	-7.4493
라고	-7.45224
▁아깝다	-7.46022
선	-7.46183
▁감독	-7.46345
같은	-7.46593
▁시간	-7.46827
ᅲᅲ	-7.47028
급	-7.47213
▁액션	-7.47453
것	-7.47555
물	-7.47861
감	-7.47931
▁생각	-7.48058
디	-7.49069
말	-7.49123
▁기대	-7.49239
하지	-7.49583
어요	-7.50624
▁명작	-7.50745
ᄏᄏᄏ	-7.52072
▁하는	-7.52194
식	-7.52349
더	-7.5256
▁가장	-7.52823
무	-7.53485
본	-7.53561
▁없고	-7.53746
▁이야기	-7.5413
입니다	-7.54816
줄	-7.54926
;	-7.5556
'	-7.55571
▁그리고	-7.55757
영	-7.56102
▁지금	-7.56446
▁사	-7.56512
호	-7.57462
▁김	-7.57643
남	-7.57859
▁ᅲᅲ	-7.58272
편	-7.58703
▁중	-7.58975
드라마	-7.58985
▁보면	-7.59073
너무	-7.59098
란	-7.59167
동	-7.59442
▁무슨	-7.59547
▁사랑	-7.59563
▁ᄏ	-7.5963
걸	-7.59803
당	-7.60467
긴	-7.60539
좀	-7.60733
조	-7.61377
작	-7.61706
군	-7.62306
▁짱	-7.62307
▁만든	-7.62437
▁한국	-7.62686
▁아니	-7.63537
없는	-7.63602
▁비	-7.64125
씨	-7.64565
▁할	-7.64831
제	-7.64865
▁미	-7.64983
▁정	-7.65193
유	-7.65197
이나	-7.65345
으면	-7.65494
▁ᅳᅳ	-7.65817
ᅲ	-7.66279
▁다른	-7.66291
▁처음	-7.66496
▁어	-7.67017
▁일	-7.67177
모	-7.67583
▁말이	-7.68512
)	-7.69224
▁배우	-7.69229
된	-7.69479
린	-7.69659
심	-7.69842
울	-7.70227
정말	-7.70338
라는	-7.70405
3	-7.70458
▁좋아	-7.70516
▁와	-7.70705
▁조	-7.70722
▁자	-7.71475
연	-7.71644
▁일본	-7.71989
▁유	-7.7208
▁마	-7.72383
▁두	-7.72425
부터	-7.72459
바	-7.72612
에게	-7.72854
▁대	-7.72908
▁느낌	-7.7318
▁좋다	-7.73397
운	-7.74313
▁영화다	-7.74379
▁연출	-7.74394
있는	-7.74496
르	-7.74717
타	-7.75344
위	-7.75585
▁기	-7.756
▁끝까지	-7.75611
명	-7.7563
두	-7.76479
크	-7.76482
▁내용	-7.77788
레	-7.78035
래	-7.78386
간	-7.78587
▁거	-7.78704
한다	-7.79051
▁돈	-7.79745
살	-7.80165
▁재밌다	-7.80519
워	-7.80622
ᅳᅳ	-7.80859
,,	-7.81092
준	-7.81688
노	-7.81739
인가	-7.81825
난	-7.81995
▁있다	-7.82315
▁ᄒᄒ	-7.82321
▁같은	-7.82655
인지	-7.82691
류	-7.82989
▁봤다	-7.83421
잘	-7.83766
▁봐도	-7.84164
▁소	-7.84177
▁솔직히	-7.84332
죠	-7.84368
프	-7.84453
▁시	-7.8474
▁뭔가	-7.85143
길	-7.85611
들의	-7.85741
▁때	-7.86012
판	-7.86038
▁애	-7.86367
하나	-7.86471
▁신	-7.86541
▁여자	-7.86707
▁알	-7.87023
▁재미있게	-7.87103
▁코미디	-7.87121
단	-7.87158
▁아주	-7.87363
▁최악	-7.87588
민	-7.87671
연기	-7.88101
저	-7.88316
경	-7.8854
▁구	-7.89058
▁해	-7.89191
▁이걸	-7.89489
생	-7.89769
루	-7.89973
▁모	-7.89997
되는	-7.90093
었다	-7.90272
번	-7.90788
▁제	-7.9105
▁'	-7.91393
처럼	-7.91584
합니다	-7.91608
때문에	-7.92037
재	-7.92124
으	-7.92237
▁대박	-7.92642
▁이영화	-7.92928
봤는데	-7.92997
하지만	-7.93301
▁후	-7.93362
▁전혀	-7.93364
▁재미없다	-7.9352
▁내용이	-7.93531
▁같다	-7.93539
▁장	-7.94409
했던	-7.94417
▁하지만	-7.94847
하네	-7.94991
지는	-7.95023
님	-7.95259
▁우	-7.95311
엔	-7.95847
▁최악의	-7.95946
▁대한	-7.96041
▁남	-7.96128
▁부	-7.96163
든	-7.96171
겨	-7.96173
날	-7.96383
▁모두	-7.96609
이랑	-7.9684
티	-7.97
파	-7.97168
▁사람	-7.97208
▁계속	-7.97209
▁줄	-7.97411
발	-7.97639
방	-7.97682
림	-7.97957
-	-7.97978
하면	-7.98188
▁4	-7.98232
희	-7.98359
면서	-7.98882
(	-7.98924
▁나오는	-7.9924
~~~	-7.99554
▁스	-7.99565
없다	-7.99565
▁반	-8.0008
▁아니라	-8.00095
며	-8.00099
▁많은	-8.00175
▁그래도	-8.00314
시간	-8.00911
피	-8.01086
▁굿	-8.01832
까	-8.02015
▁보기	-8.02076
▁어떻게	-8.02144
▁한번	-8.0217
따	-8.02715
▁아닌	-8.02735
터	-8.03185
▁실망	-8.03273
점도	-8.03334
박	-8.03411
o	-8.03594
▁내내	-8.03708
이라	-8.03776
▁않고	-8.03799
▁공포	-8.0381
▁딱	-8.04205
▁7	-8.04483
▁배우들	-8.05098
▁강	-8.05559
▁끝	-8.05595
관	-8.0583
▁장면	-8.05835
10	-8.05854
들은	-8.06152
▁연기가	-8.06173
!!!!	-8.06176
국	-8.062
차	-8.06641
즈	-8.06857
▁만드는	-8.0714
▁우리	-8.07178
▁5	-8.07239
▁아름다운	-8.07428
ᄒᄒ	-8.07597
▁아니다	-8.0772
▁이제	-8.0778
▁추천	-8.07795
▁되	-8.07866
구나	-8.08233
4	-8.08364
없이	-8.08751
▁인생	-8.09169
▁만들어	-8.09233
애	-8.09496
▁8	-8.09525
키	-8.09568
다니	-8.09589
▁박	-8.09614
카	-8.09818
▁모든	-8.09916
점이	-8.10003
▁조금	-8.10213
e	-8.10392
▁듯	-8.10659
▁남자	-8.11263
▁스릴러	-8.11378
▁제일	-8.11575
♥	-8.11793
버	-8.11809
▁보다	-8.11884
▁기억	-8.12018
▁0	-8.12124
▁개봉	-8.12381
▁연기도	-8.12418
겠다	-8.12496
볼	-8.12694
형	-8.12781
▁보다가	-8.12843
▁전개	-8.12884
현	-8.13027
▁9	-8.1315
반	-8.13209
달	-8.13392
짱	-8.13492
▁그런	-8.13498
▁내용도	-8.13598
▁요즘	-8.1366
못	-8.13987
5	-8.14494
지도	-8.14911
▁싶다	-8.15045
져	-8.15069
실	-8.15501
코	-8.15704
▁남는	-8.15744
다가	-8.16033
ᄒ	-8.16094
▁바	-8.16133
▁않는	-8.1651
t	-8.16617
보면	-8.16761
ᅳ	-8.17091
▁건	-8.17356
년대	-8.17475
▁피	-8.17623
▁근데	-8.17744
하네요	-8.1783
▁시간이	-8.18028
▁이해	-8.1825
▁않은	-8.18261
적으로	-8.18262
망	-8.18266
▁음악	-8.18282
▁노	-8.18283
▁불	-8.18698
▁아까운	-8.18949
▁애니	-8.19151
▁속	-8.19203
한테	-8.19304
되	-8.1969
▁주인공	-8.19742
▁이상	-8.19795
▁감독이	-8.19873
▁있	-8.19875
▁수준	-8.19923
▁욕	-8.19933
보는	-8.19981
공	-8.19998
▁나는	-8.20034
▁반전	-8.201
▁재미도	-8.20336
생각	-8.20501
▁여운이	-8.20519
▁아직도	-8.20881
니까	-8.21043
▁엄청	-8.21282
▁재밌어요	-8.21485
▁절대	-8.21489
▁OO	-8.21793
문	-8.21827
왜	-8.2195
▁나름	-8.22318
▁눈	-8.22681
▁영화라고	-8.22715
이란	-8.22798
▁재밌	-8.23357
체	-8.23748
테	-8.23865
i	-8.23937
이라는	-8.24152
▁좋고	-8.24191
▁스토리가	-8.24196
▁때문에	-8.24215
인듯	-8.24296
▁배	-8.24538
;;;	-8.24787
▁날	-8.25127
▁막장	-8.25312
토	-8.25778
산	-8.25915
▁울	-8.25978
어서	-8.26158
▁재	-8.26557
후	-8.26566
d	-8.2679
???	-8.26952
▁걸	-8.26965
▁오랜만에	-8.26966
회	-8.26983
배	-8.27283
정도	-8.27422
이고	-8.27522
▁영화입니다	-8.27908
▁ᄏᄏᄏᄏ	-8.28001
▁되는	-8.28033
▁공포영화	-8.28243
했는데	-8.28396
죽	-8.28539
▁원	-8.28637
였다	-8.28683
참	-8.28759
▁진심	-8.28866
해요	-8.28936
뿐	-8.28994
▁현실	-8.29057
▁제대로	-8.29083
▁하고	-8.29093
▁진	-8.29215
태	-8.29532
▁아니고	-8.29735
▁뻔한	-8.29759
매	-8.2978
▁차라리	-8.30089
알	-8.3034
▁봤습니다	-8.30379
▁걍	-8.3045
7	-8.30482
먹	-8.30634
속	-8.30665
▁좋았다	-8.30665
넘	-8.31031
▁발	-8.31416
▁스토리도	-8.31421
▁지루한	-8.31431
▁봤던	-8.31492
▁도대체	-8.32207
▁결말	-8.32287
석	-8.32366
▁최고다	-8.32384
▁영	-8.32657
▁미국	-8.32735
ᄏᄏᄏᄏ	-8.32746
▁주는	-8.32768
▁연	-8.32788
▁쓰	-8.32793
극	-8.32812
▁나도	-8.32922
것도	-8.32944
감동	-8.3316
8	-8.33179
▁파	-8.33182
▁제목	-8.33208
없	-8.33222
▁영화의	-8.3324
▁지루하고	-8.33329
꺼	-8.33341
▁공감	-8.33349
▁캐릭터	-8.3336
점은	-8.33364
▁나오	-8.33419
▁^^	-8.33467
▁공	-8.33536
스토리	-8.33606
▁멋진	-8.33611
등	-8.33699
▁만들	-8.33702
금	-8.33916
예	-8.33932
▁나온	-8.33966
양	-8.34014
ᅮᅮ	-8.34036
▁ᅲ	-8.34071
▁감독의	-8.34223
▁재밌는	-8.34533
▁시리즈	-8.34617
던데	-8.34634
평점	-8.34713
배우	-8.34778
▁성	-8.34863
니다	-8.34903
▁연기력	-8.34911
▁B	-8.35031
▁가슴	-8.35059
s	-8.35382
포	-8.3551
▁상	-8.35521
~!	-8.35535
▁우리나라	-8.35586
▁정도	-8.35664
▁원작	-8.3572
▁20	-8.35772
▁여	-8.36105
▁세	-8.36234
▁눈물	-8.36253
▁초	-8.36253
절	-8.36294
▁대사	-8.36297
6	-8.36373
▁좋아하는	-8.36494
역	-8.36849
직	-8.36949
하기	-8.37003
▁보면서	-8.37076
/	-8.37171
▁없음	-8.37233
▁수작	-8.37234
격	-8.37293
더라	-8.37544
력	-8.37614
▁몇	-8.37734
사람	-8.37763
▁봤	-8.37903
▁긴장감	-8.37945
릴	-8.37966
려고	-8.38031
른	-8.38071
쳐	-8.3834
업	-8.38419
▁OOO	-8.38719
▁시나리오	-8.38726
▁싶은	-8.38756
▁지루함	-8.38794
▁심	-8.38897
▁가족	-8.39179
▁표현	-8.39486
▁재미가	-8.39801
,,,	-8.39957
봄	-8.3998
는게	-8.40334
움	-8.40394
▁않	-8.40567
구만	-8.40735
▁기억에	-8.40763
▁졸작	-8.40782
▁영상	-8.40849
법	-8.40897
▁인간	-8.40918
을까	-8.41361
능	-8.41362
된다	-8.41386
▁예	-8.41463
▁보세요	-8.4149
▁괜찮은	-8.41493
▁뭘	-8.4152
최고	-8.41891
봤다	-8.42044
는거	-8.42088
▁마지막에	-8.42122
▁기분	-8.42359
학	-8.42497
▁이해가	-8.42891
▁막	-8.42954
녀	-8.42961
▁한국영화	-8.42981
들을	-8.43027
▁베	-8.43031
▁동	-8.43067
해도	-8.43104
▁시작	-8.43161
▁뭔	-8.43197
집	-8.43206
이라고	-8.43454
▁허	-8.43718
▁배우들의	-8.43744
▁특히	-8.43906
▁6	-8.43922
통	-8.44117
잼	-8.44164
종	-8.44166
▁영화에	-8.44352
그냥	-8.44421
▁사람들	-8.44462
사랑	-8.44543
▁지루하다	-8.44663
리는	-8.44676
▁선	-8.44755
▁알바	-8.44843
▁될	-8.44847
▁후회	-8.45014
건지	-8.45075
악	-8.45482
▁보는내내	-8.45491
밖에	-8.45658
았	-8.45915
▁망	-8.46434
행	-8.4646
▁애니메이션	-8.46976
▁필요	-8.47048
▁함께	-8.47171
강	-8.473
머	-8.47328
▁그저	-8.474
▁타	-8.47735
▁맞	-8.47973
라도	-8.48004
▁강추	-8.48138
않	-8.48211
탄	-8.48231
근	-8.48379
""	-8.48443
승	-8.48448
론	-8.48498
락	-8.48547
케	-8.48838
▁노래	-8.48874
설	-8.48998
이런	-8.49023
대로	-8.49236
▁봤어요	-8.49257
▁사실	-8.49268
감독	-8.49334
장면	-8.49546
교	-8.49764
난다	-8.49852
봐도	-8.49989
불	-8.49996
▁머	-8.5002
▁극장에서	-8.5018
▁호	-8.50247
만큼	-8.50295
중에	-8.50672
▁오늘	-8.50739
a	-8.5075
돈	-8.50754
주는	-8.50775
었는데	-8.50816
▁소재	-8.50997
▁없	-8.51064
▁된	-8.51143
창	-8.51238
▁행복	-8.51327
▁매	-8.51367
g	-8.51566
재밌	-8.516
▁차	-8.52154
▁좋아요	-8.52264
▁재밌음	-8.52287
너	-8.52537
천	-8.52881
스트	-8.52991
있다	-8.53287
투	-8.53427
있	-8.53682
▁개인적으로	-8.53689
▁코믹	-8.53705
▁재밋	-8.53875
▁큰	-8.53878
▁만화	-8.53922
글	-8.53963
슨	-8.53964
점대	-8.54253
▁못한	-8.54485
▁최	-8.54523
▁결국	-8.54676
작품	-8.54948
▁캐스팅	-8.54989
▁영화로	-8.55038
이야	-8.55282
▁억지	-8.55476
▁잼	-8.55512
▁졸	-8.55549
했	-8.55909
▁들	-8.55965
빠	-8.56365
▁더빙	-8.56641
하면서	-8.5678
▁몰입도	-8.56781
▁보게	-8.5692
▁어떤	-8.56956
ᅮ	-8.57093
▁제발	-8.5719
▁봐야	-8.57245
돌	-8.5729
짐	-8.57298
이네	-8.5747
었	-8.57588
계	-8.57627
▁모르겠다	-8.57807
잡	-8.57864
재미	-8.57915
김	-8.57958
▁살	-8.58013
▁웃	-8.58039
열	-8.58281
했음	-8.58399
별	-8.58571
▁없이	-8.58712
쓰레기	-8.58979
▁ᄒ	-8.59322
좋	-8.59337
▁감동이	-8.59529
▁존나	-8.59606
이상	-8.59622
▁생각이	-8.59662
는지	-8.6006
버린	-8.60146
봤	-8.60164
▁매우	-8.60181
평	-8.60205
보단	-8.60227
초	-8.60332
기도	-8.60644
▁아이	-8.60743
▁극	-8.60842
아니	-8.60849
▁아무리	-8.61048
▁안되는	-8.61154
▁연기는	-8.61199
이네요	-8.61279
뭐	-8.61279
▁별점	-8.61352
봐	-8.61417
▁인	-8.61465
인줄	-8.61468
베	-8.61561
▁치	-8.61769
▁분위기	-8.61854
었던	-8.62178
점을	-8.62221
▁죽	-8.62554
▁총	-8.62589
▁ᅮᅮ	-8.62691
액션	-8.62714
맨	-8.62787
담	-8.62876
▁예술	-8.63641
끼	-8.63679
▁마음이	-8.63816
기는	-8.63892
았다	-8.63982
군요	-8.64098
▁똥	-8.64497
영화는	-8.64501
▁유치	-8.64592
▁걸작	-8.64651
▁눈물이	-8.64658
▁준	-8.64806
증	-8.65073
입	-8.65195
▁잠	-8.65405
이지만	-8.65596
▁않는다	-8.6576
슬	-8.66139
씬	-8.66389
▁얼마나	-8.66443
름	-8.66756
싶	-8.66976
+	-8.67022
▁길	-8.67074
▁문제	-8.67126
▁보지	-8.67152
▁사람이	-8.6717
병	-8.67226
▁존	-8.67231
뻔	-8.67281
갈	-8.6729
▁미친	-8.67314
브	-8.6743
▁기억이	-8.67473
▁그만	-8.67691
▁영화네요	-8.67693
치는	-8.67744
▁재밌고	-8.67802
▁한다	-8.67898
▁너무나	-8.67937
▁하나도	-8.67961
환	-8.6807
▁마음	-8.68166
▁영화중	-8.68417
▁않다	-8.68713
▁높	-8.68733
▁당	-8.68897
쓰	-8.68913
▁같이	-8.68957
▁위한	-8.69193
▁"	-8.69329
▁가슴이	-8.69391
▁따라	-8.69431
하며	-8.69516
▁재미없음	-8.69713
▁그렇게	-8.69719
▁물	-8.69723
▁있고	-8.69756
▁적	-8.69796
나는	-8.69959
수가	-8.70061
이었다	-8.70107
에도	-8.70143
▁출연	-8.70173
났	-8.70458
약	-8.70471
▁지루	-8.70551
언	-8.70588
▁결말이	-8.70604
>	-8.70651
▁느낌이	-8.70652
▁매력	-8.70734
▁입	-8.70748
완전	-8.7083
▁꽤	-8.70873
▁토	-8.70934
께	-8.71034
▁내용은	-8.71051
온	-8.7107
▁것이	-8.71089
▁재미있다	-8.71108
블	-8.71284
▁로맨스	-8.71413
▁웃기	-8.71631
▁없어	-8.71815
▁애들	-8.71816
▁정신	-8.72185
▁훨씬	-8.72353
▁쓰레기영화	-8.72406
느낌	-8.7243
플	-8.72504
칠	-8.72513
▁단	-8.7254
새	-8.72574
▁-	-8.72608
▁엔딩	-8.72661
▁누가	-8.7267
▁잔잔한	-8.72768
기에	-8.7282
권	-8.72904
▁어설픈	-8.72939
▁없었다	-8.7305
▁음	-8.73056
라면	-8.73132
▁외	-8.73199
▁갈수록	-8.73204
▁실	-8.73276
될	-8.73469
▁대체	-8.73542
▁허접	-8.73639
▁백	-8.73804
▁알고	-8.73877
▁카	-8.73982
▁노잼	-8.7422
▁평	-8.74265
▁감동적인	-8.74335
었음	-8.74523
색	-8.74568
▁그나마	-8.74594
▁웃음	-8.74646
▁감	-8.74914
막	-8.75165
내용	-8.75369
거야	-8.75383
만들	-8.75448
▁있을	-8.75625
l	-8.75698
건가	-8.75707
향	-8.75893
▁간만에	-8.76226
▁성룡	-8.76335
▁좋	-8.76337
왕	-8.76347
짓	-8.76348
친	-8.76593
잇	-8.76682
▁잡	-8.76972
해야	-8.77157
▁화	-8.77238
▁다큐	-8.77242
▁명	-8.77331
▁있었	-8.77338
▁경	-8.77466
▁주연	-8.77499
▁발연기	-8.77695
▁재미있는	-8.77695
▁영화관에서	-8.77784
▁생각보다	-8.78043
올	-8.78232
나요	-8.78334
9	-8.78402
▁아쉽다	-8.78422
소리	-8.78474
거지	-8.78521
보니	-8.78548
▁밖에	-8.78618
백	-8.78626
이지	-8.78636
짜	-8.78638
▁너	-8.78889
라서	-8.78976
▁꿈	-8.7899
▁감동도	-8.79047
▁재미없	-8.79194
▁위	-8.79443
기를	-8.79669
▁올	-8.79769
▁중국	-8.79819
▁시즌	-8.79862
▁뭐야	-8.80038
▁구성	-8.80141
훈	-8.80256
▁야	-8.80342
같	-8.80375
다고	-8.80417
순	-8.80682
수준	-8.80775
땜에	-8.80802
편이	-8.80855
▁볼만한	-8.80868
어야	-8.8089
나오는	-8.80949
이거	-8.80954
길래	-8.80965
▁전쟁	-8.8148
▁설정	-8.81501
▁이딴	-8.81567
▁들어	-8.81599
결	-8.81603
존	-8.81667
이건	-8.8172
▁의미	-8.81997
표	-8.82016
▁그래서	-8.82199
0	-8.82321
년이	-8.82362
였	-8.82422
외	-8.82446
하는데	-8.82498
▁위해	-8.82539
됨	-8.82585
찍	-8.8264
▁추	-8.82645
줘	-8.82691
▁많	-8.82728
▁간	-8.8277
▁약	-8.82793
▁안되	-8.82801
▁보여주는	-8.8284
여자	-8.8287
▁스릴	-8.8287
▁""	-8.82915
▁열	-8.82995
▁변	-8.83093
졌	-8.83255
침	-8.83416
듯한	-8.83574
▁따	-8.83666
었어요	-8.83711
치고	-8.83817
▁오래	-8.83892
광	-8.84022
▁점수	-8.84044
▁맘에	-8.84191
▁재밌네요	-8.84231
메	-8.84357
받	-8.84487
레이	-8.84569
했지만	-8.84651
▁재미는	-8.84677
▁당시	-8.84709
▁같	-8.84797
~!!	-8.85
y	-8.853
????	-8.85322
▁아무	-8.85375
▁약간	-8.85381
▁봐	-8.85487
월	-8.85538
주의	-8.85839
▁모습	-8.85893
추	-8.86022
▁장난	-8.86041
느	-8.86277
욕	-8.86317
재미있	-8.86428
▁관객	-8.86438
▁연기를	-8.86497
▁재미없는	-8.86616
▁같아요	-8.86663
▁번	-8.86691
▁싶	-8.86806
▁재미있	-8.86806
린다	-8.86813
▁작가	-8.86944
▁좋은데	-8.86954
맞	-8.8714
▁힘들	-8.87161
▁영화였다	-8.87176
엇	-8.87222
▁다음	-8.87296
▁뿐	-8.87363
숙	-8.87573
합	-8.87628
▁살아	-8.87638
▁진정한	-8.87832
▁나왔	-8.87891
▁첨	-8.87901
▁영상미	-8.87937
▁잼있	-8.88103
출	-8.88215
놈	-8.88218
진다	-8.88606
좋아	-8.88773
할수	-8.88804
D	-8.88951
채	-8.88979
▁CG	-8.8912
커	-8.8935
▁자체	-8.89363
▁힘	-8.89424
▁30	-8.89449
▁만들었	-8.89494
▁네이버	-8.89575
▁재미있어요	-8.89592
각	-8.89594
처	-8.89605
ᄋ	-8.8962
스러운	-8.89685
▁코	-8.89717
련	-8.89852
끝	-8.89917
▁언제	-8.90066
더니	-8.90133
▁어느	-8.90348
▁글	-8.90424
▁다들	-8.90439
▁전부	-8.90574
영화가	-8.90624
▁멜로	-8.90637
▁주고	-8.90679
h	-8.90739
▁아님	-8.908
독	-8.90901
▁바로	-8.91068
p	-8.91328
▁스토리는	-8.91333
▁감성	-8.91357
▁중간에	-8.91533
b	-8.91565
▁엄마	-8.91729
기만	-8.9186
적이	-8.92237
▁평가	-8.92309
있고	-8.92318
리고	-8.9232
기대	-8.92349
료	-8.92503
퍼	-8.92598
▁갈	-8.92666
이야기	-8.92929
▁꿀잼	-8.92963
▁ᅳ	-8.93007
~~~~	-8.93031
해라	-8.93162
▁얘기	-8.93248
"	-8.93249
▁준다	-8.93537
▁천	-8.93607
▁생각하게	-8.93632
k	-8.93674
척	-8.93809
▁버	-8.93871
세요	-8.9393
▁뭐냐	-8.94109
편은	-8.94215
겠지	-8.94234
슴	-8.94311
▁제작	-8.94413
혀	-8.94432
▁뭐지	-8.94456
▁높은	-8.94469
▁여주인공	-8.94499
나오	-8.94519
u	-8.9452
없고	-8.94533
♡	-8.94599
r	-8.94759
▁상당히	-8.9487
▁초딩	-8.94946
록	-8.94986
빈	-8.9512
▁판타지	-8.9513
▁감동을	-8.95177
▁게	-8.95188
▁손	-8.95317
▁찾아	-8.95364
잖아	-8.95585
겠	-8.95655
없음	-8.95657
▁생각을	-8.95674
놓고	-8.95689
▁배우들이	-8.95718
▁악	-8.95872
▁얼굴	-8.95934
그리고	-8.95947
아서	-8.96056
▁줄거리	-8.9617
▁아이들	-8.96402
▁나와서	-8.96443
영화를	-8.96463
▁영화임	-8.96488
▁산	-8.96509
습	-8.96587
혜	-8.96632
▁비교	-8.96649
▁볼만	-8.96714
▁있을까	-8.96827
▁종	-8.96858
▁나올	-8.96954
▁몰입	-8.97148
눈	-8.97225
였음	-8.97265
▁존재	-8.97277
▁딸	-8.97327
▁봤지만	-8.97431
또	-8.97463
▁이영화를	-8.97527
▁여기	-8.97579
▁메	-8.97608
▁낮은	-8.97662
▁그러	-8.97696
션	-8.97808
먼	-8.97817
▁이런영화	-8.97833
▁봐서	-8.97869
▁추억	-8.97968
다는	-8.97972
이라도	-8.98282
▁깨	-8.98295
▁각본	-8.98475
▁포스터	-8.98534
▁편	-8.98589
으나	-8.98686
f	-8.98733
탈	-8.98845
라니	-8.98928
▁혼자	-8.99034
▁영화인데	-8.99098
할때	-8.9925
▁비디오	-8.99381
햇	-8.99443
▁봤음	-8.99477
▁않았	-8.99585
웃	-8.99599
들어	-8.99713
덕	-8.99776
▁마음에	-8.99818
-_-	-8.9986
▁충격	-8.999
▁그대로	-8.99932
범	-9.00008
▁된다	-9.0002
▁데	-9.00086
찬	-9.00111
▁거의	-9.0024
복	-9.00414
▁대해	-9.00471
_	-9.00643
▁비해	-9.00786
럽	-9.00813
m	-9.00853
▁친구	-9.00854
▁좋은영화	-9.0101
▁좋네요	-9.01261
청	-9.01287
해지는	-9.01348
튼	-9.01426
▁옛날	-9.01479
▁질	-9.0149
▁어디	-9.0154
▁끝나	-9.01542
▁감정	-9.01575
▁소리	-9.01635
▁어디서	-9.01689
별로	-9.01787
▁너무너무	-9.01915
▁그리	-9.01959
낸	-9.02021
▁것을	-9.0219
봐서	-9.02293
▁상황	-9.02431
▁분	-9.02467
▁대단한	-9.02482
▁포	-9.02543
최악	-9.02648
했어요	-9.0265
대박	-9.0266
▁목소리	-9.02683
▁먹	-9.02687
▁저런	-9.0273
▁어릴때	-9.02859
만한	-9.0294
▁90	-9.02985
▁아직	-9.03117
▁만	-9.03185
▁부족	-9.0319
▁TV	-9.03191
▁영화도	-9.03438
귀	-9.03507
▁절	-9.03549
▁몸	-9.03729
▁다시봐도	-9.03763
▁놀	-9.03854
▁훌륭한	-9.03857
▁만점	-9.0388
▁봐라	-9.03881
년전	-9.03997
▁굉장히	-9.04009
▁짜증	-9.0408
▁터	-9.04123
에는	-9.04125
OO	-9.04186
모르	-9.042
▁궁금	-9.04368
▁같은데	-9.0437
▁평점을	-9.04408
▁크	-9.04413
▁나이	-9.04477
한거	-9.04498
▁사람들이	-9.04648
▁헐	-9.04738
▁패	-9.04904
▁아까움	-9.05166
▁자기	-9.05191
▁b	-9.05208
시대	-9.0534
보기	-9.05447
써	-9.05602
링	-9.0594
▁ᄍᄍ	-9.06039
▁생	-9.06087
▁이름	-9.0609
을때	-9.0619
것이	-9.06238
▁감독님	-9.06252
간다	-9.06271
▁극장판	-9.063
▁뭐가	-9.06302
▁머리	-9.06306
▁요	-9.06337
▁말도	-9.06356
▁작	-9.06418
▁장르	-9.06428
잔	-9.0646
▁팬	-9.06469
▁감동적이	-9.06542
▁봄	-9.06665
겠지만	-9.06681
다시	-9.0673
남자	-9.06735
재밋	-9.06829
▁맛	-9.06972
▁돌아	-9.07086
술	-9.07106
▁사회	-9.07131
씩	-9.07244
:	-9.07251
▁했는데	-9.07343
▁대단	-9.07365
지루	-9.07373
▁집중	-9.07754
▁따뜻한	-9.0785
는건	-9.07863
▁담	-9.07931
▁주제	-9.07935
목	-9.07959
▁재밌는데	-9.08018
구요	-9.08078
▁처음부터	-9.08095
▁낫다	-9.08224
▁원작을	-9.08238
팬	-9.08349
같이	-9.08503
땐	-9.08527
▁흥행	-9.08584
스럽다	-9.08609
분들	-9.08677
▁없네	-9.08765
▁배경	-9.08981
▁역사	-9.09006
▁첫	-9.0916
에선	-9.09294
굿	-9.09358
▁제가	-9.09423
고싶다	-9.09483
건데	-9.09484
▁보니	-9.09543
ᄂ	-9.0958
▁슬픈	-9.09682
이라면	-9.09686
^	-9.09693
▁더럽게	-9.09853
▁있지만	-9.09897
▁항상	-9.09923
▁했다	-9.09948
▁빨리	-9.1002
하시	-9.10052
정도로	-9.10081
▁여배우	-9.10118
▁숨	-9.10162
쯤	-9.10227
▁화면	-9.10229
▁새로운	-9.10281
조차	-9.10316
▁그닥	-9.10391
이라니	-9.10402
곡	-9.10421
▁누구	-9.10481
▁순	-9.10518
▁아버지	-9.10519
였는데	-9.10668
▁삼류	-9.10774
▁재밌었다	-9.10811
▁이것도	-9.10955
▁안된다	-9.10995
거냐	-9.11012
▁생각해	-9.11104
▁현	-9.11126
했으면	-9.11228
▁장면이	-9.11267
만든	-9.11276
셨	-9.11307
▁영화라	-9.11315
겟	-9.11351
▁연출력	-9.11394
▁지루해	-9.1142
듬	-9.11465
일까	-9.11552
▁것도	-9.116
다면	-9.11611
좋은	-9.11615
▁하다	-9.11624
근데	-9.11646
▁그런지	-9.11754
품	-9.11768
▁예상	-9.11892
들도	-9.1193
▁있어	-9.11934
거리	-9.11959
▁빠져	-9.12072
같다	-9.12078
▁정도로	-9.12233
허	-9.12344
▁하지	-9.12379
억	-9.12465
마지막	-9.12546
▁두번	-9.12555
ᄉ	-9.12637
▁가는	-9.12656
츠	-9.12666
명작	-9.12914
졌다	-9.12978
기가	-9.13081
▁앞	-9.13083
▁돌	-9.13162
▁잘못	-9.13236
▁흥미진진	-9.13246
▁초반	-9.13262
▁윤	-9.13284
▁100	-9.13315
▁통	-9.13365
▁없을	-9.13383
지금	-9.13405
▁레	-9.13458
필	-9.13512
▁새	-9.13549
▁좋겠다	-9.13608
▁어린	-9.13609
▁세계	-9.137
듣	-9.13758
▁몰	-9.13816
삼	-9.13954
▁왕	-9.13975
▁계	-9.14056
▁충분히	-9.14089
한영화	-9.14103
▁한마디로	-9.1421
▁흠	-9.14291
립	-9.14376
껏	-9.14421
시리즈	-9.14526
▁양	-9.14563
여서	-9.14576
▁그러나	-9.1461
▁(	-9.1482
▁병맛	-9.14836
처음	-9.14875
▁실화	-9.15002
엉	-9.15126
................	-9.1517
▁엄청난	-9.15234
들에게	-9.15313
했습니다	-9.15317
▁낮	-9.15335
c	-9.15475
그런	-9.15496
▁삼	-9.15537
▁교훈	-9.15577
▁좋았어요	-9.15692
렸다	-9.16073
▁나의	-9.16074
▁짜	-9.16075
거다	-9.16093
▁있어서	-9.16109
▁휴	-9.16131
▁암	-9.16233
내가	-9.16378
▁좋음	-9.16462
▁성우	-9.16468
▁의도	-9.16612
▁뒤	-9.16651
한데	-9.16665
영화중	-9.16675
징	-9.16903
스럽	-9.16917
본다	-9.16956
▁예전에	-9.17016
▁점점	-9.17141
염	-9.17293
전개	-9.17373
효	-9.17387
▁재미없어	-9.17424
▁이번	-9.17507
곳	-9.17545
배우들	-9.176
▁만족	-9.17634
부분	-9.17679
괴	-9.17729
▁웃긴	-9.17789
▁달	-9.1779
주세요	-9.18101
▁유치한	-9.18203
실망	-9.18205
이에요	-9.18338
▁뻔	-9.18405
것같다	-9.1845
▁돈주고	-9.1851
▁바라	-9.18519
▁이영화는	-9.18526
▁없어서	-9.18634
에요	-9.18785
▁으	-9.18803
▁나와	-9.18824
윤	-9.18845
▁완벽한	-9.18911
▁대작	-9.18922
사람들	-9.18962
야지	-9.19045
하냐	-9.19082
센	-9.19132
나라	-9.19189
▁못하는	-9.19293
봐라	-9.19312
답	-9.1969
을듯	-9.19704
▁바보	-9.19716
나서	-9.19828
묘	-9.19838
리가	-9.19953
보다는	-9.20026
▁있었다	-9.20126
념	-9.2024
철	-9.20398
하여	-9.2042
▁집	-9.20478
▁알게	-9.20522
▁힘든	-9.2055
렌	-9.20627
만으로도	-9.20636
것을	-9.20665
▁되어	-9.20733
▁시절	-9.20896
시키	-9.20905
▁쳐	-9.20967
▁갑자기	-9.21073
▁영화보다	-9.21102
싸	-9.21142
년에	-9.21148
▁어렸을때	-9.21169
▁그래픽	-9.2126
▁자체가	-9.21309
이냐	-9.21343
흑	-9.21363
곤	-9.21374
규	-9.21383
▁나온다	-9.21427
▁봤네요	-9.21534
혹	-9.21591
이게	-9.21639
예요	-9.21642
▁저는	-9.2171
▁M	-9.21724
웃음	-9.21735
▁망작	-9.21741
잉	-9.21763
▁아쉬운	-9.21764
년도	-9.21816
틀	-9.21825
뜨	-9.21906
적이고	-9.22059
많	-9.22088
▁유머	-9.22242
▁사람은	-9.22251
▁이정도	-9.22404
▁지금까지	-9.22586
아깝다	-9.22629
▁찍	-9.22633
변	-9.22679
▁재미있고	-9.22703
▁일본영화	-9.22731
▁tv	-9.22843
▁재밌어	-9.22852
킹	-9.22913
▁시대	-9.22955
▁진실	-9.22998
▁선택	-9.23026
였던	-9.2305
▁여주	-9.23167
▁귀	-9.23199
▁무서운	-9.232
▁믿	-9.23221
▁써	-9.23266
▁무조건	-9.23299
▁예고편	-9.23336
▁설	-9.23338
--	-9.2336
▁극장	-9.23385
런	-9.23403
재미없	-9.23464
▁볼수	-9.23491
▁평점에	-9.23561
▁자꾸	-9.23636
▁모르고	-9.23656
▁도저히	-9.23687
▁저질	-9.23746
▁역	-9.23761
▁만드	-9.23857
함이	-9.23866
▁알았	-9.24004
▁불륜	-9.24087
쉬	-9.24173
한번	-9.24199
▁안보	-9.24311
추천	-9.2434
▁믿고	-9.24362
놈들	-9.24484
▁관	-9.24492
▁지루하	-9.24539
▁더욱	-9.24546
▁반전이	-9.24553
▁아쉽	-9.24624
▁보여주	-9.2473
얼	-9.2476
▁보는데	-9.2479
많이	-9.24859
▁만들지	-9.25057
도록	-9.25123
겁	-9.25141
▁알았다	-9.25157
맛	-9.25168
노잼	-9.25222
▁허무	-9.25316
▁찾	-9.25319
재밌게	-9.25332
▁디	-9.25364
하니	-9.25414
▁코메디	-9.25417
연출	-9.25471
속에	-9.25509
갑	-9.2554
음악	-9.2555
▁문	-9.25754
▁감독은	-9.25767
좋다	-9.25791
걸까	-9.25908
*	-9.2594
앗	-9.26007
▁책	-9.26015
▁리메이크	-9.26044
▁전형적인	-9.2607
▁80	-9.26145
네여	-9.26153
▁스타일	-9.26199
주인공	-9.26237
▁나쁜	-9.26238
▁그때	-9.26292
꼭	-9.26442
▁괜히	-9.26444
▁해도	-9.26488
▁천재	-9.26496
▁등	-9.26549
밀	-9.26775
▁개연성	-9.26822
반전	-9.26831
킬	-9.26839
▁우연히	-9.26864
▁주인공이	-9.26904
▁ᄒᄒᄒ	-9.2694
으니	-9.26953
▁재미없고	-9.27084
▁속편	-9.27181
▁댓글	-9.27574
풍	-9.27627
보다가	-9.27631
휴	-9.2764
x	-9.27647
▁이상한	-9.27669
▁투	-9.27735
완	-9.27807
▁했	-9.27826
▁사랑을	-9.27891
쩌	-9.27923
▁좀비	-9.28021
역시	-9.28053
▁SF	-9.28055
꼬	-9.281
견	-9.2811
▁액션영화	-9.28199
▁없었	-9.28213
자들	-9.28285
▁순간	-9.28289
▁프랑스	-9.28337
▁싸	-9.28561
아이	-9.2857
▁돈이	-9.2858
▁원래	-9.28584
▁별루	-9.28602
끔	-9.28834
패	-9.28888
▁화이팅	-9.28934
점준다	-9.28951
▁작품성	-9.28953
▁느	-9.28995
▁이런거	-9.29051
▁일단	-9.29073
성이	-9.29097
▁아까워	-9.29171
▁전작	-9.29196
오는	-9.29261
육	-9.29268
▁없네요	-9.29344
▁태	-9.29384
~^^	-9.29421
보는데	-9.29551
싱	-9.29688
힌	-9.29688
▁느끼	-9.29751
인거	-9.2986
▁부족한	-9.29877
였습니다	-9.29881
▁감상	-9.29919
하던	-9.29939
▁소설	-9.3001
축	-9.30083
▁액션도	-9.30097
졸	-9.30164
▁가지고	-9.30185
▁재밌었어요	-9.30187
▁대단하다	-9.30229
▁우울	-9.30293
▁참고	-9.30293
▁여운	-9.30325
▁아닌가	-9.30396
페	-9.3041
▁괜찮	-9.30472
▁신기	-9.30518
▁기대하고	-9.30537
▁골	-9.30557
도없고	-9.30602
▁먹먹	-9.30622
벌	-9.3064
▁노력	-9.3079
▁해서	-9.30795
▁대한민국	-9.30805
▁청춘	-9.3094
▁킬링타임용	-9.30941
▁티	-9.30941
되고	-9.30994
▁상상	-9.31009
함을	-9.3115
▁개그	-9.31166
▁귀신	-9.31263
▁아이들이	-9.31349
놓	-9.31366
딱	-9.31523
줬	-9.31554
타임	-9.31561
점짜리	-9.31619
▁느끼게	-9.31643
n	-9.31669
▁유치하고	-9.31758
E	-9.31772
놀	-9.31951
▁왜이리	-9.31994
▁알아	-9.32076
▁세상	-9.32094
▁아무것도	-9.32234
▁끝내	-9.32242
▁완성도	-9.32368
ᅲᅲᅲ	-9.32425
▁죽음	-9.32473
▁느낄	-9.32478
▁후반부	-9.32544
▁평점은	-9.32602
▁모르는	-9.32707
▁있는데	-9.32908
▁마무리	-9.32943
왔	-9.32991
▁안나오	-9.33126
시절	-9.33214
▁있음	-9.3336
▁나만	-9.33468
스타	-9.33539
익	-9.33669
났다	-9.33701
▁금	-9.33731
옥	-9.33743
▁영화였습니다	-9.33796
▁졸라	-9.33858
▁미화	-9.33875
@	-9.339
봣	-9.3409
냥	-9.34095
▁이런걸	-9.34097
려서	-9.34114
▁것은	-9.34267
▁명작이다	-9.34276
▁전개가	-9.34321
▁연출이	-9.3436
▁언	-9.34421
어도	-9.34567
그래도	-9.34629
됐	-9.3467
▁ost	-9.34766
봐야	-9.34794
▁매력적인	-9.34812
▁됐	-9.34875
십	-9.34984
▁지루하지	-9.34986
▁성장	-9.34998
▁만나	-9.35246
▁않을	-9.35252
;;;;	-9.35318
▁까	-9.3535
▁아오	-9.35412
▁짜증나	-9.35472
▁그것	-9.35477
하긴	-9.35507
▁억지로	-9.3551
▁이리	-9.35555
▁이유	-9.35626
▁귀여운	-9.3565
애니	-9.35651
거나	-9.35696
▁리	-9.35711
▁화려한	-9.35719
▁최악이다	-9.35722
최	-9.35791
하자	-9.35857
▁잘만든	-9.35882
취	-9.36027
▁티비	-9.36055
▁로맨틱	-9.36065
랄	-9.36182
▁둘	-9.36233
▁그랬	-9.36248
랬	-9.36308
▁엉성	-9.36459
을텐데	-9.36481
▁흐	-9.36509
벨	-9.36514
▁좋았습니다	-9.36575
▁그래	-9.36576
영화다	-9.36615
드는	-9.36636
▁알았는데	-9.36648
▁지금도	-9.36657
▁처음으로	-9.36697
것이다	-9.36868
하는거	-9.36916
▁삶	-9.3692
▁리얼	-9.36976
▁독	-9.36999
▁설명	-9.37127
낮	-9.37162
▁가치	-9.37176
▁사람들은	-9.37244
▁끌	-9.37259
▁좋았음	-9.37293
▁상영	-9.37414
최고의	-9.37468
는걸	-9.37469
하세요	-9.37546
▁유쾌한	-9.37619
▁자연	-9.37645
▁아들	-9.37698
▁온	-9.3775
▁이쁘	-9.37789
릭	-9.3784
들과	-9.37871
▁작품이	-9.37877
▁편집	-9.37901
▁인간의	-9.37961
▁시간낭비	-9.38061
▁진부한	-9.3811
황	-9.38196
코미디	-9.38269
강추	-9.38319
▁목	-9.38342
▁내인생	-9.3838
▁맥	-9.38394
▁상상력	-9.38427
▁슬	-9.38442
▁허접한	-9.38455
했고	-9.38459
▁교	-9.3846
ᅲᅲᅲᅲ	-9.38556
▁처	-9.38572
▁왠지	-9.3859
됬	-9.38651
T	-9.38716
앙	-9.38719
결말	-9.38721
웠	-9.38727
널	-9.3874
애들	-9.38811
말이	-9.38815
감이	-9.38891
▁수준이	-9.38907
안되	-9.38941
리스	-9.39011
▁흥미	-9.39078
▁불편	-9.39094
짝	-9.39121
▁-_-	-9.39149
▁그게	-9.39242
▁아빠	-9.39271
▁중에	-9.39273
▁ᄏᄏᄏᄏᄏ	-9.39289
꾸	-9.39319
▁괴	-9.3932
,,,,	-9.39327
마저	-9.39373
셔	-9.3949
▁이후	-9.3957
▁질질	-9.39596
로서	-9.39618
▁느껴	-9.39631
▁밑에	-9.3968
▁방송	-9.39785
▁이야기를	-9.39789
가서	-9.39828
▁수가	-9.39912
닥	-9.39927
시켜	-9.40264
▁쓴	-9.40302
로운	-9.40325
▁이런게	-9.40336
▁비슷한	-9.40363
전에	-9.40364
는것	-9.40373
▁복수	-9.40393
▁완벽	-9.40402
멋	-9.40405
▁깊은	-9.40569
▁겁나	-9.4059
▁영웅	-9.40594
▁어이없	-9.40678
▁왜이렇게	-9.40723
였어요	-9.4073
▁이미	-9.40748
▁영화중에	-9.40753
봉	-9.40756
▁배우가	-9.40792
인이	-9.40887
▁훨	-9.4094
▁저도	-9.40945
춘	-9.41015
▁만들었다	-9.41022
▁지금봐도	-9.4116
▁니	-9.41168
▁보고나서	-9.41175
▁형	-9.41195
▁방	-9.41251
ᄀ	-9.41366
령	-9.41446
벽	-9.41477
&	-9.41492
되어	-9.41591
다운	-9.4169
픈	-9.41773
▁아름답다	-9.41809
알바	-9.41839
▁잘봤습니다	-9.41916
▁게임	-9.41927
가지	-9.42021
지않는	-9.42101
뒤	-9.42105
▁여성	-9.42117
▁과거	-9.4215
▁결혼	-9.42152
▁합니다	-9.42182
▁뭔지	-9.42271
동안	-9.42323
▁소재는	-9.42477
▁바람	-9.42524
봤음	-9.42551
빨	-9.42693
인간	-9.42703
엿	-9.42704
▁부분	-9.42728
▁인정	-9.42758
▁유쾌	-9.42865
▁감동적이고	-9.42897
▁명작이	-9.42962
▁드	-9.4297
풀	-9.42989
마다	-9.43048
▁신선	-9.43049
▁살인	-9.43086
▁중반	-9.43091
족	-9.4311
▁감사	-9.4313
자가	-9.43172
쾌	-9.43262
에겐	-9.43388
때마다	-9.43439
▁나에게	-9.43454
준다	-9.43462
▁전편	-9.43552
▁C	-9.43567
수록	-9.43584
가족	-9.43632
▁늘	-9.43763
▁굳	-9.4377
해주는	-9.4381
▁앞으로	-9.4385
▁잔인하	-9.43925
스런	-9.44016
w	-9.44049
▁클	-9.44104
▁이러	-9.44203
지않은	-9.44289
빵	-9.44334
▁그림	-9.44566
▁지나	-9.44587
▁자유	-9.44614
지고	-9.44686
▁창	-9.44721
롭	-9.44771
▁느껴지는	-9.44876
▁아놔	-9.44897
▁것이다	-9.44897
or	-9.44904
▁관람	-9.45042
ᄒᄒᄒ	-9.45155
▁깊이	-9.45275
▁역대	-9.45362
눈물	-9.45435
송	-9.45463
보세요	-9.45495
▁않았다	-9.45604
놓은	-9.4566
재미없다	-9.45672
▁해주는	-9.45839
갔	-9.45878
활	-9.45896
▁슬프다	-9.45912
▁멋있	-9.46033
▁촬영	-9.46047
▁평론가	-9.46144
▁노출	-9.46153
▁비슷	-9.46161
▁않음	-9.46184
웅	-9.46214
▁갑	-9.46279
▁임	-9.46328
없어	-9.46503
▁같네요	-9.46541
▁보고싶다	-9.46568
▁각	-9.467
▁보지마세요	-9.46719
▁짱짱	-9.468
▁분명	-9.46814
▁19	-9.46856
▁답	-9.46968
▁보고싶	-9.47011
책	-9.47024
있게	-9.47153
▁아니지만	-9.47164
▁인상	-9.47165
ᄃ	-9.47204
▁좋았는데	-9.47326
▁한계	-9.47535
이제	-9.4757
쇼	-9.47579
암	-9.47582
르는	-9.47625
▁똑같	-9.47664
▁웃겨	-9.47694
좌	-9.47715
▁메세지	-9.47717
쁘	-9.47729
▁말고	-9.47751
▁어찌	-9.47767
▁낭비	-9.47793
나옴	-9.47817
버리	-9.47831
▁감사합니다	-9.47861
버렸다	-9.47861
▁생각나	-9.47976
▁키	-9.48024
▁ᄉᄇ	-9.48027
욱	-9.48039
었으면	-9.48102
킨	-9.48252
▁맞는	-9.48268
작가	-9.48437
▁액션이	-9.48497
▁급	-9.48616
▁광	-9.4869
▁취향	-9.48723
▁황당	-9.48732
▁슬프	-9.48752
▁인물	-9.48788
었습니다	-9.48814
소재	-9.48839
▁동화	-9.48869
▁떠	-9.48881
만으로	-9.48896
누	-9.4895
v	-9.48977
▁특유의	-9.48986
유치	-9.49064
▁싫어	-9.4909
▁스토리에	-9.49096
팔	-9.49111
팅	-9.4914
든다	-9.49205
▁긴	-9.4923
▁먼저	-9.49242
▁그녀	-9.49359
▁소름	-9.49376
▁사랑이	-9.49379
▁아름답고	-9.49496
▁보여준	-9.49512
했어	-9.49517
▁비추	-9.49635
▁모습이	-9.49695
홍	-9.4971
▁요소	-9.49744
▁이영화가	-9.49758
아닌	-9.49762
▁입니다	-9.49782
▁확	-9.49806
▁어릴적	-9.49843
▁권	-9.49853
필요	-9.49853
▁특	-9.49858
▁성인	-9.49968
▁매력이	-9.50013
▁잼없	-9.50015
골	-9.50121
▁듯한	-9.50154
ᄅ	-9.5019
▁좋았	-9.50193
떡	-9.50214
▁글쎄	-9.50218
▁재밌습니다	-9.5043
이면	-9.50433
▁이야기가	-9.50454
려는	-9.50565
▁법	-9.50586
충	-9.50648
S	-9.50676
쪽	-9.50677
량	-9.50696
깔	-9.50717
흡	-9.50722
▁여전히	-9.50756
▁빈	-9.50768
▁넘어	-9.50828
짜리	-9.50831
재밌어요	-9.50906
▁....	-9.50921
▁ᅮ	-9.50938
떨	-9.50938
보면서	-9.51006
▁눈을	-9.51014
▁어이없는	-9.5106
거임	-9.51073
▁꼬	-9.51089
사람이	-9.51116
▁분들	-9.51154
응	-9.5117
득	-9.51189
압	-9.51225
빡	-9.51232
▁스케일	-9.51236
▁현재	-9.51293
▁저예산	-9.51326
▁진행	-9.51457
거같다	-9.51473
▁철	-9.51491
▁독특한	-9.51499
▁이젠	-9.51523
▁어색한	-9.51549
▁커	-9.51617
들아	-9.51655
▁시청률	-9.51691
▁이어	-9.51702
▁알바들	-9.5173
껄	-9.51745
▁성공	-9.51847
▁젤	-9.51861
▁신선한	-9.51887
▁너무나도	-9.51932
줌	-9.51952
▁남주	-9.51985
▁장면은	-9.51994
▁복	-9.52059
시간이	-9.52112
▁범죄	-9.52167
▁귀엽고	-9.52213
▁지난	-9.52276
▁전체적으로	-9.52279
▁하면	-9.52289
▁잼있게	-9.5231
▁등장	-9.52382
무슨	-9.52413
▁해준	-9.52451
언니	-9.52534
▁본다	-9.52566
▁재미있음	-9.52577
▁떠나	-9.52591
던가	-9.52629
겠네	-9.5273
찌	-9.52753
▁표정	-9.52779
▁친	-9.52783
한듯	-9.52787
모습	-9.52847
▁좋았고	-9.52855
▁사이	-9.52873
▁몰랐	-9.52903
▁풀어	-9.52957
▁있다는	-9.52995
되지	-9.52997
▁나라	-9.53105
▁봤었는데	-9.53138
잼있	-9.5318
마음	-9.53201
▁트	-9.53208
친구	-9.53248
폭	-9.53249
▁눈이	-9.53256
▁예쁜	-9.53307
▁빠지	-9.53317
▁OST	-9.53336
손	-9.53365
▁받아	-9.53369
▁답답	-9.53377
쿠	-9.53386
▁일상	-9.53391
▁마음을	-9.53419
▁무섭	-9.53433
람	-9.53493
%	-9.53628
▁있었던	-9.53656
▁프로	-9.53662
롱	-9.53823
일뿐	-9.53837
텐데	-9.53917
ᄍᄍ	-9.53946
▁싫다	-9.53952
▁정치	-9.54004
했을	-9.54041
면서도	-9.5406
재밌다	-9.54062
▁처음이다	-9.5407
▁애들이	-9.54099
▁싶어	-9.54106
▁ᄃᄃ	-9.54118
▁어쩌	-9.54219
내요	-9.54272
▁멋지다	-9.54282
ᄆ	-9.54349
P	-9.5435
스가	-9.54356
▁확실히	-9.54384
클	-9.54422
=	-9.5444
▁마라	-9.54475
▁재밌었는데	-9.54519
▁재밌었음	-9.5454
▁남는다	-9.54579
분이	-9.54586
▁단순	-9.54679
▁아깝	-9.54693
왔다	-9.54712
▁그렇고	-9.54746
남는	-9.54785
이렇게	-9.54807
끼리	-9.54879
▁섹시	-9.54881
성을	-9.54904
▁여자들	-9.54986
▁세상에	-9.55045
확	-9.55051
▁15	-9.5508
▁않아	-9.55169
▁한편	-9.55212
으며	-9.5527
▁추억의	-9.55401
턴	-9.55411
만화	-9.55441
오빠	-9.55451
무섭	-9.55543
▁밀	-9.5562
촌	-9.55645
▁나를	-9.55724
▁후반	-9.55741
영상	-9.55766
▁꺼	-9.55831
드리	-9.55911
▁얼	-9.5596
만들어	-9.55976
▁취	-9.55985
▁관심	-9.56016
다른	-9.56104
지마라	-9.56111
▁되었	-9.56217
▁재밌었	-9.56281
▁돋보	-9.56298
▁보는게	-9.56333
▁드는	-9.56366
▁해야	-9.56369
▁받	-9.56379
▁cg	-9.56382
몰	-9.56408
▁다소	-9.56461
렉	-9.56479
▁감탄	-9.56537
엄	-9.56566
▁당신	-9.56614
▁근	-9.56626
급영화	-9.56635
▁기분이	-9.56641
▁돌려	-9.56652
▁이것	-9.56695
내는	-9.56733
▁기대를	-9.56775
▁시원	-9.56896
▁모르겠	-9.56912
▁연기력이	-9.56959
▁떨어	-9.57011
▁빼	-9.57018
j	-9.57024
▁그럭저럭	-9.57024
땅	-9.57024
▁조폭	-9.57072
둘	-9.572
나와	-9.57208
코드	-9.57244
▁같음	-9.57254
▁호러	-9.57265
▁s	-9.57328
▁보시길	-9.57336
주고	-9.57384
▁별로다	-9.57471
▁끝나고	-9.5757
▁와닿	-9.57593
나온	-9.57595
▁실제	-9.57729
었지만	-9.57745
B	-9.57781
▁A	-9.57809
▁아저씨	-9.57844
▁루	-9.58086
닝	-9.58113
▁물론	-9.58168
▁캐릭터들	-9.58226
▁재밌네	-9.5833
▁빨	-9.58332
▁찍은	-9.58347
점주는	-9.58354
하라	-9.58369
버려	-9.58418
웠다	-9.58496
룡	-9.5861
▁이연걸	-9.58664
▁무엇보다	-9.58714
▁했지만	-9.58721
▁잊혀지지	-9.58727
▁짜증나는	-9.5878
an	-9.58781
▁아니면	-9.58785
▁재밋게	-9.58835
특히	-9.58846
▁있나	-9.58887
▁나왔으면	-9.58913
▁전달	-9.58951
▁어렸을	-9.58974
▁미래	-9.58976
짜증	-9.58982
하는게	-9.59035
▁홍	-9.59083
▁몰입감	-9.59084
▁그런가	-9.59161
▁주인공들	-9.59211
O	-9.59228
하다니	-9.59319
▁스토리와	-9.5937
▁놓	-9.59405
▁사극	-9.59414
드라	-9.5943
깨	-9.5945
▁아닌듯	-9.59459
나올	-9.59491
끝나	-9.5958
▁서로	-9.59596
일이	-9.5962
▁캐	-9.59632
▁그런데	-9.59656
20	-9.59711
▁음악이	-9.59722
▁좋을	-9.59826
흘	-9.59827
보이	-9.59874
▁독립영화	-9.59888
▁같습니다	-9.59899
▁접	-9.59912
▁여자가	-9.59928
▁이정도면	-9.59969
인것	-9.60011
▁삶을	-9.60034
C	-9.60083
▁시선	-9.60139
▁황	-9.60197
▁짧	-9.6021
▁킬링타임	-9.60261
▁대충	-9.60269
▁I	-9.60288
▁볼거리	-9.60307
▁이하	-9.60327
▁표절	-9.60354
▁경찰	-9.60361
제목	-9.60445
인의	-9.60495
▁추천합니다	-9.605
번째	-9.60515
새끼	-9.60581
영환	-9.60595
▁고전	-9.60642
것들	-9.60651
쓴	-9.60655
버리고	-9.60687
▁순수한	-9.60725
▁필요없는	-9.6074
▁회	-9.60811
........	-9.60812
▁관계	-9.60816
▁나가	-9.60827
▁오히려	-9.60892
▁짠	-9.60909
돼	-9.60943
▁아닐까	-9.60957
▁액션은	-9.60961
▁평생	-9.60984
▁부분이	-9.61076
없네	-9.61092
지마	-9.61118
한다면	-9.61121
▁티비에서	-9.61131
A	-9.61205
더군요	-9.61217
슬퍼	-9.6129
▁꼴	-9.61324
것은	-9.61332
누나	-9.61374
▁재미없네	-9.61383
▁아닌데	-9.61387
▁싫	-9.61394
▁영화관	-9.61442
▁슬픔	-9.6146
▁봐야할	-9.61683
▁청	-9.61707
▁무섭다	-9.61735
▁민	-9.61742
▁용	-9.61776
아주	-9.61964
▁카메라	-9.62086
▁보이는	-9.62152
▁참신	-9.62317
좋아요	-9.62326
▁표	-9.62338
▁몇번	-9.62349
따위	-9.62362
할듯	-9.62396
▁낫	-9.62413
북	-9.62427
▁평범한	-9.62554
▁갖	-9.62566
▁긴장	-9.62587
▁힐링	-9.62596
▁몸매	-9.62641
▁이유가	-9.62662
▁몇번을	-9.62664
▁죽는	-9.62798
▁범인	-9.62825
▁용서	-9.62885
있어	-9.62959
▁역시나	-9.62986
방송	-9.63027
▁멀	-9.63101
▁드라마가	-9.63123
000	-9.63133
▁난다	-9.63157
덤	-9.63171
▁화려	-9.63272
니깐	-9.6329
▁누	-9.633
했는지	-9.63309
▁가볍게	-9.63312
던지	-9.63333
▁끝난	-9.63396
▁설레	-9.63428
탕	-9.63431
▁홍콩	-9.63467
온다	-9.63581
수도	-9.63609
죄	-9.6361
▁살짝	-9.63775
▁가끔	-9.63782
▁보기엔	-9.63817
▁볼때마다	-9.63837
▁해주	-9.63859
▁슬프고	-9.63869
▁고민	-9.63872
▁어린이	-9.63915
년전에	-9.63988
와서	-9.64007
▁있다면	-9.6406
▁빛	-9.64101
▁재미있네요	-9.64112
..........	-9.6414
▁하게	-9.64152
▁받았	-9.64201
▁벌	-9.64205
▁함	-9.64243
▁필요없다	-9.64263
!!!!!	-9.64303
▁디즈니	-9.6433
▁느낀	-9.64337
▁생각나는	-9.64437
▁소름돋	-9.64467
▁훌륭	-9.64504
인생	-9.6458
▁십	-9.64584
▁재미를	-9.64734
는건지	-9.64738
.......	-9.64743
▁출	-9.64827
율	-9.64847
ᅡ	-9.64915
더만	-9.65055
으면서	-9.65059
▁없나	-9.651
▁화가	-9.65124
▁그의	-9.65162
▁무지	-9.65167
▁씨	-9.65168
▁딴	-9.65177
▁언제나	-9.65238
▁시걸	-9.65253
그러	-9.65257
따라	-9.65258
▁봤다가	-9.65292
▁떨어지는	-9.65323
괜찮	-9.65323
▁벗	-9.65348
점준	-9.65367
뜻	-9.65395
~~~~~~~	-9.65399
ᄏᄏᄏᄏᄏᄏᄏᄏᄏᄏᄏᄏᄏᄏᄏᄏ	-9.65421
▁볼만하다	-9.65436
▁재미있었다	-9.65467
▁소재를	-9.65509
▁먼	-9.65563
▁볼수록	-9.65608
▁제목이	-9.65614
▁팔	-9.65615
▁심심	-9.65651
▁사랑과	-9.65669
▁되게	-9.65743
▁볼만함	-9.65776
▁틀	-9.65879
▁뮤지컬	-9.65936
▁폭	-9.65943
험	-9.6596
총	-9.66016
걸로	-9.66021
▁아깝지	-9.66068
▁지루해서	-9.66079
항	-9.66092
▁압권	-9.66096
▁S	-9.66145
▁외국	-9.66177
▁어이가	-9.66184
▁연애	-9.66219
▁병	-9.66241
▁+	-9.66274
▁괴물	-9.66362
▁보이	-9.66394
▁논	-9.66435
ᄏᄏᄏᄏᄏ	-9.66458
하구	-9.66488
er	-9.66573
▁어색	-9.66583
▁보았	-9.66731
았던	-9.66753
▁스토리를	-9.66759
▁그다지	-9.66768
생활	-9.66915
▁국	-9.66949
▁<	-9.66971
봐요	-9.6698
▁맨	-9.67166
▁프로그램	-9.67181
생겼	-9.6722
▁중간중간	-9.67269
말고	-9.67271
폰	-9.67289
▁현대	-9.67297
▁무서워	-9.67303
되네요	-9.67378
시다	-9.67388
▁좋았던	-9.674
▁예전	-9.67459
했네	-9.67554
▁난해	-9.67579
▁나서	-9.67584
아님	-9.6759
▁다르	-9.67624
웃기	-9.67835
갓	-9.67891
져서	-9.67914
슈	-9.67921
▁볼만하	-9.67958
▁마치	-9.67984
하면서도	-9.68001
▁사건	-9.6811
▁뒷	-9.6813
봤어요	-9.68175
▁엉성한	-9.68297
흐	-9.68308
▁연기와	-9.68313
랜	-9.68317
▁희망	-9.68484
ᄇ	-9.68486
홀	-9.6849
뉴	-9.68497
in	-9.68517
▁춤	-9.68531
▁과연	-9.68561
잃	-9.68601
흔	-9.68696
▁결	-9.68728
까진	-9.6874
▁재밋다	-9.68761
▁안하고	-9.68777
▁연기에	-9.68804
▁썩	-9.68814
▁능력	-9.68848
▁만들어진	-9.68867
한건	-9.69008
▁브	-9.6902
▁에로	-9.69025
나고	-9.69087
쏘	-9.69103
▁높다	-9.69154
▁행동	-9.69159
▁미드	-9.6917
M	-9.6917
아깝	-9.69253
▁통해	-9.69287
▁붙	-9.69305
받고	-9.69342
▁모습을	-9.69379
봣는데	-9.69402
▁올리	-9.69542
에서는	-9.69602
▁그들의	-9.69632
먹고	-9.69647
▁초반에	-9.69718
값	-9.69721
▁섹스	-9.69725
스의	-9.69728
▁현실성	-9.69809
ᄃᄃ	-9.69815
하는지	-9.69835
기분	-9.69921
▁합	-9.69932
▁풀	-9.69986
시고	-9.70016
▁군대	-9.70021
세계	-9.70059
▁w	-9.70066
▁실패	-9.7015
오글	-9.70231
▁있지	-9.70327
R	-9.70338
낼	-9.70338
▁감동과	-9.7047
쳤	-9.70483
▁옛날에	-9.70514
▁묻	-9.70526
진심	-9.70567
▁풍	-9.70567
▁월	-9.70647
상을	-9.70649
감독이	-9.7065
▁팬이	-9.70651
▁심리	-9.70691
▁영화보고	-9.70719
함과	-9.70732
연기가	-9.70878
▁영화이다	-9.70962
할까	-9.70991
▁종교	-9.71004
▁펑펑	-9.71033
▁어쩔	-9.71045
영화의	-9.71231
았는데	-9.71252
내용이	-9.71293
▁오버	-9.71299
▁믿을	-9.71393
▁짓	-9.71396
N	-9.71416
한국	-9.71418
머리	-9.71436
▁해피엔딩	-9.7144
▁사는	-9.71515
ᄏᄏᄏᄏᄏᄏᄏᄏ	-9.71516
탁	-9.71546
▁사람을	-9.71567
있네	-9.7167
보게	-9.71679
▁사랑스러운	-9.717
▁죄	-9.7174
▁페	-9.71765
▁든다	-9.71826
한게	-9.7183
▁질리지	-9.71875
▁이건뭐	-9.71907
▁운	-9.7191
높	-9.7191
▁다큐멘터리	-9.7195
▁뜨	-9.71977
▁드라마를	-9.72009
▁그럼	-9.7201
▁소녀	-9.72063
▁덜	-9.72113
▁못하고	-9.7214
힐	-9.72213
▁보고싶은	-9.72234
엘	-9.72292
▁영화냐	-9.72327
▁찍어	-9.7234
▁우정	-9.72376
▁허술	-9.72692
▁죽을	-9.72789
▁중간	-9.72797
▁퀄리티	-9.72819
재밌음	-9.72819
굴	-9.72829
(?)	-9.72847
▁눈빛	-9.72864
▁시사회	-9.72879
▁내용을	-9.72986
볼만	-9.73005
첨	-9.73006
▁하는데	-9.7302
기엔	-9.73059
▁제작진	-9.73076
스릴러	-9.73088
▁공감이	-9.73092
아까움	-9.73114
▁말로	-9.73235
▁헛	-9.73274
막장	-9.73374
평점이	-9.73377
▁봤으면	-9.73394
▁포기	-9.73431
겟다	-9.7345
▁개판	-9.73458
▁잔잔하고	-9.73489
▁리뷰	-9.73491
▁12	-9.73593
▁영화지만	-9.73594
▁봣	-9.73626
▁좋습니다	-9.73647
▁나오고	-9.73676
▁그린	-9.73703
있음	-9.73769
▁송	-9.73806
▁유치하다	-9.73821
나와서	-9.73868
편보다	-9.74003
▁더이상	-9.74045
틈	-9.74124
▁싸구려	-9.74124
▁기대안하고	-9.74126
▁뛰어난	-9.74153
▁생애	-9.74192
▁같아	-9.74194
▁없지만	-9.74202
▁전에	-9.74211
▁메시지	-9.74218
▁분노	-9.74226
▁이쁜	-9.74281
▁ᅲᅲᅲ	-9.74352
▁멋	-9.74391
▁올해	-9.74414
!!!!!!!!!	-9.74422
더라구요	-9.74462
▁남아	-9.74582
▁다행	-9.74586
▁자신	-9.74606
시는	-9.74648
▁왜케	-9.74747
▁무서웠	-9.74783
용으로	-9.74816
▁끼	-9.74816
▁드럽게	-9.74857
▁나중에	-9.74894
▁달리	-9.74942
먹는	-9.74944
▁진심으로	-9.74963
▁채	-9.74963
▁느낄수	-9.74985
▁인기	-9.75131
공포	-9.75191
▁어제	-9.75219
▁지루할	-9.75244
봤던	-9.7527
▁반전도	-9.75278
▁아나	-9.75293
프로	-9.75295
♥♥	-9.75296
시킨	-9.75363
에서도	-9.7541
줄이야	-9.75477
▁찡	-9.75481
틴	-9.75571
가슴	-9.75579
▁"""	-9.75587
▁이거보고	-9.7559
▁빠	-9.75696
▁안됨	-9.75698
믿	-9.75708
되서	-9.75728
캐	-9.75728
▁웃기고	-9.75761
찾	-9.75819
학생	-9.75821
▁남기	-9.75822
▁낚	-9.7586
▁스타	-9.75882
▁음악도	-9.76004
▁흘러	-9.76035
▁밋밋	-9.76072
▁열심히	-9.76072
▁불쾌	-9.76112
안에	-9.7612
▁굳이	-9.76184
혼	-9.76205
▁c	-9.76352
▁처음엔	-9.7636
째	-9.76378
▁킬링타임용으로	-9.76386
▁d	-9.76393
인가요	-9.76409
▁귀엽	-9.76436
고싶은	-9.76451
▁유치함	-9.76474
▁가서	-9.76513
느라	-9.76529
▁어른	-9.7655
▁필	-9.76565
▁동물	-9.76569
좋고	-9.76578
▁40	-9.76589
▁탄탄한	-9.76713
▁비주얼	-9.7673
▁방금	-9.7677
▁소재가	-9.769
▁아직까지	-9.76909
세기	-9.76949
설정	-9.76952
▁그렇다	-9.7702
님의	-9.7702
ᄏᄏᄏᄏᄏᄏᄏᄏᄏ	-9.77032
중에서	-9.77111
▁할말이	-9.77166
많은	-9.77166
기억	-9.77171
▁열정	-9.7727
▁평이	-9.77284
협	-9.77327
▁쓰래기	-9.77339
것만	-9.77382
헌	-9.77392
`	-9.77392
댄	-9.77392
▁니콜	-9.77404
▁삶의	-9.77413
케이	-9.77464
▁인생의	-9.77489
▁고생	-9.7753
▁개인	-9.77578
▁사랑에	-9.77579
"""	-9.7759
▁죽어	-9.77607
내용도	-9.77612
▁시시	-9.77661
.........	-9.77667
무비	-9.77684
쩔	-9.77779
▁사랑하는	-9.77876
▁푹	-9.77883
개봉	-9.77887
▁아는	-9.77895
멘	-9.78058
므	-9.78059
▁쵝오	-9.7806
빼고	-9.78067
▁이제야	-9.78069
▁찍었	-9.78105
▁게이	-9.78126
▁잭	-9.7815
▁올라	-9.78157
▁여러	-9.78185
▁빌	-9.78191
▁식상	-9.78199
딩	-9.78246
▁포장	-9.7826
▁;;	-9.78336
지않고	-9.78496
▁기본	-9.78538
▁배우의	-9.78595
나게	-9.78618
▁했던	-9.78631
▁엘	-9.78644
순간	-9.78658
영화라고	-9.78666
99	-9.78671
▁느끼는	-9.78679
면에서	-9.78702
솔	-9.78728
하겠	-9.7876
▁명품	-9.78764
▁판	-9.78773
해준	-9.7885
명이	-9.7887
▁다시한번	-9.78878
자의	-9.7891
▁느와르	-9.78929
▁또한	-9.7901
▁연출도	-9.79038
▁칼	-9.79038
▁생각없이	-9.79049
▁만든다	-9.79073
얘기	-9.79095
가지고	-9.79157
//	-9.79161
딸	-9.79178
한다는	-9.79252
표현	-9.79256
▁폭력	-9.79342
▁헤	-9.79345
▁쩐다	-9.79393
하려고	-9.79457
▁베스트	-9.79485
이해	-9.79485
▁자막	-9.79547
▁괜찮았	-9.79574
▁맘	-9.79629
▁말할	-9.79666
11	-9.79717
하는것	-9.79744
▁주인공의	-9.79771
했나	-9.79792
스러움	-9.79804
잠	-9.79809
스터	-9.79854
▁매력있	-9.79986
중의	-9.80069
▁아름다움	-9.80086
컷	-9.80086
▁나머지	-9.80094
▁채널	-9.80096
속에서	-9.80162
계속	-9.80171
▁안타깝다	-9.80314
티비	-9.80347
ᅲᅮ	-9.8035
▁결과	-9.80384
사람은	-9.80458
▁매력적이	-9.8048
V	-9.8052
▁낮아서	-9.80598
▁저렇게	-9.80742
콜	-9.80757
형님	-9.80762
▁시트콤	-9.80771
▁헐리우드	-9.80771
▁로그인	-9.80771
▁울었다	-9.80904
으론	-9.80913
▁핵	-9.80944
대가	-9.81049
▁소재로	-9.81053
하려	-9.81065
자는	-9.81094
▁있네요	-9.81133
▁행	-9.81168
젤	-9.81305
st	-9.81405
▁죄다	-9.81426
릿	-9.81449
▁good	-9.81461
▁시대를	-9.81472
▁통쾌	-9.81478
안되는	-9.81511
▁높아	-9.81532
들만	-9.81564
▁퍼	-9.81576
리지	-9.81618
대사	-9.81646
▁역할	-9.8167
전쟁	-9.81687
▁히	-9.81738
늘	-9.81752
젠	-9.81757
연기도	-9.81783
였지만	-9.81918
접	-9.81945
▁쫌	-9.81978
▁우와	-9.81982
있었	-9.82041
re	-9.82066
▁망한	-9.82106
뿌	-9.8211
뛰	-9.8214
]	-9.82155
▁견자단	-9.82155
멸	-9.82155
텔	-9.82155
▁긴장감도	-9.82203
▁악역	-9.82214
▁생각한다	-9.82257
▁가득	-9.82269
▁죽여	-9.82272
만드는	-9.82279
▁남녀	-9.82303
▁발로	-9.82341
것같	-9.82374
▁퇴	-9.82402
웃겼	-9.82431
▁자신의	-9.82442
▁몰입이	-9.82464
▁끝나는	-9.82471
▁영화에요	-9.82514
▁만큼	-9.82546
▁과정	-9.82668
▁문화	-9.82715
▁완	-9.82766
▁젊은	-9.82794
혁	-9.82811
▁짝퉁	-9.82854
▁청소년	-9.82854
▁의외로	-9.82854
▁폴	-9.8286
▁벌써	-9.82869
▁T	-9.82888
▁에휴	-9.82893
▁70	-9.82895
▁최근	-9.82904
▁재미있었어요	-9.82932
▁코난	-9.82965
장난	-9.82969
▁의리	-9.82971
▁악당	-9.82982
▁인생을	-9.82984
▁꽝	-9.83009
▁나옴	-9.83029
▁쇼	-9.83047
현실	-9.83073
▁단순한	-9.83074
그렇	-9.83277
▁달라	-9.83308
▁안되고	-9.83377
▁이쁘고	-9.83382
▁꾸	-9.83427
▁이유는	-9.83443
▁환상	-9.83444
넣	-9.83522
▁어려운	-9.83559
식으로	-9.8359
긴한데	-9.83591
님이	-9.83594
▁샤	-9.83656
도아니고	-9.83691
력이	-9.83701
▁영국	-9.83714
시간에	-9.83779
▁둘다	-9.83829
워서	-9.8388
▁출연진	-9.83884
않는	-9.83893
▁생각합니다	-9.83952
감을	-9.83961
▁남을	-9.84031
▁아침	-9.84037
▁영화에서	-9.84043
▁되었다	-9.84147
꼽	-9.84212
▁전기세	-9.8427
▁무엇	-9.8427
▁빌려	-9.84373
▁단연	-9.84416
점주	-9.84462
▁모든게	-9.84487
인들	-9.84491
▁옛	-9.84514
▁내려	-9.84609
▁무비	-9.84645
하려는	-9.84692
보자	-9.84697
하셨	-9.84702
▁여기서	-9.84751
얻	-9.84821
려면	-9.8486
▁보았다	-9.84906
▁솔직	-9.84913
▁정서	-9.84924
▁f	-9.84946
착	-9.84961
▁그려	-9.84965
떄	-9.84982
▁007	-9.84982
▁따뜻해지는	-9.85014
▁봣는데	-9.85018
▁상처	-9.85049
▁힘들다	-9.85054
▁나타	-9.85065
영화로	-9.85085
▁마세요	-9.851
극장	-9.85144
▁홍보	-9.85146
하지도	-9.85146
▁광고	-9.85182
▁울고	-9.85193
▁늘어	-9.85242
▁의심	-9.85258
▁이기	-9.85294
스타일	-9.85351
▁굿굿	-9.85374
▁심장	-9.85388
계의	-9.85403
사가	-9.85465
▁산으로	-9.85487
헤	-9.8555
했으나	-9.85568
▁무엇을	-9.85629
옹	-9.85687
▁뭉클	-9.85701
▁많다	-9.85708
▁당시에	-9.85721
캐릭터	-9.85727
더라면	-9.85743
▁가진	-9.85745
▁표현한	-9.85833
정신	-9.85895
▁즐겁게	-9.85928
▁많아	-9.85974
▁극치	-9.86051
▁웃김	-9.86052
▁연속	-9.86202
▁있어요	-9.86222
on	-9.8624
▁아쉬움	-9.86356
드러	-9.86399
털	-9.86426
▁주성치	-9.86428
끈	-9.86432
어지는	-9.86438
ing	-9.8645
떠	-9.86453
▁흐름	-9.86455
▁귀여워	-9.86455
▁앤	-9.86458
▁눈물을	-9.86461
▁최강	-9.86506
▁발전	-9.8652
▁차이	-9.86532
▁돌아가	-9.8662
이며	-9.86675
▁자극	-9.86747
▁현실적인	-9.8676
▁지금은	-9.86761
▁좋아서	-9.86763
▁북한	-9.86779
▁좋았을	-9.86783
▁하루	-9.86911
▁어렵	-9.86916
▁드라마는	-9.86994
▁놈	-9.87037
▁투자	-9.87045
겹	-9.87054
었어	-9.87077
▁말을	-9.87081
▁줌	-9.87084
▁사기	-9.8711
ᅵ	-9.87156
▁헐리웃	-9.87156
▁끄	-9.87169
▁아쉬웠	-9.87177
폐	-9.87198
씨가	-9.87209
I	-9.8721
답답	-9.87229
▁생생	-9.8725
▁보여	-9.87259
▁학교에서	-9.8733
▁나은	-9.87331
수없는	-9.87436
▁정말로	-9.87503
▁영화였어요	-9.87508
▁아마	-9.8758
놨	-9.876
▁동생	-9.87613
하다가	-9.87678
▁않게	-9.87689
▁몰라도	-9.87697
▁살아있	-9.87716
같음	-9.87719
▁신선하고	-9.87851
퀴	-9.87891
▁제작비	-9.87912
본영화	-9.8792
▁못했다	-9.87932
▁어머니	-9.8794
식이	-9.8798
▁뻔하고	-9.88041
▁지나치	-9.88103
▁m	-9.88106
점수	-9.88112
슬프	-9.88139
▁와우	-9.88176
에대한	-9.88199
노래	-9.88299
물이	-9.88317
편의	-9.88351
▁이쁘다	-9.88351
정이	-9.88422
▁재미없어요	-9.88433
▁야한	-9.88495
구성	-9.88536
이유	-9.8859
▁즐거운	-9.88632
떼	-9.88632
▁레전드	-9.88632
했네요	-9.88648
▁반개도	-9.8867
▁노답	-9.88673
았습니다	-9.88745
▁반성	-9.8879
흥	-9.88793
으로서	-9.88854
▁미소	-9.88887
이런영화	-9.88888
부족	-9.88898
▁밥	-9.88933
▁있습니다	-9.88964
OOO	-9.88975
▁모르	-9.8907
아까	-9.89232
▁시간을	-9.89242
▁안돼	-9.89281
봤지만	-9.89325
즘	-9.89335
▁식	-9.89339
스러웠	-9.89361
뽕	-9.89378
▁무시	-9.89423
지가	-9.89469
나온다	-9.89473
▁웃음이	-9.89491
▁넣	-9.89491
잔잔	-9.895
▁잔	-9.89531
ar	-9.89566
갔다	-9.89627
▁지루했다	-9.89634
▁결말도	-9.89658
▁유쾌하고	-9.89706
▁멋있다	-9.89739
자리	-9.89773
▁놀라	-9.89813
사이	-9.89854
▁이런영화가	-9.89912
시키는	-9.89982
▁되지	-9.89982
영화임	-9.90031
넹	-9.9013
뮤	-9.9013
팀	-9.9013
아니다	-9.9013
▁전문가	-9.90133
포인트	-9.90136
▁마이클	-9.90136
▁크게	-9.90151
▁멍청한	-9.90154
하더라	-9.90186
▁잔인한	-9.90193
▁울었	-9.90226
▁어휴	-9.90233
왔는데	-9.9028
집니다	-9.90334
엄마	-9.90384
▁건지	-9.90468
▁보길	-9.90604
▁이따위	-9.90651
▁좋지만	-9.90713
야한다	-9.90714
▁있으면	-9.90735
버림	-9.90799
끌	-9.90826
▁친구들	-9.90853
▁이후로	-9.90856
붕	-9.90887
롤	-9.90888
▁더러운	-9.90889
▁쉽게	-9.90897
▁희생	-9.90928
끄러	-9.90951
▁달달	-9.90956
▁많았	-9.90961
▁평범	-9.90984
200	-9.91066
▁우주	-9.9117
▁신파	-9.91178
▁진정	-9.91204
▁순수	-9.91221
▁엉망	-9.91232
▁점수를	-9.91234
끝까지	-9.91311
▁싶네요	-9.91336
관계	-9.91386
▁잊지	-9.91469
한것	-9.91492
▁나왔다	-9.91499
친다	-9.91604
지지	-9.91645
▁마이너스	-9.91651
▁안타깝	-9.91747
▁있게	-9.91749
▁없는데	-9.9178
▁지루하게	-9.91819
▁할말	-9.91829
▁한데	-9.91833
▁재밌을	-9.9194
▁떠나서	-9.91967
개도	-9.91975
해주세요	-9.92054
장면이	-9.92058
▁푸	-9.92068
▁훈훈	-9.92086
▁좀더	-9.9211
리아	-9.92212
▁지구	-9.92265
텐	-9.92319
밝	-9.9242
컨	-9.9242
뚱	-9.9242
▁싸이코	-9.92421
▁위대한	-9.92422
▁빼고는	-9.9243
▁영화인듯	-9.92433
▁민망	-9.92467
▁왠	-9.92469
▁발견	-9.92469
▁레알	-9.92484
원작	-9.92539
▁시각	-9.92543
▁사랑이야기	-9.92561
학교	-9.92564
▁적당	-9.92633
▁좋아할	-9.9266
▁부족하다	-9.927
?!	-9.92716
▁아쉽네요	-9.9273
▁보니까	-9.92745
로써	-9.92783
▁진리	-9.92791
▁섬	-9.92821
있는데	-9.92855
▁알수	-9.92958
▁중요한	-9.93044
▁하네요	-9.93061
었을	-9.93175
매력	-9.93179
▁김기덕	-9.93196
▁무언가	-9.93197
▁흥미로운	-9.9321
지도않고	-9.93383
▁못해	-9.93414
빼곤	-9.93421
▁올려	-9.93438
▁끝이	-9.93445
었고	-9.93506
▁오랜만	-9.93529
▁결말은	-9.93617
▁나오지	-9.93646
하지마라	-9.93695
그래	-9.93806
▁음악과	-9.93839
▁무협	-9.93889
▁손발이	-9.93961
몬	-9.93976
땡	-9.93977
▁the	-9.93991
▁뜻	-9.94099
▁의문	-9.94155
▁나오면	-9.94165
▁인상적이	-9.94234
없어서	-9.94294
▁누구나	-9.94328
아요	-9.94347
보는내내	-9.94385
▁감동적	-9.94447
▁쓰레기같은	-9.94456
있나	-9.94475
이었음	-9.94501
▁받을	-9.94536
▁중에서	-9.94537
빙	-9.94542
▁만들고	-9.94579
▁다만	-9.9459
▁라는	-9.94625
스럽고	-9.94636
▁웃기지도	-9.94813
자체가	-9.94819
▁기다리	-9.94838
보지말	-9.94869
▁조합	-9.94902
▁쓰레기다	-9.94924
보여	-9.94976
▁무섭지도	-9.95054
▁기대했는데	-9.95106
수있는	-9.95109
▁딱히	-9.95243
대는	-9.95387
적은	-9.95432
이라서	-9.95519
▁멍청	-9.95544
▁슈퍼	-9.95551
혈	-9.95558
▁연예인	-9.95558
▁더불어	-9.95563
지를	-9.95596
▁연결	-9.95639
▁무척	-9.95737
편도	-9.9578
그리	-9.95791
it	-9.95823
▁학교	-9.95926
▁의미를	-9.95935
야할	-9.95942
▁빼고	-9.95949
▁특이	-9.95994
▁거지	-9.96018
▁잼있다	-9.96053
▁주말	-9.96126
아쉽	-9.96158
▁맡	-9.9619
▁보러	-9.96282
시작	-9.96297
만의	-9.96344
례	-9.96358
칙	-9.96358
▁필름	-9.96381
▁끊	-9.96423
▁가지	-9.96433
▁역대급	-9.96484
▁ᄋ	-9.96581
▁꽃	-9.96699
▁공부	-9.96757
편을	-9.96776
ᄏᄏᄏᄏᄏᄏᄏᄏᄏᄏᄏᄏᄏ	-9.96779
▁한국인	-9.96783
뭔	-9.96805
자나	-9.96847
일본	-9.9694
▁집에서	-9.96972
.............	-9.97006
▁현실적이	-9.9701
▁이해하기	-9.97014
님들	-9.97137
▁시리즈중	-9.97157
제발	-9.97168
▁보고나면	-9.97175
▁묘사	-9.97181
▁흔한	-9.97185
▁죽이	-9.97203
새끼들	-9.97217
▁속에	-9.97225
▁봤더니	-9.97233
▁없지	-9.97254
▁시청	-9.97292
▁혼	-9.97344
▁재미있어	-9.97398
들고	-9.97415
▁안봤	-9.97445
라는게	-9.97449
콩	-9.97507
▁무리	-9.97561
▁홍콩영화	-9.97566
▁인간들	-9.97569
▁최고입니다	-9.97571
▁쓸	-9.97602
ᄌ	-9.97616
엇다	-9.9762
▁왜이래	-9.97667
▁미모	-9.97676
되면	-9.97736
같네	-9.97779
▁오바	-9.97831
▁[	-9.97912
▁재미잇	-9.97936
겠음	-9.9794
랫	-9.97977
▁포르노	-9.97977
▁피해자	-9.97983
▁개뿔	-9.98005
▁느꼈	-9.98101
▁예쁘	-9.98129
▁박수를	-9.98209
잔인	-9.98222
▁전체	-9.98273
짱짱	-9.98353
거라	-9.9842
▁느낌을	-9.98423
▁가면	-9.98447
쥐	-9.98464
밥	-9.98465
▁그렇	-9.98499
▁잼나	-9.98522
▁못한다	-9.98535
▁불쌍	-9.98552
었나	-9.98565
하기만	-9.98572
▁않지만	-9.98579
점정도	-9.98585
▁케이블	-9.98602
드립니다	-9.98646
▁한참	-9.98672
놔	-9.98705
▁보인다	-9.9874
껴	-9.98773
▁떨어지	-9.98786
컬	-9.98794
▁크리스마스	-9.98797
▁아줌마	-9.98825
."	-9.98839
~!!!	-9.98847
▁맨날	-9.98851
▁국민	-9.98859
해진	-9.98903
▁양심	-9.98912
▁외모	-9.98965
▁18	-9.98996
사는	-9.99044
▁국내	-9.99102
▁신경	-9.9914
▁이해할	-9.99155
아쉬	-9.99213
꿀잼	-9.99237
쉽	-9.99271
▁한마디	-9.99289
▁졸리	-9.99298
짜증나	-9.99334
시즌	-9.9936
렇	-9.9938
주고싶	-9.99394
▁끌어	-9.9948
▁에피소드	-9.99623
▁초등학생	-9.99623
▁불구하고	-9.99625
냄새	-9.99629
▁미안	-9.9964
▁찌질	-9.99695
▁비극	-9.99695
▁넘치는	-9.99698
▁사랑은	-9.99835
▁낳	-9.99838
▁야동	-9.99841
▁돋	-9.99901
▁우리가	-9.9992
▁허세	-9.99945
세상	-9.99949
하는건	-10
▁싶지	-10.0011
▁그렇지	-10.0011
▁ᄋᄋ	-10.0013
몽	-10.0016
지말고	-10.0018
▁어릴	-10.002
▁되고	-10.0021
쳤다	-10.0027
▁ᄏᄏᄏᄏᄏᄏ	-10.0031
▁인도	-10.0032
▁보지마	-10.0036
평가	-10.0041
▁싶었	-10.0043
K	-10.0046
▁시간가는줄	-10.0046
▁보시	-10.005
▁지켜	-10.0053
▁아련	-10.0054
▁고통	-10.0056
만큼은	-10.006
해진다	-10.006
▁배우들도	-10.0061
^^*	-10.0068
▁몰입해서	-10.0069
했다는	-10.0077
▁관한	-10.0082
▁끝났	-10.0088
좋아하는	-10.009
했었	-10.0092
않다	-10.0092
특	-10.0094
▁괜찮은데	-10.0096
▁한국영화는	-10.01
봅니다	-10.0106
머니	-10.0107
▁냉	-10.0112
▁한심	-10.0114
▁볼수있	-10.0128
폼	-10.013
▁뒤로	-10.0131
▁검색	-10.0131
▁알겠	-10.0131
▁좋았으나	-10.0132
▁이래	-10.0137
▁아역	-10.0137
엔딩	-10.014
▁사랑의	-10.0142
▁짐	-10.0145
▁보자	-10.0148
같고	-10.015
▁착	-10.0151
버리는	-10.0152
어진	-10.0159
▁13	-10.0161
다는게	-10.0162
▁작가가	-10.0163
와는	-10.0163
봤네요	-10.0165
▁군	-10.0167
▁빵점	-10.0176
자체	-10.0181
는것도	-10.0183
빌	-10.0185
▁충격적	-10.0187
▁들었	-10.0192
▁50	-10.0194
뭔가	-10.0196
▁찌	-10.0202
까지는	-10.0204
왔습니다	-10.0208
스러워	-10.0211
H	-10.0214
▁러닝타임	-10.0214
▁카리스마	-10.0214
▁왠만하면	-10.0214
▁외계인	-10.0214
▁색다른	-10.0215
▁억지스럽	-10.022
▁헤어	-10.0223
▁한번쯤	-10.0223
▁안보고	-10.0227
▁장면에서	-10.0227
▁하나하나	-10.0228
웨	-10.023
하시는	-10.0234
▁사람의	-10.0235
▁이때	-10.0239
사회	-10.0253
였어	-10.0253
▁점수가	-10.0254
▁있으	-10.0254
기위해	-10.0254
제작	-10.0262
▁나쁘지	-10.0263
나가는	-10.0273
▁제로	-10.0279
G	-10.028
고싶어	-10.0281
공감	-10.0281
맥	-10.0281
▁덕분에	-10.0281
▁인간이	-10.029
▁이유를	-10.0291
택	-10.0291
만이	-10.0293
윈	-10.03
▁핵노잼	-10.0301
▁어린시절	-10.0302
▁훈훈한	-10.0303
▁방법	-10.0305
▁다룬	-10.0309
씨의	-10.0313
소설	-10.0315
▁재밌던데	-10.0315
▁원작의	-10.0342
치곤	-10.0347
▁대사가	-10.0347
▁중요	-10.0349
▁주기	-10.0357
▁즐기	-10.0357
▁진부하고	-10.0361
▁가져	-10.0362
▁아이가	-10.0365
▁:	-10.0369
▁부르	-10.0371
이자	-10.0376
밑	-10.0378
▁작은	-10.0384
낀	-10.0385
▁아름다웠	-10.0386
나왔	-10.0391
▁풍경	-10.0392
힘	-10.0392
년만에	-10.0392
▁멍	-10.0397
▁뭐라	-10.0397
▁캬	-10.0399
▁웃기다	-10.04
란다	-10.04
▁없었던	-10.0412
점이다	-10.0416
▁못할	-10.0417
▁장면들	-10.0418
겼	-10.0418
▁이럴	-10.0419
▁시도	-10.0423
▁이것이	-10.043
감독님	-10.0431
▁탈	-10.0431
▁보긴	-10.0435
씬은	-10.0435
하던데	-10.0436
▁조연	-10.0443
했을까	-10.0444
점줌	-10.0446
▁눈에	-10.045
▁착한	-10.0451
하신	-10.0451
몰입	-10.0456
밤	-10.046
멍	-10.0461
▁괜찮다	-10.0462
쟁이	-10.0463
할만한	-10.0466
렬	-10.047
겠네요	-10.047
꾼	-10.0473
럭	-10.0473
▁좋아하는데	-10.0474
▁떨어진다	-10.0475
▁느껴진다	-10.0476
없는영화	-10.0476
대단	-10.048
▁남자가	-10.0483
그래서	-10.0484
▁일품	-10.0486
▁뇌	-10.0498
▁그걸	-10.05
▁크리스	-10.0501
좋음	-10.0504
!!!!!!	-10.0516
▁진지	-10.052
▁쩝	-10.052
▁a	-10.0521
▁잊을	-10.0522
▁훌륭하다	-10.0529
편에	-10.0536
▁보기에	-10.0538
간의	-10.054
▁명작입니다	-10.0541
샤	-10.0549
돋	-10.0552
▁감동적이다	-10.0558
농	-10.0559
뽀	-10.0561
▁기독교	-10.0561
▁아까울	-10.0561
의미	-10.0561
▁바꿔	-10.0562
▁1,2	-10.0563
▁짜증난다	-10.0567
▁여행	-10.0578
▁깔끔	-10.0579
하기엔	-10.0588
▁남겨	-10.0591
▁생각하는	-10.0593
▁11	-10.0594
▁들어가	-10.0596
신분들	-10.0599
▁소름이	-10.0605
틱	-10.0609
▁색	-10.062
▁니들	-10.062
▁추억이	-10.062
르고	-10.0621
똥	-10.0632
▁하는지	-10.0634
이였다	-10.0635
▁필요없	-10.0635
▁말하는	-10.0637
▁그렇다고	-10.0641
▁바뀌	-10.065
낚	-10.0651
▁간다	-10.0654
▁좋겠어요	-10.0655
▁뽑	-10.0656
▁재미와	-10.0657
▁변태	-10.0658
년도에	-10.0658
줘야	-10.0664
▁볼만했	-10.0665
배경	-10.0666
▁악마	-10.0679
▁찬	-10.0686
▁O	-10.0686
▁망치	-10.0687
▁개성	-10.0695
억지	-10.0695
▁지루하기	-10.07
▁본다면	-10.0712
▁영어	-10.0712
▁이런영화를	-10.0728
▁본영화	-10.073
스럽게	-10.0732
▁뛰어	-10.0733
▁D	-10.0734
▁행복한	-10.0738
▁형님	-10.0739
▁로봇	-10.0739
겁니다	-10.0744
우리	-10.0744
할수있	-10.0748
▁희	-10.0748
▁죽는줄	-10.0749
▁여름	-10.075
▁비디오로	-10.075
▁개막장	-10.0752
▁미스	-10.0757
▁동안	-10.0758
▁설마	-10.0758
연기력	-10.0763
!!!!!!!!!!!!!!!!	-10.0766
▁따뜻	-10.0775
▁워	-10.0778
▁가슴에	-10.0785
▁빠진	-10.0786
▁엄	-10.0791
▁레이	-10.0793
앞	-10.0796
배우가	-10.0802
절대	-10.081
▁충	-10.0812
기로	-10.0813
허접	-10.0823
▁용기	-10.0827
쭉	-10.0829
긋	-10.0829
깍	-10.0829
둔	-10.0829
즐	-10.0829
▁기다려	-10.083
▁철학	-10.0832
거면	-10.0834
▁맹	-10.0836
▁재미없게	-10.0843
en	-10.0843
저리	-10.0849
▁모르겠지만	-10.085
었지	-10.0856
해야지	-10.0856
▁아픈	-10.0863
▁삶에	-10.0863
재미없음	-10.0866
▁척	-10.0868
▁보여준다	-10.0871
▁같아서	-10.0879
내고	-10.0881
감독의	-10.0884
▁들었다	-10.0889
▁즐겁	-10.0892
▁체	-10.0894
했었는데	-10.0894
▁장르가	-10.0896
▁긴장감이	-10.0902
버릴	-10.0905
되었	-10.0906
▁있어야	-10.0911
어라	-10.0915
▁인물들	-10.0916
잇는	-10.0916
▁시청자	-10.0918
섹	-10.0919
빅	-10.092
▁이제서야	-10.092
▁고양이	-10.092
▁젠장	-10.092
큰	-10.0924
차라리	-10.0924
얼굴	-10.0925
▁아이돌	-10.0929
▁못하다	-10.0934
보구	-10.0942
▁감동의	-10.0945
▁색감	-10.0949
▁웬	-10.0949
하하하	-10.0955
▁잼나게	-10.0955
▁콩	-10.0957
..^^	-10.0958
▁본거	-10.0959
▁자살	-10.0969
▁이미지	-10.0969
보지	-10.097
▁힘이	-10.0976
주면	-10.0978
▁에이	-10.098
▁먹고	-10.0981
뭐야	-10.0982
▁야구	-10.0986
좋앗	-10.0989
씁쓸	-10.0991
▁됨	-10.0992
쓰고	-10.0993
▁잇	-10.0999
▁살려	-10.1
닮	-10.1006
공포영화	-10.1007
델	-10.1011
렁	-10.1011
핑	-10.1011
무서움	-10.1012
▁감흥	-10.1014
랄까	-10.1016
▁없어요	-10.1022
기에는	-10.1024
더라도	-10.1024
▁낮다	-10.1026
▁생각하고	-10.1027
갈수록	-10.1027
있냐	-10.1033
▁좋았지만	-10.1035
▁많고	-10.1037
▁개봉한	-10.1039
▁볼게	-10.104
▁명화	-10.1041
자를	-10.1048
었네	-10.1049
이걸	-10.105
▁재밌다고	-10.1056
▁때문	-10.1067
▁연기자들	-10.1071
았음	-10.1073
▁낚였다	-10.1073
끄	-10.1076
▁가능	-10.1078
▁작품을	-10.1084
▁누군가	-10.1086
▁아픔	-10.1086
▁틀어	-10.1094
▁가치가	-10.11
▁좋아해서	-10.1103
▁199	-10.1103
▁애기	-10.1104
▁그럴	-10.1105
▁극장가서	-10.1106
명의	-10.1113
▁멋지	-10.1116
속의	-10.1121
▁줬	-10.1123
▁낚시	-10.1123
▁오락	-10.1134
▁우리의	-10.1137
▁필요한	-10.1141
▁작품이다	-10.1142
▁전쟁영화	-10.1154
으려	-10.1172
ᄋᄋ	-10.1174
▁조잡	-10.1175
al	-10.1177
▁탑	-10.118
▁연기력도	-10.1184
감동적이	-10.1192
렷	-10.1197
삐	-10.1197
칸	-10.1197
쿨	-10.1197
적이다	-10.1199
▁아프	-10.1204
▁낮아	-10.1208
▁ᄏᄏᄏᄏᄏᄏᄏ	-10.1212
덜	-10.1212
있어서	-10.1214
▁있구나	-10.1219
▁만든영화	-10.1222
▁잼잇	-10.1224
▁공포물	-10.1231
▁쥐	-10.1235
▁평점보고	-10.1246
모든	-10.1252
▁못함	-10.1255
▁검	-10.1258
빨리	-10.1267
▁할까	-10.1269
▁내가본	-10.1273
닐	-10.1274
▁조화	-10.1279
보이는	-10.128
됐다	-10.1288
▁블랙	-10.1291
엠	-10.1291
▁초등학교	-10.1292
탓	-10.1292
손가락	-10.1293
▁교육	-10.1294
▁영원히	-10.1296
▁한명	-10.1298
▁최초	-10.1301
▁기술	-10.1306
▁보여줬	-10.1313
더빙	-10.1313
▁뻔하	-10.1313
▁기대이상	-10.132
▁감히	-10.1324
되나	-10.1332
▁감안	-10.1336
▁살고	-10.1337
닌	-10.1348
겠습니다	-10.1349
하지마	-10.1351
▁하는거	-10.136
쳐서	-10.1365
▁그녀의	-10.1366
▁답답한	-10.1368
▁완전히	-10.1373
▁도전	-10.1376
▁에로영화	-10.1376
륜	-10.1384
하고싶은	-10.1384
ᅥ	-10.1387
▁겨우	-10.139
▁특별한	-10.1391
▁전투	-10.1395
▁복잡	-10.14
♥♥♥	-10.1401
마지막에	-10.1404
한다고	-10.1404
꼴	-10.1409
▁좋게	-10.1411
▁잊을수	-10.1417
보니까	-10.142
지게	-10.142
▁모르게	-10.1428
▁보통	-10.1428
▁비하면	-10.1431
▁보지마라	-10.1434
좋겠	-10.1434
▁남자들	-10.1437
하기도	-10.144
▁꿈을	-10.1442
▁보내	-10.1443
새롭	-10.1444
긴하지만	-10.1445
으로써	-10.1448
▁낮네	-10.1449
▁안습	-10.145
▁재미있었	-10.1451
▁전설	-10.1456
아까운	-10.1458
▁모를	-10.1468
▁노래가	-10.1469
보고싶다	-10.1472
▁유명	-10.1476
▁전설의	-10.1476
춰	-10.1481
셀	-10.1483
삭	-10.1483
▁안타까운	-10.1483
뜬	-10.1483
▁갔	-10.1492
▁최대	-10.1492
▁반복	-10.1494
▁전율	-10.1494
▁남자의	-10.1495
▁봤을때	-10.1496
빛	-10.1503
0%	-10.1504
▁부모	-10.1504
점대는	-10.1507
F	-10.1508
▁승	-10.1513
내내	-10.1516
as	-10.1519
▁웃고	-10.152
겠어요	-10.1521
후회	-10.1525
▁밤	-10.153
▁돼	-10.1531
▁자식	-10.1531
영화인데	-10.1538
▁어른들	-10.154
▁심하게	-10.1553
▁예쁘고	-10.1554
지루함	-10.1564
쓰레기영화	-10.1566
배우들의	-10.1568
같은영화	-10.1569
th	-10.1571
▁노래도	-10.1576
z	-10.158
★	-10.158
▁생각함	-10.1582
▁바꾸	-10.1587
▁가족영화	-10.1587
스크	-10.159
▁재미도없고	-10.1606
잡고	-10.1608
부작	-10.1612
요즘	-10.1613
▁조카	-10.1617
▁잊	-10.1618
bb	-10.1619
▁익	-10.1622
es	-10.1623
▁안맞	-10.1625
만듬	-10.1627
것같아요	-10.1627
옴	-10.1633
영화입니다	-10.1637
▁한심한	-10.1637
안됨	-10.1647
하는영화	-10.165
▁불쌍하다	-10.1651
▁싶은데	-10.1652
▁안나	-10.1656
▁식상한	-10.1657
요소	-10.1666
브라	-10.1667
▁알려	-10.1668
콘	-10.1669
얘	-10.1675
▁미쳤	-10.1678
숭	-10.1678
▁스트레스	-10.1678
▁소소한	-10.1679
▁잠깐	-10.1679
▁잔혹	-10.168
기까지	-10.1688
▁방영	-10.1691
▁열연	-10.1696
다큐	-10.1698
▁이래서	-10.1703
▁재미있습니다	-10.1706
뻐	-10.1708
▁만들면	-10.1728
했지	-10.1728
▁만든거	-10.173
켜	-10.1735
년작	-10.1737
뻔한	-10.1738
▁남편	-10.1738
▁재미없었다	-10.1744
▁암튼	-10.1744
살아	-10.1746
▁씬	-10.1761
▁이상하게	-10.1762
▁영화보는	-10.1763
찮	-10.1776
U	-10.1777
▁특수효과	-10.1777
▁후속작	-10.1777
▁내면	-10.1779
▁갈등	-10.1786
▁조작	-10.1793
▁오래된	-10.1795
▁넌	-10.1799
▁케이블에서	-10.1801
는구나	-10.1803
줘서	-10.1814
흠	-10.1814
스키	-10.1814
인건	-10.1815
▁따로	-10.1817
▁ᄌ	-10.182
▁씹	-10.1825
▁말하고	-10.1825
오래	-10.1834
▁캐릭터가	-10.1847
▁최고였다	-10.1849
▁실제로	-10.1853
▁구성이	-10.1856
▁개연성이	-10.1859
▁쿠	-10.1861
문화	-10.1864
▁작품은	-10.1871
괜	-10.1877
▁sf	-10.188
▁경험	-10.188
▁비현실적	-10.1881
▁뿐이다	-10.1882
▁지나도	-10.1889
▁알겠는데	-10.1891
▁존경	-10.1891
▁봤을까	-10.1897
▁만들다니	-10.1898
였고	-10.19
▁분위기가	-10.19
▁커플	-10.1901
▁모르겠음	-10.1902
▁빼면	-10.1903
▁자주	-10.1908
까요	-10.1914
▁않을까	-10.1918
▁내용인지	-10.1926
▁결론	-10.1927
▁생각나서	-10.1933
▁낚였	-10.1934
▁집에	-10.1935
▁아니야	-10.1937
때매	-10.1937
이뻐	-10.1946
▁신비	-10.195
▁하면서	-10.195
▁21	-10.1955
셈	-10.1955
메이	-10.1959
▁이런건	-10.1962
모두	-10.1972
균	-10.1976
▁DVD	-10.1978
▁패러디	-10.1978
▁잔뜩	-10.1978
▁어설프고	-10.1979
바닥	-10.1979
▁충실	-10.1982
▁거짓말	-10.1983
▁무엇인지	-10.1984
▁감정을	-10.1986
것인가	-10.1987
▁좀비영화	-10.1996
받은	-10.1997
ᄏᄏᄏᄏᄏᄏᄏᄏᄏᄏᄏᄏ	-10.1997
▁게다가	-10.2
▁G	-10.2
▁쌍	-10.2002
▁W	-10.2005
▁여러분	-10.2006
▁잘봤어요	-10.201
▁없습니다	-10.2011
는거야	-10.2013
▁기회	-10.2014
셔서	-10.2019
▁낙	-10.202
리즈	-10.202
▁속에서	-10.2022
쓸	-10.2024
▁그당시	-10.2027
았어요	-10.203
▁여운을	-10.2036
▁^	-10.2037
나오고	-10.2042
▁별로임	-10.2044
▁뭘까	-10.2045
▁해라	-10.2052
▁참신한	-10.2053
▁선생님	-10.2054
▁앞으로도	-10.2056
▁떨	-10.2061
▁대화	-10.207
▁초딩때	-10.207
30	-10.2072
▁둘이	-10.2073
엑	-10.208
▁읽어	-10.208
룩	-10.208
층	-10.208
핀	-10.208
▁새벽에	-10.208
▁주기도	-10.2084
▁최근에	-10.2084
거같아요	-10.2085
▁그저그런	-10.2086
▁할머니	-10.2087
▁일어나	-10.2087
▁다섯	-10.209
▁두번째	-10.209
▁정말이지	-10.2095
▁관객들	-10.2096
아무	-10.2097
▁잘만들었	-10.21
▁출연한	-10.2102
▁살면서	-10.2104
▁드립니다	-10.2107
▁잘하고	-10.211
▁단지	-10.2111
▁선동	-10.2113
▁만남	-10.2116
레스	-10.2116
▁깎	-10.2122
▁아름답	-10.2124
논	-10.2124
럴	-10.2126
▁본듯	-10.2132
아저씨	-10.2132
<	-10.2133
것같은	-10.2134
▁사진	-10.2135
없었	-10.2137
▁낮지	-10.2138
▁다르다	-10.2138
관람	-10.2144
졸작	-10.2144
버전	-10.2145
▁수도	-10.2149
▁할수	-10.2152
▁정도의	-10.2155
▁최고임	-10.2159
▁연출과	-10.2165
주기	-10.2165
▁맞아	-10.2165
▁매력적	-10.2171
▁대부분	-10.2172
▁슈	-10.2176
▁끈	-10.218
칭	-10.2183
쥬	-10.2183
닷	-10.2183
▁로버트	-10.2183
앵	-10.2183
▁아이디어	-10.2183
▁직접	-10.2184
▁제임스	-10.2184
▁울컥	-10.2184
▁여러가지	-10.2186
▁몇몇	-10.2186
▁가슴을	-10.2187
▁ᄀ	-10.2188
나올때	-10.2195
트리	-10.2199
랜드	-10.2202
▁아까웠다	-10.2206
▁잼있어요	-10.2206
▁끝날	-10.2207
▁운명	-10.2213
▁원작이	-10.222
▁볼때	-10.2222
▁관객을	-10.2224
▁한국에서	-10.223
푸	-10.2231
▁엉성하고	-10.2232
▁비판	-10.2237
▁있었지만	-10.2241
잊	-10.2241
▁재밌지	-10.2242
▁풍자	-10.2246
휘	-10.2246
▁전개도	-10.2247
▁죽이고	-10.2251
▁유명한	-10.2258
▁견	-10.2262
려나	-10.2263
▁탄탄	-10.227
▁얼마	-10.227
▁반전은	-10.2287
▁제이슨	-10.2288
▁스스로	-10.2288
▁뛰어나	-10.2289
거같은데	-10.2289
부분이	-10.2292
▁모험	-10.2294
▁다시는	-10.2296
▁봤네	-10.2298
▁만들었는지	-10.2299
딴	-10.2299
▁재미로	-10.2303
▁이딴걸	-10.2308
문제	-10.2309
▁나에겐	-10.2309
▁따뜻하고	-10.2311
하기에	-10.2321
햇다	-10.2323
▁막장드라마	-10.2324
거리는	-10.2325
어가는	-10.2331
받는	-10.2333
▁코미디영화	-10.2339
▁흥	-10.234
▁개연성도	-10.2343
▁우리는	-10.2348
▁배우를	-10.2348
▁진부하	-10.235
ᄍ	-10.2351
포스터	-10.2351
깝	-10.2355
▁수준의	-10.2358
▁그거	-10.2362
으니까	-10.2369
▁보려고	-10.2371
시길	-10.2372
못해	-10.2373
었네요	-10.2373
때까지	-10.2377
섭	-10.2381
점이상	-10.2383
▁돋보이는	-10.2396
▁시청률이	-10.2397
로는	-10.2397
▁모르겠고	-10.2401
▁남자주인공	-10.2401
동생	-10.2402
줬다	-10.2403
▁하늘	-10.2403
분은	-10.2405
검	-10.2407
보셈	-10.2407
▁현실이	-10.241
▁기자	-10.2413
▁욕망	-10.2415
물을	-10.2415
▁대중	-10.2416
키드	-10.2418
후반	-10.2421
▁높게	-10.2422
▁죽이는	-10.2424
▁안볼	-10.2425
▁괜찮음	-10.2427
▁클레멘타인	-10.2431
▁엿	-10.2436
▁많은걸	-10.244
았지만	-10.2444
▁여전	-10.2445
▁있다니	-10.2445
꽃	-10.2454
삶	-10.2457
▁다운	-10.2458
개그	-10.2459
▁먼가	-10.246
웃김	-10.2464
▁보며	-10.2464
▁죽은	-10.2467
▁썼	-10.247
▁영상이	-10.2471
▁반전을	-10.2471
▁보다니	-10.2472
ᅮᅮᅮ	-10.2475
▁헬	-10.2485
▁단편	-10.249
▁진부	-10.2496
략	-10.2498
액	-10.2498
▁액션씬	-10.2498
닉	-10.2499
스토리도	-10.2499
▁교과서	-10.2499
▁소중한	-10.25
▁내생에	-10.25
지않았	-10.2501
납니다	-10.2501
말이필요없	-10.2501
▁예쁘다	-10.2502
했더니	-10.2503
▁안본	-10.2505
▁담배	-10.2508
▁어째	-10.2508
▁로코	-10.2509
제로	-10.2514
▁무술	-10.252
하길	-10.2523
치고는	-10.2526
▁해석	-10.2529
받아	-10.2532
▁이런영화는	-10.255
▁톰	-10.2551
▁그립다	-10.2558
쓰는	-10.2559
재밌어	-10.2564
왓	-10.2573
▁술	-10.2577
▁조용	-10.258
오늘	-10.2589
그만	-10.2598
닿	-10.2602
▁맞지	-10.2603
적이지	-10.2606
▁살다살다	-10.2607
곰	-10.2607
싼	-10.2607
부끄럽	-10.2607
▁아류작	-10.2607
▁테러	-10.2609
▁어쩜	-10.2612
▁억지스러운	-10.2614
▁똑같은	-10.2618
▁보여주고	-10.262
었는지	-10.2621
▁진수	-10.2621
▁효과	-10.2624
▁확실	-10.2626
▁결정	-10.2627
출연	-10.2627
▁만들수	-10.2633
▁부실	-10.2638
어린	-10.2639
기전에	-10.2646
▁어렵다	-10.2648
▁못보겠	-10.2652
▁영상과	-10.2655
▁재밋어요	-10.2659
▁남네요	-10.266
다음	-10.2661
▁정의	-10.2667
몇	-10.2673
▁만한	-10.2674
뇌	-10.2678
ᄒᄒᄒᄒ	-10.268
붙	-10.268
▁만들기	-10.268
걍	-10.2681
▁대해서	-10.2685
낫	-10.2691
초반	-10.2694
쟁	-10.2706
▁않네요	-10.2708
만드네	-10.2714
녕	-10.2715
롯	-10.2715
▁오랫만에	-10.2715
쪼	-10.2715
▁심형래	-10.2715
▁짜임새	-10.2715
려다가	-10.2717
생각이	-10.272
▁나오네	-10.2722
▁한숨	-10.2726
▁쉬	-10.2727
라곤	-10.2727
▁대표	-10.2731
▁단어	-10.2731
▁볼수있는	-10.2733
▁주변	-10.2733
▁연극	-10.2734
▁보았습니다	-10.2737
▁봐도봐도	-10.2739
▁영화보면서	-10.2745
▁하길래	-10.2745
때부터	-10.2746
▁동심	-10.2747
▁조절	-10.2747
▁뜬금없	-10.2749
▁재난영화	-10.275
▁돌리	-10.2758
씬이	-10.2767
▁녹	-10.277
게임	-10.2772
공주	-10.2773
놈이	-10.2778
▁싶을	-10.2787
L	-10.2791
▁조선	-10.2793
헐	-10.2795
비디오	-10.2795
어떻게	-10.2795
▁북	-10.2795
▁재미없어서	-10.2798
잖	-10.2802
▁오글거리	-10.2803
챙겨	-10.2811
▁매력을	-10.2813
사건	-10.2813
▁시리즈는	-10.2814
▁생각하면	-10.2815
▁형사	-10.2817
획	-10.282
▁포스터가	-10.2821
묵	-10.2825
▁가벼운	-10.2825
▁조니뎁	-10.2825
싹	-10.2825
▁디테일	-10.2825
▁인내심	-10.2825
조금	-10.2826
▁다양한	-10.2826
하군	-10.2827
아빠	-10.2828
좋았다	-10.2828
아까워	-10.2832
맘	-10.2834
▁쪽	-10.2835
▁모두가	-10.2839
하진	-10.2843
▁반담	-10.2844
▁추리	-10.2847
여주	-10.2849
▁남은	-10.285
지말자	-10.285
받아서	-10.2851
-_-;	-10.2852
▁집중해서	-10.2853
보시길	-10.2854
▁기억나는	-10.2857
▁귀엽다	-10.2859
▁궁금하다	-10.2864
▁p	-10.2868
▁신선하	-10.2868
▁답답하고	-10.287
▁아까운영화	-10.2874
하겠다	-10.2879
▁풋풋	-10.2883
▁형편없	-10.2889
▁제외	-10.2894
보소	-10.2901
▁살린	-10.2901
▁찰	-10.2903
럼	-10.2905
관객	-10.2906
몸	-10.2913
웨이	-10.2916
▁줄수	-10.2919
▁본방사수	-10.2919
주연	-10.2925
이름	-10.293
렵	-10.2931
▁응	-10.2935
올리	-10.2936
ᄎ	-10.2936
^-^	-10.2936
▁주윤발	-10.2936
랭	-10.2936
▁배트맨	-10.2936
▁동성애	-10.2936
▁장국영	-10.2936
▁2014	-10.2937
▁탄생	-10.2937
▁몇년	-10.2938
▁그자체	-10.2942
▁감각	-10.2944
▁태어나서	-10.2946
▁깨닫게	-10.295
▁비밀	-10.2951
▁해결	-10.2956
였으면	-10.2957
ut	-10.2958
만하다	-10.2959
▁괜찮았다	-10.2964
▁아쉽지만	-10.2972
▁감동은	-10.2973
▁독특	-10.2976
▁연기력은	-10.2979
▁인상적	-10.2981
▁마이	-10.2987
장애	-10.2998
▁탐	-10.2999
▁세상을	-10.3004
임에도	-10.3006
▁밀려	-10.3008
▁받는	-10.301
재미없어	-10.301
▁엔딩이	-10.3015
▁본지	-10.3018
▁F	-10.3019
▁애들은	-10.3021
배우들이	-10.3023
사람들은	-10.3023
▁자체는	-10.3029
▁소년	-10.3031
▁마지막장면	-10.3032
커플	-10.3032
▁한편의	-10.3033
져요	-10.3036
지않아	-10.3038
것만으로도	-10.3048
딘	-10.3049
▁dvd	-10.3049
찐	-10.3049
▁끔찍	-10.3049
▁즐거웠	-10.3049
▁유일하게	-10.3049
▁이보다	-10.305
▁폭풍	-10.3051
▁결코	-10.3055
▁있네	-10.3061
로드	-10.3064
▁나름대로	-10.3066
▁꼬마	-10.3067
건가요	-10.307
▁최고의영화	-10.3096
▁쩔	-10.3099
▁사랑해요	-10.3105
▁포스	-10.3111
▁불러	-10.3113
되었다	-10.3115
▁남아있	-10.3116
높은	-10.312
▁편견	-10.3121
▁삼류영화	-10.3133
▁편안	-10.3134
▁대단하	-10.3135
같아서	-10.3141
긴장감	-10.3141
▁느꼈다	-10.3146
웃겨	-10.3152
화이팅	-10.3159
▁다운받아	-10.3161
▁잠이	-10.3161
▁뱀파이어	-10.3162
▁블록버스터	-10.3162
▁왤케	-10.3162
▁박중훈	-10.3162
▁스크린	-10.3163
번은	-10.3164
▁말도안되는	-10.3164
이후	-10.3165
▁흑인	-10.3168
▁놀라운	-10.3169
▁주연배우	-10.3171
어이없	-10.3175
▁어색하	-10.3179
▁소재도	-10.318
▁하나같이	-10.3184
▁충분	-10.3199
▁원작에	-10.322
▁위로	-10.3223
▁잤다	-10.3226
▁싶어요	-10.3227
싶다	-10.3229
좋은영화	-10.3233
오브	-10.324
▁망친	-10.3245
▁재밌어서	-10.3245
▁내용과	-10.3249
▁h	-10.325
지마세요	-10.325
▁않나	-10.3253
▁있던	-10.3256
울리	-10.3258
le	-10.3261
▁ᄃᄃᄃ	-10.3263
▁아이들과	-10.3265
찡	-10.3266
재미있게	-10.3267
▁답이	-10.3268
▁죽었	-10.3269
갑니다	-10.3269
▁자랑	-10.3273
J	-10.3277
젖	-10.3277
▁해리포터	-10.3277
▁숨겨진	-10.3277
▁제니퍼	-10.3277
▁러시아	-10.3277
▁집착	-10.3279
멋있	-10.3281
▁손색	-10.3284
▁데리고	-10.3284
보지마셈	-10.3288
▁오빠	-10.329
멜로	-10.3291
▁내용전개	-10.3291
보는게	-10.3292
▁아깝고	-10.3295
▁좋겠네요	-10.3295
바라	-10.3296
▁성격	-10.3297
감정	-10.3297
▁보던	-10.3298
이었습니다	-10.3305
▁ᄍᄍᄍ	-10.3305
해야할	-10.3305
우스	-10.3313
나도	-10.3314
▁잘생겼	-10.3314
▁명작을	-10.3317
▁갖고	-10.3321
▁약간의	-10.3321
▁길게	-10.3323
ᅮᅲ	-10.3345
▁강한	-10.3346
▁지겹다	-10.3346
▁이상의	-10.3349
마리	-10.3353
▁인생에	-10.3355
애들이	-10.3359
▁안맞는	-10.3364
기도하고	-10.3365
▁가볍	-10.3366
▁국가	-10.3366
▁어디에	-10.3367
싶어서	-10.3369
본사람	-10.3371
▁낮게	-10.3372
ad	-10.3373
당한	-10.3385
낭	-10.3385
추억	-10.3388
▁짧은	-10.3391
쿵	-10.3394
땀	-10.3394
퓨	-10.3394
▁깜짝	-10.3394
▁유일한	-10.3394
▁달콤	-10.3395
큐	-10.3395
▁바랍니다	-10.3395
▁즐겨	-10.3397
둥이	-10.34
▁오락영화	-10.3401
▁첫사랑	-10.3401
▁믿고보는	-10.3402
재미도	-10.3404
▁돈을	-10.3405
블루	-10.3412
▁당연	-10.3412
할것	-10.3415
▁봤어	-10.3419
▁실력	-10.3428
▁뭐니	-10.3428
▁허술한	-10.343
▁L	-10.343
해준다	-10.3431
▁제목만	-10.3434
▁어울리는	-10.3437
▁봐야하는	-10.3438
▁막판에	-10.344
▁넘게	-10.3441
▁잘만들	-10.3442
류영화	-10.3443
▁시간아깝다	-10.3452
않음	-10.3457
00	-10.3459
씀	-10.3467
▁영혼	-10.347
엇는데	-10.3473
아닌가	-10.3473
거같음	-10.3475
여운이	-10.3477
▁교훈을	-10.3486
▁볼만했다	-10.349
▁머리가	-10.3492
▁선물	-10.3499
춤	-10.3505
▁잤	-10.3509
일듯	-10.3511
깃	-10.3511
▁케릭터	-10.3511
넬	-10.3511
▁이뻐서	-10.3512
100	-10.3514
상태	-10.3516
▁중학교	-10.352
▁다시보니	-10.3525
▁이상해	-10.353
▁개노잼	-10.354
▁방식	-10.354
▁부모님	-10.354
▁요리	-10.3541
연기는	-10.3544
있으면	-10.3546
▁최고로	-10.3562
여행	-10.3569
▁잼있음	-10.3573
▁기준	-10.3576
덕에	-10.3576
이랄까	-10.3578
▁업	-10.3579
▁찾아보	-10.358
▁소설을	-10.3582
▁좋겠	-10.3585
했을때	-10.3587
▁멋있는	-10.3594
▁부부	-10.36
역사	-10.36
▁부터	-10.3604
보여주	-10.361
특별	-10.3612
▁이야기는	-10.3613
느껴	-10.3622
▁사랑해	-10.3622
앤	-10.3625
▁평론가들	-10.3628
▁유치해	-10.3628
아직도	-10.363
▁맛이	-10.363
찜	-10.363
▁임팩트	-10.363
▁영환데	-10.3631
사람들이	-10.3632
▁감정이입	-10.3632
봣다	-10.3636
▁버리	-10.3636
▁또다른	-10.3645
▁디워	-10.3646
아아아	-10.3647
차원	-10.3656
▁힘내	-10.366
▁즐	-10.3661
▁변화	-10.3663
▁60	-10.3665
▁하나로	-10.3675
▁알수있	-10.3676
▁휘	-10.3678
▁느낌의	-10.3679
▁죽인	-10.3679
▁난잡	-10.368
▁어처구니	-10.3685
▁있었는데	-10.3688
▁놀랍다	-10.3691
▁잠들	-10.3696
▁본인	-10.37
물로	-10.371
▁망했	-10.3711
▁대본	-10.3712
굳	-10.3718
▁보다는	-10.3721
▁떨어지고	-10.3722
▁별로고	-10.3726
▁그지같	-10.373
▁발상	-10.3734
▁듣고	-10.3736
무시	-10.3739
▁소재와	-10.3742
▁생각으로	-10.3745
▁하아	-10.3748
어색	-10.375
벅	-10.3751
컴	-10.3751
▁스티븐	-10.3751
▁눈물나	-10.3752
때문	-10.3752
같지만	-10.3752
불쌍	-10.3752
▁잔잔하면서	-10.3754
▁무섭지	-10.3754
▁재개봉	-10.3756
싸움	-10.376
▁언제봐도	-10.376
▁거장	-10.3762
▁아예	-10.3764
굳굳	-10.3766
노답	-10.3766
쩐다	-10.3766
▁손에	-10.377
▁위해서	-10.377
▁말하고자	-10.377
▁영화라니	-10.3771
▁배역	-10.3771
▁순수함	-10.3775
90	-10.3784
▁재밌었던	-10.3785
버스	-10.3785
▁멋졌	-10.3788
극장에서	-10.3788
보고있어요	-10.3788
▁범	-10.3788
두고	-10.3789
~~^^	-10.3789
▁많아서	-10.3791
있습니다	-10.3796
▁폐	-10.3799
▁아깝네	-10.38
먹은	-10.3806
인물	-10.3806
▁벤	-10.381
보게되	-10.3821
▁옷	-10.3824
구석	-10.3824
이었던	-10.3828
▁강렬	-10.3833
X	-10.3836
▁줘야	-10.3846
▁관점	-10.3849
▁궁	-10.3851
▁=	-10.3852
▁재미있는데	-10.3856
아프	-10.386
▁두고	-10.3865
쩜	-10.3867
갠	-10.3873
윌	-10.3873
벼	-10.3873
앨	-10.3873
▁떠오르	-10.3873
▁늑대	-10.3873
▁재미없을	-10.3878
▁흔들	-10.3881
코믹	-10.3882
▁여자친구	-10.3882
답니다	-10.3883
▁아니지	-10.3883
▁적당히	-10.3884
▁여자주인공	-10.3885
▁옥	-10.3892
▁짜증남	-10.3893
▁과장	-10.3893
빠져	-10.3894
▁쩔어	-10.3895
▁잡아	-10.3895
▁갑니다	-10.3896
상황	-10.39
▁살아가는	-10.3902
▁울면서	-10.3904
학년	-10.3905
부러	-10.3909
글자	-10.392
당시	-10.3921
▁고마	-10.3922
▁모든걸	-10.3922
▁까지	-10.3933
재밌는	-10.3934
▁짜증나서	-10.3935
야겠다	-10.3935
▁없냐	-10.3938
▁연인	-10.3939
▁매일	-10.3948
▁불편한	-10.3948
▁안간다	-10.3948
▁멋지고	-10.3953
▁수작이다	-10.3962
▁보라	-10.3964
▁몰랐다	-10.3967
▁으리	-10.3967
듯하다	-10.3967
떨어지	-10.3971
▁감독을	-10.3972
▁내게	-10.3979
만족	-10.3991
▁새로	-10.3992
▁스포츠	-10.3996
▁빨갱이	-10.3996
닭	-10.3996
▁뭥미	-10.3996
▁우려먹	-10.3996
▁주인공은	-10.3997
▁안봐도	-10.4002
▁여러번	-10.4003
▁열받	-10.4004
솔직히	-10.4008
▁다신	-10.4011
이딴	-10.4014
없나	-10.4016
▁생긴	-10.4017
▁한개도	-10.402
▁하품	-10.4021
▁울리는	-10.4022
▁무료	-10.4025
▁최고봉	-10.4025
▁사상	-10.4031
▁보았는데	-10.4031
▁가정	-10.4035
재미있어요	-10.4035
▁생각난다	-10.4036
낮은	-10.4038
나오네	-10.4039
12	-10.4039
▁강렬한	-10.4041
존나	-10.4043
소름	-10.4044
보인다	-10.4044
톤	-10.4045
▁본게	-10.4046
▁빵터	-10.4048
▁없었음	-10.4048
▁여주인공이	-10.4048
옆	-10.4048
▁의미가	-10.4053
▁명장면	-10.4058
▁매미	-10.4065
▁볼거	-10.407
언제	-10.4075
▁갔다	-10.4083
▁수입	-10.4089
같아	-10.4099
구리	-10.41
라는걸	-10.41
▁샘	-10.4104
▁재미있을	-10.4104
▁없으면	-10.4105
있었다	-10.4109
픽	-10.4117
닫	-10.412
꼈	-10.412
뢰	-10.4121
▁you	-10.4121
▁아닙니다	-10.4121
램	-10.4121
탱	-10.4121
▁짐캐리	-10.4121
똘	-10.4121
▁내생애	-10.4121
▁희대의	-10.4121
보느니	-10.4122
▁싸움	-10.4126
▁처절	-10.4128
줄알았는데	-10.4131
▁만들었을까	-10.4131
▁포스터만	-10.4137
궁	-10.4139
후에	-10.4143
질질끌	-10.4146
▁분들은	-10.415
장면은	-10.4153
▁어거지	-10.4153
▁독일	-10.4157
▁ᄒᄒᄒᄒ	-10.4167
▁깜	-10.4167
▁영원한	-10.417
▁없나요	-10.4172
▁않아서	-10.4179
▁세번	-10.4183
▁한국판	-10.4184
▁자신이	-10.4191
거죠	-10.4193
기억이	-10.4199
▁따뜻해	-10.4218
▁적당한	-10.4219
부터가	-10.4222
▁목적	-10.4225
▁부분도	-10.4231
▁마음으로	-10.4234
ᄏᄏᄏᄏᄏᄏᄏ	-10.4236
장르	-10.4238
▁아래	-10.4239
객	-10.4241
▁빵빵	-10.4246
욤	-10.4248
웟	-10.4248
▁우뢰매	-10.4248
읍	-10.4248
▁드디어	-10.4248
▁짜집기	-10.4248
▁알겠다	-10.4248
▁이소룡	-10.4248
▁뭐하자는	-10.4249
▁귀여움	-10.425
▁배경음악	-10.4252
▁웃으면서	-10.4252
레인	-10.4254
▁주제를	-10.4266
▁장난치	-10.4266
분위기	-10.4268
벗	-10.4269
볼수	-10.4271
탑	-10.4272
엄청	-10.4273
▁결말을	-10.4273
▁한번도	-10.4276
▁짜증이	-10.428
▁스토리전개	-10.4281
이런류의	-10.4298
▁내용에	-10.4301
▁본건데	-10.4301
▁인해	-10.4305
달아	-10.4308
▁실망스럽	-10.4308
못한	-10.4309
▁집중이	-10.4313
▁폐지	-10.4316
19	-10.4317
▁싸우는	-10.4322
▁모르겟	-10.4333
거든	-10.4333
▁주제가	-10.4336
▁느껴지	-10.4337
광구	-10.4337
▁몰라	-10.4338
▁난리	-10.4339
▁뭐하나	-10.4339
늙	-10.4341
▁다루	-10.4351
▁나랑	-10.436
▁음식	-10.436
▁정도면	-10.436
할뿐	-10.4361
방식	-10.4365
둥	-10.4369
측	-10.4374
뷰	-10.4374
멈	-10.4376
▁당신은	-10.4376
켄	-10.4376
맴	-10.4376
▁오글거려	-10.4376
▁제시카	-10.4376
▁사운드	-10.4376
▁모른다	-10.4377
▁잔잔하게	-10.4377
▁졸았	-10.4378
▁평균	-10.4378
▁어른이	-10.4379
ch	-10.438
▁포스터에	-10.438
분만에	-10.4382
▁은근히	-10.4382
▁상영관	-10.4385
▁근래	-10.4387
▁보기에는	-10.4391
▁그럴듯	-10.4396
▁괜찮았는데	-10.4396
▁재능	-10.4397
수밖에	-10.44
해주고	-10.4402
ᅮᅮᅮᅮ	-10.4409
▁믿기지	-10.441
▁아름답게	-10.4412
있지	-10.4413
될듯	-10.4413
▁봅니다	-10.4414
▁살리	-10.4417
▁몽	-10.4419
▁마지막까지	-10.4419
▁높아서	-10.4422
▁가수	-10.4423
혼자	-10.4431
▁키스	-10.4433
▁이해할수	-10.4435
▁놀랍	-10.4441
▁시간만	-10.4452
볼수있	-10.4459
▁봤을	-10.4463
▁책을	-10.4463
▁재밋음	-10.4469
▁슬픈영화	-10.447
였나	-10.4474
▁다시보고	-10.4493
▁쓰는	-10.4501
줄알았	-10.4503
얄	-10.4506
▁고등학교	-10.4506
▁터미네이터	-10.4506
▁홍상수	-10.4506
▁플롯	-10.4506
▁하정우	-10.4506
▁바다	-10.4509
갔는데	-10.4511
▁축구	-10.4512
▁적어도	-10.4514
봤지	-10.4515
▁저평가	-10.4516
▁사라지	-10.4516
▁다운받	-10.4519
뻔했다	-10.452
▁불쌍한	-10.452
▁꼭보세요	-10.4522
▁첨엔	-10.4523
▁유럽	-10.4526
▁생에	-10.4529
▁쩌는	-10.4529
▁프리	-10.4532
▁인형	-10.4533
찰	-10.4534
▁하지원	-10.4537
▁생각할	-10.4537
▁예수	-10.4538
귀엽	-10.4539
왠	-10.454
목소리	-10.4541
▁가족의	-10.4541
▁정신없	-10.4542
▁얼굴이	-10.4549
▁라이	-10.4549
▁스릴도	-10.4551
조아	-10.4552
▁작가님	-10.4556
▁생각했는데	-10.4557
▁우연	-10.4559
▁안본다	-10.4563
▁기대이하	-10.4564
▁절정	-10.4565
▁하는게	-10.4568
▁지겹	-10.4576
여운	-10.4579
▁못보겠다	-10.458
맞는	-10.458
스톤	-10.4586
▁받은	-10.4586
▁별하나	-10.4586
스케	-10.4589
보내	-10.459
▁보고싶어	-10.4591
▁아우	-10.4591
▁알았네	-10.4605
▁반대	-10.4614
▁영화였음	-10.4617
▁엄마가	-10.4618
에대해	-10.462
▁줍니다	-10.4624
발연기	-10.4628
▁넘치	-10.463
▁때려	-10.463
▁그만큼	-10.463
▁아내	-10.4633
납	-10.4635
▁점수는	-10.4636
셋	-10.4637
▁대통령	-10.4637
▁설득력	-10.4637
▁웰메이드	-10.4637
▁유덕화	-10.4637
▁할리우드	-10.4637
▁브루스	-10.4637
▁호기심	-10.4638
▁아놀드	-10.4638
없네요	-10.4638
▁4.44	-10.4639
▁착각	-10.464
▁명대사	-10.4641
▁돈아까워	-10.4642
▁돈내고	-10.4644
겠죠	-10.4644
▁반전에	-10.4646
도좋고	-10.4646
▁아닐	-10.4647
있어요	-10.465
▁부럽	-10.4654
▁역사를	-10.4654
굿굿	-10.4655
▁손발	-10.4656
숨	-10.4657
▁대놓고	-10.466
▁짜증만	-10.4661
하는건지	-10.4664
점부터	-10.4665
아버지	-10.4669
▁보는거	-10.467
▁to	-10.4672
썼	-10.4674
도대체	-10.4676
했다면	-10.468
상영	-10.468
▁내돈	-10.4681
▁인생은	-10.4687
▁아냐	-10.4689
▁들고	-10.4691
▁그건	-10.4691
▁괜찮고	-10.4692
혹은	-10.4694
80	-10.4694
▁사랑합니다	-10.4703
▁이상하고	-10.471
▁꿀	-10.4726
▁액션과	-10.4727
▁그립	-10.4745
▁어색하고	-10.4752
▁웃을	-10.4754
▁많은데	-10.4758
빼	-10.4764
▁쉽지	-10.4765
빠진	-10.4766
할수가	-10.4771
ᄁ	-10.4771
ᅢ	-10.4771
▁깡패	-10.4771
▁스타뎀	-10.4771
▁정우성	-10.4771
▁동시에	-10.4771
▁삶이	-10.4775
▁즐길	-10.4775
▁배우들은	-10.4776
▁할아버지	-10.4776
주기도	-10.4778
▁실화를	-10.4778
▁폭발	-10.4779
▁어디로	-10.478
▁공감할	-10.4783
▁추격	-10.4783
▁박수	-10.4783
▁아쉬움이	-10.4784
보기싫	-10.4787
▁예능	-10.4789
▁재미있었음	-10.4797
▁X	-10.4803
▁영상미가	-10.4803
▁거리	-10.4811
꿀	-10.4811
▁정신병자	-10.4811
▁상어	-10.4818
▁먹는	-10.482
▁오브	-10.4832
아이들	-10.4835
▁남긴	-10.4835
▁봤다면	-10.484
▁전쟁의	-10.4844
▁마니	-10.4844
최고다	-10.4848
▁현실과	-10.4853
▁이름이	-10.4859
좋아하	-10.4859
보고싶어요	-10.4867
▁감정이	-10.4867
▁유발	-10.4868
신분	-10.4873
왔어요	-10.4873
▁이해를	-10.4887
알아	-10.4888
▁연기자	-10.4898
▁재난	-10.4902
젊	-10.4903
▁네티즌	-10.4906
뭣	-10.4906
쟈	-10.4906
▁나레이션	-10.4906
▁임창정	-10.4906
▁도무지	-10.4906
▁당황	-10.4912
▁시대에	-10.4912
▁마리	-10.4913
▁황당한	-10.4913
▁그림체	-10.4914
▁당연히	-10.4914
▁부탁	-10.4914
▁그야말로	-10.4917
▁거북	-10.4917
▁봐야지	-10.4918
▁재미있었습니다	-10.4918
▁겨울	-10.4919
▁개콘	-10.4919
->	-10.4922
▁볼만합니다	-10.4924
분동안	-10.4926
▁아무도	-10.4926
▁동양	-10.4927
▁찾아볼	-10.4933
▁도망	-10.4936
▁시작부터	-10.4948
햇는데	-10.4948
세여	-10.4949
캐스팅	-10.4951
▁여주가	-10.4952
▁형제	-10.4956
▁괜찮네요	-10.4957
느끼	-10.4957
▁히어로	-10.4965
▁아깝네요	-10.4968
▁세상이	-10.4974
▁감동적이네요	-10.4974
▁배경이	-10.4975
외엔	-10.4976
겐	-10.4981
▁정작	-10.4995
▁설정이	-10.4997
▁무난	-10.5
너무너무	-10.5002
멜	-10.5006
▁어우	-10.5013
뭐냐	-10.5018
▁좋네	-10.5022
▁잘만들었다	-10.5026
▁망쳐	-10.5032
▁영화예요	-10.504
엽	-10.504
간만에	-10.5041
▁이토록	-10.5043
덩어리	-10.5043
▁향연	-10.5044
▁보게된	-10.5045
▁흐르는	-10.5046
▁아무런	-10.5048
▁만화책	-10.5049
▁보이지	-10.5058
▁거품	-10.5062
▁가고	-10.5062
▁어디가	-10.5066
하시길	-10.5069
▁무엇인가	-10.5075
▁순수하고	-10.5081
▁꽤나	-10.5085
나왓	-10.5086
▁찾을	-10.5087
▁예술영화	-10.5088
▁원조	-10.5093
▁기가	-10.5094
▁뒤에	-10.51
편까지	-10.5101
▁허무한	-10.5103
▁풋풋한	-10.511
▁책으로	-10.5113
▁엉망이	-10.5119
▁촌스러	-10.512
▁유치해서	-10.512
▁호구	-10.5121
▁매력에	-10.5126
▁배신	-10.5127
자신	-10.5128
▁밤에	-10.5135
주제	-10.5137
나름	-10.5139
▁아진짜	-10.5141
▁않은데	-10.5147
▁일본인	-10.5152
▁그것도	-10.5163
▁:)	-10.5165
▁잊혀	-10.5167
▁가득한	-10.5168
▁나네요	-10.5174
▁친구가	-10.5177
랍	-10.5178
▁등장인물	-10.518
갱	-10.5182
빗	-10.5182
▁명불허전	-10.5182
▁갠적으로	-10.5182
▁이름을	-10.5182
▁of	-10.5182
▁낭만	-10.5184
▁탈출	-10.5184
▁자신을	-10.5185
▁배꼽	-10.5187
▁장난하냐	-10.5187
▁이루어	-10.519
▁조아	-10.519
▁생기	-10.5192
▁말아야	-10.5196
▁암울	-10.52
▁속았다	-10.5201
▁무섭고	-10.5204
▁기대하지	-10.5206
▁제작비가	-10.521
▁처음에는	-10.5211
▁친구랑	-10.5216
잼씀	-10.5225
▁실감	-10.523
▁ᄡ	-10.5232
뿐이다	-10.5232
▁매니아	-10.5234
앞에서	-10.5235
▁싶었다	-10.5243
▁기대없이	-10.5247
였지	-10.5269
뭐지	-10.5275
긴했지만	-10.5279
순위	-10.53
▁명성	-10.5301
ᄏᄏᄏᄏᄏᄏ	-10.5304
능력	-10.5319
ᅩ	-10.5322
▁아무생각없이	-10.5323
▁쓸데없이	-10.5323
▁역겨운	-10.5323
▁양아치	-10.5323
▁적절한	-10.5323
▁반드시	-10.5323
▁추천하고	-10.5323
▁심지어	-10.5324
▁떨어짐	-10.5328
▁빠른	-10.5328
▁로빈	-10.5329
▁흘리	-10.5331
▁따름	-10.5333
보네요	-10.5339
▁억지감동	-10.534
봐야지	-10.5346
답게	-10.5347
▁다행이다	-10.5349
▁혹시나	-10.535
하실	-10.5352
▁액션신	-10.5362
스릴	-10.5364
▁위트	-10.5368
▁공간	-10.5374
▁프랑스영화	-10.5375
▁훈훈하	-10.5379
놨네	-10.5379
▁괜찮아	-10.5379
▁확인	-10.5383
▁좋아하지만	-10.5385
▁이만한	-10.5388
하나하나가	-10.5388
잤	-10.5388
쩝	-10.5389
뭘	-10.539
보시	-10.5395
▁후에	-10.5398
▁고어	-10.5399
▁무섭게	-10.5403
▁없게	-10.5404
안돼	-10.5413
행복	-10.5415
▁대학	-10.5417
지루해	-10.5418
내용은	-10.5418
▁아프다	-10.5422
▁가능한	-10.5432
▁뭐라고	-10.5433
▁전편보다	-10.544
재밋다	-10.5445
지루하다	-10.5453
▁안될	-10.5457
▁명배우	-10.5461
▁작품입니다	-10.5462
그러나	-10.5463
븐	-10.5465
및	-10.5465
짤	-10.5466
▁공짜로	-10.5466
▁이해불가	-10.5466
▁케빈	-10.5466
▁잼있는	-10.5467
펙트	-10.5467
▁어설프다	-10.5467
▁실험	-10.547
▁이것보단	-10.547
▁감동적이에요	-10.5473
소녀	-10.5474
▁자극적	-10.5475
▁요새	-10.5477
▁서울	-10.5478
지루하고	-10.548
▁김치	-10.5481
ck	-10.5485
부분은	-10.5493
찾아	-10.5498
▁수많은	-10.5501
▁최악의영화	-10.5501
싫어	-10.5503
▁욕심	-10.5514
시간동안	-10.5522
▁좋을듯	-10.5529
것처럼	-10.553
▁넘넘	-10.5533
섬	-10.5535
▁아니었다	-10.5535
▁남았	-10.5539
벤	-10.5539
▁왜곡	-10.5542
그럼	-10.5543
▁찍고	-10.5544
500	-10.5556
없구	-10.5557
못하는	-10.5565
▁괜찮게	-10.5565
귀신	-10.5573
봤습니다	-10.5577
▁자아	-10.5578
▁실수	-10.5581
▁찍는	-10.5595
▁장난아니	-10.5606
콤	-10.5609
팍	-10.561
▁스타워즈	-10.561
▁소중함을	-10.561
츄	-10.561
▁이병헌	-10.561
▁베드신	-10.5611
쯧쯧	-10.5611
▁박진감	-10.5611
▁사투리	-10.5611
▁답답해	-10.5612
▁이딴영화	-10.5616
▁말자	-10.5617
▁엄청나게	-10.5617
표정	-10.5618
▁담담	-10.5619
▁에효	-10.5619
▁파괴	-10.5621
▁판단	-10.5621
▁생각해보게	-10.5624
▁만들어낸	-10.5625
ᄀᄀ	-10.5627
▁빛을	-10.5629
▁정상	-10.563
▁미안하다	-10.563
▁괜찮았음	-10.5641
▁웃었	-10.5645
▁궁금해서	-10.5648
▁치유	-10.5649
갈때	-10.5667
▁짜증나고	-10.5669
리스트	-10.5669
▁시대의	-10.567
▁간지	-10.5675
▁시작해서	-10.5681
좋네요	-10.5684
칼	-10.569
▁멋있어	-10.5693
▁내일	-10.5694
▁곧	-10.5696
또보고싶	-10.5699
▁현실감	-10.5734
세포	-10.5736
▁돼지	-10.5744
▁만들어라	-10.5746
미친	-10.5746
▁메이	-10.5754
▁2000	-10.5756
쯔	-10.5757
렐	-10.5757
숀	-10.5757
▁컴퓨터	-10.5757
눌	-10.5757
뻥	-10.5757
핫	-10.5757
▁화장실	-10.5758
▁무거운	-10.5758
▁불가능	-10.5758
▁흑백	-10.5758
▁혐오	-10.5758
▁감명깊게	-10.5758
▁스파이	-10.5759
▁맞춰	-10.5761
▁앞뒤	-10.5761
▁오래전에	-10.5763
▁응원	-10.5763
▁일부러	-10.5764
것보다	-10.5765
▁저급	-10.5765
것같은데	-10.5774
am	-10.5775
▁아만다	-10.5777
잖아요	-10.5782
▁당신이	-10.5784
▁부담	-10.5784
▁미소가	-10.5791
▁귀여워요	-10.5795
▁답답하다	-10.5795
▁녹아	-10.5798
미국	-10.5808
▁잘한다	-10.5814
▁묻어	-10.583
▁빠르	-10.5833
꿈	-10.5838
평론가	-10.5843
코메디	-10.5844
하하하하	-10.5846
TV	-10.5846
봤어	-10.5846
▁아니잖아	-10.5847
▁아파	-10.5847
▁철학적	-10.5848
▁말고는	-10.5863
멋잇	-10.5865
▁담은	-10.5866
나쁜	-10.5869
▁캐리	-10.587
▁소장하고	-10.5878
하지말고	-10.5879
제대로	-10.5884
싫다	-10.5885
있지만	-10.5888
해줄	-10.5888
좋은데	-10.5888
만큼이나	-10.5889
▁감동입니다	-10.5894
▁열라	-10.5899
▁필요한가	-10.5904
그렇게	-10.5905
▁인상깊었	-10.5907
껀	-10.5907
밧	-10.5907
뻑	-10.5907
툭	-10.5907
▁전반적으로	-10.5907
▁도데체	-10.5907
▁어둡	-10.5907
▁엽기	-10.5908
▁목숨	-10.5908
▁웃었다	-10.5908
▁ᄌᄂ	-10.5909
▁등장인물들	-10.591
▁빛나는	-10.5912
겠는데	-10.5913
▁전체적인	-10.5918
조연	-10.592
▁절망	-10.5921
▁어느정도	-10.5921
▁찾는	-10.5921
▁어울리지	-10.5923
▁개똥	-10.5923
▁조낸	-10.5929
▁100%	-10.5931
▁사랑한다	-10.5933
▁울었어요	-10.5933
▁사람이라면	-10.5934
▁마지막엔	-10.5942
▁보았던	-10.5946
▁산만하고	-10.5949
▁평화	-10.5953
▁인상적인	-10.5956
▁사람들에게	-10.5962
터짐	-10.5967
꺼야	-10.5969
▁보시면	-10.5969
재미있다	-10.5978
갖	-10.5983
게만드는	-10.5988
▁충격적인	-10.5988
못하고	-10.5991
▁보겠다	-10.5999
비슷	-10.6001
▁최고최고	-10.6003
당시엔	-10.6003
나왔으면	-10.6009
▁파리	-10.6013
줄알았다	-10.6015
또한	-10.6022
▁뭐임	-10.6026
▁깔끔한	-10.6026
전혀	-10.6041
ᅲᅲᅲᅲᅲ	-10.6044
▁망할	-10.6048
▁웃기는	-10.6052
▁시도는	-10.6054
▁킬링	-10.6058
덴	-10.6058
뚝	-10.6058
퀄	-10.6058
▁둘째치고	-10.6058
쉴	-10.6058
헉	-10.6058
랴	-10.6058
쩍	-10.6058
템	-10.6058
스파이더맨	-10.6058
▁하이틴	-10.6058
▁누군지	-10.6058
▁블랙코미디	-10.606
▁짜릿	-10.6061
▁왠만한	-10.6061
▁이거보다	-10.6067
▁극복	-10.6068
▁마시길	-10.6069
외에는	-10.607
▁여친	-10.6075
하니까	-10.6077
▁사랑스럽다	-10.6082
되요	-10.6088
▁어쩔수	-10.6088
▁기존	-10.6089
▁좋지	-10.6094
▁애매	-10.6098
점만점에	-10.6101
♥♥♥♥	-10.6102
▁나을듯	-10.6102
▁멋져	-10.6102
▁재밋엇	-10.6103
힘들	-10.6104
맘에	-10.6105
보긴	-10.6109
▁알았음	-10.6117
▁기적	-10.613
▁생명	-10.613
▁다르게	-10.6132
작이라	-10.6132
▁이거보단	-10.6138
▁멋있었	-10.614
▁그렇지만	-10.615
▁중심	-10.6158
오랜만에	-10.6159
해지고	-10.6163
예술	-10.6169
▁불쌍해	-10.6169
▁거기에	-10.6174
▁끝나서	-10.6175
sh	-10.6176
스티	-10.6176
▁혹시	-10.6184
▁이것보다	-10.6184
픔	-10.6194
▁두시간	-10.6209
덩	-10.6212
쿡	-10.6212
뭉	-10.6212
▁놀랐다	-10.6212
▁인터넷	-10.6212
▁흡입력	-10.6212
펜	-10.6212
쫓	-10.6212
▁리얼리티	-10.6212
▁오글오글	-10.6212
▁비호감	-10.6212
▁닥치고	-10.6212
▁상관없	-10.6214
▁보려	-10.6215
▁예측	-10.6215
▁최소	-10.6217
▁잃은	-10.6217
▁관련	-10.6218
▁서양	-10.6219
▁기획	-10.6219
▁낫겠다	-10.622
▁은근	-10.6222
▁희망을	-10.6222
습니까	-10.6226
▁재미없었	-10.6231
▁진지하게	-10.6233
▁한심하다	-10.6233
▁모욕	-10.6235
▁갖다	-10.6235
▁담긴	-10.6237
여배우	-10.6241
▁마약	-10.6244
▁거지같은	-10.6245
▁맞나	-10.6249
▁있었으면	-10.6251
아까운영화	-10.6257
제일	-10.6264
밖	-10.6269
▁표현할	-10.627
▁그동안	-10.627
▁않았지만	-10.6277
▁한번더	-10.6291
였다면	-10.6291
낫다	-10.6297
훌륭	-10.6299
▁떠올	-10.63
▁ᄒᄃᄃ	-10.6308
▁낮네요	-10.631
같아요	-10.6313
▁어이없다	-10.6315
줘야지	-10.6316
▁신선함	-10.6319
천원	-10.632
스틴	-10.632
▁뜬금없는	-10.6321
▁명연기	-10.6321
핵	-10.6327
▁의지	-10.6337
▁자극적인	-10.6339
▁뭐여	-10.634
▁뻔뻔	-10.6348
엇음	-10.6354
셔야	-10.6355
▁다시보기	-10.6356
▁인생영화	-10.6364
씁	-10.6368
낯	-10.6368
▁어정쩡	-10.6368
톡	-10.6368
캠	-10.6368
▁가까운	-10.6368
▁자동차	-10.6368
▁말그대로	-10.6368
▁강동원	-10.6368
▁기발한	-10.6369
▁격투	-10.6369
▁민폐	-10.637
웠던	-10.6371
▁만들었나	-10.6372
▁실망이다	-10.6374
▁도시	-10.6375
▁만화영화	-10.6379
▁부활	-10.6381
▁중학생	-10.6381
▁대사들	-10.6382
▁로망	-10.6382
유발	-10.6387
▁재밌게봤어요	-10.6388
자마자	-10.6389
립니다	-10.6391
▁첨부터	-10.6394
ᄃᄃᄃ	-10.6395
놈들은	-10.6396
▁강추합니다	-10.6401
▁씁쓸하	-10.6403
것같네요	-10.6404
유쾌하게	-10.6405
▁안보는게	-10.6406
▁멋있고	-10.6406
▁안나온다	-10.6412
▁연기잘하	-10.6415
거에요	-10.6416
▁답답함	-10.6419
났음	-10.6429
▁모르겠네요	-10.6432
▁형편없는	-10.6436
▁말밖에	-10.6437
▁첨이다	-10.6438
▁벗어	-10.6439
▁화나	-10.644
드립	-10.6445
할수있는	-10.6446
▁낚인	-10.6448
▁여자애	-10.6449
▁가족들	-10.645
▁상대	-10.6463
▁벗어나	-10.6471
곳에서	-10.6473
▁싸우	-10.6476
▁나와야	-10.6478
▁짜증나게	-10.6478
시나리오	-10.6483
▁찾아서	-10.6484
▁소름끼치는	-10.6485
ed	-10.6485
있던	-10.6488
▁소화	-10.649
▁미국식	-10.6492
선택	-10.6495
▁코믹영화	-10.651
▁가족애	-10.6524
셜	-10.6527
캡	-10.6527
퉤	-10.6527
▁오프닝	-10.6527
▁유치찬란	-10.6527
됫	-10.6527
뱀	-10.6527
▁신하균	-10.6527
▁어두운	-10.6527
▁명복을	-10.6527
▁박보영	-10.6527
▁첩보	-10.6528
였구나	-10.6528
▁장애인	-10.6533
▁동영상	-10.6534
▁살리지	-10.6537
녀석	-10.6537
▁등등	-10.6538
▁이도저도	-10.6539
▁태국	-10.654
지않게	-10.6541
▁진지한	-10.6541
▁말하려는	-10.6546
▁멋져요	-10.6547
▁절로	-10.6549
▁장난하나	-10.6551
▁무겁	-10.6553
▁재미있었는데	-10.6561
▁유행	-10.6568
▁귀여	-10.6591
▁잊고	-10.6593
▁만난	-10.6593
▁마지막회	-10.6595
특집	-10.6601
망작	-10.6605
▁멋진영화	-10.6606
쁜	-10.6608
▁독특하고	-10.6609
▁모르겠네	-10.6611
였네요	-10.6615
▁삶과	-10.6618
▁가히	-10.6622
돌려	-10.6628
곳이	-10.6632
▁충분한	-10.6633
▁초반부	-10.6642
다시보고싶	-10.6647
돈주고	-10.6655
하거나	-10.6659
▁처음이네	-10.6664
▁빠졌	-10.6668
되네	-10.6674
하고싶다	-10.6679
앞으로	-10.6685
랙	-10.6688
▁류승범	-10.6688
▁못봐주겠	-10.6688
▁오그라드는	-10.6688
버렸네	-10.6688
쉐	-10.6688
▁쓸데없는	-10.6688
▁아름다워	-10.6688
▁언젠가	-10.6688
▁괜찬	-10.6688
▁흥미로웠	-10.6689
▁라이언	-10.6691
▁그려낸	-10.6691
▁고뇌	-10.6692
▁일반	-10.6692
▁좋았을텐데	-10.6693
▁고딩	-10.6694
▁밑도	-10.6694
▁개그맨	-10.6696
▁미치겠	-10.6696
▁대신	-10.6703
▁드림	-10.6705
▁천국	-10.6707
▁여태	-10.671
▁잘못된	-10.671
▁탄탄하고	-10.6721
▁보고싶은데	-10.6727
겠어	-10.6727
▁뻔하다	-10.6731
▁주온	-10.6733
▁미녀	-10.6737
▁끌고	-10.6743
▁중국영화	-10.6744
▁인디	-10.6752
▁환상적인	-10.6754
▁여인	-10.6761
으려고	-10.6764
었구나	-10.6768
좋아하는데	-10.6768
까봐	-10.6772
un	-10.6779
▁잠시	-10.678
너무좋아	-10.6782
▁잼있네요	-10.6783
▁화끈	-10.6786
▁보라고	-10.6799
▁세월이	-10.6799
자식	-10.6803
▁별로였다	-10.6813
▁놓치	-10.6816
브리	-10.6819
▁만들어서	-10.682
▁선정	-10.6821
로맨스	-10.6822
허무	-10.6831
▁부정	-10.6834
하는구나	-10.6845
있네요	-10.6851
ᄐ	-10.6852
랩	-10.6852
▁EBS	-10.6852
▁디카프리오	-10.6852
▁송강호	-10.6852
▁알파치노	-10.6852
렛	-10.6852
렴	-10.6852
맑	-10.6852
혔	-10.6852
▁배급사	-10.6853
▁Good	-10.6853
▁몽환적	-10.6853
▁혁명	-10.6853
▁극혐	-10.6854
볼까	-10.6854
▁전성기	-10.6855
▁위험	-10.6857
▁공룡	-10.686
▁좋으나	-10.6862
▁충분하다	-10.6869
▁살인마	-10.688
▁귀여웠	-10.6899
▁언제까지	-10.6901
형제	-10.6902
비추	-10.6907
▁마시	-10.6907
알앗	-10.6908
▁잃었	-10.6912
▁나무	-10.6915
▁비중	-10.6925
보임	-10.6925
스틱	-10.6926
us	-10.6927
▁명성에	-10.6928
▁승리	-10.6937
▁옆에	-10.6949
▁재밋어	-10.6962
▁심하다	-10.6972
버그	-10.6983
▁흉내	-10.6988
낭비	-10.6988
^^;	-10.6995
▁달려	-10.6996
병맛	-10.7
40	-10.7006
바람	-10.7007
▁만났	-10.7012
▁느껴지지	-10.7014
▁믿어	-10.7017
ce	-10.7019
겻	-10.7019
▁movie	-10.7019
▁시종일관	-10.7019
▁점수준것들	-10.7019
걷	-10.7019
풋	-10.7019
▁피아노	-10.7019
▁일주일	-10.7019
▁걱정	-10.7019
▁완젼	-10.7019
▁미스캐스팅	-10.702
▁쓸쓸	-10.702
▁환경	-10.702
▁킬러	-10.702
마누라	-10.7021
▁죄송	-10.7021
▁한방	-10.7021
ood	-10.7022
▁멋짐	-10.7024
▁이끌어	-10.7026
▁묘한	-10.7029
▁고독	-10.7032
▁중년	-10.7036
av	-10.7042
▁대박이다	-10.7043
▁보는것	-10.7045
▁모르지만	-10.705
▁다운받아서	-10.7051
이후로	-10.7058
▁역사상	-10.7062
▁심한	-10.7068
▁않았던	-10.707
▁공유	-10.7072
ll	-10.7073
극히	-10.7074
▁최고에요	-10.7074
el	-10.7097
▁반영	-10.71
아니면	-10.7103
효과	-10.7106
▁결론은	-10.711
봣어요	-10.7117
더군	-10.7117
▁만들려	-10.7121
살때	-10.7128
싶은데	-10.7133
삼류	-10.7133
좀비	-10.7134
▁전설이	-10.7141
봤네	-10.7147
속으로	-10.7154
▁보여줘	-10.7155
▁막판	-10.716
▁본격	-10.7163
15	-10.7167
초딩	-10.7171
▁넣어	-10.7172
에비해	-10.7176
퉁	-10.7188
ᄊ	-10.7188
▁뒤죽박죽	-10.7188
▁재미없네요	-10.7188
둠	-10.7188
뚫	-10.7188
몫	-10.7188
쭈	-10.7188
퀸	-10.7188
튜	-10.7188
▁되돌아	-10.7189
▁칭찬	-10.7189
▁한효주	-10.7189
드려요	-10.7189
▁2012	-10.7192
▁영원	-10.7195
▁라스트	-10.7196
▁먹칠	-10.7198
▁살렸다	-10.7198
▁개꿀잼	-10.7208
분짜리	-10.7211
▁역작	-10.7212
학년때	-10.7216
▁-_-;;	-10.7217
▁욕먹	-10.7219
▁대결	-10.7221
▁오글거리는	-10.7223
▁짝이	-10.7225
였네	-10.7225
▁역겹다	-10.7234
흥미롭	-10.7235
느냐	-10.725
▁한시간	-10.7256
▁말인가	-10.7261
▁개봉당시	-10.7275
중국	-10.7276
▁싫어하는	-10.7295
▁좋더라	-10.7299
▁때리	-10.73
사실	-10.7317
▁신화	-10.732
누님	-10.7331
▁이상하다	-10.7333
룬	-10.7342
맹	-10.7346
덮	-10.7361
썸	-10.7361
▁짬뽕	-10.7361
엮	-10.7361
▁섬세한	-10.7361
▁드니로	-10.7361
▁섬뜩	-10.7361
▁삭제	-10.7361
▁수면제	-10.7362
▁에라이	-10.7364
▁말이필요없다	-10.7364
▁슈퍼맨	-10.7365
ma	-10.7367
▁재앙	-10.7371
▁사랑스럽고	-10.7373
재밋어요	-10.7376
▁기억난다	-10.7389
여주인공	-10.739
구먼	-10.7393
▁마블	-10.7397
되길	-10.7402
▁완벽하다	-10.7404
▁모든것이	-10.7409
▁어이없음	-10.7413
겨울	-10.7418
김정	-10.7438
▁뛰어넘는	-10.7443
▁조잡한	-10.7444
▁아까워서	-10.7449
▁빠져서	-10.7466
▁보고나니	-10.7472
50	-10.7476
▁천사	-10.7483
▁옛날영화	-10.7494
▁볼것	-10.7511
맞아	-10.7518
경찰	-10.7534
▁빕니다	-10.7536
옳	-10.7536
▁즐거움	-10.7536
뜸	-10.7536
켓	-10.7536
킴	-10.7536
▁왕조현	-10.7536
▁비행기	-10.7537
▁바탕으로	-10.7537
▁쏘우	-10.7537
▁상큼	-10.7539
▁도둑	-10.7539
▁역량	-10.754
▁웃겼다	-10.7542
역할	-10.7542
▁각색	-10.7542
페이스	-10.7544
▁흘러가는	-10.7547
보니깐	-10.7549
▁좋겠습니다	-10.7549
▁만약	-10.7556
▁흥분	-10.7559
▁단순히	-10.756
각본	-10.7563
▁뻔한스토리	-10.7565
▁싶었던	-10.7566
충격	-10.7573
▁실사	-10.7577
주려고	-10.758
편집	-10.758
▁최소한	-10.7587
▁느껴졌다	-10.7587
▁제대로된	-10.7591
▁기대했	-10.7591
▁준비	-10.7596
하자면	-10.7596
▁어쩌다	-10.76
재밋음	-10.7601
▁않아요	-10.7603
▁남성	-10.7609
▁아이유	-10.7625
졌음	-10.7632
▁머냐	-10.7632
▁가시	-10.7634
그저	-10.7639
순수	-10.7642
▁머야	-10.7659
▁훌륭하	-10.766
▁불안	-10.7665
▁단점	-10.7673
▁벌어	-10.7678
▁세상에서	-10.7681
▁독특하	-10.7686
▁되야	-10.7686
점주기도	-10.7688
▁대부	-10.7692
▁정체	-10.7701
폴	-10.7713
▁오랫동안	-10.7715
릇	-10.7715
썬	-10.7715
왈	-10.7715
▁2.22	-10.7715
▁데이빗	-10.7715
▁여러모로	-10.7715
▁나루토	-10.7715
▁원숭이	-10.7715
CG	-10.7715
▁별반개	-10.7715
점준것중	-10.7715
범죄	-10.7717
▁로맨틱코미디	-10.7718
▁돌아보게	-10.7721
ost	-10.7723
▁과학	-10.7724
ᄃᄃᄃᄃ	-10.7726
▁가야	-10.7729
▁또라이	-10.7733
결국	-10.7735
▁최후	-10.7739
▁봤는지	-10.7743
아닌데	-10.775
▁감명	-10.7752
▁지옥	-10.7753
멋진	-10.7755
ri	-10.7757
▁공연	-10.7768
물론	-10.777
▁멋지게	-10.7772
몰라	-10.7774
▁여배우들	-10.7775
▁놀란	-10.7777
할수없는	-10.7777
구역	-10.7799
▁아련한	-10.7811
.,.,	-10.782
▁토니	-10.782
▁배경으로	-10.7822
▁여신	-10.7825
해줘서	-10.7837
거같아	-10.7844
▁OOOO	-10.7852
맞추기	-10.7875
▁이딴거	-10.7886
밋	-10.789
어설프	-10.7892
밍	-10.7897
뚜	-10.7897
▁오그라들	-10.7897
듦	-10.7897
쏴	-10.7897
옮	-10.7897
홈	-10.7897
▁아기자기	-10.7897
▁아마추어	-10.7897
▁컨셉	-10.7897
▁그냥저냥	-10.7897
▁다이하드	-10.7897
▁박평식	-10.7897
▁데뷔작	-10.7897
▁최민수	-10.7897
▁완죤	-10.7897
▁후속편	-10.7897
▁봐줄만	-10.7897
▁컬트	-10.7897
▁무간도	-10.7898
▁깜놀	-10.7898
ᅲᅲᅲᅲᅲᅲᅲᅲᅲᅲ	-10.7898
무서워	-10.7899
▁늙은	-10.79
▁레옹	-10.79
▁더러워	-10.79
▁픽사	-10.7901
밖엔	-10.7901
▁풀어낸	-10.7901
▁잔잔함	-10.7902
▁앉아	-10.7902
▁잔인함	-10.7902
애니메이션	-10.7903
아름다운	-10.7903
▁알려주는	-10.7903
옛날	-10.7903
우리나라	-10.7904
▁재탕	-10.7905
▁권력	-10.7906
ic	-10.7907
▁같았다	-10.791
생기고	-10.7911
▁괜찮았던	-10.7922
▁우왕	-10.7926
보지마라	-10.7933
▁미스터리	-10.7934
▁광기	-10.7939
▁어쩌면	-10.7943
▁책임	-10.7943
보고나서	-10.7946
▁인류	-10.7948
▁군인	-10.7955
▁모방	-10.7962
▁말투	-10.797
▁웃겨서	-10.7973
▁강간	-10.7976
▁없던	-10.7976
▁사람에게	-10.7976
▁불쌍하	-10.7991
▁구분	-10.7996
▁그리워	-10.8
▁부족함	-10.8014
▁못만들	-10.803
▁정보	-10.8038
▁정신병	-10.804
▁환상적	-10.8043
▁의상	-10.8053
앉	-10.8076
딜	-10.8076
감명깊	-10.8081
셧	-10.8082
앜	-10.8082
▁스필버그	-10.8082
▁애니매이션	-10.8082
▁엄정화	-10.8082
뺏	-10.8082
▁한석규	-10.8082
▁클래식	-10.8082
▁김희선	-10.8082
▁김수현	-10.8082
▁농담	-10.8082
▁빠져들게	-10.8082
▁다니엘	-10.8082
▁두고두고	-10.8083
><	-10.8085
맞음	-10.809
시청률	-10.8094
개인적으로	-10.8095
▁상징	-10.8095
▁못하겠다	-10.81
▁스릴러물	-10.8101
▁재미나게	-10.8104
▁스토	-10.8106
합시다	-10.8111
는뎅	-10.8112
▁재밌었습니다	-10.8113
▁의미있는	-10.8114
▁no	-10.8115
se	-10.812
▁무협영화	-10.8121
▁아이들에게	-10.8123
▁소통	-10.8127
▁울림	-10.8129
▁부산	-10.8131
▁향수	-10.8133
▁파워	-10.8133
▁찍으	-10.8134
회부터	-10.8138
주었다	-10.8142
보려고	-10.8143
▁들어간	-10.8157
▁전라도	-10.8159
▁세월	-10.8161
있었는데	-10.8168
▁약하다	-10.8175
할정도로	-10.8177
▁팬들	-10.8182
▁건질	-10.8187
▁기대했던	-10.819
▁먹어	-10.8197
복수	-10.8202
해놓고	-10.8213
▁어쩔수없	-10.8223
▁스릴감	-10.8262
흉	-10.827
Y	-10.8271
▁뒤늦게	-10.8271
뤄	-10.8271
밉	-10.8271
^_^	-10.8271
곱	-10.8271
뜯	-10.8271
룰	-10.8271
팩	-10.8271
▁엉망진창	-10.8271
▁마찬가지	-10.8271
▁잊지못할	-10.8271
▁드래곤볼	-10.8271
▁김혜수	-10.8271
▁밝혀	-10.8271
▁묵직	-10.8271
▁아쉬울	-10.8271
▁거부감	-10.8271
▁택시	-10.8272
▁케미	-10.8274
▁모자라	-10.8275
▁새삼	-10.8277
▁등록	-10.8278
▁아쉬워요	-10.8283
▁말씀	-10.8283
▁감동적입니다	-10.8284
▁보여줄	-10.8285
줍니다	-10.8291
판타지	-10.8292
▁감동적임	-10.8295
▁가짜	-10.8295
▁감동적이었다	-10.8296
▁흥미롭지	-10.8297
예쁘	-10.8299
지못한	-10.83
▁채우	-10.8304
보지마세요	-10.8306
것같아	-10.8311
▁재방	-10.8317
것같음	-10.8321
▁미학	-10.8328
▁나올까	-10.8328
아무리	-10.8334
▁야하지도	-10.8337
▁오직	-10.8353
▁볼만한데	-10.8355
안좋	-10.8359
▁드네요	-10.8361
▁만들어주	-10.8377
하겠습니다	-10.8386
▁공감되	-10.8392
▁있었음	-10.8398
▁매주	-10.8404
123	-10.8412
▁동감	-10.8422
▁넘어서	-10.844
졌으면	-10.8443
섯	-10.8444
욬	-10.8463
▁송승헌	-10.8463
줫	-10.8463
▁고등학생	-10.8463
▁군더더기	-10.8463
▁비쥬얼	-10.8463
▁테이큰	-10.8463
랏	-10.8463
턱	-10.8463
▁차승원	-10.8463
▁차태현	-10.8463
▁원피스	-10.8463
▁왕가위	-10.8463
▁어설프게	-10.8464
▁흥미롭게	-10.8464
▁자연스럽게	-10.8465
땜시	-10.8466
점도아깝다	-10.848
▁재밌기만	-10.8484
멀	-10.8486
샘	-10.849
▁웃다가	-10.8495
▁비록	-10.8497
▁않으	-10.8497
▁흉내내	-10.85
▁불쌍해서	-10.8509
▁굿굿굿	-10.8511
▁레오	-10.8513
▁평소	-10.8515
▁에로물	-10.8516
▁한동안	-10.8516
웃긴	-10.852
▁대역	-10.8521
▁잼나요	-10.8524
▁인연	-10.8524
셨으면	-10.8526
▁지금보면	-10.854
▁화끈한	-10.8546
▁꼭봐야	-10.8563
▁졸잼	-10.8589
▁방해	-10.8595
▁나왔던	-10.8599
돋는다	-10.8628
영활	-10.8639
뗄	-10.8651
원주고	-10.8654
▁없군	-10.8655
▁허허	-10.8656
첩	-10.8657
ter	-10.8657
뎀	-10.8658
▁캐릭	-10.8659
솜	-10.8659
꽁	-10.8659
팽	-10.8659
▁러브스토리	-10.8659
▁새록새록	-10.8659
▁영웅본색	-10.8659
▁카메론	-10.8659
▁포켓몬	-10.8659
▁호불호가	-10.8659
렘	-10.8659
▁세련된	-10.8659
▁감성팔이	-10.8659
▁흑역사	-10.8659
▁멈추	-10.8659
▁심오한	-10.866
▁크리스찬	-10.8662
▁강아지	-10.8662
▁가슴아프	-10.8663
높아	-10.8665
▁찬양	-10.8665
▁억지스런	-10.8667
▁시간아까워	-10.8669
▁go	-10.8676
▁반갑	-10.8676
▁힘들었다	-10.8686
▁보고있는데	-10.8692
첫	-10.8693
▁보는동안	-10.8694
프로그램	-10.8695
댓글	-10.8697
▁범죄자	-10.8698
더럽게	-10.87
▁알바생	-10.8702
tv	-10.8706
같애	-10.8707
▁작화	-10.8709
폭력	-10.8714
▁만든건지	-10.8717
:)	-10.8721
▁슬프네요	-10.8722
ne	-10.8723
▁망쳐놓	-10.8728
▁편하게	-10.8745
저런	-10.8794
▁완성	-10.8803
▁조연들	-10.8821
▁알게되	-10.8832
누구	-10.8835
▁오랜	-10.8839
▁일깨워	-10.8857
헨	-10.8859
▁박찬욱	-10.8859
▁재발견	-10.8859
훼	-10.8859
▁원주율	-10.8859
▁키아누	-10.8859
좆	-10.8859
짙	-10.8859
▁움직이	-10.8859
▁쿵푸	-10.8859
▁권상우	-10.8859
▁빈약한	-10.8859
▁머릿속	-10.8859
▁평점조절	-10.8859
▁엠마	-10.886
▁직업	-10.886
▁거기서	-10.886
▁2015	-10.8862
▁환장	-10.8862
▁첫번째	-10.8863
▁람보	-10.8865
vs	-10.8869
겠는가	-10.8869
▁국산	-10.8869
▁프레	-10.887
▁닮았	-10.8871
하더니	-10.8873
▁피곤	-10.8875
▁늙어	-10.888
▁동화같은	-10.8882
▁재미없었음	-10.8891
묻	-10.8898
질질끄	-10.8898
갈수	-10.8899
덕분에	-10.8903
▁필요없음	-10.8904
그나마	-10.8905
▁이은주	-10.8907
잘봤습니다	-10.8909
▁학생들	-10.8909
▁다시보게	-10.8914
▁마녀	-10.8914
다시봐도	-10.8917
▁화질	-10.8928
▁낚이지	-10.8929
▁좋아하네요	-10.8929
▁일반인	-10.8934
ay	-10.8934
별루	-10.894
▁좋구	-10.8954
ᄋᄋᄋ	-10.8958
▁브레	-10.8966
▁커버	-10.8976
부르	-10.8976
깐	-10.9005
▁어색함	-10.9011
실력	-10.9046
자꾸	-10.906
혐	-10.9061
옵	-10.9063
릉	-10.9063
▁드림웍스	-10.9063
▁안타까움	-10.9063
▁엑스맨	-10.9063
▁오글거림	-10.9063
▁홧팅	-10.9063
띠	-10.9063
삘	-10.9063
쇄	-10.9063
▁팝콘	-10.9063
밨	-10.9063
▁김민종	-10.9063
▁설경구	-10.9063
▁찬사를	-10.9063
▁레이첼	-10.9063
▁아바타	-10.9063
▁민족	-10.9067
▁방황	-10.9067
▁파격적	-10.9068
▁극단적	-10.9068
▁안성기	-10.9068
▁낮추	-10.9071
▁아무튼	-10.9073
▁복수극	-10.9074
▁꺼져	-10.9076
▁마틴	-10.9078
▁시험	-10.9078
▁미안해	-10.9081
▁고증	-10.9083
▁아깝습니다	-10.9087
▁무슨말이	-10.9088
▁처음본다	-10.9091
▁모독	-10.9092
▁챙겨보	-10.9094
▁고문	-10.9094
▁미술	-10.9095
♡♡♡	-10.9099
▁성형	-10.9107
▁감동도없고	-10.9107
▁싶습니다	-10.911
짧	-10.9112
마무리	-10.9114
영화자체는	-10.9114
선생님	-10.9116
쫌	-10.9116
무서운	-10.9116
얼마나	-10.9116
▁네이버평점	-10.9119
▁훌륭했	-10.9123
▁향한	-10.9127
입니까	-10.9129
▁정석	-10.9131
▁분장	-10.9135
모르겠다	-10.9136
▁다시보고싶은	-10.9137
▁짜증났	-10.9182
▁없으니	-10.9192
▁진부함	-10.92
현실적	-10.9237
내놔	-10.925
▁역사적	-10.9256
팝	-10.9271
▁다세포소녀	-10.9271
▁시끄럽	-10.9271
▁윌리엄	-10.9271
믄	-10.9271
훗	-10.9271
▁내취향	-10.9271
▁말았어야	-10.9271
▁어설퍼	-10.9271
▁가슴아픈	-10.9271
▁손예진	-10.9271
덧	-10.9271
▁깨달음	-10.9271
▁웬만하면	-10.9271
습니당	-10.9271
▁스페인	-10.9271
▁윌리스	-10.9271
▁외로움	-10.9271
▁지저분	-10.9271
▁페이크	-10.9272
▁흠잡을	-10.9272
▁애초에	-10.9272
▁총체적	-10.9272
▁지겨워	-10.9273
▁그럴싸	-10.9274
▁치밀하	-10.9274
▁찢어	-10.9275
▁살았	-10.9275
완벽하게	-10.9276
▁자연스러운	-10.9278
밴드	-10.9278
▁열광	-10.9284
▁지브리	-10.9284
-.-	-10.9284
▁혼란	-10.9285
끝날때까지	-10.9286
▁공허	-10.9287
▁독립	-10.9287
▁시골	-10.929
▁음향	-10.9291
▁영광	-10.9293
▁백배	-10.9295
very	-10.9298
▁더욱더	-10.9301
▁산만하	-10.9302
▁던져	-10.9307
됬는데	-10.9316
▁향기	-10.9317
중간에	-10.9318
▁만날	-10.9322
귀여워	-10.9325
궁금	-10.9335
▁시체	-10.9336
▁비교하면	-10.934
실패	-10.9342
큼	-10.9348
▁알게된	-10.935
노출	-10.9365
▁있어보이	-10.9366
▁뛰어넘	-10.9389
▁형식	-10.9425
눈물흘	-10.9449
▁미스터	-10.9464
보기엔	-10.9468
야말로	-10.9471
시리즈중	-10.9476
낄	-10.9483
킥	-10.9484
☆	-10.9484
뎁	-10.9484
뱅	-10.9484
숲	-10.9484
졋	-10.9484
▁엔딩크레딧	-10.9484
▁이탈리아	-10.9484
얀	-10.9484
▁구혜선	-10.9484
▁사무라이	-10.9484
▁펼쳐	-10.9484
▁클라스	-10.9484
▁잔잔하지만	-10.9485
▁틀림없	-10.9485
랍니다	-10.9485
▁록키	-10.9485
제국	-10.9485
▁증명	-10.9486
▁죽기전에	-10.9488
달라고	-10.9493
방향	-10.9494
▁재방송	-10.9495
▁놀라울	-10.9497
▁맞추	-10.9501
▁뭐랄까	-10.9501
▁심각하게	-10.9504
▁존잼	-10.9506
▁초반엔	-10.9506
▁미쳐	-10.9507
▁식상하다	-10.952
▁없애	-10.9521
▁나오다니	-10.9528
많은것을	-10.9528
▁매번	-10.9529
▁봤었다	-10.9534
그래픽	-10.9557
▁채워	-10.9557
힘든	-10.9565
▁없을까	-10.9583
ᄍᄍᄍ	-10.96
▁않으면	-10.9626
될까	-10.9637
la	-10.9668
영화관에서	-10.9672
점만점	-10.9678
ol	-10.9698
챙	-10.9698
훌	-10.9701
늬	-10.9702
릅	-10.9702
▁미야자키	-10.9702
▁슬펐다	-10.9702
▁인상깊게	-10.9702
▁팀버튼	-10.9702
▁흘렀	-10.9702
곽	-10.9702
긔	-10.9702
▁예뻐서	-10.9702
잣	-10.9702
훔	-10.9702
▁떡밥	-10.9702
▁나머진	-10.9702
▁워낙	-10.9702
▁온갖	-10.9703
▁7.5	-10.9703
▁귀찮	-10.9704
▁역쉬	-10.9708
▁분량	-10.9708
2005	-10.971
▁패션	-10.9711
십니다	-10.9714
▁반응	-10.9717
▁8.5	-10.972
▁지루했음	-10.9721
▁세계관	-10.9722
▁돈벌	-10.9724
▁돈아깝다	-10.9726
▁빠질	-10.9728
▁거짓	-10.9734
▁적당하다	-10.9734
▁히트	-10.9736
▁인간적으로	-10.9738
▁없구나	-10.9742
검사	-10.9745
▁회상	-10.9749
///	-10.9766
com	-10.978
몇번	-10.9783
ᄉᄇ	-10.9787
암튼	-10.9788
어떤	-10.9794
▁데려다	-10.9794
▁정체성	-10.9796
죽는줄	-10.9805
되어있	-10.9814
투성이	-10.9827
▁보러갔	-10.9834
그자체	-10.9837
▁유치하기	-10.9849
실화라	-10.9851
▁진정성	-10.9851
♡♡	-10.9857
사람마다	-10.9865
▁시간아깝	-10.9868
▁살아야	-10.9874
▁따뜻함	-10.9898
닼ᄏᄏ	-10.9918
지않을	-10.992
둑	-10.9921
쎄	-10.9922
썰	-10.9924
뼈	-10.9924
▁소피마르소	-10.9924
▁에드워드	-10.9924
▁트랜스포머	-10.9924
겄	-10.9924
짖	-10.9924
▁심리묘사	-10.9924
▁황정민	-10.9924
▁이것저것	-10.9924
▁김태희	-10.9924
▁납득	-10.9924
▁조승우	-10.9924
▁장동건	-10.9924
▁사라져	-10.9925
▁간첩	-10.9926
▁상당한	-10.9929
영환줄	-10.993
▁오로지	-10.9931
창있네	-10.9931
▁욕나온다	-10.9932
▁이나영	-10.9933
▁태권	-10.9933
▁쉬운	-10.9934
▁지나친	-10.9941
▁유령	-10.9946
▁유익	-10.9948
▁원표	-10.9948
▁소품	-10.9951
봤을땐	-10.9957
▁드물	-10.9963
▁얻어	-10.9974
▁비극적	-10.9978
▁소소하	-10.9981
▁소름끼치	-10.9984
옷	-11.0014
분들께	-11.0015
왜이래	-11.0016
촬영	-11.0017
네이버	-11.002
철학	-11.0026
심각	-11.0032
바탕	-11.0036
▁재미있었던	-11.0037
▁만들었으면	-11.0066
▁가능성	-11.0082
-_	-11.0085
재미잇	-11.0089
▁먹먹해	-11.0113
▁배우분들	-11.0127
▁재수없	-11.0133
▁느껴졌	-11.015
삽	-11.0151
▁겨울왕국	-11.0151
▁과대평가	-11.0151
▁기대됩니다	-11.0151
▁런닝타임	-11.0151
▁파워레인저	-11.0151
▁학창시절	-11.0151
멕	-11.0151
윽	-11.0151
↓	-11.0151
▁곱씹	-11.0151
▁객관적	-11.0151
▁정주행	-11.0151
▁기분좋은	-11.0151
▁엉엉	-11.0151
▁도움이	-11.0152
▁전지현	-11.0152
▁모자란	-11.0152
▁돋보인다	-11.0152
▁아동용	-11.0152
▁증말	-11.0153
▁감동받았	-11.0154
▁괴롭	-11.0155
▁돌려줘	-11.0157
▁존경합니다	-11.0159
마인드	-11.0162
▁좋아하시는	-11.0164
▁커피	-11.0167
▁허탈	-11.0168
▁실패작	-11.0169
▁볼만해요	-11.0173
▁승부	-11.0173
▁복선	-11.0179
▁울었습니다	-11.0181
▁적극	-11.0181
중딩	-11.0204
싫	-11.0207
▁so	-11.0235
봤었는데	-11.0241
탐	-11.0253
특유의	-11.0254
▁300	-11.0301
왔던	-11.0314
▁깨닫	-11.0357
냄	-11.0382
봇	-11.0382
넼	-11.0384
▁best	-11.0384
▁고맙습니다	-11.0384
▁러브라인	-11.0384
▁엉터리	-11.0384
▁크레딧	-11.0384
썻	-11.0384
쏙	-11.0384
▁양동근	-11.0384
▁말아먹은	-11.0384
▁어차피	-11.0384
▁오우삼	-11.0384
▁최민식	-11.0384
▁어떠한	-11.0384
▁침묵	-11.0384
▁엽문	-11.0384
꼬맹이	-11.0384
▁2004	-11.0384
▁솔까	-11.0384
▁2003	-11.0384
▁잃어버린	-11.0385
▁별한개도	-11.0386
▁압도적	-11.0386
▁색채	-11.0388
▁돈낭비	-11.039
▁아까웠던	-11.039
왜이럼	-11.0392
▁과장된	-11.0392
▁말이필요없는	-11.0393
▁ᄅᄋ	-11.0395
▁여태까지	-11.0395
▁발랄	-11.0398
▁사이코	-11.0398
▁조용히	-11.0399
▁중간부터	-11.04
▁경악	-11.0406
▁노튼	-11.0406
▁알려준	-11.0409
♥♥♥♥♥	-11.0414
▁경계	-11.0417
▁늙었	-11.0419
▁도중에	-11.0422
싶을때	-11.0424
탁월한	-11.0426
라이브	-11.043
배틀	-11.0456
썩	-11.0497
히어로	-11.05
만들엇	-11.0511
▁흔하	-11.052
▁실화라는	-11.0553
▁역겹	-11.0562
뎅	-11.0583
믹	-11.0617
깁	-11.0619
드래곤	-11.0622
▁KBS	-11.0622
▁ocn	-11.0622
▁굉장한	-11.0622
▁도라에몽	-11.0622
▁신데렐라	-11.0622
▁싸이코패스	-11.0622
▁어쨌든	-11.0622
▁일베충	-11.0622
▁조기종영	-11.0622
끓	-11.0622
녁	-11.0622
쌓	-11.0622
웰	-11.0622
즉	-11.0622
▁국어책	-11.0622
▁어우러진	-11.0622
텅	-11.0622
▁팍팍	-11.0622
▁소지섭	-11.0622
떄문에	-11.0622
그나저나	-11.0622
▁스피드	-11.0622
▁어딘가	-11.0622
▁임청하	-11.0622
▁ᄇᄉ	-11.0622
▁징그러	-11.0622
▁뉴욕	-11.0622
▁입장에서	-11.0622
▁가까이	-11.0622
▁젊음	-11.0623
ᅩᅩ	-11.0623
▁미친듯이	-11.0623
▁전도연	-11.0623
닼	-11.0627
▁황금	-11.0633
할게요	-11.0633
▁197	-11.0634
▁괜찮던데	-11.0636
▁바랬	-11.0639
▁신나게	-11.0639
▁씨발	-11.064
▁히어로물	-11.0645
해지네요	-11.0649
낮아서	-11.066
본영화중에	-11.0678
클럽	-11.0693
▁머리속	-11.0722
톰	-11.0747
좋았음	-11.0753
▁진행되	-11.0797
재밌게봤습니다	-11.083
흥미를	-11.0844
▁태어나	-11.0846
댓	-11.0864
쯧	-11.0865
#	-11.0865
곁	-11.0866
쇠	-11.0866
****	-11.0866
▁겉멋만	-11.0866
▁펭귄	-11.0866
▁흐지부지	-11.0866
궈	-11.0866
껍	-11.0866
빤	-11.0866
펠	-11.0866
꺄	-11.0866
엌	-11.0866
▁맙시다	-11.0866
▁여기저기	-11.0866
▁스티브	-11.0866
▁큐브	-11.0866
▁멘탈	-11.0866
▁의외의	-11.0866
▁저절로	-11.0866
▁비정상	-11.0866
▁납치	-11.0866
▁색다르	-11.0866
▁거슬리	-11.0866
▁스킵	-11.0866
^.^	-11.0867
▁사기꾼	-11.0867
▁웅장	-11.0867
깁니다	-11.0868
▁보여줌	-11.0868
▁198	-11.0869
▁스토리라인	-11.087
▁심각한	-11.0872
▁고마운	-11.0874
▁느리고	-11.0875
▁대표작	-11.0877
였으나	-11.0878
▁생존	-11.0878
▁제정신	-11.0879
▁교회	-11.0881
재미가없	-11.0885
▁드문	-11.0886
▁얘들	-11.0892
재밋게봣	-11.0909
지않나	-11.0927
역활	-11.0954
좋았어요	-11.1009
시간낭비	-11.1009
이쁘고	-11.101
고싶지	-11.1027
뷔	-11.1115
펼	-11.1115
셉	-11.1116
▁클리셰	-11.1116
켈	-11.1116
▁파라노말	-11.1116
쉣	-11.1116
핸	-11.1116
▁미치도록	-11.1116
▁초중반	-11.1116
▁인디아나	-11.1116
▁지났지만	-11.1116
▁한쿡영화	-11.1116
▁오페라	-11.1116
▁성유리	-11.1116
▁보낸다	-11.1116
▁그들만의	-11.1116
▁어지간	-11.1116
▁케이트	-11.1117
낙	-11.1266
깎	-11.1266
쵝	-11.1372
탠	-11.1372
ᅦ	-11.1372
룸	-11.1372
넷	-11.1372
칫	-11.1372
펀	-11.1372
힛	-11.1372
웩	-11.1372
깜	-11.1535
즌	-11.1619
긍	-11.1635
깡	-11.1635
띵	-11.1635
샀	-11.1635
잎	-11.1635
췄	-11.1635
。	-11.1635
人	-11.1635
갇	-11.1635
닦	-11.1635
뎌	-11.1635
륵	-11.1635
벙	-11.1635
빚	-11.1635
쉰	-11.1635
핳	-11.1635
퇴	-11.1807
웬	-11.1812
젼	-11.1883
봅	-11.1903
낌	-11.1903
펑	-11.1905
헝	-11.1905
꾹	-11.1905
듀	-11.1905
맷	-11.1905
됌	-11.1905
쑤	-11.1905
흰	-11.1905
q	-11.1905
뿔	-11.2174
끗	-11.2183
뻘	-11.2183
엣	-11.2183
꿨	-11.2183
둬	-11.2183
쏠	-11.2183
짬	-11.2183
Z	-11.2183
’	-11.2183
넋	-11.2183
뉘	-11.2183
됴	-11.2183
럿	-11.2183
욜	-11.2183
·	-11.2183
쿄	-11.2183
W	-11.2394
낳	-11.2394
밌	-11.2463
뜩	-11.2468
겸	-11.2469
댐	-11.2469
밸	-11.2469
펄	-11.2469
딕	-11.2469
샌	-11.2469
횽	-11.2469
쌩	-11.2469
쌍	-11.2688
넌	-11.2697
꽝	-11.2697
꿔	-11.276
‘	-11.2763
펴	-11.2763
샷	-11.2763
숫	-11.2763
흙	-11.2763
륙	-11.2763
톨	-11.2763
댕	-11.3066
칩	-11.3066
툰	-11.3066
쌤	-11.3066
젬	-11.3066
췌	-11.3066
텀	-11.3066
핏	-11.3066
캬	-11.3332
꽤	-11.3333
잭	-11.3336
뀌	-11.3375
떳	-11.3379
ᆞ	-11.3379
뇨	-11.3379
닙	-11.3379
뺀	-11.3379
슐	-11.3379
얌	-11.3379
쫙	-11.3379
쬐	-11.3379
콕	-11.3379
햄	-11.3379
귓	-11.3379
줍	-11.3699
맙	-11.3701
ᄑ	-11.3701
ᅭ	-11.3701
돕	-11.3701
룹	-11.3701
묶	-11.3701
쨩	-11.3701
끊	-11.4006
뽑	-11.401
률	-11.4034
뱉	-11.4034
쌀	-11.4034
쌈	-11.4034
엎	-11.4034
욧	-11.4034
퍽	-11.4034
댈	-11.4034
딧	-11.4034
캅	-11.4034
밴	-11.4368
짠	-11.4368
닳	-11.4379
젓	-11.4379
퀀	-11.4379
홉	-11.4379
죤	-11.4736
샹	-11.4736
눠	-11.4736
뒀	-11.4736
썅	-11.4736
탭	-11.4736
붐	-11.4736
쩡	-11.5106
\	-11.5107
꺅	-11.5107
꽂	-11.5107
ᅣ	-11.5107
갤	-11.5107
쌔	-11.5107
엥	-11.5107
햐	-11.5107
甲	-11.5107
웁	-11.5491
깬	-11.5491
꼼	-11.5491
꾀	-11.5491
쪄	-11.5491
뺐	-11.5491
촉	-11.5491
됀	-11.5491
[	-11.5523
찢	-11.5885
팡	-11.5891
얕	-11.5891
乃	-11.5891
괘	-11.5891
냅	-11.5891
롬	-11.5891
뺴	-11.5891
섰	-11.5891
앳	-11.5891
탔	-11.5891
힝	-11.5891
깽	-11.5891
뤽	-11.5891
솟	-11.5891
쵸	-11.5891
○	-11.5891
헬	-11.5944
캔	-11.6308
륭	-11.6308
씌	-11.6308
쟝	-11.6308
좁	-11.6308
훅	-11.6308
늠	-11.6308
몹	-11.6308
뮬	-11.6308
밭	-11.6308
짚	-11.6308
킷	-11.6308
굵	-11.6308
놉	-11.6308
씽	-11.6308
훨	-11.6373
뭇	-11.6742
뭥	-11.6743
뎈	-11.6743
굼	-11.6743
♬	-11.6743
無	-11.6743
낱	-11.6743
떴	-11.6743
뛴	-11.6743
썽	-11.6743
핡	-11.6743
꿋	-11.6743
싯	-11.6743
옜	-11.6743
갸	-11.7197
겜	-11.7197
Q	-11.7197
셸	-11.7197
쑈	-11.7197
윙	-11.7197
짭	-11.7197
돠	-11.7197
퀼	-11.7197
맡	-11.7295
냉	-11.7298
녹	-11.7304
떤	-11.7645
ᅧ	-11.7674
곸	-11.7674
뜰	-11.7674
얔	-11.7674
윗	-11.7674
쳇	-11.7674
팜	-11.7674
덥	-11.7674
뷁	-11.7674
댜	-11.7674
푹	-11.7803
늑	-11.8172
샴	-11.8174
욘	-11.8174
딥	-11.8174
뚤	-11.8174
빔	-11.8174
욯	-11.8174
쨔	-11.8174
쪙	-11.8174
쳣	-11.8174
밈	-11.8174
빽	-11.8174
휼	-11.8174
펙	-11.8693
걱	-11.8699
힙	-11.87
|	-11.87
걔	-11.87
땟	-11.87
뭍	-11.87
뱃	-11.87
벡	-11.87
읎	-11.87
큘	-11.87
풉	-11.87
횡	-11.87
꿉	-11.87
댔	-11.87
룻	-11.87
헛	-11.8878
볍	-11.9252
첼	-11.9255
겔	-11.9255
쫑	-11.9255
쾅	-11.9255
텨	-11.9255
겅	-11.9255
괸	-11.9255
꺾	-11.9255
뵈	-11.9255
웡	-11.9255
킁	-11.9255
쩐	-11.9778
촬	-11.9838
헷	-11.9844
쿤	-11.9844
맬	-11.9844
얍	-11.9844
젝	-11.9844
훤	-11.9844
넴	-11.9844
뿅	-11.9844
셰	-11.9844
졷	-11.9844
좃	-11.9844
퀘	-11.9844
텍	-11.9844
핥	-11.9844
→	-11.9844
슥	-11.9844
융	-11.9844
캣	-11.9844
넝	-11.9844
곧	-12.0099
폄	-12.0469
$	-12.0469
“	-12.0469
”	-12.0469
멧	-12.0469
믓	-12.0469
쒸	-12.0469
잰	-12.0469
찼	-12.0469
칵	-12.0469
퉷	-12.0469
눅	-12.0469
뿡	-12.0469
첸	-12.0469
챔	-12.0469
뵙	-12.1135
뻗	-12.1135
웹	-12.1135
ᄈ	-12.1135
굽	-12.1135
꼐	-12.1135
꿰	-12.1135
냠	-12.1135
뇬	-12.1135
뿍	-12.1135
쏜	-12.1135
큭	-12.1135
넥	-12.1135
욥	-12.1135
잌	-12.1135
땜	-12.1754
넉	-12.185
됏	-12.185
샵	-12.185
끽	-12.185
곀	-12.185
닛	-12.185
쒯	-12.185
잴	-12.185
쿼	-12.185
툴	-12.185
퐁	-12.185
헿	-12.185
씹	-12.2244
뤠	-12.2619
숴	-12.2619
ᆪ	-12.2619
♪	-12.2619
넨	-12.2619
앰	-12.2619
꿍	-12.2619
냔	-12.2619
랖	-12.2619
컹	-12.2619
콱	-12.2619
흣	-12.2619
떵	-12.3452
꽈	-12.3452
읭	-12.3452
촤	-12.3452
돔	-12.3452
썹	-12.3452
作	-12.3452
꺠	-12.3452
렜	-12.3452
벳	-12.3452
죵	-12.3452
팟	-12.3452
팰	-12.3452
멱	-12.3452
빰	-12.3452
웽	-12.3452
캄	-12.3452
낍	-12.3452
뎃	-12.3452
옛	-12.3989
뒷	-12.3993
컥	-12.4359
밓	-12.4361
死	-12.4361
볶	-12.4361
뀨	-12.4361
뽐	-12.4361
왁	-12.4361
줏	-12.4361
쫘	-12.4361
찟	-12.4361
컵	-12.4361
女	-12.4361
괄	-12.4361
깟	-12.4361
댁	-12.4361
뒈	-12.4361
롸	-12.4361
뮈	-12.4361
뺑	-12.4361
옌	-12.4361
쨰	-12.4361
펭	-12.4361
갚	-12.4361
촐	-12.4361
쮸	-12.4361
ᄡ	-12.4991
갘	-12.5361
딛	-12.5361
륨	-12.5361
먀	-12.5361
뭄	-12.5361
쥰	-12.5361
휙	-12.5361
궤	-12.5361
쎈	-12.5361
짘	-12.5361
캉	-12.5361
햅	-12.5361
}	-12.5361
둡	-12.6467
챠	-12.6472
콰	-12.6472
ᄄ	-12.6472
뒹	-12.6472
떙	-12.6472
랗	-12.6472
뤼	-12.6472
쥴	-12.6472
챦	-12.6472
↑	-12.6472
⌒	-12.6472
盧	-12.6472
끙	-12.6472
넛	-12.6472
뺄	-12.6472
숑	-12.6472
읏	-12.6472
졉	-12.6472
찹	-12.6472
멌	-12.6472
섀	-12.6472
홬	-12.6472
녜	-12.6472
놧	-12.6472
랔	-12.6472
롹	-12.6472
잦	-12.6472
{	-12.6473
킵	-12.7718
ン	-12.7722
캘	-12.7722
쿰	-12.7722
햏	-12.7722
깅	-12.7722
앟	-12.7722
졍	-12.7722
챘	-12.7722
팁	-12.7722
☞	-12.7722
떔	-12.7722
띨	-12.7722
믈	-12.7722
벵	-12.7722
숱	-12.7722
챈	-12.7722
츰	-12.7722
퀵	-12.7722
혓	-12.7722
、	-12.7722
셍	-12.7722
쌌	-12.7722
옄	-12.7722
핰	-12.7722
갯	-12.7722
랠	-12.7722
팥	-12.7722
흫	-12.7722
─	-12.7722
▽	-12.9151
훠	-13.8517
챤	-13.8518
욀	-13.8519
왘	-13.852
옅	-13.8521
굶	-13.8522
헥	-13.8523
촛	-13.8524
짴	-13.8525
짰	-13.8526
죨	-13.8527
뉜	-13.8528
궂	-13.8529
텼	-13.853
윅	-13.8531
썪	-13.8532
숟	-13.8533
샛	-13.8534
괭	-13.8535
故	-13.8536
햌	-13.8537
읊	-13.8538
앍	-13.8539
쌉	-13.854
쉼	-13.8541
빴	-13.8542
츤	-13.8543
덱	-13.8544
뀜	-13.8545
훑	-13.8546
홥	-13.8547
냨	-13.8548
휠	-13.8549
헠	-13.855
좔	-13.8551
닠	-13.8552
깼	-13.8553
̄	-13.8554
큽	-13.8555
촘	-13.8556
쁩	-13.8557
딪	-13.8558
횟	-13.8559
헴	-13.856
콥	-13.8561
춥	-13.8562
땔	-13.8563
긁	-13.8564
휩	-13.8565
뀔	-13.8566
껑	-13.8567
괞	-13.8568
쟤	-13.8569
샐	-13.857
멎	-13.8571
릎	-13.8572
쥔	-13.8573
쁠	-13.8574
낰	-13.8575
쉘	-13.8576
뤘	-13.8577
낡	-13.8578
핍	-13.8579
쥑	-13.858
꺽	-13.8581
붓	-13.8582
얹	-13.8583
씻	-13.8584
슌	-13.8585
펏	-13.8586
꽥	-13.8587
켠	-13.8588
녔	-13.8589
픕	-13.859
쫒	-13.8591
왼	-13.8592
뺨	-13.8593
딨	-13.8594
탤	-13.8595
얽	-13.8596
샬	-13.8597
뀐	-13.8598
꼇	-13.8599
쨋	-13.86
넓	-13.8601
밟	-13.8602
뭡	-13.8603
앓	-13.8604
붉	-13.8605
멤	-13.8606
귄	-13.8607
뻣	-13.8608
꽉	-13.8609
푼	-13.861
땠	-13.8611
웍	-13.8612
뿜	-13.8613
빕	-13.8614
홧	-13.8615
맺	-13.8616
틋	-13.8617
켰	-13.8618
겪	-13.8619
쨌	-13.862
컸	-13.8621
찔	-13.8622
팠	-13.8623
쫄	-13.8624
띄	-13.8625
텝	-13.8626
틸	-13.8627
렀	-13.8628
콧	-13.8629
쏟	-13.863
껐	-13.8631
뻤	-13.8632
슷	-13.8633
왤	-13.8633
듭	-13.8634
섞	-13.8635
톱	-13.8636
튀	-13.8637
펐	-13.8638
겉	-13.8639
쁨	-13.864
됩	-13.8641
늦	-13.8642
냈	-13.8643
찝	-13.8644
굉	-13.8645
똑	-13.8646
읽	-13.8647
랐	-13.8648
떻	-13.8649
깊	-13.865
렸	-13.8651
