<pad>	0
<s>	0
</s>	0
<unk>	0
<PAD>	0
<BOS>	0
<EOS>	0
<UNK>	0
▁the	-2.93936
▁.	-3.15677
s	-3.37276
▁to	-3.82127
▁a	-3.82168
▁of	-3.86922
ed	-3.8703
▁in	-3.95173
▁and	-4.02773
ing	-4.24945
▁s	-4.35456
▁on	-4.81328
▁said	-4.8224
▁for	-4.89613
▁that	-4.92316
y	-4.94756
d	-5.08657
▁is	-5.12438
ly	-5.14783
▁	-5.19065
▁was	-5.20371
▁with	-5.22994
▁be	-5.25522
▁it	-5.34165
▁he	-5.43324
▁at	-5.44033
▁an	-5.50914
▁from	-5.54927
▁by	-5.569
▁as	-5.60427
▁has	-5.61295
▁have	-5.69846
▁his	-5.69858
▁are	-5.81971
▁but	-5.87689
e	-5.87983
▁were	-5.90466
▁will	-5.91361
▁not	-5.98212
▁who	-6.03957
▁u	-6.08141
▁after	-6.08705
▁had	-6.11485
▁been	-6.17104
▁they	-6.19001
▁this	-6.19939
n	-6.2423
▁their	-6.24491
▁people	-6.25474
▁year	-6.25675
▁i	-6.26679
▁about	-6.27903
▁more	-6.283
▁t	-6.28579
▁its	-6.30658
▁two	-6.32529
▁new	-6.34839
▁korea	-6.35461
▁we	-6.36484
t	-6.37789
▁which	-6.3985
▁one	-6.40094
▁president	-6.40608
▁up	-6.4238
▁her	-6.43587
▁government	-6.44432
▁would	-6.45314
▁or	-6.48779
▁north	-6.51219
▁she	-6.52643
▁also	-6.54114
▁out	-6.55464
▁than	-6.55919
▁over	-6.61478
▁last	-6.62742
▁cnn	-6.63864
ies	-6.64424
▁police	-6.64501
▁when	-6.67024
▁first	-6.67268
▁south	-6.68141
▁there	-6.74303
▁other	-6.764
▁some	-6.76583
▁us	-6.76651
▁into	-6.77931
▁all	-6.78664
r	-6.79318
▁no	-6.81835
▁time	-6.82438
er	-6.83222
▁told	-6.86071
es	-6.86628
▁world	-6.87231
a	-6.8748
▁korean	-6.89491
l	-6.89652
an	-6.91419
▁state	-6.92577
▁percent	-6.93825
▁you	-6.94517
▁years	-6.95034
▁can	-6.95838
▁united	-6.98064
▁could	-7.00033
on	-7.00214
▁them	-7.00786
▁if	-7.0137
▁according	-7.01382
▁officials	-7.01653
▁al	-7.04396
▁country	-7.05252
▁party	-7.05787
▁three	-7.0595
▁monday	-7.06793
▁iraq	-7.07381
▁minister	-7.07805
▁militar	-7.08343
▁tuesday	-7.09097
▁says	-7.09672
▁national	-7.09696
▁day	-7.10823
ese	-7.11036
▁what	-7.13255
o	-7.1425
▁kill	-7.14472
▁obama	-7.14902
▁week	-7.15021
▁states	-7.16249
▁like	-7.1694
▁him	-7.17293
▁million	-7.17679
▁wednesday	-7.17697
▁japan	-7.18112
▁before	-7.18231
▁most	-7.19147
▁old	-7.19228
▁since	-7.20487
▁against	-7.20523
▁sunday	-7.20641
▁so	-7.21872
▁now	-7.22548
ce	-7.2256
▁bush	-7.23356
▁china	-7.2353
▁nuclear	-7.23976
▁where	-7.24664
▁down	-7.2478
al	-7.25043
▁near	-7.25283
▁m	-7.25882
▁dur	-7.26236
▁under	-7.27174
▁take	-7.27519
▁say	-7.27574
▁back	-7.28715
cause	-7.29417
▁official	-7.2991
▁off	-7.30278
▁may	-7.30323
▁city	-7.30341
▁nation	-7.30443
▁un	-7.30665
▁thursday	-7.30676
▁re	-7.30755
▁former	-7.30811
▁security	-7.32946
▁just	-7.32969
▁whil	-7.33337
▁reported	-7.34301
▁four	-7.34383
▁house	-7.34452
tween	-7.34516
▁made	-7.35814
▁war	-7.36891
▁american	-7.37843
ish	-7.38138
▁high	-7.39391
▁group	-7.40416
▁month	-7.4086
▁many	-7.41604
▁through	-7.42442
▁do	-7.44177
▁end	-7.44544
▁news	-7.46372
▁man	-7.46599
▁plan	-7.47241
▁being	-7.47642
i	-7.48227
▁including	-7.48605
▁called	-7.48723
▁show	-7.50425
▁did	-7.5109
▁statement	-7.51439
▁home	-7.51785
▁b	-7.52724
▁our	-7.52806
▁international	-7.52808
▁get	-7.5305
▁any	-7.53611
▁six	-7.54081
▁help	-7.54132
▁found	-7.54444
▁work	-7.57405
▁report	-7.57653
▁th	-7.57845
▁part	-7.58015
▁won	-7.58555
▁reports	-7.59037
▁court	-7.59149
▁next	-7.59748
▁foreign	-7.60595
▁five	-7.61205
▁second	-7.61721
▁talks	-7.61901
▁make	-7.62183
▁attack	-7.62403
▁my	-7.62566
▁death	-7.62622
▁still	-7.62671
▁go	-7.62813
▁days	-7.63873
▁how	-7.64028
▁prime	-7.65422
▁long	-7.66124
▁troops	-7.66413
▁seoul	-7.67411
in	-7.67413
▁office	-7.67591
other	-7.67916
en	-7.68511
▁authorit	-7.69208
able	-7.69387
▁around	-7.69877
▁want	-7.69956
▁leas	-7.70678
▁recent	-7.71072
▁hour	-7.71578
▁top	-7.73004
▁release	-7.73063
▁set	-7.73215
▁ministry	-7.73328
▁come	-7.73432
▁spokesm	-7.73747
▁leader	-7.73769
▁arm	-7.75092
▁know	-7.75108
▁way	-7.75248
ther	-7.75409
▁clinton	-7.76241
▁program	-7.76279
hose	-7.77202
▁lead	-7.77498
▁see	-7.77525
▁washington	-7.77737
▁public	-7.78283
▁w	-7.78373
▁close	-7.78711
▁support	-7.78973
▁company	-7.79037
▁place	-7.79045
▁n	-7.79434
ity	-7.795
▁site	-7.7952
▁agency	-7.8083
▁presidential	-7.81394
▁iraqi	-7.81458
▁expected	-7.81515
man	-7.81536
ion	-7.82014
▁bank	-7.82316
▁well	-7.82589
▁chief	-7.82593
▁look	-7.82671
c	-7.82919
▁return	-7.82989
out	-7.83047
▁saying	-7.83095
▁even	-7.83202
▁press	-7.83431
▁brit	-7.83819
▁billion	-7.83985
▁children	-7.8444
▁forces	-7.85149
▁both	-7.85612
▁york	-7.85618
▁should	-7.86371
▁earlie	-7.86563
▁political	-7.86659
▁campaign	-7.87078
▁election	-7.87194
▁early	-7.8737
▁number	-7.87458
▁died	-7.87559
▁believe	-7.8781
▁head	-7.87822
▁arrest	-7.88052
▁members	-7.88221
▁saturday	-7.89011
▁white	-7.89543
▁chin	-7.8986
▁general	-7.89981
▁times	-7.90063
▁meeting	-7.90174
▁friday	-7.90592
▁came	-7.91497
▁kim	-7.91809
▁countries	-7.91824
▁democratic	-7.9235
▁women	-7.92571
▁fire	-7.92622
▁p	-7.92658
very	-7.92921
▁car	-7.92958
▁economic	-7.93099
▁claim	-7.93327
▁air	-7.93602
▁team	-7.93702
▁health	-7.93704
▁among	-7.94592
▁good	-7.94771
▁took	-7.95785
▁going	-7.95918
▁power	-7.9597
▁family	-7.96001
▁ask	-7.96008
▁use	-7.96157
▁center	-7.96299
▁think	-7.96303
▁issue	-7.96434
▁months	-7.96531
▁visit	-7.96986
est	-7.97943
▁lee	-7.98119
▁human	-7.98542
▁later	-7.98646
▁much	-7.98777
▁night	-7.98948
▁capital	-7.99013
▁try	-7.99135
▁move	-7.9921
▁life	-7.99421
▁force	-7.99587
▁face	-7.99641
▁left	-8.00075
▁need	-8.0013
▁john	-8.01488
▁ago	-8.01678
▁yesterday	-8.01858
ment	-8.0217
▁large	-8.02369
▁k	-8.02375
▁then	-8.02799
▁secretary	-8.03394
▁major	-8.03464
▁deal	-8.04687
▁men	-8.04771
▁area	-8.04932
h	-8.05165
▁pakistan	-8.05557
▁allow	-8.05574
▁run	-8.05656
▁turn	-8.05744
▁held	-8.06973
▁iran	-8.08094
▁same	-8.08274
▁business	-8.08665
m	-8.08969
▁market	-8.08991
▁oil	-8.09443
▁case	-8.09469
▁right	-8.09753
ers	-8.09787
▁me	-8.09813
▁de	-8.09913
▁severa	-8.09943
▁local	-8.09994
▁own	-8.10006
▁main	-8.10347
▁department	-8.10592
▁put	-8.10974
▁today	-8.11312
▁hit	-8.11454
▁university	-8.11535
▁media	-8.11587
▁don	-8.12081
▁school	-8.12083
▁dead	-8.12389
▁opposition	-8.12862
▁start	-8.12948
▁economy	-8.13012
▁appear	-8.13157
▁third	-8.13166
▁record	-8.13489
▁past	-8.13567
▁militant	-8.13628
▁roh	-8.13632
▁law	-8.13715
▁concern	-8.13936
▁half	-8.13984
▁call	-8.14209
▁candidate	-8.14401
▁leaders	-8.14532
▁morning	-8.14572
▁win	-8.14585
▁vote	-8.14676
▁financial	-8.14869
▁these	-8.15391
▁space	-8.15531
▁few	-8.15813
land	-8.17285
▁london	-8.17398
▁taliban	-8.17399
▁defense	-8.17559
▁whe	-8.176
▁late	-8.17968
▁e	-8.18107
▁sign	-8.1834
▁clear	-8.18851
▁film	-8.19343
▁com	-8.19571
▁free	-8.19666
▁remain	-8.19764
▁your	-8.20532
▁f	-8.2071
▁test	-8.20987
▁hospital	-8.21105
▁open	-8.21215
▁water	-8.21288
▁beijing	-8.21317
le	-8.21536
▁name	-8.21847
▁workers	-8.2212
▁administration	-8.22153
▁afghanistan	-8.22155
▁money	-8.22235
▁base	-8.22264
▁change	-8.22394
▁per	-8.2243
▁d	-8.22441
▁palestinian	-8.2249
ve	-8.2249
▁service	-8.22504
▁german	-8.22661
▁final	-8.22867
▁mccain	-8.23166
▁rule	-8.23481
▁does	-8.23779
▁line	-8.23988
▁eight	-8.2419
such	-8.24213
▁increase	-8.2505
▁source	-8.25055
▁park	-8.25065
▁great	-8.25226
▁system	-8.25539
▁play	-8.25586
▁best	-8.25631
▁attacks	-8.25643
▁announc	-8.25818
▁led	-8.25893
▁already	-8.25919
▁baghdad	-8.26096
▁big	-8.2614
▁central	-8.26327
▁give	-8.26985
▁strong	-8.27172
▁along	-8.27176
▁killing	-8.27187
▁march	-8.27331
ation	-8.27388
▁province	-8.27617
▁small	-8.27678
▁began	-8.27708
▁decision	-8.28169
▁trade	-8.28178
▁far	-8.28589
▁video	-8.28705
▁control	-8.28778
▁hope	-8.29302
▁seven	-8.29468
▁bomb	-8.29594
▁current	-8.2983
▁co	-8.30206
▁ap	-8.30371
▁thousand	-8.30375
▁cut	-8.30418
▁bill	-8.30504
each	-8.30534
▁keep	-8.30715
▁miles	-8.30722
▁away	-8.30876
▁operation	-8.31061
▁fund	-8.31564
▁french	-8.31844
▁post	-8.31956
▁rights	-8.32156
▁continue	-8.32216
▁conference	-8.3222
▁however	-8.32229
▁become	-8.32408
▁israeli	-8.32438
▁food	-8.32494
▁region	-8.3257
▁israel	-8.32868
▁station	-8.33385
▁consider	-8.33496
▁southern	-8.33715
▁mak	-8.34137
▁attempt	-8.34468
▁barack	-8.3447
▁web	-8.34651
▁soldiers	-8.34778
▁agreement	-8.34898
▁global	-8.35287
▁woman	-8.3549
yang	-8.35548
▁information	-8.35623
▁spokes	-8.36433
▁gas	-8.36463
▁violence	-8.36774
th	-8.36876
▁east	-8.36943
▁bas	-8.36957
▁european	-8.37234
▁qa	-8.37702
▁sen	-8.37753
▁border	-8.37949
▁weapons	-8.38245
▁others	-8.38338
▁young	-8.38485
▁star	-8.38643
▁russia	-8.38745
▁here	-8.38784
▁c	-8.38886
▁person	-8.38891
▁injur	-8.39077
▁offer	-8.39292
▁plann	-8.39808
▁town	-8.39967
▁cause	-8.39973
▁union	-8.40241
▁condition	-8.4037
▁action	-8.40399
▁rate	-8.40456
▁director	-8.40558
▁live	-8.41033
▁committee	-8.41157
st	-8.41208
▁full	-8.41535
▁students	-8.41541
▁prices	-8.42065
▁following	-8.42203
▁ve	-8.42321
▁northern	-8.42375
▁weeks	-8.42583
▁internet	-8.43196
▁federal	-8.43403
▁count	-8.43408
▁peace	-8.4342
ic	-8.43773
▁article	-8.43819
▁point	-8.44085
▁order	-8.4422
▁california	-8.44657
▁pyong	-8.44868
▁republican	-8.45112
▁confirm	-8.45177
▁alleged	-8.45208
▁added	-8.45791
▁short	-8.45846
▁every	-8.45916
▁britain	-8.45928
▁might	-8.46141
▁grow	-8.46567
▁talk	-8.46765
▁launch	-8.46798
▁aid	-8.46965
▁total	-8.4699
▁never	-8.47013
▁include	-8.47113
▁congress	-8.47213
▁target	-8.47213
▁hundred	-8.47396
▁comment	-8.47469
▁side	-8.47649
▁key	-8.484
▁acros	-8.48435
▁outside	-8.48534
▁ahead	-8.48767
▁immediate	-8.48954
▁organization	-8.494
▁points	-8.49627
▁investigation	-8.49657
▁went	-8.49719
▁member	-8.49745
▁research	-8.49928
▁anti	-8.50044
▁emergency	-8.50083
um	-8.50708
▁senior	-8.5095
▁stock	-8.51222
▁must	-8.51223
▁cost	-8.51594
▁little	-8.51632
▁accus	-8.51737
▁game	-8.5183
▁working	-8.52047
▁france	-8.52094
▁real	-8.521
▁hold	-8.52172
▁body	-8.52189
▁crisis	-8.52303
te	-8.52329
▁find	-8.52549
▁possible	-8.52599
▁follow	-8.52701
▁energy	-8.52992
▁ban	-8.53109
▁got	-8.53645
▁stop	-8.5388
▁question	-8.54099
▁companies	-8.54135
▁prosecutor	-8.54137
▁study	-8.54178
▁charges	-8.54233
▁again	-8.54332
▁involv	-8.54411
▁elections	-8.54686
▁west	-8.54896
us	-8.54926
▁hyun	-8.5502
▁january	-8.55064
▁council	-8.55694
▁newspaper	-8.55768
uch	-8.5585
▁hard	-8.55954
▁speak	-8.55993
een	-8.56182
▁latest	-8.56291
▁race	-8.56365
▁june	-8.565
▁building	-8.5681
▁sea	-8.56831
▁age	-8.56919
▁share	-8.57525
▁reporters	-8.57602
▁meet	-8.57827
▁red	-8.57932
▁july	-8.57978
▁tell	-8.58078
▁due	-8.58117
▁america	-8.58194
▁previous	-8.58386
▁round	-8.58619
▁russian	-8.58862
▁further	-8.58872
▁interview	-8.58886
▁pay	-8.59038
▁toward	-8.59073
▁mean	-8.59097
▁suicide	-8.59122
▁provide	-8.59786
▁policy	-8.59982
▁afghan	-8.60087
▁george	-8.60095
▁travel	-8.60106
▁child	-8.60111
▁coast	-8.60171
▁airport	-8.60218
▁search	-8.60379
▁less	-8.60395
▁carry	-8.60626
▁weekend	-8.60831
▁charge	-8.60945
▁interest	-8.60948
▁england	-8.61076
▁ruling	-8.61078
▁list	-8.61183
▁term	-8.61971
raf	-8.62008
▁process	-8.62014
▁poll	-8.62179
▁tour	-8.62321
▁gaza	-8.6235
▁september	-8.62574
▁television	-8.6258
▁ever	-8.62885
▁minutes	-8.62943
eda	-8.6297
▁judge	-8.63189
▁demand	-8.63301
▁hostage	-8.63343
▁damage	-8.63412
▁couple	-8.63597
▁bring	-8.63754
▁medical	-8.63849
▁future	-8.63909
▁efforts	-8.63961
▁lost	-8.63971
▁hav	-8.64054
▁scientist	-8.64095
▁son	-8.64226
▁too	-8.64303
ness	-8.64461
▁level	-8.646
▁lawmaker	-8.64622
▁storm	-8.64638
▁groups	-8.64878
▁develop	-8.65218
▁act	-8.65375
▁street	-8.65406
▁o	-8.65499
self	-8.65537
▁executive	-8.65642
▁elect	-8.65752
▁black	-8.66253
▁father	-8.66439
▁send	-8.66512
▁wide	-8.66532
▁island	-8.6667
▁victory	-8.66745
▁grand	-8.66856
▁serious	-8.66945
▁shot	-8.67072
▁series	-8.67379
▁better	-8.67485
▁terrorist	-8.67565
▁lot	-8.67655
▁suggest	-8.6768
▁communist	-8.67742
▁goal	-8.67862
▁break	-8.67961
▁stay	-8.68273
▁mother	-8.68505
ry	-8.68729
▁industry	-8.6907
▁fuel	-8.69086
woman	-8.69249
▁missile	-8.69341
▁sent	-8.69431
▁strike	-8.69485
▁december	-8.69608
▁pro	-8.69671
▁tv	-8.69976
▁musha	-8.69986
▁hand	-8.70045
▁sex	-8.70095
▁apri	-8.70148
▁almost	-8.70704
▁fall	-8.70768
▁watch	-8.70797
▁parliament	-8.70856
▁incident	-8.70908
▁hotel	-8.7097
▁heart	-8.71005
▁mission	-8.71096
▁threaten	-8.71275
▁direct	-8.71417
▁result	-8.71447
age	-8.71589
▁cell	-8.72369
▁yet	-8.72385
▁seek	-8.72448
hind	-8.72551
though	-8.72638
to	-8.72674
▁wounded	-8.72781
▁europe	-8.72799
▁really	-8.73111
▁important	-8.73182
▁enough	-8.73186
▁chairman	-8.73469
▁history	-8.73471
▁nine	-8.73473
▁inside	-8.73815
▁asia	-8.73913
▁ground	-8.74012
▁november	-8.74023
▁david	-8.74023
▁flight	-8.74052
▁front	-8.74078
▁special	-8.74115
cy	-8.74162
▁wall	-8.74178
▁prison	-8.74234
▁western	-8.74479
▁voter	-8.74502
▁vehicle	-8.74589
▁job	-8.74613
▁soon	-8.75056
▁wife	-8.75451
ous	-8.75532
▁plane	-8.75655
▁player	-8.75696
▁rice	-8.7574
▁given	-8.75801
▁complete	-8.75811
▁discuss	-8.75952
ought	-8.75987
▁democrat	-8.7603
g	-8.76197
▁fighting	-8.7634
▁room	-8.76424
▁protest	-8.76551
▁amid	-8.76659
▁started	-8.76762
na	-8.76803
u	-8.76896
▁private	-8.77178
▁estimate	-8.77225
▁cross	-8.77226
▁india	-8.77541
▁whose	-8.77706
▁role	-8.77728
▁middle	-8.77759
▁season	-8.77872
▁crash	-8.78053
▁price	-8.7807
▁foot	-8.78378
son	-8.78412
▁ship	-8.78714
coming	-8.78878
▁walk	-8.78938
f	-8.7903
▁mark	-8.79112
▁associat	-8.79786
▁different	-8.79835
▁commission	-8.80017
▁exchange	-8.80039
▁light	-8.80048
▁august	-8.80073
▁rebel	-8.80138
▁negotiation	-8.80145
▁supporter	-8.80307
▁step	-8.80382
k	-8.80503
▁san	-8.80606
▁evidence	-8.80731
▁board	-8.80825
▁though	-8.80951
▁problem	-8.80991
▁victims	-8.81191
▁district	-8.8164
▁join	-8.81683
▁development	-8.81686
▁warn	-8.81874
▁dozen	-8.81945
▁boy	-8.82199
▁protect	-8.82214
▁conduct	-8.82258
▁liv	-8.82282
▁problems	-8.82293
▁pressure	-8.82479
▁animal	-8.82567
▁situation	-8.82865
▁fail	-8.83014
vez	-8.83238
▁cha	-8.83241
known	-8.83475
▁gave	-8.8349
▁met	-8.83556
▁homes	-8.83565
▁australia	-8.83602
▁areas	-8.83609
▁larges	-8.83894
▁resident	-8.8401
▁road	-8.84124
▁leave	-8.84165
▁lower	-8.8422
ntil	-8.84254
▁february	-8.84418
▁movie	-8.84606
▁am	-8.84622
▁bad	-8.84811
▁train	-8.84858
▁primar	-8.85317
▁bus	-8.8545
▁summit	-8.85678
▁senate	-8.8568
▁analyst	-8.85681
▁gen	-8.85776
▁trip	-8.85845
less	-8.85852
▁express	-8.85857
▁church	-8.86
▁lawyer	-8.86002
▁fell	-8.86003
▁risk	-8.86317
▁crew	-8.8632
▁inter	-8.86438
▁low	-8.86514
▁senator	-8.86954
▁tried	-8.87029
▁happen	-8.87094
▁thought	-8.87167
▁disease	-8.87183
▁link	-8.87199
▁heavy	-8.87275
▁serve	-8.87493
▁illegal	-8.87598
▁pakistani	-8.87761
▁prevent	-8.87921
▁urg	-8.88031
▁rival	-8.88253
▁let	-8.88268
ally	-8.88384
ance	-8.88459
▁results	-8.88653
▁speech	-8.88898
▁los	-8.88981
▁land	-8.89007
▁wanted	-8.89022
▁vice	-8.89023
▁relations	-8.89062
▁october	-8.89226
▁together	-8.89254
▁intelligen	-8.89362
▁protesters	-8.89387
▁address	-8.8943
ty	-8.89763
▁pull	-8.89777
▁florida	-8.9055
▁something	-8.90556
▁project	-8.90741
▁moo	-8.90751
▁request	-8.90882
▁tokyo	-8.90886
wide	-8.90922
▁mid	-8.91098
▁summer	-8.91218
▁cup	-8.9157
▁stage	-8.91712
▁hamas	-8.9189
▁position	-8.91915
▁ll	-8.91929
▁product	-8.92006
▁phone	-8.92041
▁attorney	-8.92227
▁justice	-8.92232
▁crowd	-8.92237
▁crime	-8.92242
▁leban	-8.92245
▁technology	-8.92247
▁unti	-8.92251
▁online	-8.92353
▁loss	-8.9236
mar	-8.92577
▁hong	-8.92583
▁growth	-8.92603
▁thai	-8.92624
▁attend	-8.92728
▁calls	-8.92749
z	-8.92765
▁decided	-8.92853
ary	-8.93065
▁eastern	-8.93184
▁labor	-8.93203
▁begin	-8.93237
▁muslim	-8.93247
▁quick	-8.9325
▁getting	-8.93284
▁j	-8.93294
▁brown	-8.93306
one	-8.93325
▁focus	-8.93368
ism	-8.93501
▁paris	-8.93604
▁hill	-8.93607
▁daughter	-8.93608
▁fight	-8.93698
▁survey	-8.93747
▁announce	-8.93755
▁coalition	-8.93933
▁popular	-8.93957
▁girl	-8.94027
▁sell	-8.94063
biggest	-8.94088
▁battle	-8.94326
▁markets	-8.94557
▁approv	-8.94603
▁treat	-8.94637
▁league	-8.94648
▁chance	-8.947
▁rise	-8.94747
▁gold	-8.94761
▁reached	-8.94823
▁assembly	-8.95008
▁needed	-8.95092
▁officer	-8.95116
▁award	-8.95252
▁apparent	-8.95324
▁missing	-8.95369
▁fan	-8.95415
▁despi	-8.95439
▁h	-8.95749
▁saw	-8.96142
▁tak	-8.96179
▁credit	-8.96325
▁games	-8.96342
▁koreans	-8.96347
▁hillary	-8.96387
▁pick	-8.96697
▁buy	-8.9682
▁tax	-8.96842
▁legal	-8.96873
▁releas	-8.96901
▁joint	-8.96914
▁fee	-8.96918
▁kind	-8.97053
co	-8.97181
▁effort	-8.97248
▁scene	-8.97443
▁match	-8.97588
▁expect	-8.97613
▁asian	-8.9762
▁love	-8.9763
ard	-8.97822
▁olympic	-8.98012
▁democrac	-8.98152
▁stand	-8.98262
ive	-8.98337
▁officers	-8.98426
p	-8.98484
▁services	-8.98486
▁feel	-8.98558
▁sentence	-8.98792
▁sarkozy	-8.98872
▁jail	-8.98885
▁nomination	-8.98887
▁music	-8.99154
▁r	-8.99561
▁blood	-8.99646
▁seem	-8.99941
▁bid	-8.99954
▁polls	-9.00091
▁threat	-9.00221
ri	-9.00231
▁cover	-9.00265
▁drug	-9.00271
▁caus	-9.00342
▁form	-9.00745
came	-9.00746
by	-9.00843
▁texas	-9.01066
▁running	-9.01084
▁staff	-9.01135
▁issues	-9.0115
taken	-9.01267
▁network	-9.01519
▁event	-9.0155
▁turkey	-9.01817
▁quarter	-9.01821
▁host	-9.01912
▁destroy	-9.01996
▁robert	-9.02094
▁population	-9.02188
▁letter	-9.02587
▁australian	-9.02789
▁protests	-9.02794
▁paul	-9.02883
▁experts	-9.02901
side	-9.02927
▁blast	-9.02934
▁deput	-9.02939
▁delay	-9.02945
▁community	-9.03082
▁murder	-9.03155
▁jobs	-9.0326
▁ra	-9.03851
▁governor	-9.03927
▁receiv	-9.03977
▁field	-9.04135
▁story	-9.0415
▁higher	-9.04224
▁idea	-9.04348
▁why	-9.04526
▁radio	-9.04603
greed	-9.04893
▁image	-9.04897
▁safety	-9.05234
▁association	-9.05256
▁sales	-9.0555
x	-9.05643
▁river	-9.05824
▁things	-9.05887
▁embass	-9.05994
▁plant	-9.06021
▁beat	-9.06029
ra	-9.06109
▁title	-9.06191
▁message	-9.06554
▁opened	-9.06615
▁cit	-9.06692
▁deep	-9.06742
▁resolution	-9.06772
▁sanction	-9.06776
▁continued	-9.06818
▁mov	-9.06873
▁suffer	-9.06965
▁camp	-9.07109
or	-9.07153
▁ki	-9.07159
▁lives	-9.0736
▁civilians	-9.07415
▁similar	-9.07557
▁appeal	-9.07559
▁book	-9.07574
▁firm	-9.07956
▁trial	-9.07971
▁debate	-9.07977
▁average	-9.08088
▁fear	-9.08109
▁earth	-9.08355
▁rose	-9.08366
▁g	-9.08384
▁production	-9.08397
▁daily	-9.08408
▁minute	-9.0857
▁researcher	-9.08581
ways	-9.08602
whil	-9.08605
▁aim	-9.08695
▁delegates	-9.0871
▁safe	-9.08722
▁rais	-9.08982
▁date	-9.09141
▁initial	-9.09152
▁royal	-9.09155
▁often	-9.0939
▁ceremon	-9.09549
▁doing	-9.09718
▁identified	-9.09787
ton	-9.09831
▁airline	-9.09867
▁husband	-9.09952
▁journalist	-9.09972
▁measures	-9.10019
▁king	-9.10119
▁poor	-9.10366
▁africa	-9.10572
▁receive	-9.10693
▁computer	-9.10863
▁wait	-9.11065
▁care	-9.11198
▁iranian	-9.11198
▁kong	-9.11331
▁drive	-9.1143
▁michael	-9.11583
▁contain	-9.11739
▁shooting	-9.11971
▁moment	-9.12018
▁famili	-9.12317
▁neighbor	-9.12404
▁parents	-9.12458
▁arriv	-9.12613
▁done	-9.12716
▁st	-9.12726
▁investigator	-9.12873
▁fired	-9.12875
▁fact	-9.13001
▁tourist	-9.13337
pent	-9.13478
▁present	-9.13764
▁quot	-9.13818
taking	-9.13845
▁commander	-9.13885
▁dispute	-9.14039
▁accident	-9.14056
▁reform	-9.14068
▁ordered	-9.14176
▁movement	-9.14184
▁facilit	-9.1438
▁certain	-9.14499
▁transport	-9.14499
▁club	-9.14504
▁raise	-9.1454
▁burn	-9.14597
▁reach	-9.14619
▁dr	-9.14806
▁affair	-9.14922
▁education	-9.14979
▁african	-9.15124
▁prince	-9.15233
▁involve	-9.15274
▁push	-9.1531
▁ambassador	-9.15348
▁increasing	-9.15348
▁period	-9.15507
▁suspected	-9.15528
▁details	-9.15536
▁included	-9.15586
▁islami	-9.15781
▁sexual	-9.15785
▁rest	-9.15951
▁related	-9.16385
▁cars	-9.16438
▁professor	-9.16636
▁dow	-9.1675
▁matter	-9.16785
▁accept	-9.16848
▁view	-9.16988
▁afternoon	-9.17069
▁wear	-9.17184
▁account	-9.17205
▁difficult	-9.17229
▁english	-9.17503
▁potential	-9.17504
▁cat	-9.17626
▁gain	-9.17679
▁rock	-9.17826
▁majorit	-9.17908
▁rally	-9.17976
hutto	-9.18026
▁ready	-9.18094
▁manager	-9.18098
▁bodie	-9.18133
▁reject	-9.18338
▁cabinet	-9.18379
▁activities	-9.1845
▁contract	-9.187
nato	-9.18717
▁draw	-9.18745
▁detain	-9.18817
▁kilometer	-9.18819
▁brother	-9.18832
▁huge	-9.18983
▁leav	-9.19245
▁block	-9.19678
▁design	-9.19683
ung	-9.1969
▁contact	-9.19706
▁patient	-9.19732
▁course	-9.19759
▁challenge	-9.19857
truck	-9.19975
hua	-9.20048
▁finish	-9.20147
▁terror	-9.20195
▁access	-9.20214
▁holding	-9.20242
▁saudi	-9.20602
▁opening	-9.2078
▁indian	-9.20788
stead	-9.2086
ble	-9.20879
rought	-9.20915
▁played	-9.21089
▁rescue	-9.21396
▁broadcast	-9.21646
▁doctors	-9.21663
▁conservative	-9.21959
▁treatment	-9.22001
▁announcement	-9.22024
▁sure	-9.22039
za	-9.22207
▁turk	-9.2221
▁cases	-9.22254
▁marine	-9.22323
▁progress	-9.224
bc	-9.22495
▁broke	-9.22507
▁track	-9.22681
▁limit	-9.22831
▁peninsula	-9.22874
▁response	-9.22874
▁suspend	-9.22874
▁enter	-9.22877
▁create	-9.23328
▁institute	-9.23349
▁civil	-9.23528
▁deliver	-9.23561
▁raid	-9.23851
▁prisoner	-9.23917
▁hearing	-9.24084
▁check	-9.24271
ler	-9.24293
▁common	-9.24374
▁cities	-9.24437
▁village	-9.24483
▁friend	-9.24585
▁spoke	-9.24589
▁material	-9.24592
▁partie	-9.24695
▁mexico	-9.2473
▁lift	-9.24758
▁shows	-9.24782
▁passengers	-9.2479
▁probabl	-9.24822
▁forward	-9.24875
▁agree	-9.24906
▁non	-9.24909
▁single	-9.25018
wood	-9.25066
▁critical	-9.25105
▁means	-9.25117
▁streets	-9.25168
▁illinois	-9.25199
▁taiwan	-9.25199
▁square	-9.25204
▁interior	-9.2525
▁published	-9.25521
▁trading	-9.25672
▁actor	-9.25729
▁understand	-9.25734
▁vot	-9.2585
▁session	-9.26145
re	-9.26319
▁passed	-9.26925
▁rain	-9.26994
▁separate	-9.27013
▁describ	-9.27031
▁green	-9.27041
ey	-9.27079
▁explosion	-9.271
▁relationship	-9.27103
▁investor	-9.27124
▁investment	-9.27129
ney	-9.27265
▁warning	-9.27282
▁spread	-9.27377
▁refus	-9.27413
ful	-9.27473
▁l	-9.27526
▁islam	-9.27551
▁allegation	-9.27583
▁nothing	-9.27599
▁spending	-9.27718
ial	-9.27912
▁diplomatic	-9.28127
gnp	-9.28175
▁secret	-9.28449
▁index	-9.28581
▁fast	-9.28851
▁nav	-9.28868
▁chicago	-9.29037
▁annual	-9.29426
▁insurgent	-9.29527
▁data	-9.29553
▁citizens	-9.29617
selves	-9.29981
▁giant	-9.30024
▁rising	-9.30066
▁nominee	-9.30515
▁female	-9.30515
▁actual	-9.30516
▁investigat	-9.30627
geles	-9.30634
▁personal	-9.30903
▁natural	-9.30919
▁criminal	-9.31012
▁helicopter	-9.31012
▁weather	-9.31024
▁winning	-9.31027
▁virginia	-9.3103
▁longer	-9.31051
▁avoid	-9.31069
▁sold	-9.31185
▁pai	-9.31254
▁fly	-9.31421
▁sun	-9.31422
▁mayor	-9.31558
▁experience	-9.31817
time	-9.31914
▁italian	-9.32023
▁schedule	-9.32116
▁code	-9.32117
▁smith	-9.32269
▁friends	-9.32498
▁shiite	-9.3252
▁satellite	-9.32521
▁require	-9.32771
▁export	-9.32778
▁abo	-9.32997
▁particular	-9.33028
▁lack	-9.33043
▁ran	-9.33069
▁social	-9.33172
▁chung	-9.33305
▁moon	-9.33376
▁independent	-9.33429
▁discovered	-9.33498
▁century	-9.33701
▁range	-9.3372
▁eu	-9.3375
▁truck	-9.33766
▁decades	-9.33788
▁injuries	-9.33839
▁mass	-9.33943
▁success	-9.33986
▁snow	-9.34018
▁boat	-9.34081
▁provid	-9.34115
▁availab	-9.34126
▁dollar	-9.34286
▁size	-9.34328
▁adding	-9.34469
▁employees	-9.34481
▁construction	-9.34571
▁italy	-9.34628
▁blue	-9.34885
▁guard	-9.34943
▁science	-9.3511
▁camera	-9.35131
▁worth	-9.35146
▁finding	-9.35171
▁wors	-9.35693
▁la	-9.35714
▁committ	-9.35743
▁color	-9.358
▁toll	-9.35886
▁nasa	-9.36058
▁xin	-9.36144
▁rare	-9.36173
▁additional	-9.36265
▁seat	-9.36292
▁declar	-9.36343
▁visitor	-9.36409
▁flood	-9.3645
▁mail	-9.36453
▁steps	-9.36593
▁earthquake	-9.36654
▁unit	-9.36852
▁espe	-9.3707
▁establish	-9.37093
▁refugee	-9.37093
▁college	-9.37185
▁supreme	-9.37186
▁barrel	-9.37194
▁jones	-9.37223
▁honor	-9.37257
▁operat	-9.37281
pain	-9.373
▁port	-9.37311
▁industrial	-9.3766
▁gun	-9.37706
▁anything	-9.37719
cially	-9.37749
▁insist	-9.37816
▁sever	-9.37941
▁voice	-9.38022
▁pass	-9.38063
▁parts	-9.38103
▁resign	-9.38226
▁everything	-9.38252
▁standard	-9.38256
▁peaceful	-9.38275
▁zone	-9.38304
▁dae	-9.38318
▁command	-9.38366
▁slow	-9.38545
▁read	-9.3861
▁approach	-9.38729
▁maintain	-9.38788
▁reactor	-9.38795
▁extend	-9.38891
men	-9.38973
▁thing	-9.3899
▁build	-9.39006
▁import	-9.39021
▁gather	-9.39035
▁ice	-9.39414
▁quit	-9.39517
▁wound	-9.39567
ley	-9.39799
▁moscow	-9.39872
▁prosecution	-9.39875
▁defeat	-9.39877
▁figure	-9.4007
▁dropp	-9.40157
▁dollars	-9.40171
▁super	-9.40281
▁value	-9.40283
▁schedul	-9.40315
▁massive	-9.4044
▁original	-9.40539
▁peter	-9.40755
▁deni	-9.40872
▁condemn	-9.40968
▁envoy	-9.40968
▁carolina	-9.40968
▁regard	-9.40968
▁opportunit	-9.40993
▁kar	-9.41081
▁ben	-9.41082
▁banks	-9.41429
▁represent	-9.41495
spite	-9.41507
▁attention	-9.41522
▁cancer	-9.41534
▁shut	-9.4155
▁occurr	-9.41565
▁speed	-9.41588
▁shin	-9.41809
▁produc	-9.41939
▁mountain	-9.42038
▁alliance	-9.42079
▁aircraft	-9.42087
▁schools	-9.42089
▁store	-9.42145
▁convicted	-9.42194
▁le	-9.42195
▁ii	-9.42208
▁born	-9.42231
▁engineer	-9.42323
▁criticiz	-9.4239
▁uri	-9.42428
ose	-9.42444
▁driving	-9.42635
▁significant	-9.42661
▁driver	-9.42878
▁questions	-9.42915
▁produce	-9.43
▁resume	-9.43063
aught	-9.43147
▁uk	-9.43175
▁jump	-9.43199
▁consumer	-9.43231
▁pre	-9.43339
bi	-9.43341
▁remarks	-9.43374
kept	-9.43382
▁suspect	-9.43557
▁il	-9.43677
▁pacifi	-9.43761
▁brain	-9.43769
▁usual	-9.4377
▁student	-9.43788
ritten	-9.4392
▁environmental	-9.4394
▁normal	-9.44317
▁marriage	-9.44329
▁discussion	-9.44458
▁whom	-9.44813
▁monitor	-9.44901
responsible	-9.44934
el	-9.44967
▁society	-9.4498
▁evening	-9.4507
▁admitted	-9.45074
▁remains	-9.45129
▁class	-9.45237
oft	-9.45298
▁device	-9.45482
▁bridge	-9.45525
▁hands	-9.4571
▁training	-9.45735
▁pennsylvania	-9.45785
▁indonesia	-9.45861
▁independen	-9.4589
▁finance	-9.46013
▁prompt	-9.46054
▁ohio	-9.46054
▁management	-9.46066
▁guilt	-9.46082
▁severe	-9.462
▁fighter	-9.46395
▁sharp	-9.46408
▁blame	-9.46505
▁museum	-9.46638
▁performance	-9.46646
▁heard	-9.46649
giving	-9.46671
▁drop	-9.46778
▁promise	-9.46792
▁ex	-9.46951
▁customer	-9.46953
▁sale	-9.47099
▁tibet	-9.47118
▁decline	-9.47129
▁levels	-9.47271
▁hurt	-9.47275
▁song	-9.47493
harry	-9.47653
putin	-9.477
▁criticism	-9.47819
▁millions	-9.47845
▁baby	-9.47865
▁review	-9.48051
▁canno	-9.4838
▁holiday	-9.484
▁conflict	-9.484
▁beginning	-9.48408
▁fill	-9.48463
▁chang	-9.48554
▁terroris	-9.48565
▁abbas	-9.48579
▁paper	-9.48619
▁rich	-9.48884
rote	-9.48948
▁leadership	-9.49029
▁aide	-9.49144
▁civilian	-9.49218
▁parliamentar	-9.49222
▁prize	-9.49376
▁constitution	-9.49385
▁factor	-9.49586
▁custody	-9.49594
▁scandal	-9.49594
▁save	-9.49609
▁bak	-9.49839
▁word	-9.49884
▁sides	-9.50021
▁electric	-9.5007
ia	-9.5011
▁impact	-9.50209
▁herald	-9.50211
▁drink	-9.50216
▁angel	-9.50243
▁bin	-9.50281
▁intend	-9.50296
▁regional	-9.50465
▁changes	-9.50471
▁critic	-9.50671
▁suspects	-9.5077
▁double	-9.50787
▁mosque	-9.50803
▁career	-9.5105
▁effect	-9.51073
▁commercial	-9.5109
▁reduce	-9.5141
▁opinion	-9.51412
▁corruption	-9.51415
▁communication	-9.51417
▁combat	-9.51419
▁negotiator	-9.51427
▁pledge	-9.51612
▁regime	-9.51779
▁environment	-9.51803
▁georgia	-9.51827
▁language	-9.52026
▁everyone	-9.52077
up	-9.52101
▁author	-9.52123
▁fair	-9.5213
rt	-9.52207
▁micros	-9.52244
▁screen	-9.5247
▁repeated	-9.52488
tan	-9.52614
▁ball	-9.52661
▁reason	-9.52707
▁allies	-9.52779
▁forest	-9.53106
ni	-9.53155
▁boost	-9.53158
▁panel	-9.53272
▁mo	-9.53349
way	-9.53454
▁score	-9.5352
▁seats	-9.53525
ever	-9.53564
▁buil	-9.53765
▁territor	-9.53797
▁fresh	-9.5389
▁failure	-9.5389
▁climate	-9.53892
▁fifth	-9.53901
▁buildings	-9.54032
▁associate	-9.54218
ar	-9.54324
▁traffic	-9.54326
▁brief	-9.5437
▁republic	-9.54417
▁adopt	-9.54451
▁recover	-9.54459
▁surprise	-9.54484
▁complex	-9.54518
▁numbers	-9.54519
▁myung	-9.54591
▁formal	-9.54597
▁ko	-9.54868
▁bit	-9.55099
▁proposal	-9.55208
▁documents	-9.55254
▁da	-9.55321
▁fish	-9.55354
▁traditional	-9.55381
▁specific	-9.55764
▁assault	-9.55788
▁domestic	-9.55788
▁spanish	-9.55797
▁james	-9.55804
▁surgery	-9.55831
▁cho	-9.5626
▁corp	-9.56342
▁difference	-9.56429
▁package	-9.56496
▁ba	-9.56799
▁sound	-9.56982
▁fac	-9.57082
▁cash	-9.57091
▁figures	-9.57193
▁bombing	-9.57253
▁olympics	-9.57326
▁queen	-9.57467
▁hu	-9.57497
▁ky	-9.57536
▁violent	-9.57723
▁possibilit	-9.57753
▁option	-9.57791
▁wave	-9.57932
▁richard	-9.57952
▁nam	-9.58041
▁owner	-9.58045
▁itself	-9.5828
▁coach	-9.58404
▁route	-9.58411
▁penalt	-9.58427
▁hop	-9.58462
▁tree	-9.58505
▁recall	-9.59035
▁answer	-9.59046
▁mobile	-9.5907
▁jong	-9.5908
▁events	-9.59116
▁protection	-9.59121
▁miss	-9.59467
ory	-9.59497
▁colombia	-9.59505
▁withdraw	-9.59626
▁trigger	-9.59697
▁reveal	-9.59697
▁apple	-9.59701
▁shuttle	-9.59705
▁disaster	-9.59708
tp	-9.59907
▁created	-9.59962
▁accuse	-9.59971
▁addition	-9.60191
▁astronaut	-9.60364
▁quake	-9.60364
▁telephone	-9.60444
▁adviser	-9.60456
▁maker	-9.6053
▁tie	-9.60539
▁measure	-9.60739
▁carrie	-9.60827
▁gates	-9.60873
▁profit	-9.61036
▁supply	-9.61042
▁sleep	-9.61067
▁propos	-9.61088
▁necessary	-9.61127
▁describe	-9.61132
▁holly	-9.61174
▁abe	-9.61296
▁self	-9.61335
▁sunni	-9.6139
▁beach	-9.61435
▁premier	-9.61531
▁arab	-9.61541
▁improve	-9.61658
▁tests	-9.6168
▁individual	-9.61711
▁correspondent	-9.61715
▁winter	-9.61736
▁powerful	-9.6176
▁francis	-9.61821
▁amount	-9.61857
▁makes	-9.61988
▁controll	-9.62125
▁girls	-9.62261
▁headquarter	-9.62391
▁neighborhood	-9.62395
▁dangerous	-9.62403
▁cap	-9.62418
▁respond	-9.62425
▁agent	-9.62431
▁exist	-9.62447
▁piece	-9.62537
▁struggl	-9.62615
▁shown	-9.62619
▁replace	-9.62662
▁football	-9.62796
▁stopped	-9.62797
▁compar	-9.62851
▁flights	-9.63019
abe	-9.6304
▁magazine	-9.63076
▁ilbo	-9.63078
▁loan	-9.63121
▁affect	-9.63158
ng	-9.63289
da	-9.63392
▁rocket	-9.63498
▁resolve	-9.63705
▁positive	-9.63766
▁behavior	-9.6377
▁mug	-9.63778
▁appearance	-9.63827
▁touch	-9.63915
▁forecast	-9.64159
▁cold	-9.64193
▁showing	-9.64344
▁kids	-9.64455
▁else	-9.64471
▁planet	-9.64472
▁deadline	-9.64478
▁arrive	-9.6453
▁page	-9.64605
ur	-9.64646
well	-9.64647
▁affected	-9.65073
▁respect	-9.65143
▁confidence	-9.6516
▁felt	-9.65163
▁vow	-9.65175
▁trouble	-9.65237
▁advance	-9.65259
▁ongoing	-9.65367
▁arms	-9.65509
▁words	-9.6559
▁secure	-9.65625
▁heat	-9.65771
▁overseas	-9.65863
▁pilot	-9.65875
▁location	-9.65892
▁referr	-9.65903
▁apartment	-9.65945
▁rank	-9.66062
ine	-9.66246
▁wa	-9.66276
▁fears	-9.66352
▁perform	-9.6651
▁anniversar	-9.66573
▁fine	-9.66625
▁carri	-9.66639
▁sometime	-9.66736
▁po	-9.66759
▁activists	-9.66771
▁votes	-9.66771
▁ht	-9.66981
▁legislati	-9.67129
▁wrong	-9.67277
▁brazil	-9.6728
▁degree	-9.67287
▁crude	-9.67287
▁solution	-9.67295
▁successful	-9.673
ak	-9.6743
ie	-9.67547
▁terms	-9.67585
▁che	-9.67749
▁na	-9.67777
▁van	-9.67828
▁govern	-9.67984
▁straight	-9.68006
▁riot	-9.68178
town	-9.6824
▁learn	-9.68242
▁yang	-9.68275
▁winner	-9.68277
▁constitutional	-9.68329
▁abuse	-9.68404
▁bear	-9.68507
▁choice	-9.68653
▁km	-9.6866
▁below	-9.68763
▁style	-9.68768
off	-9.6877
▁forc	-9.68863
▁adult	-9.68973
▁soldier	-9.69009
▁clean	-9.69053
▁bay	-9.69061
▁row	-9.69197
▁hurricane	-9.69461
▁christmas	-9.69461
▁display	-9.69462
▁assistant	-9.69464
▁controversial	-9.6947
responsibility	-9.69486
▁reserve	-9.695
▁drugs	-9.69591
▁type	-9.69695
▁joined	-9.69723
▁card	-9.69899
▁flu	-9.69984
lew	-9.69984
▁supplie	-9.70017
▁promis	-9.7002
▁birth	-9.70195
▁christophe	-9.70196
▁entire	-9.70196
▁bar	-9.70201
▁regular	-9.70205
ong	-9.70245
▁blow	-9.70257
ist	-9.70273
▁propert	-9.70352
▁id	-9.70534
▁model	-9.7061
▁bann	-9.70729
▁influence	-9.70737
▁welcome	-9.70904
▁blair	-9.70937
▁madrid	-9.70937
▁channel	-9.70939
▁famous	-9.70969
▁collapse	-9.71002
▁surrounding	-9.71059
▁cooperati	-9.71121
▁feature	-9.71149
▁virus	-9.71278
▁victim	-9.71292
▁abu	-9.71465
▁indicate	-9.71538
▁highway	-9.71613
▁happy	-9.71684
▁resort	-9.71687
▁freedom	-9.7169
▁mount	-9.7171
▁gone	-9.71794
▁su	-9.72049
▁decade	-9.72071
new	-9.72078
▁pack	-9.72204
▁extreme	-9.72442
▁tech	-9.72503
ither	-9.7254
▁true	-9.72545
▁tibetan	-9.72566
▁throw	-9.726
▁alone	-9.72671
▁scor	-9.72708
▁burma	-9.72847
▁cancel	-9.72885
▁transfer	-9.7299
▁kidnapped	-9.7303
▁treasur	-9.73113
▁floor	-9.73194
▁spark	-9.73211
▁hair	-9.7322
▁olme	-9.73235
▁cent	-9.73273
▁door	-9.73356
▁twic	-9.734
▁christian	-9.73504
▁auto	-9.73526
▁politic	-9.7358
▁male	-9.73597
▁lone	-9.73629
ro	-9.73796
▁asp	-9.73801
▁abandon	-9.73957
▁exile	-9.73974
▁charles	-9.74012
▁witnesses	-9.74067
▁ocean	-9.74194
nel	-9.74194
▁tough	-9.74264
▁singer	-9.7456
▁el	-9.74599
▁meters	-9.74716
▁competition	-9.74726
▁sudan	-9.74728
▁dream	-9.74733
▁festival	-9.74735
▁species	-9.74748
▁resignation	-9.74762
▁activit	-9.74892
▁active	-9.74951
▁ali	-9.75004
▁eye	-9.75047
▁mil	-9.75077
▁doctor	-9.75225
▁pound	-9.7525
▁jet	-9.75314
▁software	-9.75501
▁enem	-9.75503
▁recession	-9.75507
▁division	-9.75509
▁malik	-9.75513
▁nor	-9.75531
▁trust	-9.75571
▁producer	-9.75684
▁champions	-9.75735
▁northeast	-9.76148
▁names	-9.7617
▁winds	-9.76229
▁married	-9.76305
▁doubt	-9.76341
▁indicat	-9.76347
ahoo	-9.76443
▁gunm	-9.76445
▁et	-9.76601
▁qualit	-9.76729
▁han	-9.76735
▁dis	-9.76821
overall	-9.76891
▁studie	-9.76916
▁hot	-9.76928
▁singapore	-9.76963
▁journal	-9.77044
▁art	-9.77065
▁hussein	-9.77069
▁pentagon	-9.77069
▁palace	-9.77071
▁shari	-9.77075
▁heavi	-9.77076
▁kick	-9.77121
▁shar	-9.77189
▁laws	-9.7721
▁dog	-9.77278
uters	-9.77583
ium	-9.77625
▁zimbabwe	-9.77759
▁imposed	-9.77818
▁eventual	-9.77864
▁concert	-9.77866
▁gord	-9.77872
▁denie	-9.77891
▁beyon	-9.77923
▁william	-9.77937
▁reflect	-9.77975
▁determine	-9.78009
▁prepared	-9.78036
▁remove	-9.78214
▁chi	-9.78287
▁kidnapping	-9.78316
ang	-9.78393
is	-9.78618
▁currenc	-9.78663
▁setting	-9.78785
▁pope	-9.78894
▁wild	-9.78922
den	-9.78924
▁gay	-9.79172
▁mine	-9.79206
▁steve	-9.79241
▁shop	-9.79376
▁williams	-9.79402
▁ma	-9.79514
▁cast	-9.79794
▁bombings	-9.7987
ian	-9.79886
▁syria	-9.79902
▁surge	-9.80136
atomic	-9.80245
▁ronald	-9.80283
▁survivor	-9.80295
▁effective	-9.80342
▁shift	-9.80388
▁photograph	-9.80466
id	-9.80545
▁demanding	-9.80709
▁tank	-9.80878
eastern	-9.80938
▁clashe	-9.80988
▁euro	-9.81004
▁condoleez	-9.81102
▁relief	-9.81103
▁draft	-9.81104
▁kosov	-9.81105
▁demonstrator	-9.81115
▁commitment	-9.8112
▁scale	-9.81135
▁declaration	-9.81136
▁halt	-9.81159
▁dark	-9.81163
▁prove	-9.81318
▁signal	-9.81473
▁capture	-9.81665
▁sub	-9.81681
▁fil	-9.81747
▁consumers	-9.81927
▁economist	-9.81929
▁crackdown	-9.81931
▁presen	-9.82022
▁culture	-9.82077
▁sense	-9.82146
▁serving	-9.82175
▁practice	-9.82194
▁earn	-9.82212
▁bomber	-9.82338
▁farmer	-9.82565
▁smoke	-9.82696
▁hall	-9.82711
▁egypt	-9.82755
▁soviet	-9.82762
▁dialogue	-9.82762
▁implement	-9.82762
▁various	-9.82762
▁portug	-9.82763
▁actress	-9.82765
▁withdrawal	-9.82853
▁foundation	-9.83014
▁se	-9.83058
▁multi	-9.83178
▁flow	-9.83186
▁whole	-9.83196
▁foreigner	-9.83281
▁stem	-9.83355
▁witness	-9.83481
▁rush	-9.83496
▁roll	-9.83518
▁sports	-9.83602
▁connection	-9.83656
▁dress	-9.83681
▁counter	-9.83705
ification	-9.83752
ner	-9.83845
▁losing	-9.83866
▁via	-9.84017
▁mind	-9.84039
▁tony	-9.84042
▁alert	-9.84088
▁picture	-9.84231
▁jew	-9.84244
▁politicians	-9.84283
▁complain	-9.84287
▁zoo	-9.84369
▁appoint	-9.84414
▁tournament	-9.84449
▁militia	-9.8445
▁religious	-9.84452
▁sector	-9.84459
▁violation	-9.84496
▁add	-9.84498
▁partner	-9.84522
▁min	-9.84565
▁pictures	-9.84669
▁shock	-9.84753
ham	-9.84799
▁martin	-9.84863
▁hole	-9.84935
▁trail	-9.84958
▁guy	-9.84976
▁convention	-9.84997
▁seed	-9.85177
▁defend	-9.85251
▁deploy	-9.85271
▁version	-9.85323
▁works	-9.85361
where	-9.85434
▁income	-9.85438
▁flame	-9.85447
▁minor	-9.85687
▁historic	-9.85718
▁escape	-9.85741
▁suffering	-9.85769
▁favor	-9.85863
▁determined	-9.8591
▁traveling	-9.85943
▁probe	-9.85953
▁broad	-9.85984
▁academ	-9.86016
▁ending	-9.86133
▁delegation	-9.86166
▁unveil	-9.86166
▁kabul	-9.86167
▁beckham	-9.86167
▁ceo	-9.8618
▁content	-9.86269
▁waters	-9.86387
▁computers	-9.86403
▁taxes	-9.86467
▁frank	-9.86472
▁leg	-9.86472
▁bag	-9.86493
▁las	-9.86763
▁alcohol	-9.87014
▁danger	-9.87031
▁encourage	-9.87036
▁budget	-9.87041
▁spring	-9.87046
▁medicine	-9.87054
▁reaction	-9.87069
▁speaker	-9.87141
▁hear	-9.87144
zai	-9.87183
▁easi	-9.87184
▁meetings	-9.87286
▁wind	-9.87422
▁spot	-9.8751
ship	-9.87571
▁dut	-9.87573
▁stone	-9.87799
▁extra	-9.87807
▁fraud	-9.87913
▁rapid	-9.87915
▁fellow	-9.87919
▁ways	-9.87939
▁diana	-9.87948
▁weight	-9.88064
la	-9.88067
▁users	-9.88113
▁apolog	-9.88142
▁hous	-9.88148
berg	-9.88203
▁rape	-9.88372
▁table	-9.88618
▁ranking	-9.88787
▁michigan	-9.88798
▁tehran	-9.88798
▁temperature	-9.88798
▁enjoy	-9.88798
▁saddam	-9.88798
▁register	-9.88829
▁urani	-9.8884
aks	-9.88881
▁li	-9.88887
▁god	-9.88893
▁sister	-9.88898
▁contest	-9.88963
▁standing	-9.88981
▁torch	-9.89158
▁remov	-9.89236
b	-9.89238
▁ring	-9.89491
▁items	-9.89506
▁arabia	-9.89514
▁slight	-9.89521
yone	-9.89597
ester	-9.89609
▁ho	-9.8966
▁kennedy	-9.89692
▁virtual	-9.89698
▁tens	-9.8977
▁systems	-9.89862
▁stake	-9.89891
▁isn	-9.89897
▁alive	-9.89941
▁mile	-9.89988
▁collapsed	-9.90053
▁basic	-9.9013
▁stoo	-9.9025
▁seiz	-9.90328
▁fix	-9.90379
▁object	-9.90509
▁catholic	-9.90592
▁vietnam	-9.90592
▁simpson	-9.90593
▁unlike	-9.9061
▁gov	-9.90655
▁inspector	-9.90701
▁jur	-9.90737
▁demonstrations	-9.9089
▁sky	-9.9105
▁artist	-9.91118
▁enforce	-9.91223
▁cb	-9.91279
▁southeast	-9.91287
▁tensions	-9.91294
▁ahmadi	-9.91358
▁wealth	-9.91459
▁box	-9.91495
▁ethnic	-9.91505
▁assistance	-9.91511
▁orbit	-9.91519
▁organizer	-9.91519
▁gar	-9.91547
▁generation	-9.91558
▁climb	-9.91576
▁mad	-9.91594
▁explosives	-9.91609
junta	-9.91661
▁lose	-9.91812
▁ji	-9.91876
▁broken	-9.91925
▁accepted	-9.91937
▁declare	-9.91938
▁file	-9.92005
▁wing	-9.92035
▁demanded	-9.92051
▁possibl	-9.92138
▁joong	-9.922
▁decide	-9.92202
▁troop	-9.92269
▁cuba	-9.92272
▁fled	-9.92289
▁jose	-9.92353
▁visa	-9.92422
▁championship	-9.92427
▁speculation	-9.92435
▁liver	-9.92459
▁machine	-9.92488
▁sadr	-9.925
▁pa	-9.92525
suu	-9.92564
▁pounds	-9.92736
▁arizo	-9.92839
▁chose	-9.93038
▁spend	-9.93137
▁kenya	-9.93153
▁exact	-9.93344
▁stadium	-9.93344
▁nicola	-9.93345
▁islamabad	-9.93345
▁enrich	-9.93346
▁regulation	-9.93351
▁vegas	-9.93364
▁ten	-9.93402
▁massa	-9.93434
j	-9.9371
▁cruise	-9.93828
▁edge	-9.93888
▁remote	-9.94279
chuse	-9.94284
▁debt	-9.94346
▁physical	-9.94362
▁traveler	-9.94459
▁complaint	-9.94462
▁license	-9.9452
▁warming	-9.94544
▁equal	-9.94628
▁cia	-9.94687
▁ensure	-9.94831
▁stars	-9.94883
▁statu	-9.94949
ter	-9.95011
▁photos	-9.95063
ado	-9.95214
▁obtain	-9.95222
▁jerusalem	-9.95222
▁purpose	-9.95222
▁rallie	-9.95224
▁di	-9.95309
▁googl	-9.95311
▁net	-9.9547
ea	-9.95523
▁motor	-9.95576
ribal	-9.95584
▁continu	-9.95702
tts	-9.95834
▁thanks	-9.95882
▁pain	-9.95916
▁lad	-9.96031
▁takes	-9.961
cient	-9.96149
▁trillion	-9.96174
▁equipment	-9.96176
▁crucial	-9.96177
▁sa	-9.96206
▁putt	-9.96258
▁oppos	-9.96315
▁agre	-9.96317
at	-9.96426
▁commissioner	-9.96537
▁oscar	-9.96626
▁weapon	-9.96644
▁relative	-9.96648
▁surface	-9.96806
▁spear	-9.97065
▁narrow	-9.97136
▁invite	-9.97138
▁task	-9.97138
▁globe	-9.97141
▁wake	-9.97149
▁iowa	-9.97164
▁jung	-9.97169
▁celebrit	-9.97189
back	-9.97194
▁blam	-9.97365
▁tape	-9.97427
▁era	-9.97447
▁spy	-9.97535
▁violat	-9.97545
▁plot	-9.97618
▁promote	-9.98008
▁perfect	-9.98121
▁warrant	-9.98124
▁bailout	-9.98132
▁dan	-9.98171
▁leak	-9.9838
▁tons	-9.98458
▁evacuated	-9.98459
▁organiz	-9.98511
▁representatives	-9.98531
haps	-9.98615
▁audience	-9.9863
▁detail	-9.98654
▁anger	-9.98714
▁modern	-9.98725
western	-9.9879
▁gang	-9.9887
▁jan	-9.98897
▁angr	-9.98959
▁exercise	-9.99024
ily	-9.99057
▁mahmoud	-9.99087
▁subject	-9.99087
▁estate	-9.99095
▁carbon	-9.99109
▁strengthen	-9.99127
▁stress	-9.99147
▁declin	-9.99248
▁fed	-9.99335
▁founder	-9.99354
▁samsun	-9.99399
▁discovery	-9.99417
▁dismissed	-9.99529
▁band	-9.99613
▁brand	-9.99689
▁guarantee	-10.0008
▁invasion	-10.0008
▁magnitude	-10.0008
▁nevada	-10.0009
▁internal	-10.001
▁guest	-10.001
▁boycott	-10.0011
▁professional	-10.0012
▁mike	-10.0013
▁calm	-10.0013
▁dutch	-10.0014
▁rough	-10.0014
▁closer	-10.0014
▁runner	-10.0014
▁tonight	-10.0016
▁ei	-10.0017
▁writer	-10.0025
▁expand	-10.0039
ack	-10.0041
▁stall	-10.0073
▁wi	-10.0074
▁aware	-10.0107
▁agricultur	-10.0108
▁detention	-10.0108
▁fashion	-10.0108
▁daniel	-10.0109
▁jackson	-10.0109
▁wolf	-10.011
▁nobel	-10.0111
▁santa	-10.0118
▁charg	-10.0122
▁handed	-10.0122
▁transition	-10.0124
broad	-10.014
corporate	-10.0146
▁wor	-10.0161
▁provinc	-10.017
▁electronic	-10.0174
▁smok	-10.0174
▁nepal	-10.0191
▁attract	-10.0206
itarian	-10.0208
▁memorial	-10.0209
▁offensive	-10.0209
▁suburb	-10.0209
▁temporar	-10.0209
▁colleague	-10.0209
▁lawsuit	-10.0209
▁relay	-10.021
▁assassination	-10.021
▁tight	-10.0211
▁restriction	-10.0214
▁windows	-10.0221
▁arrival	-10.0224
▁dogs	-10.0236
▁liberal	-10.0243
ier	-10.0259
▁urge	-10.0263
▁meant	-10.0267
▁patrol	-10.0275
▁champion	-10.0279
▁reporter	-10.0293
▁wonder	-10.0294
surance	-10.0296
▁phones	-10.0306
▁identify	-10.0311
▁sheriff	-10.0311
▁reduction	-10.0311
▁louis	-10.0311
▁monk	-10.0313
mer	-10.0325
▁nbc	-10.0328
▁path	-10.0364
▁agenci	-10.0366
▁pair	-10.0392
▁alaska	-10.0396
▁estimat	-10.0396
▁canad	-10.0402
▁worrie	-10.0413
▁strategy	-10.0414
▁suspicion	-10.0414
▁advantage	-10.0414
▁counterpart	-10.0414
▁dubai	-10.0414
▁remember	-10.0415
▁babies	-10.0416
▁batter	-10.0417
▁colombian	-10.0444
ized	-10.0445
▁yes	-10.0477
▁visiting	-10.0485
▁maca	-10.0495
▁lake	-10.0507
▁dub	-10.051
▁ang	-10.0517
▁permanent	-10.0518
▁berlin	-10.052
▁casualties	-10.0521
▁manch	-10.0524
▁projects	-10.0527
▁presiden	-10.0528
field	-10.0533
▁choose	-10.0536
▁sport	-10.0538
▁diplomats	-10.0542
pool	-10.0559
▁reasons	-10.0565
▁investigate	-10.0578
▁ease	-10.0581
ant	-10.0585
▁example	-10.0599
ified	-10.0607
▁coup	-10.0615
▁sudden	-10.0623
▁kingdom	-10.0624
▁mix	-10.0624
▁offering	-10.0627
▁aboard	-10.0638
night	-10.0655
▁argu	-10.0658
▁forum	-10.0668
▁relatives	-10.0678
▁lady	-10.068
un	-10.0697
▁haven	-10.0708
▁venezuela	-10.071
▁ha	-10.0717
▁ray	-10.0719
▁tom	-10.0728
▁anonymity	-10.073
▁veteran	-10.073
▁diego	-10.073
▁exit	-10.0731
▁auction	-10.0733
▁freed	-10.0738
▁teenager	-10.0738
ical	-10.0738
▁mohamm	-10.0744
▁none	-10.0751
▁sydn	-10.0752
▁die	-10.0756
▁princess	-10.0759
ani	-10.0775
▁catch	-10.0779
▁books	-10.0784
gun	-10.0789
▁theater	-10.0792
▁favorite	-10.0821
▁passenger	-10.0823
▁technical	-10.0837
▁nadal	-10.0837
▁entertainment	-10.0838
▁tiger	-10.0838
▁buri	-10.0839
▁split	-10.0839
▁hilton	-10.084
▁document	-10.0842
ll	-10.0845
▁recovery	-10.0849
oline	-10.0849
▁johnson	-10.0851
▁simple	-10.0854
▁threats	-10.0856
▁worse	-10.0859
▁lay	-10.086
▁label	-10.0865
▁strain	-10.0883
spread	-10.0883
▁fa	-10.089
▁fata	-10.0892
▁dong	-10.0894
▁struggle	-10.091
▁rome	-10.0914
▁chen	-10.0915
▁harm	-10.0931
▁sw	-10.0937
▁tomorrow	-10.0946
▁ukrain	-10.0946
▁feder	-10.0946
▁froze	-10.0947
ma	-10.0947
▁destruction	-10.0948
▁manag	-10.0959
▁watched	-10.096
▁inc	-10.0961
▁warm	-10.0962
▁tear	-10.0962
▁easy	-10.097
▁landing	-10.098
▁wood	-10.1006
▁con	-10.1007
▁creat	-10.1008
ization	-10.1051
▁compound	-10.1056
▁soccer	-10.1056
▁cleric	-10.1056
▁negative	-10.1056
▁delta	-10.1056
▁atmospher	-10.1056
▁potter	-10.1057
▁fit	-10.1057
▁cutting	-10.106
▁shortage	-10.1064
dna	-10.1078
▁basi	-10.1097
dai	-10.1106
▁purchase	-10.1107
▁benefits	-10.1131
ju	-10.1132
▁debut	-10.1167
▁agenda	-10.1167
▁emission	-10.1167
▁canadian	-10.1168
▁simply	-10.1168
▁mention	-10.117
▁renew	-10.1177
▁lowest	-10.1179
▁en	-10.1193
▁refuse	-10.1198
▁roads	-10.1199
ground	-10.1208
▁resources	-10.122
▁suit	-10.1222
▁kurdis	-10.1229
▁engine	-10.1229
rew	-10.1239
▁prepar	-10.1249
▁sh	-10.1249
▁malaysia	-10.126
▁detect	-10.1273
▁x	-10.1274
▁erupt	-10.1274
▁movies	-10.1277
▁polic	-10.1278
ana	-10.1279
▁thomas	-10.1279
▁shelter	-10.1279
▁conspirac	-10.128
▁gap	-10.1282
▁woo	-10.1283
▁expectation	-10.1287
▁firefighter	-10.1295
▁profile	-10.1297
▁explod	-10.1299
▁devastat	-10.1305
▁mr	-10.1309
▁percentage	-10.1319
▁trapped	-10.132
▁lt	-10.1326
▁guards	-10.1338
▁heading	-10.1351
▁rang	-10.1362
▁chelsea	-10.1393
▁frequent	-10.1393
yongbyon	-10.1393
▁bullet	-10.1393
▁element	-10.1394
▁valley	-10.1396
▁plus	-10.1399
▁elder	-10.14
▁chemical	-10.1402
im	-10.143
▁pe	-10.1436
▁wen	-10.1438
▁cultur	-10.1438
▁manufactur	-10.1438
imed	-10.144
▁acknowledg	-10.1445
▁unclea	-10.1447
▁sit	-10.1457
▁indiana	-10.1468
ersey	-10.15
mi	-10.15
▁recruit	-10.1508
▁nature	-10.1509
▁improv	-10.151
▁section	-10.1512
▁vessel	-10.1516
▁ticket	-10.1516
▁expert	-10.1517
▁mars	-10.1523
▁payment	-10.1524
ional	-10.1529
▁ver	-10.1547
▁institution	-10.1551
▁eyes	-10.1551
▁youth	-10.1566
▁issu	-10.1568
▁rescuer	-10.158
▁bureau	-10.161
▁strip	-10.1614
▁pop	-10.1616
ability	-10.1616
▁unusual	-10.1624
▁diamond	-10.1625
▁assets	-10.1628
▁locat	-10.1629
▁writing	-10.1632
▁album	-10.1633
▁sort	-10.1643
enko	-10.1644
▁ride	-10.165
▁bone	-10.1656
▁apologize	-10.1664
▁identit	-10.1672
▁closing	-10.1681
ican	-10.1683
▁rat	-10.1689
▁pc	-10.1695
▁learned	-10.1704
▁proper	-10.1719
▁birds	-10.1725
▁disappoint	-10.1738
▁bangkok	-10.1742
▁succeed	-10.1742
▁wedding	-10.1744
▁maryland	-10.1744
▁clinic	-10.1745
▁kang	-10.1747
▁khan	-10.1752
as	-10.1754
▁chair	-10.1755
▁listen	-10.1765
arta	-10.1766
▁heads	-10.1774
▁observer	-10.1777
▁vi	-10.1784
▁petr	-10.1805
di	-10.1807
▁thank	-10.1829
▁landed	-10.1852
▁disappear	-10.1859
▁preliminar	-10.1861
▁mccann	-10.1861
▁studio	-10.1861
▁bilateral	-10.1861
▁proud	-10.1861
▁abdullah	-10.1862
▁shrine	-10.1863
▁execution	-10.1864
▁nominat	-10.1865
▁hopeful	-10.1867
it	-10.1869
▁dramatic	-10.187
▁pushing	-10.1892
▁plead	-10.1896
▁ghaz	-10.1896
▁homeland	-10.1901
▁crack	-10.1902
ten	-10.1903
▁boe	-10.1905
▁cool	-10.1906
olar	-10.1915
▁divorce	-10.1928
▁oppose	-10.1929
▁bird	-10.1951
▁surround	-10.1961
▁controversy	-10.1981
▁tsunami	-10.1981
▁yellow	-10.1981
▁edition	-10.1983
▁gulf	-10.1983
▁hezb	-10.1984
▁chrys	-10.1986
▁boss	-10.1992
ina	-10.1994
▁inflation	-10.2
▁reduced	-10.2001
▁fate	-10.2014
▁shoe	-10.2019
▁toys	-10.202
▁jak	-10.2035
▁retir	-10.2039
▁cheer	-10.2045
ville	-10.2047
▁soar	-10.2053
▁digital	-10.2061
▁knee	-10.2066
mph	-10.2066
beth	-10.2085
▁scot	-10.2091
▁collect	-10.2095
▁hunt	-10.2096
▁darfur	-10.2103
▁error	-10.2103
▁mortgage	-10.2103
▁alternative	-10.2103
▁miami	-10.2103
▁edwards	-10.2103
▁radical	-10.2104
▁palin	-10.2106
▁prett	-10.2119
▁joe	-10.2127
ious	-10.213
▁outbreak	-10.2134
▁opponents	-10.2142
▁rail	-10.2144
▁sponsor	-10.2147
over	-10.2164
▁hung	-10.2164
▁pace	-10.2169
▁teachers	-10.217
day	-10.2172
▁marked	-10.2172
▁reading	-10.218
▁southwest	-10.2192
▁ia	-10.2209
▁lama	-10.2216
▁campus	-10.2222
▁strength	-10.2222
fare	-10.2223
▁journey	-10.2227
▁method	-10.2227
▁ballot	-10.2227
▁assist	-10.2229
▁bottom	-10.2229
▁entering	-10.2234
▁coordinat	-10.2235
▁firing	-10.2237
ches	-10.2242
▁clash	-10.2245
▁venezuelan	-10.2249
▁ru	-10.2254
▁restaurant	-10.2262
▁pet	-10.2263
▁reaching	-10.2267
azir	-10.2293
▁ill	-10.2294
▁goods	-10.23
▁ro	-10.2336
▁desert	-10.2346
▁farm	-10.235
▁yonhap	-10.2352
▁convoy	-10.2352
▁youtube	-10.2352
▁sustain	-10.2352
▁approve	-10.2359
▁vat	-10.2359
▁immigrat	-10.2364
▁belong	-10.2367
▁gonzale	-10.2368
▁bottle	-10.2372
ga	-10.2381
▁sentenc	-10.2382
▁guns	-10.239
▁benefit	-10.2392
▁drew	-10.2393
▁indonesian	-10.2394
▁corner	-10.2395
▁boom	-10.2399
▁roman	-10.24
▁seal	-10.2404
▁hospitaliz	-10.2406
body	-10.2408
▁sean	-10.2427
▁fatal	-10.2427
▁gains	-10.2435
▁engag	-10.2441
▁weak	-10.245
▁weigh	-10.2464
▁balance	-10.2468
▁select	-10.2477
▁client	-10.2478
▁captain	-10.2478
▁cloud	-10.2478
▁gallon	-10.248
▁inspection	-10.248
▁shopping	-10.2482
▁deployment	-10.2483
▁weaken	-10.2484
▁pose	-10.2488
▁operate	-10.2493
employment	-10.2496
▁electora	-10.2519
ept	-10.2529
ford	-10.2529
ay	-10.2536
erson	-10.2537
▁tim	-10.2545
▁effects	-10.2547
▁zealand	-10.2548
▁gathering	-10.2552
▁waste	-10.2553
▁notice	-10.2562
across	-10.2563
▁predicted	-10.2581
▁shape	-10.2585
llah	-10.2586
▁northwest	-10.259
▁alexand	-10.2592
arah	-10.2597
▁invest	-10.26
▁convince	-10.2607
▁vacation	-10.2607
▁girlfriend	-10.2607
madeleine	-10.2607
▁truth	-10.2607
▁innocent	-10.2611
▁tall	-10.2613
hai	-10.2613
▁falling	-10.2623
▁osam	-10.2628
▁afford	-10.2628
▁grave	-10.2645
▁restore	-10.2658
▁yoo	-10.2662
▁delivery	-10.2673
▁metal	-10.268
▁participate	-10.268
▁lock	-10.2683
bility	-10.269
▁beating	-10.2691
▁charit	-10.2697
▁col	-10.2709
▁handl	-10.2716
▁affiliate	-10.2726
▁holy	-10.2728
▁landslide	-10.2736
▁boston	-10.2736
▁drove	-10.2737
▁initiative	-10.2737
▁pump	-10.2737
▁corporation	-10.2737
▁jesu	-10.2739
▁stores	-10.2743
upper	-10.2746
▁je	-10.2746
▁stability	-10.2749
▁oh	-10.2754
▁ally	-10.2755
ta	-10.2757
▁chain	-10.276
▁scott	-10.2767
▁nas	-10.277
ural	-10.2777
agan	-10.2783
▁rockets	-10.2788
▁argentin	-10.2798
down	-10.2798
▁har	-10.2799
work	-10.2802
water	-10.2805
▁dala	-10.2805
▁meaning	-10.2837
aid	-10.2846
▁dealing	-10.2847
ling	-10.2854
▁length	-10.2863
▁palm	-10.2867
▁knowledge	-10.2868
▁prospect	-10.2868
▁grew	-10.2872
▁yard	-10.2872
▁defendant	-10.2873
▁im	-10.2873
▁islamist	-10.2881
▁acre	-10.2898
▁string	-10.29
▁cable	-10.2911
▁structure	-10.2913
▁teacher	-10.2937
▁younger	-10.2939
▁failing	-10.2941
▁carrier	-10.2959
iya	-10.2965
▁participat	-10.2977
▁ka	-10.298
▁formed	-10.2985
▁flee	-10.299
▁mayb	-10.2996
▁accord	-10.2997
▁experiment	-10.2998
▁survived	-10.3
▁wildlife	-10.3001
▁ultimate	-10.3002
▁temple	-10.3003
▁vast	-10.3004
▁dump	-10.3006
▁atlantic	-10.301
▁fox	-10.3012
▁bright	-10.3015
aeus	-10.302
ehud	-10.303
▁bound	-10.303
▁friendly	-10.3036
▁battl	-10.3047
▁planes	-10.3056
▁barr	-10.3057
▁divers	-10.3073
▁tradition	-10.3081
ick	-10.3089
▁comfort	-10.31
▁write	-10.3125
▁abduct	-10.3125
▁vladimir	-10.3125
▁connect	-10.3135
▁typical	-10.3138
▁collection	-10.3143
▁achieve	-10.3153
▁peru	-10.3157
ez	-10.3172
▁excit	-10.3188
ence	-10.3188
▁gore	-10.3195
▁ye	-10.3195
▁requir	-10.3196
▁tire	-10.3198
▁margin	-10.3201
▁kurd	-10.3205
▁celebrate	-10.3227
▁pirates	-10.323
▁damag	-10.3237
▁detonat	-10.3243
▁sensitiv	-10.3248
▁barcelon	-10.3273
▁pregnant	-10.3273
▁delhi	-10.3273
▁michel	-10.3274
▁eliza	-10.3274
▁plastic	-10.3274
▁conversation	-10.3274
▁lab	-10.3275
▁numer	-10.3275
▁stan	-10.3284
▁mate	-10.3286
ger	-10.3288
▁kerr	-10.3303
▁warnings	-10.3304
bed	-10.3321
▁mur	-10.334
▁flag	-10.3343
▁lie	-10.3352
▁representative	-10.3352
ne	-10.3354
▁ga	-10.3363
▁bond	-10.3368
▁restaurants	-10.3373
▁abc	-10.3373
▁symbol	-10.3375
▁direction	-10.3375
▁beef	-10.3378
▁responded	-10.3384
▁clon	-10.3387
▁serbia	-10.3393
▁islands	-10.3396
▁settle	-10.3403
▁restrict	-10.3406
▁drama	-10.3408
▁abdul	-10.3412
▁superdelegate	-10.3412
▁endanger	-10.3412
▁jordan	-10.3413
▁birthday	-10.3413
▁memory	-10.3414
▁squad	-10.3415
▁neck	-10.3415
ejad	-10.3421
han	-10.3435
▁shang	-10.3443
▁negotiat	-10.3445
▁briefing	-10.3446
▁conclude	-10.3464
▁stretch	-10.3473
▁philippines	-10.3481
▁wish	-10.3482
▁acknowledge	-10.3489
▁recommend	-10.349
▁skin	-10.3495
▁pledg	-10.3508
▁provinces	-10.3514
itting	-10.3524
▁pursu	-10.3532
baki	-10.3544
evin	-10.3547
▁participant	-10.3553
▁sovereign	-10.3553
▁surrender	-10.3553
▁routine	-10.3553
▁buddhist	-10.3553
▁brazilian	-10.3554
▁tru	-10.3555
▁stole	-10.3555
▁illness	-10.3555
▁punishment	-10.3556
▁federation	-10.3556
▁character	-10.3559
▁peacekeep	-10.3562
▁advertis	-10.3563
chuan	-10.3579
▁stories	-10.3591
▁feeling	-10.3609
▁runway	-10.3612
▁jim	-10.3625
▁crop	-10.3642
▁print	-10.3643
▁par	-10.3644
▁highlight	-10.3646
▁maxim	-10.365
▁glass	-10.3673
▁promot	-10.3681
▁trains	-10.3686
▁unity	-10.3689
▁moderate	-10.3689
▁bi	-10.3695
▁hampshire	-10.3696
▁hawaii	-10.3696
▁airstrike	-10.3696
▁sample	-10.3696
▁arsenal	-10.3697
▁sailor	-10.3698
▁bowl	-10.3702
▁mental	-10.3702
daq	-10.3709
▁solve	-10.3711
▁veto	-10.3711
▁wins	-10.3718
▁note	-10.3721
kk	-10.3725
▁celebrat	-10.3739
▁publicly	-10.3753
▁wage	-10.3757
▁divide	-10.3768
▁rom	-10.377
▁torture	-10.3774
▁farc	-10.3778
ny	-10.3787
▁demonstration	-10.3794
▁brutal	-10.3799
▁photographer	-10.3808
▁obvious	-10.3841
▁watchdog	-10.3841
▁revolutionar	-10.3841
▁strict	-10.3841
▁shirt	-10.3843
▁distance	-10.3844
▁peak	-10.3845
▁successor	-10.3845
▁introduce	-10.3846
▁appointment	-10.3847
▁morgan	-10.3854
▁accusation	-10.3855
▁undergo	-10.3865
ha	-10.3866
▁bell	-10.3866
ren	-10.3867
▁kenyan	-10.3871
▁authoriz	-10.3872
go	-10.3876
▁tool	-10.3897
▁pos	-10.3897
▁metropoli	-10.3898
▁striker	-10.3908
▁somali	-10.3922
▁papers	-10.394
▁featur	-10.3946
▁nei	-10.3947
▁commit	-10.3952
▁uh	-10.3953
▁contests	-10.3958
hattan	-10.3966
▁worker	-10.3967
▁cease	-10.3988
▁scientific	-10.3988
▁capacity	-10.399
▁midnight	-10.399
▁expensive	-10.3992
▁regulator	-10.3992
▁fortune	-10.3993
▁polici	-10.3994
▁shark	-10.3996
▁text	-10.4
▁comedy	-10.4007
▁rod	-10.4025
▁v	-10.4043
▁humans	-10.4047
rey	-10.405
pped	-10.4058
▁photo	-10.4069
▁corps	-10.4075
▁messages	-10.4079
▁argue	-10.4085
witz	-10.4118
▁eating	-10.4124
▁shoot	-10.4129
lor	-10.413
▁bob	-10.4135
▁editor	-10.4137
▁surveill	-10.4137
▁dispatch	-10.4137
▁wreck	-10.4137
▁venue	-10.4137
▁blago	-10.4137
▁jack	-10.4138
▁cyclone	-10.4138
▁egyptian	-10.4138
▁genetic	-10.4139
▁columbia	-10.4139
▁ordinar	-10.414
▁everybody	-10.414
▁urban	-10.4141
▁switch	-10.4144
▁stimul	-10.4149
▁handle	-10.4155
▁chile	-10.4158
▁pursue	-10.416
▁dick	-10.416
erry	-10.4161
ippi	-10.4162
▁lung	-10.4171
ca	-10.4175
owitz	-10.4177
▁transferr	-10.4178
▁ne	-10.4194
▁inquir	-10.421
▁explain	-10.4214
▁zar	-10.4223
▁caucuse	-10.423
▁hiv	-10.4239
▁diplomat	-10.4246
▁cloth	-10.4253
▁moham	-10.4275
▁emerged	-10.4279
▁react	-10.4284
▁stressed	-10.4285
▁whal	-10.4287
▁spirit	-10.4289
▁coffee	-10.4289
▁funeral	-10.4289
▁dinner	-10.4289
▁harsh	-10.4289
▁bitter	-10.4293
▁fta	-10.4293
▁congo	-10.4294
▁native	-10.4297
▁mississ	-10.4297
▁intense	-10.43
▁operator	-10.43
▁hwan	-10.43
▁circumstances	-10.4313
▁powers	-10.4314
▁deny	-10.4328
▁gree	-10.4334
▁aids	-10.4345
iana	-10.4357
▁saving	-10.4358
armament	-10.4358
▁civi	-10.4363
▁gmt	-10.4367
▁televis	-10.4372
▁loh	-10.4378
▁views	-10.4391
▁accounts	-10.44
▁teen	-10.4403
▁disable	-10.4407
▁hospitals	-10.4412
▁citizen	-10.4413
▁depend	-10.4421
▁steven	-10.4428
▁knock	-10.4429
▁jane	-10.4442
▁mexican	-10.4443
▁multiple	-10.4443
▁crown	-10.4444
▁supposed	-10.4444
▁prepare	-10.4445
▁indication	-10.4452
▁ski	-10.4456
▁debri	-10.4457
▁entry	-10.4463
▁sick	-10.447
▁commerc	-10.4473
▁mouth	-10.4473
sumption	-10.4477
▁henr	-10.4482
har	-10.4487
▁eat	-10.4488
▁survive	-10.4492
▁ca	-10.4498
tiny	-10.4499
ities	-10.45
▁compete	-10.4518
▁maj	-10.4528
▁earning	-10.4547
▁realize	-10.4584
evich	-10.4589
▁breakthrough	-10.4599
▁quiet	-10.4599
▁false	-10.4599
▁impeach	-10.4599
▁dvd	-10.46
▁barrier	-10.4601
ei	-10.4603
▁rumor	-10.4604
▁castro	-10.4605
▁cafe	-10.4609
▁bail	-10.4609
▁vital	-10.461
▁fun	-10.4614
tah	-10.4616
▁lights	-10.4622
▁musical	-10.4631
ular	-10.4638
▁bombers	-10.4642
▁appropriate	-10.4656
light	-10.4658
▁owners	-10.4669
ch	-10.468
▁chun	-10.4682
▁recognize	-10.4697
chi	-10.4699
▁conclud	-10.47
more	-10.4712
▁gul	-10.4721
▁rescued	-10.4722
erland	-10.4734
▁explosive	-10.4739
▁window	-10.4739
▁ta	-10.4742
▁du	-10.4742
▁blaze	-10.4751
▁disney	-10.4757
▁occupation	-10.4758
▁benedict	-10.4758
▁testimon	-10.4758
▁swiss	-10.4758
▁concrete	-10.4758
▁punish	-10.4759
▁chart	-10.4761
▁preparation	-10.4762
▁gross	-10.4765
▁frame	-10.4772
▁responsibilit	-10.4775
no	-10.4783
▁hub	-10.4792
▁engage	-10.4801
▁cave	-10.4812
▁guide	-10.4841
▁diet	-10.4845
▁historical	-10.4849
▁hail	-10.4849
wise	-10.4854
▁willing	-10.4855
▁matche	-10.4857
▁bo	-10.486
▁broadcaster	-10.4868
▁negotiate	-10.487
▁consult	-10.4879
▁patric	-10.4888
▁sch	-10.4899
▁pitt	-10.4913
▁conservation	-10.4916
▁confident	-10.4918
▁faith	-10.4918
▁tobacco	-10.4919
▁verdict	-10.4919
▁benchmark	-10.4919
▁phoeni	-10.4919
▁conclusion	-10.4919
▁shareholder	-10.4919
▁repair	-10.492
▁amnes	-10.4921
▁fierce	-10.4921
▁apply	-10.4922
luton	-10.4922
▁apart	-10.4933
▁continent	-10.4935
▁correct	-10.4935
▁chong	-10.4959
▁unknown	-10.4962
▁bull	-10.4973
▁floods	-10.4982
▁marks	-10.4984
▁chest	-10.5003
▁bigge	-10.5009
▁yi	-10.5042
ota	-10.5043
▁liter	-10.5043
▁fay	-10.5053
▁ire	-10.5056
▁sam	-10.5058
▁parent	-10.5065
▁disrupt	-10.5078
ah	-10.5082
eath	-10.5082
▁category	-10.5083
▁joseph	-10.5083
▁boyfriend	-10.5083
▁await	-10.5083
put	-10.5084
▁motion	-10.5084
▁careful	-10.5088
▁believ	-10.5089
▁odd	-10.509
▁brad	-10.5097
▁socialist	-10.5101
▁pitch	-10.5102
▁paint	-10.5107
▁ti	-10.5112
▁communit	-10.5122
▁overwhelming	-10.5129
▁ge	-10.5131
▁twin	-10.5146
▁somalia	-10.5157
▁kyo	-10.5175
am	-10.5188
▁jon	-10.5214
▁classic	-10.5229
▁austria	-10.523
▁slipp	-10.5232
▁fat	-10.5241
▁partners	-10.5245
w	-10.5249
▁czech	-10.5249
▁unfortunate	-10.5249
▁striking	-10.525
▁reconciliation	-10.525
▁clark	-10.525
▁uniform	-10.525
▁stern	-10.525
▁sheikh	-10.5251
▁sweep	-10.5251
▁cargo	-10.5254
▁specialist	-10.5261
▁substantial	-10.5268
▁rebuild	-10.5268
▁resolv	-10.527
▁copy	-10.528
▁praise	-10.5281
▁carlo	-10.5281
▁jin	-10.5288
▁infect	-10.5292
▁chris	-10.5298
efa	-10.53
▁hero	-10.5305
▁toxic	-10.531
▁retail	-10.5331
▁cd	-10.5335
▁chad	-10.5338
▁villager	-10.534
▁sad	-10.5346
rs	-10.5353
▁stephen	-10.5356
▁mary	-10.5361
confirmed	-10.5379
hood	-10.5381
▁rep	-10.5383
▁steel	-10.5388
▁tackle	-10.5393
▁wel	-10.5401
▁grant	-10.5404
▁abus	-10.541
▁tennesse	-10.5419
▁laptop	-10.5419
▁transaction	-10.5419
▁mccorm	-10.5419
▁legend	-10.5419
▁typhoon	-10.5419
▁petition	-10.542
▁ar	-10.5424
▁slave	-10.5426
▁yong	-10.5428
▁railway	-10.5434
▁reference	-10.5435
▁medal	-10.5441
▁variet	-10.5445
▁tend	-10.5445
▁custom	-10.5447
▁beaut	-10.5451
▁trader	-10.5451
▁antoni	-10.5459
▁familiar	-10.546
▁graduate	-10.5466
▁bolt	-10.5469
▁captur	-10.5474
▁prayer	-10.5484
▁shipp	-10.5486
ent	-10.55
▁aren	-10.5511
▁outrage	-10.5523
▁copie	-10.5528
▁regions	-10.553
house	-10.5532
▁convert	-10.5541
bus	-10.5545
▁sung	-10.5548
▁complet	-10.5549
ting	-10.5552
▁hug	-10.5554
▁camps	-10.5561
▁mourn	-10.5574
▁mistake	-10.5579
▁hat	-10.5581
▁priva	-10.5591
▁platform	-10.5591
▁administrative	-10.5591
▁referendum	-10.5591
▁departure	-10.5591
▁compensation	-10.5592
▁crush	-10.5592
▁separatist	-10.5592
▁relocation	-10.5592
▁scar	-10.5597
▁seize	-10.5598
▁household	-10.56
▁sweet	-10.56
▁buyer	-10.5608
mumba	-10.561
▁absolutely	-10.561
▁kent	-10.5621
pending	-10.5631
▁cuban	-10.5633
stance	-10.5638
tv	-10.5639
▁larr	-10.5642
▁sri	-10.5644
▁jae	-10.5653
▁stands	-10.5654
▁wine	-10.5654
▁shore	-10.5656
▁pr	-10.5661
▁kid	-10.5661
▁cow	-10.5667
▁attacker	-10.5672
lin	-10.5674
▁rd	-10.5689
▁miner	-10.5696
ol	-10.5698
craft	-10.57
▁thinking	-10.5712
▁mar	-10.5713
▁sir	-10.5713
▁mal	-10.5713
▁jeff	-10.5727
▁fires	-10.5729
▁painting	-10.5742
▁ryan	-10.5747
▁chao	-10.5751
▁propose	-10.5756
▁except	-10.5761
▁volcano	-10.5763
▁robot	-10.5765
▁secular	-10.5765
▁aggressive	-10.5767
▁immigrant	-10.5767
▁muscle	-10.5767
▁clock	-10.5767
▁sentiment	-10.5767
▁conviction	-10.5768
▁contrast	-10.5769
▁alarm	-10.5769
erdog	-10.5769
▁baseball	-10.577
▁essential	-10.5771
▁shield	-10.5772
▁novel	-10.5772
▁float	-10.5774
▁zero	-10.5776
▁kate	-10.578
▁delegate	-10.5784
▁settlement	-10.5784
▁spott	-10.5797
▁paulo	-10.5806
▁contribute	-10.5809
▁seconds	-10.5816
▁turnout	-10.5816
clusive	-10.5822
▁stable	-10.5824
▁greet	-10.5829
▁inform	-10.5851
▁athen	-10.5853
▁replac	-10.5868
▁oldest	-10.5869
court	-10.5873
▁golf	-10.5877
▁giv	-10.5884
dp	-10.5891
▁traffick	-10.5902
▁promotion	-10.5902
▁rio	-10.5902
▁polar	-10.5911
▁depressi	-10.5915
▁criticize	-10.5916
▁alex	-10.5923
▁counts	-10.5925
▁libya	-10.5926
▁employ	-10.5927
▁imprison	-10.5945
▁rifle	-10.5946
▁loyal	-10.5947
lanta	-10.5948
▁assessment	-10.5948
▁dust	-10.5949
▁glacier	-10.5951
▁moore	-10.5963
▁rafa	-10.5966
▁sole	-10.5968
▁mel	-10.5972
▁submitt	-10.5977
▁wire	-10.5983
▁dam	-10.5994
zo	-10.6007
▁stepp	-10.601
▁athletes	-10.6012
▁anticipat	-10.6024
▁airports	-10.6034
▁fame	-10.6035
▁meter	-10.6043
▁inch	-10.6048
▁airway	-10.6052
▁restor	-10.6061
▁generate	-10.6065
▁soil	-10.6072
▁lend	-10.6073
quo	-10.6073
▁hang	-10.6075
▁sand	-10.6077
gi	-10.6085
▁pla	-10.6104
▁hills	-10.6105
iri	-10.6106
▁priorit	-10.6115
▁classifie	-10.6123
▁lobby	-10.6127
▁qualify	-10.6127
▁caution	-10.6127
▁unrest	-10.6127
delphi	-10.6127
▁retain	-10.6127
▁laborator	-10.6127
▁tunnel	-10.6127
▁roger	-10.6128
▁donald	-10.6128
▁orange	-10.6129
▁duck	-10.6129
▁outcome	-10.6129
▁slump	-10.613
▁respective	-10.613
▁timor	-10.6132
▁stroke	-10.6137
▁residence	-10.6139
▁confrontation	-10.6139
oney	-10.6144
▁hawk	-10.6147
ada	-10.6148
▁solid	-10.615
▁fleet	-10.6154
▁employee	-10.6157
▁whale	-10.6158
▁root	-10.616
▁tsv	-10.6161
▁mis	-10.6162
▁teens	-10.617
fp	-10.6171
nancy	-10.6179
▁electronics	-10.6191
▁doors	-10.6204
▁robber	-10.6206
▁undermine	-10.6207
▁syrian	-10.6217
▁retailer	-10.6223
▁banner	-10.623
▁laugh	-10.6233
▁ousted	-10.6235
▁ignor	-10.6241
▁phase	-10.6243
shore	-10.6254
▁denounc	-10.6256
▁impose	-10.6264
▁pray	-10.6265
▁advi	-10.6268
▁gambar	-10.6272
▁organ	-10.6283
▁hitt	-10.6294
▁bangladesh	-10.63
▁lea	-10.6303
▁spill	-10.6307
▁dictator	-10.6312
▁chant	-10.6312
▁detroit	-10.6312
▁guerrilla	-10.6312
▁capitol	-10.6312
▁embryo	-10.6312
▁darwin	-10.6313
▁hamid	-10.6313
▁checkpoint	-10.6313
▁abortion	-10.6313
▁mohammad	-10.6313
▁huck	-10.6313
▁strategic	-10.6313
▁flash	-10.6313
▁curb	-10.6314
▁gyeong	-10.6314
▁pattern	-10.6315
▁extraordinar	-10.6316
▁davis	-10.6316
▁roof	-10.6317
▁freeze	-10.6325
▁concept	-10.6343
▁revenue	-10.6344
▁politician	-10.635
▁breach	-10.6362
▁clothe	-10.6363
▁murr	-10.6372
▁securit	-10.6389
▁quote	-10.6389
v	-10.6399
be	-10.6405
▁brun	-10.6414
losi	-10.6428
▁extremists	-10.6435
▁liquid	-10.6438
▁andrew	-10.6446
▁function	-10.6453
▁garden	-10.6455
head	-10.6461
tar	-10.6465
▁documentar	-10.6467
▁lanka	-10.6481
▁si	-10.6488
▁map	-10.6489
tion	-10.6492
▁introduc	-10.6494
▁ja	-10.6497
▁towns	-10.6499
▁netherlands	-10.6501
▁quarterfinal	-10.6501
▁technique	-10.6501
▁twenty	-10.6501
▁exposure	-10.6501
▁creature	-10.6501
▁orlean	-10.6501
▁summon	-10.6501
▁consequence	-10.6502
▁impossible	-10.6502
▁greenhouse	-10.6502
▁pat	-10.6502
▁seattle	-10.6502
▁wireless	-10.6504
▁efficient	-10.6505
▁jo	-10.6506
▁dawn	-10.6507
▁missou	-10.6508
▁keb	-10.6509
burgh	-10.6509
▁phila	-10.6509
▁runoff	-10.6509
▁mi	-10.6515
▁portion	-10.6519
▁virgin	-10.6524
stein	-10.6526
▁shell	-10.6532
▁villa	-10.6535
▁trend	-10.6541
▁volunteers	-10.6549
▁wheel	-10.6556
▁rac	-10.6557
▁colon	-10.6558
▁tension	-10.6559
▁intention	-10.656
▁worsen	-10.6561
▁smash	-10.6562
cation	-10.6574
▁pav	-10.6581
ki	-10.6586
▁hunter	-10.6591
▁polan	-10.6597
▁bribe	-10.6602
▁yo	-10.661
▁ambush	-10.6624
ball	-10.6627
▁revive	-10.6637
▁manage	-10.6639
ential	-10.6644
▁soo	-10.6646
▁mom	-10.6648
▁starr	-10.6649
▁stick	-10.6652
▁submit	-10.6663
led	-10.6663
▁ok	-10.6664
▁inspir	-10.668
▁prior	-10.668
▁sang	-10.6681
oil	-10.6692
▁gate	-10.6692
▁giuli	-10.6693
▁hybrid	-10.6693
▁minimum	-10.6693
▁swimming	-10.6693
▁wildfire	-10.6694
▁eve	-10.6694
▁substance	-10.6694
▁toilet	-10.6695
▁amendment	-10.6695
▁bankruptcy	-10.6697
▁panda	-10.6698
mbled	-10.6706
▁centre	-10.6707
▁rum	-10.6718
▁laid	-10.6722
▁homeless	-10.6727
▁offender	-10.6731
▁rudd	-10.6738
▁ir	-10.674
▁scheme	-10.6745
▁mont	-10.6753
▁attitude	-10.6758
▁nice	-10.6763
▁core	-10.6764
▁beer	-10.6777
▁breath	-10.6781
▁warner	-10.6786
▁viewers	-10.679
board	-10.6795
▁moral	-10.6797
▁upset	-10.6802
▁minorit	-10.6806
irai	-10.6817
▁hunting	-10.6823
▁dean	-10.6824
▁resist	-10.6831
▁newly	-10.6833
▁please	-10.6851
▁whit	-10.6865
▁legs	-10.6868
▁revolution	-10.6872
▁whales	-10.6877
▁combin	-10.6878
ated	-10.6878
nnan	-10.688
▁kuwait	-10.688
▁counsel	-10.6885
▁wal	-10.6886
▁voluntar	-10.6889
▁merkel	-10.6889
▁testify	-10.6889
▁inauguration	-10.689
▁panama	-10.689
▁fulfill	-10.689
▁stuff	-10.689
▁evacuation	-10.6891
▁competitive	-10.6891
▁timetable	-10.6892
▁greek	-10.6892
▁coca	-10.6894
▁jungle	-10.6896
▁trick	-10.6896
▁celebration	-10.6897
▁gear	-10.6898
▁plung	-10.6901
▁emotional	-10.6902
▁dec	-10.6902
▁del	-10.6903
▁deadlie	-10.6905
▁fever	-10.6924
sfeld	-10.6932
▁feed	-10.6933
▁feb	-10.6944
▁peer	-10.6959
▁bu	-10.6963
rac	-10.6966
▁faction	-10.697
▁bal	-10.6971
▁compet	-10.6992
ella	-10.6996
▁motors	-10.6997
▁stag	-10.6999
▁disclose	-10.7001
▁overcom	-10.7004
▁fo	-10.7006
▁plate	-10.7019
identified	-10.7027
▁wrapp	-10.7032
▁escap	-10.7073
▁compromise	-10.7073
ok	-10.7076
▁amounts	-10.7084
▁slam	-10.7089
▁consecutive	-10.7089
▁elephant	-10.7089
▁swift	-10.7089
▁clinch	-10.709
ze	-10.709
▁aftershock	-10.7091
▁disappearance	-10.7092
▁launder	-10.7092
▁rodrigue	-10.7095
▁serb	-10.7095
▁ioc	-10.7095
▁inquest	-10.7096
▁proof	-10.7099
▁yuan	-10.7103
▁influ	-10.7109
▁leftist	-10.711
▁torn	-10.711
▁bb	-10.7112
▁gray	-10.7112
burg	-10.7117
▁simon	-10.7123
▁designer	-10.7133
▁gm	-10.7139
▁worry	-10.7152
▁attach	-10.7161
held	-10.7172
izu	-10.7173
▁laho	-10.7181
half	-10.7188
▁divid	-10.7194
▁slamm	-10.7195
abee	-10.7202
▁shots	-10.7206
▁sons	-10.7207
▁albert	-10.7212
▁rowl	-10.7214
▁mall	-10.7215
▁defending	-10.722
▁winners	-10.7225
hdi	-10.7229
▁dat	-10.724
▁tropica	-10.7249
opec	-10.726
▁mandat	-10.7266
▁investigations	-10.7271
▁ni	-10.7277
▁flat	-10.7279
▁cleve	-10.7283
▁latin	-10.7284
▁industri	-10.7286
▁anchor	-10.7289
▁infant	-10.7293
▁luxur	-10.7293
▁concession	-10.7294
▁encounter	-10.7294
▁enterprise	-10.7294
▁technologies	-10.7294
▁cigarette	-10.7294
▁spiritual	-10.7294
▁constant	-10.7294
▁offense	-10.7294
▁landmark	-10.7294
▁mortar	-10.7294
▁terminal	-10.7294
▁obligation	-10.7294
▁drill	-10.7295
▁hint	-10.7295
▁colonial	-10.7295
▁nak	-10.7296
▁reward	-10.7299
▁arabic	-10.73
▁meat	-10.7302
▁ambition	-10.7307
▁trained	-10.732
▁icon	-10.7323
▁granted	-10.7324
▁kansa	-10.7327
▁chole	-10.733
▁fi	-10.7342
▁mor	-10.7347
▁cartoon	-10.7349
▁kyu	-10.7351
▁detainees	-10.7356
▁execut	-10.7358
▁eric	-10.7362
▁lion	-10.7367
que	-10.7386
▁spa	-10.7394
▁euros	-10.7398
east	-10.7411
▁equit	-10.7413
▁regret	-10.7428
standing	-10.743
▁indicted	-10.7436
band	-10.7456
▁distribut	-10.7459
ron	-10.7459
▁reduc	-10.7469
▁iron	-10.7475
▁expos	-10.7475
▁apologiz	-10.7484
▁stead	-10.7489
▁cheap	-10.7492
▁semifinal	-10.75
▁deficit	-10.7502
▁precaution	-10.7502
▁relax	-10.7502
▁chapter	-10.7502
▁blanket	-10.7502
▁admission	-10.7502
▁ballistic	-10.7503
▁barbara	-10.7503
▁suspicious	-10.7503
▁houston	-10.7505
ov	-10.7506
▁maria	-10.7508
▁turm	-10.7509
▁desire	-10.7514
istan	-10.7515
▁pointed	-10.7518
drew	-10.7531
▁malaysian	-10.7538
▁wales	-10.7546
▁shara	-10.7547
▁shoulder	-10.7549
ba	-10.7555
▁ron	-10.757
▁sao	-10.7573
▁burst	-10.7578
▁coal	-10.7591
▁discover	-10.7595
▁flags	-10.7596
▁employment	-10.7604
▁hir	-10.7606
▁advisor	-10.7611
▁dad	-10.7614
▁bang	-10.7617
▁bei	-10.7619
▁tale	-10.7621
▁capabilit	-10.7621
▁isolat	-10.7625
iro	-10.7627
▁deliberate	-10.7631
fk	-10.7636
▁gu	-10.7645
▁habitat	-10.7661
eva	-10.7666
▁mart	-10.767
▁dominat	-10.767
▁shi	-10.7675
dc	-10.768
▁yel	-10.7691
▁locate	-10.7691
▁vessels	-10.77
▁dry	-10.7705
▁mac	-10.7708
the	-10.7709
▁confess	-10.7711
▁oklahoma	-10.7715
▁transplant	-10.7715
▁migrant	-10.7715
▁belief	-10.7715
▁expansion	-10.7715
▁salmon	-10.7715
▁tornado	-10.7715
▁pipeline	-10.7715
▁respondent	-10.7717
▁priest	-10.7718
▁insult	-10.7718
▁prominent	-10.7718
▁musician	-10.7723
sh	-10.7725
▁spray	-10.7726
ntao	-10.7726
▁occasion	-10.7727
▁follower	-10.7728
▁thin	-10.7731
lum	-10.7731
▁pole	-10.7732
wright	-10.7735
▁presumpti	-10.7737
▁pour	-10.7738
▁pun	-10.7739
▁universal	-10.774
arctic	-10.774
▁instance	-10.7753
▁lo	-10.7761
▁decisions	-10.7766
▁dop	-10.7772
▁frontier	-10.778
▁welcom	-10.7794
▁strand	-10.7801
▁passport	-10.7805
▁principle	-10.7809
▁drawing	-10.7818
▁bars	-10.7821
long	-10.7828
▁decid	-10.783
rut	-10.7835
▁canal	-10.7836
▁dominate	-10.7837
▁demonstrate	-10.7842
▁stepping	-10.7844
▁uni	-10.7854
▁reverse	-10.7858
▁cooper	-10.7858
▁holder	-10.7859
▁tay	-10.7863
▁centur	-10.7864
precedent	-10.7867
▁inde	-10.7876
▁kath	-10.7877
▁berna	-10.7879
▁cards	-10.7879
ko	-10.7887
ors	-10.7894
ehouse	-10.791
▁tickets	-10.7917
fer	-10.7925
▁prohibit	-10.7926
▁confront	-10.7928
▁ecuador	-10.7932
▁lewis	-10.7932
▁vitamin	-10.7933
▁ibrahim	-10.7934
▁tragedy	-10.7934
▁medication	-10.7935
▁urgent	-10.7935
▁empty	-10.7938
uri	-10.7939
▁woods	-10.7941
▁load	-10.7943
▁background	-10.7946
▁loud	-10.7952
tsin	-10.7955
▁persuade	-10.7958
▁hasn	-10.7972
▁adam	-10.798
nke	-10.7982
▁proceedings	-10.7983
▁publication	-10.7985
▁ramo	-10.7988
▁escalat	-10.7994
▁masters	-10.8
▁sin	-10.8001
▁circle	-10.8059
▁cooperate	-10.8059
▁libert	-10.8064
lated	-10.8074
▁fake	-10.8078
▁oversee	-10.8093
ppp	-10.81
▁theft	-10.8123
▁sight	-10.8124
▁dealers	-10.814
▁denucleariz	-10.814
▁breed	-10.8141
▁grab	-10.8142
▁blog	-10.8148
▁wrap	-10.8148
▁yemen	-10.8148
▁telecom	-10.815
lets	-10.8151
▁interpret	-10.8152
▁consensu	-10.8154
▁disorder	-10.8154
▁evolution	-10.8154
▁extensive	-10.8154
▁telescope	-10.8154
▁evil	-10.8154
▁pepper	-10.8154
▁definite	-10.8154
▁craig	-10.8154
▁instant	-10.8154
▁imagine	-10.8155
▁dissident	-10.8155
kovic	-10.8155
▁unfair	-10.8155
▁idol	-10.8155
▁kanda	-10.8156
iscons	-10.8156
▁tribute	-10.8157
▁guideline	-10.8157
▁uncover	-10.8157
▁dragg	-10.8159
▁chamber	-10.8159
▁sweden	-10.816
▁hide	-10.8161
▁insurgenc	-10.8163
▁amazon	-10.8163
▁exhibit	-10.8165
▁replacement	-10.8166
▁grass	-10.8166
▁ch	-10.8166
▁kitt	-10.8198
▁pool	-10.8204
viation	-10.8205
ological	-10.8208
▁lin	-10.8214
▁personally	-10.8216
line	-10.8221
do	-10.8227
▁happening	-10.8233
▁pm	-10.8236
▁ruler	-10.8243
▁characters	-10.8244
▁geologic	-10.8247
ek	-10.8249
▁impo	-10.8251
▁lender	-10.8258
et	-10.8262
▁chan	-10.8268
▁philippine	-10.8269
cia	-10.8283
▁secur	-10.8292
sul	-10.8323
▁permissi	-10.8326
▁mon	-10.8329
▁thick	-10.834
▁expire	-10.8341
ison	-10.8343
me	-10.8347
▁philip	-10.8357
▁diploma	-10.8364
▁silence	-10.8366
ila	-10.8373
ucky	-10.8375
▁genocid	-10.8382
▁predecessor	-10.8382
▁religion	-10.8382
▁tabloid	-10.8382
▁unexpected	-10.8382
▁bargain	-10.8382
▁extension	-10.8382
▁autonom	-10.8382
▁destination	-10.8382
▁economies	-10.8382
▁entrance	-10.8382
▁overturn	-10.8382
▁exclusive	-10.8383
▁consistent	-10.8384
ius	-10.8384
▁snake	-10.8385
▁outlook	-10.8386
▁recommendation	-10.8386
▁legitimate	-10.839
▁mountains	-10.8391
▁creation	-10.8392
▁gerr	-10.8397
▁milk	-10.8402
▁statue	-10.8404
her	-10.8406
▁contractor	-10.8411
gt	-10.8416
▁bloom	-10.8417
▁ahmad	-10.8418
▁z	-10.843
▁stream	-10.843
▁suggestion	-10.8431
▁visibl	-10.8446
▁endur	-10.8447
▁diya	-10.8447
▁compare	-10.8451
▁plent	-10.8458
▁proceed	-10.8464
▁primari	-10.8466
bama	-10.8474
▁rodd	-10.8504
▁pan	-10.8508
▁models	-10.8511
▁dropping	-10.8516
▁trace	-10.8522
▁tower	-10.8528
▁clip	-10.854
▁nin	-10.854
▁marking	-10.8543
li	-10.8548
▁vien	-10.8556
▁flower	-10.8577
em	-10.858
▁transform	-10.8588
▁occur	-10.8593
▁ker	-10.8594
▁nigeria	-10.8595
▁tho	-10.8597
▁teenage	-10.8599
verish	-10.8602
▁oct	-10.8603
▁rains	-10.8609
▁ambulance	-10.8614
▁embarrass	-10.8614
▁tissue	-10.8614
▁volume	-10.8614
▁prosper	-10.8614
▁fault	-10.8614
▁jolie	-10.8614
▁suspension	-10.8615
▁steep	-10.8615
▁zawah	-10.8615
▁lord	-10.8615
▁download	-10.8615
▁partnership	-10.8616
▁exploit	-10.8616
▁possession	-10.8617
▁grace	-10.8618
▁resistance	-10.8618
▁rebound	-10.8618
▁contribution	-10.8619
▁pardon	-10.8619
▁occupie	-10.8619
▁emirate	-10.862
▁mer	-10.8626
▁bow	-10.8626
▁jobless	-10.8626
▁gaz	-10.8627
▁grenade	-10.8634
▁galaxy	-10.8635
▁touris	-10.8637
▁hye	-10.8643
▁publisher	-10.8646
ament	-10.8651
▁crossing	-10.8654
▁rent	-10.8661
▁sheet	-10.8674
▁universit	-10.8699
▁nazi	-10.8715
▁tomb	-10.8716
▁riding	-10.873
▁examin	-10.8745
▁abduction	-10.8745
▁brick	-10.8746
▁automaker	-10.8749
▁fred	-10.8751
pol	-10.8752
▁massacre	-10.8761
math	-10.8769
▁vision	-10.8792
▁matters	-10.8794
▁predict	-10.8796
▁recognized	-10.8798
▁joy	-10.8799
▁pen	-10.8834
▁manufacturers	-10.8836
▁polluti	-10.8838
▁pilgrim	-10.885
judicial	-10.8852
▁infrastructure	-10.8852
▁judiciar	-10.8852
▁skull	-10.8852
▁unacceptabl	-10.8852
▁videotape	-10.8852
▁vermont	-10.8852
▁maritime	-10.8853
▁registration	-10.8853
▁pyeong	-10.8853
▁katrin	-10.8854
▁interrogation	-10.8854
▁desperate	-10.8854
▁shutdown	-10.8854
▁statistical	-10.8854
▁recording	-10.8855
▁burden	-10.8855
▁puert	-10.8856
▁everywhere	-10.8859
▁brigade	-10.8859
▁kyung	-10.8861
▁torre	-10.8866
▁airplane	-10.8867
▁yu	-10.8867
▁charter	-10.8868
dev	-10.8869
▁confirmation	-10.8875
▁dirt	-10.8875
arachi	-10.8887
▁hwa	-10.8891
▁melt	-10.8893
▁harv	-10.8901
▁mu	-10.8909
dari	-10.891
▁qu	-10.8912
▁taxi	-10.8918
harto	-10.8926
▁goalkeep	-10.8927
▁broker	-10.8949
▁guan	-10.8952
omar	-10.8957
ell	-10.8962
▁factors	-10.8982
▁knight	-10.8985
ean	-10.8987
▁principles	-10.899
ari	-10.8993
tada	-10.8993
▁dismantl	-10.9
▁procedure	-10.9003
oding	-10.9009
▁discount	-10.9014
▁richards	-10.9015
▁kidnapp	-10.9018
▁au	-10.9018
▁endors	-10.902
▁button	-10.9024
▁glas	-10.9026
▁nicole	-10.9028
▁hike	-10.9036
▁pleas	-10.9037
▁hidd	-10.905
▁abuses	-10.9065
hook	-10.9076
▁chip	-10.9076
▁vulnerab	-10.9088
▁analysi	-10.909
▁fundamental	-10.9094
refore	-10.9096
▁component	-10.9096
▁marathon	-10.9096
▁taxpayer	-10.9096
▁absence	-10.9096
▁legislature	-10.9096
▁monarch	-10.9096
▁regain	-10.9096
▁incredibl	-10.9096
▁afr	-10.9097
▁chicken	-10.9097
▁archaeologist	-10.9098
▁height	-10.9098
▁endorsement	-10.91
▁principal	-10.91
▁steal	-10.9102
▁pornograph	-10.9103
▁remarkable	-10.9105
▁walter	-10.9109
▁shake	-10.9109
▁commuter	-10.9112
min	-10.9117
▁afterward	-10.9117
▁libyan	-10.9123
▁ph	-10.9127
▁magic	-10.9134
▁habit	-10.9159
most	-10.9164
▁tanker	-10.9166
▁plays	-10.9171
▁brook	-10.9189
▁procedures	-10.9195
▁mask	-10.9196
sen	-10.9204
▁zoe	-10.9207
▁violate	-10.9211
▁rivers	-10.9216
▁kun	-10.9225
ova	-10.9226
▁vaccine	-10.9251
cut	-10.9254
▁chase	-10.9262
▁orchestra	-10.9264
▁phil	-10.9276
▁victoria	-10.9276
▁ala	-10.928
ware	-10.9282
▁covering	-10.9287
▁inmate	-10.9299
▁chancell	-10.9302
bow	-10.9303
▁achiev	-10.9308
tic	-10.9317
▁cape	-10.9323
▁ke	-10.9326
▁depart	-10.9343
▁curfew	-10.9346
▁superior	-10.9346
▁gradual	-10.9346
▁spaniard	-10.9346
▁distress	-10.9346
▁mirror	-10.9347
▁balloon	-10.9347
▁drown	-10.9347
▁wilson	-10.9347
▁classe	-10.9347
▁honest	-10.9348
▁guang	-10.9348
▁toyota	-10.9348
▁der	-10.9349
▁graham	-10.9349
▁combination	-10.9349
▁midfielder	-10.9349
▁unique	-10.935
▁pronounce	-10.935
▁poison	-10.935
▁reopen	-10.9351
▁myspace	-10.9351
▁ahmed	-10.9353
▁passage	-10.9354
▁landscape	-10.9358
▁statistics	-10.936
▁medic	-10.936
▁mice	-10.9362
▁filmmaker	-10.9362
▁nair	-10.9365
▁astronomer	-10.9371
pov	-10.9376
▁plea	-10.9379
▁launching	-10.938
▁partial	-10.9393
▁clay	-10.9405
obi	-10.9422
liberation	-10.9422
▁theme	-10.9429
▁rad	-10.9429
▁lunch	-10.944
▁raped	-10.9441
der	-10.9444
phy	-10.9462
▁headline	-10.9463
ioxid	-10.9474
ino	-10.9476
indi	-10.9493
▁remark	-10.9499
▁rob	-10.9504
kara	-10.9507
▁roma	-10.9515
▁christ	-10.9518
▁infection	-10.952
▁opponent	-10.9521
cheon	-10.9522
▁repeat	-10.9529
▁contribut	-10.9532
▁emerg	-10.9536
▁sec	-10.9537
▁univers	-10.9548
teen	-10.9548
▁unna	-10.9572
▁ju	-10.9584
▁master	-10.9586
▁plunge	-10.9588
▁parade	-10.9588
som	-10.959
▁victor	-10.959
▁branch	-10.9591
▁indefinite	-10.9602
▁volatil	-10.9602
▁enormous	-10.9603
▁composite	-10.9603
▁gunshot	-10.9603
▁prestig	-10.9603
▁biologist	-10.9604
▁prolong	-10.9605
▁descend	-10.9605
▁expell	-10.9605
▁guild	-10.9607
▁iphone	-10.9608
▁pig	-10.9608
▁distribution	-10.9612
▁gesture	-10.9614
▁coverage	-10.9614
▁brian	-10.9615
▁sp	-10.9617
▁closure	-10.9617
▁burial	-10.9621
▁finger	-10.9625
▁kaes	-10.963
anamo	-10.9633
▁revis	-10.9633
▁refusal	-10.9635
▁turns	-10.9641
▁cart	-10.9643
col	-10.9647
▁mrs	-10.9656
▁clue	-10.9658
▁determin	-10.9661
▁fare	-10.9676
▁bacteria	-10.9681
▁hiding	-10.9683
not	-10.969
▁dismantle	-10.9704
▁nurse	-10.9704
▁killer	-10.9705
▁tent	-10.9708
▁shap	-10.9726
▁mir	-10.9729
▁theory	-10.9735
med	-10.9743
▁thus	-10.9749
▁ram	-10.9762
tarian	-10.9766
▁forget	-10.9771
▁christians	-10.9774
▁skills	-10.9781
▁clo	-10.9784
▁activist	-10.9794
▁mere	-10.9801
▁harris	-10.9811
▁rigg	-10.9819
▁amaz	-10.9831
▁craft	-10.9837
▁uganda	-10.9845
ou	-10.9848
▁fatalit	-10.985
▁mistakes	-10.9855
▁counterfeit	-10.9866
▁encouraging	-10.9866
▁oxygen	-10.9866
▁surprising	-10.9866
▁dolphin	-10.9866
▁thirty	-10.9866
▁oregon	-10.9866
▁escort	-10.9866
▁campbell	-10.9866
▁prophet	-10.9866
▁optimistic	-10.9866
▁unanimous	-10.9866
▁teeth	-10.9866
▁mutual	-10.9866
▁mercur	-10.9867
▁slip	-10.9868
▁examination	-10.9868
▁audio	-10.987
remlin	-10.987
▁bahama	-10.987
▁gender	-10.987
▁comply	-10.9871
▁romantic	-10.9871
▁guess	-10.9872
▁engagement	-10.9873
▁joke	-10.9877
▁accidental	-10.9879
onna	-10.9879
▁miller	-10.9879
▁subway	-10.988
▁smart	-10.9881
▁selection	-10.9883
▁publicist	-10.9885
▁decrease	-10.9886
▁sink	-10.9887
sburg	-10.9889
▁pitts	-10.9894
▁deepen	-10.9897
▁embrace	-10.9898
▁serbian	-10.9904
inho	-10.9904
▁minne	-10.9908
▁refuge	-10.9911
▁jets	-10.9915
▁preserve	-10.9917
▁dallas	-10.9917
▁alan	-10.9921
▁wav	-10.9922
▁em	-10.9928
▁challeng	-10.994
▁suk	-10.9943
▁penn	-10.9944
orry	-10.9951
▁endorse	-10.9955
▁update	-10.9956
▁comfortabl	-10.9962
▁belgi	-10.9965
▁eggs	-10.9968
▁deals	-10.997
▁te	-10.9972
▁fift	-10.9973
▁jay	-10.9984
▁fence	-11.0007
iest	-11.0021
ev	-11.0028
ad	-11.0028
▁burm	-11.0029
▁sevill	-11.003
▁harr	-11.0032
latter	-11.0042
▁cats	-11.0043
▁bears	-11.0049
ington	-11.0056
▁venture	-11.006
▁fined	-11.0063
▁volunteer	-11.0068
▁matt	-11.0071
▁hanging	-11.0073
▁swor	-11.0074
▁argument	-11.0075
mond	-11.008
▁mud	-11.0082
vili	-11.0085
ribe	-11.0093
space	-11.0097
▁danc	-11.0101
▁permit	-11.0105
▁sept	-11.0107
▁rev	-11.0111
ugher	-11.0115
▁adjust	-11.0133
▁benjamin	-11.0136
▁incumbent	-11.0136
▁shrink	-11.0136
▁cautious	-11.0136
▁citigroup	-11.0136
▁coincide	-11.0136
▁troubl	-11.0136
▁beautiful	-11.0136
▁retreat	-11.0136
▁intervention	-11.0136
▁harbor	-11.0136
▁elevator	-11.0136
▁twel	-11.0136
▁deadlock	-11.0137
▁reconstruction	-11.0137
▁excessive	-11.0137
▁talent	-11.0137
▁probation	-11.0137
▁ibm	-11.0137
▁acid	-11.0138
▁installation	-11.0138
▁yield	-11.0139
▁manipulation	-11.0139
▁captor	-11.0141
▁geu	-11.0142
▁proliferat	-11.0142
▁widen	-11.0142
▁albanian	-11.0142
olla	-11.0143
ago	-11.0145
▁inspire	-11.0145
▁castle	-11.0146
▁ferg	-11.0148
▁usa	-11.0156
▁wash	-11.0165
▁attribut	-11.0167
ral	-11.0167
ebay	-11.0168
▁luis	-11.0174
▁cheong	-11.0181
▁hud	-11.0186
won	-11.0193
▁prais	-11.0208
▁elaborate	-11.0209
▁prov	-11.0212
rry	-11.0213
▁reviv	-11.0217
▁armor	-11.022
▁micro	-11.0223
▁mood	-11.0227
▁scrap	-11.0233
ked	-11.0246
egger	-11.0248
▁dy	-11.0252
▁hol	-11.0252
dong	-11.0254
▁forecaster	-11.0255
▁prostitute	-11.0285
▁signing	-11.0289
▁hostil	-11.0294
elite	-11.0296
▁jewel	-11.03
if	-11.0303
nell	-11.031
▁ag	-11.0316
▁hindu	-11.0319
▁plac	-11.032
▁displac	-11.0322
▁radi	-11.0329
▁contenders	-11.0329
stone	-11.0331
▁tip	-11.0348
prime	-11.0351
mo	-11.0351
▁ranch	-11.0355
▁racial	-11.0356
▁arrang	-11.0357
▁admit	-11.0362
▁intervene	-11.0369
sley	-11.0371
ishu	-11.0373
▁swing	-11.0385
▁sect	-11.0388
▁cambodia	-11.0394
awat	-11.0396
▁portray	-11.0406
▁minds	-11.0409
▁reiterat	-11.0412
▁comprehensive	-11.0414
▁crocodile	-11.0414
▁episode	-11.0414
▁expense	-11.0414
▁schwarz	-11.0414
▁dakota	-11.0414
▁dinosaur	-11.0414
▁aspect	-11.0414
▁bolster	-11.0414
▁eligib	-11.0414
▁casino	-11.0414
▁unpopular	-11.0414
▁reputation	-11.0414
▁abolish	-11.0415
▁rhetoric	-11.0415
▁basket	-11.0415
▁pirac	-11.0415
▁kidney	-11.0415
▁classroom	-11.0416
▁moga	-11.0417
▁defector	-11.042
▁ear	-11.0421
▁disruption	-11.0422
▁objective	-11.0423
▁silver	-11.0427
▁grabb	-11.043
▁spur	-11.0433
▁attraction	-11.0434
▁juan	-11.0439
▁eas	-11.0441
▁yourself	-11.0444
▁manner	-11.0447
▁nov	-11.0456
wine	-11.0458
▁academic	-11.0463
▁bold	-11.0482
▁reserved	-11.0484
▁panic	-11.0486
▁ya	-11.0492
▁diseases	-11.0495
▁opposit	-11.0496
▁fisher	-11.0497
ably	-11.0497
▁taste	-11.0501
▁indict	-11.0504
▁examine	-11.0515
▁defender	-11.0523
▁noon	-11.0523
▁complicat	-11.0544
▁cult	-11.0546
▁nose	-11.0546
▁bur	-11.0554
▁bhut	-11.0554
il	-11.056
▁fe	-11.056
▁argentine	-11.0561
athrow	-11.0569
▁ideal	-11.0581
ullah	-11.0595
nba	-11.0599
▁deposit	-11.0602
▁billionaire	-11.0633
person	-11.0638
▁defin	-11.0643
▁atlant	-11.0648
▁explode	-11.0649
sky	-11.0652
▁twist	-11.0657
going	-11.066
▁tactic	-11.0669
▁sha	-11.067
ampa	-11.067
▁shah	-11.0672
went	-11.0678
▁deteriorat	-11.0681
com	-11.0682
▁populat	-11.0684
prom	-11.0692
▁connecti	-11.0693
▁posts	-11.0693
▁ignore	-11.0698
▁asteroid	-11.0699
▁greenpeace	-11.0699
▁crocker	-11.0699
▁motorcycle	-11.0699
▁ultra	-11.0699
▁eager	-11.0699
▁slogan	-11.0699
▁animated	-11.07
▁loot	-11.07
▁approximate	-11.07
▁motive	-11.07
▁surf	-11.07
▁mammal	-11.07
▁strategist	-11.0701
▁borrow	-11.0701
▁madoff	-11.0701
▁rampage	-11.0702
ronto	-11.0702
▁extinction	-11.0703
nt	-11.0704
▁revision	-11.0705
▁serge	-11.0705
▁fertil	-11.0705
▁circulat	-11.0708
▁freez	-11.071
mpson	-11.0711
▁ivor	-11.0714
▁ratings	-11.0715
▁recycl	-11.0717
▁financ	-11.0719
▁requirement	-11.072
▁linds	-11.0722
▁observation	-11.0723
▁ku	-11.0726
▁tries	-11.0731
▁automatic	-11.0731
▁nikk	-11.0739
▁consum	-11.074
▁aig	-11.0743
ade	-11.0755
▁publish	-11.0757
tt	-11.0762
▁teaching	-11.0764
ka	-11.0775
▁personalit	-11.0777
▁amy	-11.0803
▁chat	-11.0807
▁challenger	-11.0813
▁posting	-11.0817
mura	-11.0824
▁br	-11.0834
port	-11.0866
▁rocky	-11.0879
▁ac	-11.0881
▁therap	-11.0885
▁installed	-11.0891
▁mc	-11.0894
▁scrambl	-11.0894
▁eliminat	-11.0907
▁rid	-11.0912
▁mp	-11.0924
▁wu	-11.0928
stream	-11.0929
fall	-11.0929
▁gift	-11.0947
▁application	-11.0949
rmed	-11.095
▁presum	-11.095
fire	-11.096
front	-11.0974
tified	-11.0975
pa	-11.0977
fish	-11.098
▁opt	-11.098
▁antarctic	-11.0983
▁spectac	-11.0992
▁ripp	-11.0993
▁equivalent	-11.0994
▁instrument	-11.0994
▁revenge	-11.0994
▁denmark	-11.0994
▁wrongdoing	-11.0994
▁incentive	-11.0994
▁crunch	-11.0994
▁administrator	-11.0994
▁carpet	-11.0994
▁strait	-11.0994
▁epicenter	-11.0994
▁cardinal	-11.0994
▁bedroom	-11.0994
▁saint	-11.0994
droe	-11.0994
▁pension	-11.0994
▁tripoli	-11.0995
▁outdoor	-11.0995
▁zap	-11.0996
sterol	-11.0996
▁foster	-11.0996
▁legislator	-11.0996
▁assess	-11.0996
oprah	-11.0997
▁bernard	-11.0997
▁shak	-11.0998
▁detective	-11.0999
▁survival	-11.0999
▁pollut	-11.1
▁bruce	-11.1001
▁utilit	-11.1003
▁divert	-11.1003
▁pride	-11.1005
▁ethiopian	-11.1005
▁anybody	-11.1007
▁alien	-11.1009
▁user	-11.101
▁objection	-11.1014
▁useful	-11.1023
▁tea	-11.1026
overt	-11.1028
▁slaughter	-11.103
▁brave	-11.1031
▁boxes	-11.1034
ook	-11.1036
▁alli	-11.1042
▁atlanti	-11.1042
▁limb	-11.1045
▁marry	-11.1045
▁assured	-11.1049
▁purchas	-11.1057
▁wo	-11.106
▁pure	-11.1066
▁rawal	-11.1069
▁shouted	-11.1069
▁coin	-11.1075
residential	-11.1082
my	-11.1086
▁eliminate	-11.1087
▁smil	-11.109
▁assume	-11.1091
▁slide	-11.1091
▁install	-11.1093
▁laser	-11.1097
▁allen	-11.1106
▁patriot	-11.1108
▁expanding	-11.1118
▁ads	-11.1137
▁enable	-11.1152
▁cole	-11.1152
▁nationalist	-11.1152
q	-11.1157
▁hate	-11.116
▁tighten	-11.1164
cher	-11.1166
▁designat	-11.1173
▁parker	-11.1178
▁mas	-11.1181
ward	-11.1194
lie	-11.1195
▁rash	-11.1204
▁tai	-11.1226
skirt	-11.1229
piece	-11.1234
▁agreements	-11.1246
yodo	-11.1261
▁advise	-11.1267
▁sat	-11.1272
▁remind	-11.1272
▁sympath	-11.1274
ood	-11.1275
▁hire	-11.1275
bo	-11.1275
▁dun	-11.1276
die	-11.1278
▁tae	-11.1285
▁cyber	-11.1287
ura	-11.129
▁exam	-11.1292
▁disagree	-11.1293
▁adapt	-11.1295
▁musa	-11.1295
▁sprawl	-11.1297
▁accompany	-11.1297
▁imminent	-11.1297
▁overhaul	-11.1297
▁pyramid	-11.1297
▁subsequent	-11.1297
▁incursion	-11.1297
▁anthem	-11.1297
▁breakfast	-11.1297
▁boast	-11.1297
▁anonymous	-11.1297
▁random	-11.1297
▁hamper	-11.1297
▁accompani	-11.1298
▁confine	-11.1298
▁jenni	-11.1299
▁broadway	-11.1299
▁candidacy	-11.13
▁assertion	-11.1302
▁pregnancy	-11.1309
▁ambitio	-11.1309
▁eruption	-11.131
horta	-11.131
▁springs	-11.131
▁branches	-11.1311
▁empir	-11.1316
▁defect	-11.1317
▁hometown	-11.132
▁yasu	-11.1326
▁tears	-11.1329
▁phenomen	-11.1329
▁rada	-11.1331
pec	-11.1333
▁provider	-11.1333
▁intent	-11.1335
▁shooter	-11.1338
▁applications	-11.1343
▁leap	-11.1346
▁lucky	-11.136
▁happens	-11.1364
▁lane	-11.1383
▁ash	-11.1388
ible	-11.1391
▁patroll	-11.1405
au	-11.1411
wear	-11.1416
▁lesson	-11.1419
▁experienc	-11.1419
▁advocate	-11.1424
▁winf	-11.1425
▁tap	-11.1426
▁opera	-11.1429
▁automakers	-11.143
ul	-11.143
▁starts	-11.1432
awi	-11.1449
▁menu	-11.1462
▁donations	-11.1467
tra	-11.1469
▁fl	-11.147
▁tr	-11.1474
▁stalin	-11.1475
▁slum	-11.1483
▁bind	-11.1495
▁ri	-11.1514
▁hack	-11.1514
he	-11.1527
▁retire	-11.1527
ega	-11.1541
▁interviewed	-11.1552
▁ab	-11.1559
▁advanc	-11.1564
mann	-11.1568
allah	-11.1575
▁pus	-11.1575
▁cri	-11.1581
▁combine	-11.1588
▁prefer	-11.159
▁digit	-11.1597
▁haiti	-11.1598
▁rove	-11.1602
▁buzz	-11.1602
▁depict	-11.1604
▁automobile	-11.1609
▁caribbean	-11.1609
▁explanation	-11.1609
▁invitation	-11.1609
▁mammoth	-11.1609
▁pichushkin	-11.1609
▁tragic	-11.1609
▁travolta	-11.1609
▁unsuccessful	-11.1609
▁thorough	-11.1609
▁depth	-11.1609
▁tumor	-11.1609
▁fingerprint	-11.1609
▁nixon	-11.1609
▁crater	-11.1609
▁textbook	-11.1609
▁diabet	-11.1609
▁website	-11.1609
▁expedition	-11.161
▁physician	-11.161
▁restart	-11.161
▁echo	-11.161
▁stronghold	-11.161
▁facebook	-11.161
▁graphic	-11.161
▁mini	-11.161
▁implication	-11.1611
▁surg	-11.1611
akash	-11.1611
▁tribunal	-11.1612
▁haul	-11.1612
▁spell	-11.1613
▁hydro	-11.1614
▁blitz	-11.1614
▁merger	-11.1614
▁gibbon	-11.1615
▁consultation	-11.1617
▁autops	-11.1617
▁achievement	-11.1617
▁hip	-11.1618
zhei	-11.1622
nold	-11.1624
▁wayne	-11.1624
lmand	-11.1624
▁operative	-11.1626
▁symptoms	-11.1626
▁worri	-11.1626
▁mumm	-11.1629
▁lifetime	-11.1631
mao	-11.1632
▁drunk	-11.1634
tti	-11.1637
cal	-11.1638
▁denial	-11.1642
▁smuggling	-11.1644
care	-11.1647
▁surgeon	-11.1648
right	-11.1651
▁intensifie	-11.1652
ver	-11.1653
▁consideration	-11.1653
▁petrole	-11.1653
room	-11.1655
▁shouting	-11.1667
▁shia	-11.1677
try	-11.1679
▁fisc	-11.1684
▁electrical	-11.1684
ubble	-11.169
▁supplier	-11.1694
▁topic	-11.17
▁generat	-11.17
▁explained	-11.1709
▁sacrifice	-11.1713
▁shim	-11.1723
▁tala	-11.1723
▁deck	-11.1728
▁amin	-11.1731
ves	-11.1736
▁smile	-11.1759
▁bonds	-11.1767
▁bath	-11.177
▁luc	-11.1772
▁exporter	-11.1774
▁developer	-11.1775
how	-11.1786
▁grade	-11.1787
▁slim	-11.1787
▁nur	-11.1791
rotti	-11.1792
cef	-11.18
▁surpass	-11.1806
raul	-11.1806
▁battles	-11.1812
▁communicate	-11.1812
bourne	-11.182
tage	-11.1825
▁stopp	-11.1827
world	-11.1835
mouth	-11.1839
▁bae	-11.1845
▁appli	-11.1846
▁stewar	-11.1857
▁spare	-11.1857
▁designate	-11.1857
▁sum	-11.1858
▁evacuate	-11.1862
▁till	-11.187
▁cathedral	-11.1877
▁briton	-11.1879
▁fif	-11.1888
ee	-11.189
▁provision	-11.1892
▁dedicat	-11.1896
▁sail	-11.19
▁stones	-11.1903
▁canne	-11.1912
▁endeavo	-11.1914
▁fin	-11.1917
▁hearts	-11.1917
▁om	-11.1917
▁households	-11.1918
children	-11.1925
▁extinct	-11.1928
▁hui	-11.1928
▁triumph	-11.1931
▁automotive	-11.1932
▁fossil	-11.1932
▁margaret	-11.1932
▁norwegian	-11.1932
▁shepherd	-11.1932
▁aquarium	-11.1932
▁swallow	-11.1932
▁silent	-11.1932
▁blind	-11.1932
▁tentative	-11.1932
▁throat	-11.1932
▁lynch	-11.1932
▁bathroom	-11.1932
▁copyright	-11.1932
▁steam	-11.1932
▁kofi	-11.1932
▁pursuit	-11.1933
▁citizenship	-11.1934
▁pact	-11.1934
▁quell	-11.1935
▁painful	-11.1935
▁equipp	-11.1935
▁jeong	-11.1938
▁outpost	-11.1938
▁restructur	-11.1938
▁bryan	-11.1939
▁reluctant	-11.1939
▁warehouse	-11.1941
▁belgian	-11.1944
▁practical	-11.195
▁falluja	-11.1954
▁asset	-11.1955
▁jean	-11.1957
▁favorable	-11.1958
▁mccart	-11.1958
ida	-11.1958
▁cristian	-11.1959
▁mitt	-11.1959
▁alter	-11.1963
▁hun	-11.1971
▁sack	-11.1974
▁belonging	-11.1975
▁archive	-11.1979
ture	-11.1983
▁pad	-11.1984
▁soul	-11.1984
▁luna	-11.1984
▁oust	-11.1987
▁pf	-11.1987
ho	-11.199
▁strange	-11.1993
▁passes	-11.2008
▁arguments	-11.2016
▁rider	-11.2017
ster	-11.2021
▁screening	-11.2028
▁joon	-11.2035
▁kell	-11.2039
lisa	-11.2044
abao	-11.2046
▁formula	-11.2048
▁stabilize	-11.206
wai	-11.2072
▁beside	-11.2074
▁returns	-11.2093
lando	-11.2101
▁gwan	-11.2108
▁guid	-11.2117
▁acquire	-11.2136
fected	-11.2138
▁hi	-11.2142
tanbu	-11.2142
▁rings	-11.2157
bar	-11.2161
▁lance	-11.2162
▁advis	-11.2162
tuck	-11.2165
▁pri	-11.2166
▁ward	-11.2171
▁captives	-11.2172
bani	-11.2176
▁anna	-11.218
▁biolog	-11.2188
▁proto	-11.2189
hou	-11.2201
war	-11.2209
▁emi	-11.221
russel	-11.2211
▁coat	-11.2214
▁jam	-11.2215
▁ethic	-11.2217
▁shutt	-11.2218
▁mandate	-11.2226
▁caps	-11.2227
aro	-11.2242
▁anim	-11.2244
▁aging	-11.2249
▁thrill	-11.225
▁refer	-11.2252
▁clos	-11.2258
▁audit	-11.2259
▁recogni	-11.2262
▁psycholog	-11.2264
▁monkey	-11.2264
▁epidemic	-11.2265
▁okinawa	-11.2265
▁sophisticat	-11.2265
▁surplus	-11.2265
▁verify	-11.2265
▁artificial	-11.2265
▁homosexual	-11.2265
▁ceiling	-11.2265
▁mitchell	-11.2265
▁hazard	-11.2265
▁mercedes	-11.2265
▁prescription	-11.2265
▁judgment	-11.2266
▁scatter	-11.2266
▁samarra	-11.2266
▁edward	-11.2267
our	-11.2267
▁layoff	-11.2267
▁horse	-11.2268
▁polish	-11.2269
▁disagreement	-11.2269
▁tayyi	-11.227
▁retirement	-11.227
▁gus	-11.2271
▁shopper	-11.2272
▁brush	-11.2274
▁desk	-11.2275
▁rita	-11.2276
▁investments	-11.2277
▁legac	-11.2278
like	-11.2279
▁modest	-11.2279
▁wheat	-11.2282
▁fujimo	-11.2286
▁arti	-11.2287
▁donor	-11.2289
▁purported	-11.2289
▁assert	-11.229
▁sideline	-11.2301
▁supervisor	-11.2302
rbil	-11.2303
▁beatles	-11.2307
▁sway	-11.231
gen	-11.2311
▁conscious	-11.2311
▁embezzle	-11.2318
▁expression	-11.2318
▁keen	-11.2322
ke	-11.2325
▁resum	-11.2332
ello	-11.2334
▁yan	-11.2337
▁projection	-11.2339
▁soft	-11.234
cious	-11.2341
▁tips	-11.2342
▁shattered	-11.2344
▁sued	-11.2348
▁rating	-11.2354
▁measur	-11.2355
▁subsidiar	-11.2355
▁plott	-11.2358
▁tropic	-11.2362
▁disabl	-11.2363
▁cm	-11.2367
llery	-11.2368
apped	-11.2374
▁bever	-11.2376
▁lit	-11.2381
attle	-11.2381
▁scare	-11.2391
▁caucus	-11.2396
▁agenc	-11.2396
▁lov	-11.2407
can	-11.2413
kat	-11.2425
▁nud	-11.2427
▁immun	-11.2427
▁punch	-11.243
nic	-11.2433
▁pipe	-11.2436
▁format	-11.2436
▁stamp	-11.2436
▁matsu	-11.2437
▁cook	-11.2437
▁kwang	-11.2439
rich	-11.2452
station	-11.2456
erald	-11.2475
mon	-11.2476
▁congratulat	-11.2481
▁lure	-11.2494
erial	-11.25
▁dar	-11.254
▁discriminat	-11.2541
munition	-11.2544
▁rahm	-11.2546
▁transit	-11.2553
▁ethan	-11.256
teria	-11.2563
til	-11.2568
▁jer	-11.257
hn	-11.2576
▁stripp	-11.2584
▁fisherm	-11.2585
▁visual	-11.2585
▁widow	-11.2587
▁productiv	-11.2593
▁kidnap	-11.2598
▁jihad	-11.2599
▁fernand	-11.2602
▁lieutenant	-11.2606
ir	-11.2607
▁scream	-11.2608
▁addict	-11.2609
▁vigil	-11.2609
▁disturb	-11.261
▁aborigin	-11.261
elecommunication	-11.261
▁consortium	-11.261
▁crystal	-11.261
▁nervous	-11.261
▁obstacle	-11.261
▁substitute	-11.261
▁sierra	-11.261
▁convey	-11.261
▁bishop	-11.261
▁consent	-11.261
▁conceal	-11.261
▁grandfather	-11.261
▁epic	-11.261
▁nfl	-11.261
▁dignity	-11.2611
▁nelson	-11.2611
lo	-11.2611
▁uprising	-11.2612
▁dies	-11.2612
▁fahr	-11.2612
▁humor	-11.2613
▁rely	-11.2614
▁enhance	-11.2614
▁croatia	-11.2615
▁hormone	-11.2616
▁fernando	-11.2618
▁creative	-11.2618
▁susan	-11.2619
▁atrocit	-11.2619
▁knowing	-11.262
▁wazir	-11.2622
quba	-11.2622
▁heighten	-11.2624
▁impression	-11.2625
▁steer	-11.2625
▁setback	-11.2626
▁manipulat	-11.2626
▁ferry	-11.2628
▁sank	-11.2631
▁presentation	-11.2632
▁nick	-11.2632
▁removal	-11.2635
▁guin	-11.2636
▁sprint	-11.2645
▁treasure	-11.2647
▁pastor	-11.2647
▁dance	-11.265
▁austrian	-11.2651
▁linda	-11.2652
▁bron	-11.2652
▁chos	-11.2653
away	-11.2655
▁marie	-11.2665
▁ethical	-11.2674
▁dave	-11.2675
▁arrange	-11.2677
▁symbolic	-11.2677
▁arena	-11.2682
▁territories	-11.2688
▁ken	-11.269
some	-11.2691
▁antibiotics	-11.2691
▁wang	-11.2694
▁stunning	-11.2697
▁ramp	-11.2701
▁cla	-11.2708
▁matte	-11.2709
▁dense	-11.2711
ck	-11.2714
▁hijack	-11.2731
▁informal	-11.2731
▁bon	-11.2735
▁med	-11.2736
▁sav	-11.2737
hip	-11.2758
bu	-11.276
▁balti	-11.2765
▁gangs	-11.2766
▁mega	-11.278
▁tumbl	-11.2788
air	-11.2795
arade	-11.2805
▁disarm	-11.2819
▁exceed	-11.2819
ich	-11.282
▁grounds	-11.2822
enhei	-11.2833
▁folks	-11.2842
▁inspect	-11.2848
▁slid	-11.2853
▁farms	-11.2866
▁lope	-11.2868
▁futures	-11.2869
▁feeding	-11.2878
via	-11.2879
▁geit	-11.2879
bank	-11.2881
▁optimis	-11.2883
gan	-11.2884
dom	-11.2896
jiang	-11.2904
▁antho	-11.2907
▁captiv	-11.291
▁preserv	-11.2911
hasa	-11.2912
stock	-11.2912
▁skeptic	-11.2919
▁deserve	-11.2933
ja	-11.2936
▁cor	-11.2941
▁spots	-11.2941
▁loose	-11.2948
▁swap	-11.2958
▁gil	-11.2965
▁applicant	-11.2967
▁condolence	-11.2967
▁discharge	-11.2967
▁paparazz	-11.2967
▁pioneer	-11.2967
▁pistol	-11.2967
▁plummet	-11.2967
▁reaffirm	-11.2967
▁douglas	-11.2967
▁brothel	-11.2967
▁ankle	-11.2967
▁throne	-11.2967
▁mystery	-11.2967
▁railroad	-11.2967
▁mcdonald	-11.2967
▁predominant	-11.2968
▁evaluation	-11.2968
▁propagand	-11.2968
▁deutsch	-11.2968
▁impass	-11.2968
▁niger	-11.2969
▁laureate	-11.2969
▁glori	-11.2969
▁conglomerate	-11.297
▁knife	-11.297
▁ownership	-11.297
▁phillip	-11.2972
▁trash	-11.2972
▁arson	-11.2973
▁happiness	-11.2975
▁aggression	-11.2975
▁aziz	-11.2975
▁oak	-11.2977
▁prefecture	-11.2977
▁scrapp	-11.2978
kdo	-11.2979
▁transparent	-11.2982
▁cheaper	-11.2985
▁outlaw	-11.2987
viel	-11.2988
▁pink	-11.2988
▁java	-11.2988
▁jiang	-11.2988
▁greenland	-11.2989
▁rick	-11.2991
▁shame	-11.2991
▁cambodian	-11.2992
▁rover	-11.2992
▁inventor	-11.2993
▁passion	-11.2995
▁stemm	-11.2997
▁reasonable	-11.2998
▁nigerian	-11.2998
aska	-11.2999
▁massage	-11.3001
lene	-11.3002
▁drought	-11.3005
▁pants	-11.3006
ider	-11.3006
▁jacque	-11.3017
▁christi	-11.3031
manuel	-11.3032
▁marc	-11.3032
penh	-11.3049
▁cage	-11.3053
▁contra	-11.3054
▁postpone	-11.306
▁swed	-11.3072
nebr	-11.3073
wa	-11.3077
▁lu	-11.3083
▁rak	-11.3088
titude	-11.3101
▁mild	-11.3102
cantil	-11.3108
▁ak	-11.3112
▁unemploy	-11.3113
▁mines	-11.3116
works	-11.3118
▁tu	-11.3126
▁meals	-11.3129
▁inner	-11.3136
▁bok	-11.3144
▁easter	-11.3146
▁jaz	-11.3158
▁anne	-11.316
▁wy	-11.316
ego	-11.317
▁johnsto	-11.3179
▁fines	-11.318
▁surveys	-11.3183
llo	-11.3187
▁cub	-11.3188
▁cop	-11.3197
▁reli	-11.3198
▁sponsors	-11.3205
▁coll	-11.321
▁mill	-11.3214
▁kiss	-11.3219
▁truc	-11.3236
▁bel	-11.3239
▁hassan	-11.324
▁injure	-11.3256
ail	-11.3276
▁roots	-11.3287
▁propell	-11.3296
▁instruct	-11.3304
▁tut	-11.3307
ran	-11.3322
▁pal	-11.3325
▁flick	-11.3326
▁mode	-11.3328
▁tenn	-11.3329
▁columb	-11.3333
nati	-11.3334
▁bride	-11.3334
▁possess	-11.3334
hy	-11.3336
▁hits	-11.3337
▁catastroph	-11.3337
▁historian	-11.3337
▁jirga	-11.3337
▁junior	-11.3337
▁simultaneous	-11.3337
▁starbuck	-11.3337
▁refrain	-11.3337
▁script	-11.3337
▁domain	-11.3337
▁oath	-11.3337
▁sibling	-11.3337
▁grim	-11.3337
▁lodge	-11.3338
▁yankee	-11.3338
▁decree	-11.3338
▁johannes	-11.3338
▁breast	-11.3338
▁ftse	-11.3339
▁intensive	-11.3339
▁thwart	-11.3339
▁pocket	-11.3339
▁circuit	-11.3339
▁mastermind	-11.3339
▁bosnia	-11.3339
▁servant	-11.3339
▁respirator	-11.3339
gow	-11.3339
▁faithful	-11.334
▁milestone	-11.334
▁editorial	-11.334
▁mediator	-11.334
▁cinc	-11.334
▁lenno	-11.3341
▁holland	-11.3341
▁transmission	-11.3341
▁constitute	-11.3341
▁dementi	-11.3342
▁logistic	-11.3342
▁assign	-11.3342
▁trademark	-11.3342
▁stud	-11.3342
▁elb	-11.3342
▁dug	-11.3343
▁weakness	-11.3343
▁exhibition	-11.3344
▁flaw	-11.3344
▁poul	-11.3344
tearn	-11.3345
uk	-11.3345
▁segment	-11.3345
▁donors	-11.3347
▁slush	-11.3347
▁minus	-11.3347
▁mob	-11.3348
▁restraint	-11.3349
▁antarctica	-11.3351
dale	-11.3353
▁scenario	-11.3355
▁carmaker	-11.3358
▁comb	-11.3359
▁drum	-11.3366
▁patien	-11.3376
▁formation	-11.3379
▁arth	-11.3396
▁chess	-11.3403
▁raw	-11.3404
▁spitz	-11.3405
▁popp	-11.341
▁shelves	-11.3413
▁annually	-11.3415
▁manufacturer	-11.3417
▁ranger	-11.3419
▁files	-11.342
nshine	-11.3423
ssett	-11.3424
iness	-11.343
▁genes	-11.3438
▁premiere	-11.3438
▁grat	-11.3439
ola	-11.3443
ya	-11.3445
▁rig	-11.3452
▁aero	-11.3454
rell	-11.3462
▁surviv	-11.347
eta	-11.3475
let	-11.3494
▁outline	-11.3506
▁lev	-11.3513
ties	-11.3516
▁observe	-11.3519
▁gambl	-11.3519
▁carl	-11.3527
▁arts	-11.3529
▁filing	-11.3536
shire	-11.3542
▁ugl	-11.3544
lateral	-11.3546
▁pin	-11.3547
▁infiltrat	-11.3562
▁relevan	-11.3569
▁sk	-11.357
▁sighting	-11.3581
▁neil	-11.3582
▁lotte	-11.3592
▁roy	-11.3596
ita	-11.3597
▁shipments	-11.3602
▁harve	-11.3604
tten	-11.3606
▁impos	-11.3609
▁tribes	-11.3619
waz	-11.362
▁wat	-11.3624
suf	-11.3637
furt	-11.3643
disclos	-11.3646
▁intens	-11.366
dium	-11.3663
▁retaliati	-11.3664
▁smooth	-11.3664
▁swim	-11.3667
▁hosts	-11.3668
▁sooner	-11.367
kansa	-11.3671
▁disperse	-11.3677
▁kam	-11.3686
enos	-11.369
▁op	-11.3702
▁choos	-11.3703
oon	-11.3705
▁transparen	-11.3705
▁terr	-11.3707
▁construct	-11.3711
arian	-11.3712
▁intercept	-11.3714
▁tin	-11.3716
caust	-11.3718
▁guitar	-11.3721
▁brilliant	-11.3722
▁peanut	-11.3722
▁vacuum	-11.3722
▁acquisition	-11.3722
▁kazakhstan	-11.3722
▁kuznetsov	-11.3722
▁rhode	-11.3722
▁cousin	-11.3722
▁memories	-11.3722
▁premium	-11.3722
▁nightclub	-11.3722
▁consist	-11.3722
▁curious	-11.3722
▁nerve	-11.3722
▁monster	-11.3722
▁parole	-11.3722
▁downturn	-11.3722
▁smell	-11.3723
▁transcript	-11.3723
▁shadow	-11.3723
▁psychologist	-11.3724
▁libby	-11.3724
▁pageant	-11.3725
▁cairo	-11.3725
▁decisive	-11.3726
▁awake	-11.3726
▁moneta	-11.3726
▁attractive	-11.3727
▁robotic	-11.3727
▁leonard	-11.3727
▁terrible	-11.3727
▁isolation	-11.3728
▁rehabilitati	-11.3728
▁rath	-11.3728
▁martyr	-11.3728
▁bench	-11.3728
▁hammer	-11.373
▁knut	-11.373
▁hank	-11.3732
▁contestant	-11.3733
▁progressive	-11.3734
▁kwon	-11.3735
▁representation	-11.374
intend	-11.3742
▁indoor	-11.3742
▁ub	-11.3745
▁romance	-11.3748
▁gravit	-11.3749
▁zan	-11.375
ustin	-11.375
▁couch	-11.3756
xvi	-11.3758
▁ourselves	-11.3766
▁pile	-11.3767
▁programm	-11.378
▁exten	-11.3783
▁gala	-11.3786
▁distribute	-11.3792
▁flexib	-11.3792
▁silv	-11.3795
▁reunifi	-11.3797
▁capt	-11.38
▁tuck	-11.3813
ospi	-11.3813
▁rattl	-11.3815
ido	-11.3816
▁cycle	-11.3824
▁glen	-11.3827
▁terra	-11.3831
▁rubb	-11.3835
▁scan	-11.3838
▁spice	-11.3842
▁vol	-11.3851
▁chill	-11.3852
▁gi	-11.3861
▁bil	-11.3869
▁sars	-11.3877
▁choi	-11.388
olo	-11.3884
▁isolate	-11.3887
▁exclud	-11.3902
bel	-11.3902
▁nis	-11.3906
ala	-11.3909
pover	-11.3914
▁oscars	-11.3932
▁corn	-11.3932
▁rein	-11.3932
▁uncertaint	-11.3945
▁julie	-11.3946
▁sacr	-11.3948
▁mess	-11.3957
▁paralyz	-11.3959
▁retrieve	-11.3962
▁container	-11.3968
ara	-11.3969
▁emphasiz	-11.3973
ged	-11.3978
▁organize	-11.3986
▁drastic	-11.3987
▁cry	-11.4008
tor	-11.4013
▁cab	-11.4014
▁kil	-11.4015
rmal	-11.4032
apping	-11.4038
▁eta	-11.4043
▁wan	-11.4054
itis	-11.4055
▁vers	-11.4056
cliff	-11.4057
appropriate	-11.4059
oli	-11.4059
▁mous	-11.4068
▁chairs	-11.407
▁harmon	-11.4079
▁span	-11.4089
▁contend	-11.4108
vy	-11.4108
▁bearing	-11.4112
▁acquitt	-11.4114
▁enact	-11.4119
▁excess	-11.4121
▁psychiatr	-11.4121
▁contingent	-11.4122
▁gadget	-11.4122
▁lincoln	-11.4122
▁tattoo	-11.4122
▁vegetable	-11.4122
▁kilogram	-11.4122
▁sufficient	-11.4122
▁tremendous	-11.4122
▁irregularities	-11.4122
▁monument	-11.4122
▁disgrace	-11.4122
▁vista	-11.4122
▁absent	-11.4122
▁premature	-11.4122
▁inhabit	-11.4122
▁overthrow	-11.4122
▁frog	-11.4122
▁tenure	-11.4122
▁notorious	-11.4122
▁donkey	-11.4123
▁excuse	-11.4123
▁copper	-11.4123
▁tomato	-11.4123
▁dominica	-11.4123
▁orthodox	-11.4123
▁bloc	-11.4124
▁streak	-11.4124
▁psychological	-11.4124
▁boris	-11.4124
▁sugar	-11.4125
▁rift	-11.4125
▁pearl	-11.4125
▁irresponsible	-11.4126
▁laura	-11.4126
▁unchang	-11.4129
▁suits	-11.413
▁devil	-11.4131
▁muq	-11.4131
▁mechanical	-11.4132
▁amend	-11.4132
▁blogger	-11.4133
▁grammy	-11.4134
▁dock	-11.4137
▁diagnosed	-11.4139
▁sensor	-11.4141
▁belov	-11.4142
▁accurate	-11.4145
▁tours	-11.4146
▁tube	-11.415
▁explorer	-11.4151
▁warship	-11.4152
▁duk	-11.4153
soo	-11.4154
▁lecture	-11.4158
▁santi	-11.4161
▁pres	-11.4164
wang	-11.417
▁comic	-11.4174
▁zimbabwean	-11.4175
▁suppress	-11.4177
▁portal	-11.4179
▁fruit	-11.4181
▁div	-11.4186
▁slain	-11.4187
▁philli	-11.4192
▁roar	-11.4196
▁outfit	-11.4205
▁lots	-11.4207
▁improvement	-11.4209
▁salt	-11.421
shi	-11.4212
▁sees	-11.422
hal	-11.4222
▁burg	-11.4226
▁applie	-11.4228
▁belt	-11.4229
▁bother	-11.4243
▁heal	-11.4243
arity	-11.4246
onica	-11.4254
▁sensitivit	-11.4256
os	-11.4257
▁obes	-11.427
▁nest	-11.4271
▁trans	-11.4274
▁steppe	-11.4274
▁ports	-11.4281
▁employers	-11.4284
val	-11.4316
▁sincere	-11.432
▁steadi	-11.4324
▁ramad	-11.4324
▁counterterroris	-11.4327
▁din	-11.4329
saka	-11.4341
▁prostitut	-11.4341
▁barry	-11.4342
▁uncle	-11.4344
▁rap	-11.4346
▁gonn	-11.4351
▁outlets	-11.4362
▁frustrat	-11.4364
▁observ	-11.4372
ning	-11.4374
▁cooperat	-11.4379
▁interesting	-11.4382
▁difficulty	-11.4382
henin	-11.4383
▁ross	-11.4385
pei	-11.4391
ett	-11.4395
ato	-11.4407
tz	-11.4421
▁speculat	-11.4445
chang	-11.4468
▁browne	-11.447
active	-11.4472
strong	-11.4476
top	-11.4481
▁revise	-11.4486
▁gran	-11.4486
borne	-11.4489
▁bat	-11.4493
rk	-11.4496
▁flare	-11.4498
versh	-11.4498
ux	-11.4501
▁inaugura	-11.4504
ario	-11.4506
oo	-11.4508
▁emerge	-11.4516
▁q	-11.4527
▁midwest	-11.4529
▁neutral	-11.453
▁reign	-11.4531
▁mat	-11.4536
▁sequence	-11.4539
▁avenue	-11.4539
▁bizarre	-11.4539
▁competitor	-11.4539
▁genuine	-11.4539
▁intellectual	-11.4539
▁maradona	-11.4539
▁reckless	-11.4539
▁satisfie	-11.4539
▁bmw	-11.4539
▁kashmir	-11.4539
▁qassam	-11.4539
▁coroner	-11.4539
▁vault	-11.4539
▁misdemeanor	-11.4539
▁whistle	-11.4539
▁seizure	-11.4539
▁potato	-11.4539
▁profound	-11.4539
▁harper	-11.4539
▁negro	-11.4539
▁venus	-11.4539
▁introduction	-11.4539
▁maoist	-11.4539
▁veterinarian	-11.4539
▁tamil	-11.4539
▁hatred	-11.4539
▁certificate	-11.454
rogge	-11.454
▁lyric	-11.454
▁signature	-11.454
▁fortress	-11.4541
▁colonel	-11.4541
▁bonuses	-11.4541
▁confidential	-11.4541
▁concentration	-11.4541
▁dili	-11.4541
▁ismail	-11.4542
▁infantry	-11.4543
▁jamie	-11.4543
▁sheep	-11.4543
▁collective	-11.4544
▁addiction	-11.4544
▁distan	-11.4545
▁flin	-11.4546
▁roug	-11.4547
▁precise	-11.4548
▁drain	-11.4548
▁bulgarian	-11.4551
▁slash	-11.4552
zed	-11.4552
▁loom	-11.4557
▁reunit	-11.4559
▁laurea	-11.456
▁iceland	-11.4561
▁spurr	-11.4567
ants	-11.4568
▁garb	-11.4571
▁beam	-11.4573
red	-11.4574
▁roles	-11.458
▁zhang	-11.4587
▁bio	-11.4587
▁brig	-11.4588
▁choices	-11.4593
▁slot	-11.4594
▁gp	-11.4596
▁fitt	-11.4598
▁suv	-11.4601
▁rear	-11.4603
▁tooth	-11.4611
▁toddler	-11.4615
▁hell	-11.4618
▁ham	-11.4618
oster	-11.4619
▁faye	-11.4623
▁blessing	-11.4629
▁dire	-11.4629
▁impressi	-11.4632
▁alleg	-11.4635
▁countryside	-11.4637
▁kph	-11.4639
conscious	-11.4641
▁hawa	-11.4641
▁ruin	-11.4641
wc	-11.4654
▁yog	-11.4655
▁define	-11.4663
▁cac	-11.468
▁relieve	-11.468
▁mikh	-11.4683
▁crying	-11.469
▁luck	-11.4692
▁appreciate	-11.4695
itz	-11.4703
▁liu	-11.4716
▁concentrate	-11.4718
▁item	-11.4729
▁fuku	-11.4737
▁tense	-11.4742
elling	-11.4748
▁cleaner	-11.4749
hill	-11.4759
▁authorize	-11.4759
▁mili	-11.4763
▁yea	-11.4766
▁dismiss	-11.4769
▁feelings	-11.4771
nga	-11.4787
▁dispos	-11.4793
aking	-11.4797
kuni	-11.4802
▁cel	-11.4806
▁spike	-11.4814
adilla	-11.4821
ette	-11.4827
king	-11.483
▁assassinat	-11.4832
io	-11.4833
▁unite	-11.4836
▁mori	-11.484
ists	-11.4844
▁gre	-11.4848
▁hurl	-11.485
ions	-11.4854
▁bark	-11.4855
▁aug	-11.4865
▁bodyguards	-11.487
ini	-11.4872
▁networking	-11.4881
▁lamp	-11.4885
▁poses	-11.4887
▁characteriz	-11.4897
▁permitt	-11.4901
row	-11.4908
▁architect	-11.491
va	-11.4915
▁medi	-11.4918
▁nori	-11.4923
▁origin	-11.4923
▁ratio	-11.4926
▁commemorate	-11.4935
▁marr	-11.4937
▁digg	-11.4938
▁hae	-11.494
▁bobb	-11.4945
▁recep	-11.4949
▁estonia	-11.4953
▁justin	-11.4969
▁archaeolog	-11.497
oid	-11.4972
win	-11.4973
▁courage	-11.4973
▁arroyo	-11.4973
▁caretaker	-11.4973
▁chocolate	-11.4973
▁ingredient	-11.4973
▁umbrella	-11.4973
▁cricket	-11.4973
▁stomach	-11.4973
▁bicycle	-11.4973
▁junichi	-11.4973
▁definition	-11.4973
▁blunt	-11.4973
▁minneapolis	-11.4973
▁harass	-11.4974
▁kitchen	-11.4974
▁oversight	-11.4974
▁mysterious	-11.4974
▁bulk	-11.4974
▁fidel	-11.4974
▁lugg	-11.4974
▁alfred	-11.4975
▁taint	-11.4975
▁contentious	-11.4975
▁cluster	-11.4975
▁click	-11.4975
▁cancellation	-11.4975
▁comedian	-11.4976
▁exploration	-11.4976
▁grain	-11.4977
▁consultant	-11.4977
▁array	-11.4978
▁powder	-11.4978
▁slugg	-11.4978
▁injection	-11.4978
▁stunt	-11.4979
▁monkeys	-11.498
▁squid	-11.498
▁drunken	-11.4981
▁glow	-11.4981
▁ipod	-11.4981
▁delight	-11.4982
▁ledger	-11.4982
▁titan	-11.4983
▁chunk	-11.4983
▁deem	-11.4984
▁horses	-11.4984
▁harvest	-11.4984
▁rico	-11.4984
▁ufo	-11.4988
▁bread	-11.4989
▁guardian	-11.4994
▁measurement	-11.4996
▁siege	-11.4996
▁innocen	-11.4997
▁settl	-11.4998
▁fantas	-11.4999
▁adequate	-11.5001
yama	-11.5005
▁glimpse	-11.5007
▁bible	-11.5007
▁rejection	-11.5014
▁organic	-11.5016
▁nasr	-11.502
▁cecil	-11.5023
▁sach	-11.5025
▁lp	-11.5026
▁dual	-11.5028
▁examiner	-11.5029
▁karl	-11.5036
onia	-11.5042
▁gifts	-11.5043
▁semi	-11.5043
▁khali	-11.505
▁hon	-11.5052
▁cl	-11.5054
▁carac	-11.506
▁vest	-11.5064
▁protein	-11.5068
▁drag	-11.5076
▁baker	-11.5077
▁bodyguard	-11.5078
▁gib	-11.5079
▁convene	-11.508
▁mong	-11.5091
amount	-11.5093
▁kle	-11.5096
▁meteor	-11.5099
mus	-11.5121
chum	-11.5128
▁fre	-11.5136
ut	-11.5142
▁kara	-11.5143
▁emphasize	-11.5144
▁demonstrat	-11.5147
▁nash	-11.5148
▁cher	-11.5149
ping	-11.515
▁chips	-11.5151
witt	-11.5155
▁linger	-11.5157
nce	-11.5159
▁cooking	-11.5159
▁dama	-11.5164
▁finalize	-11.5165
▁humiliat	-11.5166
▁nk	-11.5174
▁grandm	-11.5175
▁farming	-11.5188
che	-11.5191
▁pave	-11.5197
ted	-11.5201
▁bout	-11.5212
▁barak	-11.5218
▁foe	-11.522
▁ci	-11.5222
scus	-11.5223
▁sta	-11.5242
▁extremis	-11.5252
▁scholars	-11.5254
▁pills	-11.5255
▁municipal	-11.5258
ber	-11.5266
aw	-11.527
▁accomplish	-11.527
▁shocking	-11.5272
▁pl	-11.528
lena	-11.5284
▁meh	-11.5285
ative	-11.5286
▁identifi	-11.5289
▁rag	-11.5303
per	-11.5305
▁sketch	-11.5317
▁gene	-11.5317
▁stunn	-11.5323
▁seller	-11.5326
set	-11.5338
▁maha	-11.5344
place	-11.5345
▁frost	-11.5351
▁prodi	-11.5356
ponte	-11.5361
point	-11.5361
▁ministr	-11.5361
decided	-11.5365
about	-11.537
▁contents	-11.5375
amine	-11.5375
ith	-11.5388
folk	-11.5388
▁climber	-11.539
▁presid	-11.5396
▁coordinate	-11.5398
▁explaining	-11.5399
▁guatemala	-11.5407
yman	-11.5409
▁lean	-11.5409
▁romania	-11.541
cc	-11.5412
▁ridicul	-11.5412
▁deport	-11.5413
▁pond	-11.542
iling	-11.542
▁recess	-11.5425
▁imperial	-11.5427
▁column	-11.5427
nprofit	-11.5428
▁fragil	-11.5428
▁illicit	-11.5428
▁intensify	-11.5428
▁magistrate	-11.5428
▁pharmaceutical	-11.5428
▁portrait	-11.5428
▁sumatra	-11.5428
▁abrupt	-11.5428
▁librar	-11.5428
▁multinational	-11.5428
▁provocative	-11.5428
▁negligen	-11.5428
▁recount	-11.5428
▁database	-11.5428
▁diminish	-11.5428
▁fitzg	-11.5428
▁frontrunner	-11.5428
▁perception	-11.5428
▁greenspan	-11.5428
▁millenni	-11.5428
▁levinson	-11.5429
▁federline	-11.5429
▁anxious	-11.5429
▁dependent	-11.5429
▁reception	-11.5429
▁interstate	-11.5429
▁rehab	-11.5429
▁solomon	-11.543
▁derail	-11.543
▁informant	-11.543
▁fantastic	-11.543
▁rib	-11.5431
▁ukrainian	-11.5431
▁interaction	-11.5432
▁serena	-11.5432
▁frustration	-11.5433
▁overweight	-11.5433
▁workplace	-11.5433
▁yale	-11.5434
▁cabin	-11.5434
▁wield	-11.5434
▁slavery	-11.5435
▁handgun	-11.5435
▁creator	-11.5435
▁mccon	-11.5435
▁interrupt	-11.5436
▁quarte	-11.5437
▁hick	-11.5437
nan	-11.5439
▁hover	-11.5439
▁disappointment	-11.5441
▁playoff	-11.5445
▁costume	-11.5446
▁showdown	-11.5448
▁nail	-11.5449
mandu	-11.5454
▁val	-11.5457
▁preferr	-11.5457
▁priorities	-11.5462
▁instruction	-11.5465
▁keat	-11.5469
▁wii	-11.5471
▁neal	-11.5472
▁collins	-11.5472
▁poster	-11.5473
▁leone	-11.5473
ywhere	-11.5474
▁rack	-11.5475
▁batch	-11.5478
▁barely	-11.5481
▁kt	-11.5485
▁hid	-11.5486
▁economically	-11.5489
rod	-11.5489
▁fal	-11.5502
▁procession	-11.5503
▁petro	-11.5504
▁conceded	-11.551
▁bp	-11.5511
▁performer	-11.5513
▁vanco	-11.5514
▁veni	-11.5514
▁jun	-11.5515
▁lump	-11.5519
▁basin	-11.5527
▁les	-11.553
▁gorillas	-11.5537
ira	-11.554
▁dig	-11.5555
▁beck	-11.5556
▁ferrer	-11.5565
shima	-11.5565
eng	-11.5572
pp	-11.5574
▁casualt	-11.5576
▁cannon	-11.558
▁horn	-11.5582
eera	-11.5582
▁nah	-11.5585
▁allege	-11.5587
▁tribe	-11.5594
bound	-11.5594
▁filling	-11.5601
▁koo	-11.5604
▁addresses	-11.5606
▁pelo	-11.5608
▁ashle	-11.5613
▁queens	-11.5616
▁launche	-11.5617
▁arrangements	-11.5621
▁adventure	-11.5622
xel	-11.5624
▁smoker	-11.5627
▁stalinis	-11.5629
▁bog	-11.5631
▁uncertain	-11.5634
aki	-11.5653
▁tag	-11.5659
▁topple	-11.5663
▁pit	-11.567
po	-11.5675
▁observat	-11.5686
▁triple	-11.5693
▁superb	-11.5694
▁defi	-11.5698
▁watcher	-11.5701
▁bounce	-11.5704
▁dorm	-11.5705
unes	-11.5705
▁xu	-11.5706
▁hart	-11.5711
zel	-11.5717
▁execute	-11.5724
▁skinn	-11.573
▁spin	-11.573
▁melan	-11.5731
ww	-11.5737
▁tone	-11.5742
▁franchise	-11.5744
lick	-11.5745
▁wag	-11.5748
will	-11.5757
▁buck	-11.5766
▁planner	-11.5774
▁postpon	-11.5783
ives	-11.581
▁bust	-11.581
▁resemble	-11.5811
▁wool	-11.5813
▁staffer	-11.5816
▁offend	-11.5818
▁bran	-11.5822
ot	-11.5825
power	-11.5827
specifi	-11.5837
shift	-11.5841
▁proven	-11.5845
▁wipe	-11.5847
lima	-11.5848
▁zu	-11.5849
▁memorab	-11.5852
▁greg	-11.5854
nintend	-11.586
▁occasional	-11.5876
▁nu	-11.5879
▁expresse	-11.5879
▁goh	-11.5882
▁ethiopia	-11.5885
▁pu	-11.5885
▁troph	-11.5886
▁behead	-11.5888
erran	-11.5888
▁valid	-11.5888
cna	-11.5895
▁scrutin	-11.5895
scope	-11.5895
▁categori	-11.5897
▁grip	-11.5897
▁contradict	-11.5898
▁extract	-11.5903
pollo	-11.5904
▁artifact	-11.5904
▁battalion	-11.5904
▁cosmonaut	-11.5904
▁efficienc	-11.5904
▁excerpt	-11.5904
▁implant	-11.5904
▁inflict	-11.5904
▁merchant	-11.5904
▁quarantine	-11.5904
▁seafood	-11.5904
▁tycoon	-11.5904
▁anxiet	-11.5904
▁oxford	-11.5904
▁dentist	-11.5904
▁mislead	-11.5904
▁himalaya	-11.5904
▁persistent	-11.5904
▁unilateral	-11.5904
▁boulder	-11.5904
▁malawi	-11.5905
▁keith	-11.5905
▁brink	-11.5905
▁hispanic	-11.5905
▁flock	-11.5905
▁workforce	-11.5905
▁blake	-11.5905
▁dictatorship	-11.5905
▁bore	-11.5906
▁verification	-11.5906
▁gibb	-11.5906
▁cinema	-11.5906
▁piano	-11.5907
▁shwe	-11.5907
▁reinforcement	-11.5907
▁wander	-11.5907
▁deportation	-11.5907
▁foley	-11.5907
▁atleti	-11.5907
▁salarie	-11.5908
▁emanuel	-11.5908
▁fiction	-11.5908
▁basque	-11.5909
▁logo	-11.591
▁headache	-11.5911
▁soften	-11.5911
▁quest	-11.5913
▁overlook	-11.5913
berra	-11.5914
▁dragon	-11.5915
▁honey	-11.5915
▁facial	-11.5916
▁prediction	-11.5916
▁auditor	-11.5917
▁rubber	-11.5917
aker	-11.5918
tact	-11.5918
▁citi	-11.5919
▁staple	-11.592
▁glad	-11.5921
▁owen	-11.5922
rbach	-11.5924
ancy	-11.5925
gm	-11.5927
▁gallery	-11.5927
▁noise	-11.5928
▁franco	-11.5932
aho	-11.5934
▁liais	-11.5934
▁establishment	-11.5934
▁juror	-11.5942
▁nec	-11.5943
▁qualifier	-11.5944
▁va	-11.5946
▁fold	-11.5946
▁tender	-11.5947
▁trac	-11.5947
▁upgrade	-11.5949
▁sens	-11.5952
om	-11.5952
onga	-11.5954
▁sharon	-11.5955
▁helpful	-11.5959
▁timing	-11.596
▁seasonal	-11.5962
rkele	-11.5967
fc	-11.5973
hi	-11.5973
▁utter	-11.5977
▁ark	-11.5981
▁lucas	-11.5986
▁claren	-11.5994
▁forth	-11.5995
cade	-11.5995
▁campaigner	-11.5997
▁accelerate	-11.5998
▁caffein	-11.6001
▁fier	-11.6002
▁ol	-11.6003
▁entitl	-11.6007
▁yell	-11.6008
▁speculate	-11.6009
af	-11.6011
aware	-11.6012
▁realiz	-11.6013
▁hacker	-11.6019
con	-11.6021
▁tolerate	-11.6021
▁neo	-11.6023
▁conscien	-11.6025
mz	-11.6029
▁winger	-11.6033
▁subsid	-11.6036
ethane	-11.6039
▁lawn	-11.6041
hrai	-11.6044
▁commodit	-11.6047
▁lak	-11.6051
gang	-11.6052
▁denounce	-11.6054
oma	-11.6055
▁airliner	-11.6058
▁tongue	-11.6059
▁pirate	-11.6068
▁contender	-11.6069
▁ears	-11.608
▁raj	-11.608
▁plain	-11.6082
▁intel	-11.6085
▁layer	-11.6086
ssif	-11.6089
▁pic	-11.6091
▁supervis	-11.6093
▁kg	-11.6094
▁highlights	-11.6095
nin	-11.6096
▁captive	-11.6097
egu	-11.6098
▁str	-11.611
▁shipment	-11.6111
bala	-11.6123
▁skill	-11.6123
▁assurance	-11.6128
▁jimm	-11.6128
▁trailer	-11.6133
▁reinstate	-11.614
ali	-11.6141
unch	-11.6152
▁collaps	-11.6156
▁edit	-11.6159
▁org	-11.6163
etic	-11.6165
▁slope	-11.6173
ud	-11.6175
▁confusi	-11.618
gged	-11.6186
▁contaminat	-11.6193
▁provok	-11.6194
▁holed	-11.6199
▁analyze	-11.6207
▁franc	-11.6211
hen	-11.6215
▁nurs	-11.6218
▁ze	-11.622
hmer	-11.6224
▁sim	-11.6226
▁lover	-11.6231
▁stockpile	-11.6236
▁fur	-11.6239
▁plains	-11.6247
▁explor	-11.6249
▁guarded	-11.6255
yi	-11.6262
▁overwhelm	-11.6262
▁enhanc	-11.6266
▁stumbl	-11.6286
rway	-11.6292
▁gro	-11.6305
▁dell	-11.6306
ow	-11.6311
▁vo	-11.6314
oming	-11.6322
▁hak	-11.6322
▁chronic	-11.6323
▁mem	-11.6326
▁applau	-11.6327
▁seeming	-11.6328
enver	-11.633
▁lim	-11.633
▁dann	-11.6332
▁wings	-11.6332
▁necessar	-11.6334
qaw	-11.6334
▁hamburg	-11.6334
▁societ	-11.6335
▁vin	-11.6339
wealth	-11.6341
cheong	-11.6341
planes	-11.6342
▁riders	-11.6349
▁rotat	-11.6353
ilia	-11.6354
ndrome	-11.6355
▁finals	-11.6357
rank	-11.6357
cha	-11.6357
hand	-11.636
map	-11.6363
oka	-11.6365
▁thi	-11.6365
▁russe	-11.6374
▁bump	-11.6382
▁algeria	-11.6385
▁heir	-11.6385
▁significan	-11.6388
▁authentic	-11.639
▁inject	-11.6398
▁monet	-11.6402
▁ideolog	-11.6404
▁abraham	-11.6404
▁albatross	-11.6404
▁barricade	-11.6404
▁biofuel	-11.6404
▁calendar	-11.6404
▁demilitariz	-11.6404
▁engulf	-11.6404
▁gossip	-11.6404
▁juvenile	-11.6404
▁newcastle	-11.6404
▁prototype	-11.6404
▁stalemate	-11.6404
▁wheelchair	-11.6404
▁curator	-11.6404
▁exxon	-11.6404
▁lesbian	-11.6404
▁pretend	-11.6404
▁eleven	-11.6404
▁chapel	-11.6404
▁wrist	-11.6404
▁nickname	-11.6404
▁keynote	-11.6404
▁disclosure	-11.6404
▁rogue	-11.6405
▁zheng	-11.6405
▁fiber	-11.6405
▁trap	-11.6405
▁collaboration	-11.6405
▁vocal	-11.6405
▁calorie	-11.6405
▁collar	-11.6406
bhumi	-11.6406
▁revelation	-11.6406
▁beverage	-11.6407
▁snack	-11.6407
▁gator	-11.6407
▁predator	-11.6408
▁cruel	-11.6408
▁instructor	-11.6408
▁griffi	-11.6409
▁bypass	-11.6409
▁referee	-11.641
▁contemporar	-11.6412
▁spouse	-11.6413
▁bias	-11.6413
▁barrage	-11.6414
▁cordon	-11.6414
▁youngster	-11.6414
▁conservationist	-11.6415
▁tenor	-11.6416
▁medit	-11.6416
▁confession	-11.6417
▁township	-11.6418
▁djo	-11.6418
▁whipp	-11.642
▁acceptance	-11.6421
▁kiev	-11.6422
▁inspiration	-11.6423
▁avert	-11.6423
cular	-11.6426
ston	-11.6427
▁thriller	-11.6428
▁dealer	-11.643
▁plume	-11.6435
ate	-11.6437
ility	-11.6438
itive	-11.6438
▁spann	-11.6439
▁readers	-11.6442
▁ferrar	-11.6444
iora	-11.6446
▁composer	-11.6447
ket	-11.6449
ap	-11.6451
rosa	-11.6457
bin	-11.6462
▁extraditi	-11.6471
▁phu	-11.6471
▁coerc	-11.6474
▁jos	-11.6477
▁jp	-11.6481
▁applaud	-11.6482
▁motivat	-11.6482
ula	-11.6485
▁alma	-11.649
▁bleed	-11.6496
▁evans	-11.6498
▁vincen	-11.6501
▁scuffle	-11.6502
▁keeper	-11.6516
▁dodge	-11.6519
▁explore	-11.652
▁arabian	-11.6522
ulous	-11.6526
ano	-11.6535
▁dwindl	-11.6553
▁ravag	-11.6554
▁laute	-11.6556
▁perin	-11.6557
▁sid	-11.6558
▁wip	-11.6559
▁homicide	-11.6564
▁bidd	-11.6568
▁blockbuster	-11.6568
▁underscore	-11.6569
otic	-11.6582
▁monte	-11.6595
eon	-11.6598
▁cartel	-11.6598
▁extremist	-11.6604
▁torrent	-11.6611
▁swear	-11.6621
sef	-11.6625
ito	-11.6626
▁napoli	-11.6628
▁math	-11.6638
▁owe	-11.6645
ill	-11.6646
▁companion	-11.6651
▁folk	-11.6652
stitution	-11.6657
fa	-11.666
▁tam	-11.6661
▁lander	-11.6667
▁underst	-11.6668
▁foods	-11.6673
▁pub	-11.6676
▁chased	-11.668
▁por	-11.6682
uda	-11.6682
▁bend	-11.6684
▁fann	-11.6687
nbar	-11.6693
▁tapes	-11.6693
▁claus	-11.6694
▁amo	-11.6702
▁cycl	-11.6706
▁bros	-11.6707
▁passports	-11.6708
▁prizes	-11.6709
▁intelligent	-11.6711
▁discs	-11.6713
▁den	-11.6716
veral	-11.6716
▁espi	-11.6723
lash	-11.6725
kto	-11.6733
▁depos	-11.6738
tano	-11.674
▁comet	-11.6746
▁scratch	-11.6759
gb	-11.6761
▁kay	-11.6763
lloy	-11.6764
▁gad	-11.6765
▁tun	-11.6768
▁galla	-11.6783
▁cord	-11.6802
▁tune	-11.6804
▁disk	-11.6808
▁julia	-11.6812
▁entr	-11.6814
▁wheels	-11.6818
▁mann	-11.6824
ef	-11.6837
▁depriv	-11.6841
▁cope	-11.6841
▁horrifi	-11.6845
shed	-11.6855
▁erect	-11.6857
▁bol	-11.6857
udh	-11.6861
▁troubles	-11.6865
▁absolute	-11.6872
grid	-11.6878
▁lag	-11.688
▁physic	-11.6881
▁bern	-11.6892
▁bet	-11.6896
▁spen	-11.6899
made	-11.69
▁borne	-11.6902
▁bor	-11.6905
▁gh	-11.6905
▁jamaica	-11.6911
what	-11.6911
▁stir	-11.6912
▁shoulders	-11.6913
▁haniy	-11.6917
▁restrain	-11.6917
cute	-11.6917
▁ignit	-11.6926
afa	-11.6928
▁convincing	-11.693
▁embargo	-11.693
▁emperor	-11.693
▁external	-11.693
▁gorbachev	-11.693
▁hectare	-11.693
▁kangaroo	-11.693
▁mechanism	-11.693
▁parallel	-11.693
▁perspective	-11.693
▁rwanda	-11.693
▁unauthori	-11.693
▁unconditional	-11.693
▁eacute	-11.693
▁evangelical	-11.693
▁unlawful	-11.693
▁jacob	-11.693
▁parachute	-11.693
▁technician	-11.693
▁spree	-11.693
▁bipartisan	-11.693
▁robust	-11.693
▁solving	-11.693
▁miracle	-11.693
▁steroid	-11.693
▁antiquit	-11.6931
▁cameroon	-11.6931
▁clerk	-11.6931
▁evasion	-11.6931
▁confederation	-11.6931
▁spiral	-11.6931
▁unofficial	-11.6931
▁forensic	-11.6931
▁monaster	-11.6931
▁thunder	-11.6931
▁helmet	-11.6931
▁premise	-11.6931
▁proclaim	-11.6931
▁storage	-11.6931
▁differ	-11.6931
▁consulate	-11.6931
▁furni	-11.6931
▁lugo	-11.6932
▁comparison	-11.6932
▁lifestyle	-11.6932
▁supermarket	-11.6932
▁constructive	-11.6932
▁cough	-11.6932
▁maneuver	-11.6932
▁rhino	-11.6932
▁spider	-11.6933
▁meteorologist	-11.6933
▁valuable	-11.6933
▁manual	-11.6933
▁chadian	-11.6933
▁trump	-11.6934
▁salary	-11.6934
▁plug	-11.6935
▁spiel	-11.6935
▁cure	-11.6936
▁cream	-11.6936
▁garner	-11.6936
▁uncomm	-11.6937
▁picket	-11.6937
▁unbeat	-11.6937
▁downplay	-11.6937
▁coastline	-11.6938
▁pois	-11.6938
▁lobbyist	-11.6938
▁kasp	-11.6938
arov	-11.6939
▁therapist	-11.694
▁soap	-11.6942
▁privilege	-11.6943
▁foil	-11.6944
▁leaf	-11.6944
▁mullah	-11.6944
▁courthouse	-11.6947
▁devot	-11.6949
▁avail	-11.6951
▁rim	-11.6951
▁jang	-11.6952
▁drift	-11.6953
▁hyper	-11.6954
▁swat	-11.6954
▁bare	-11.6955
▁bubble	-11.6956
▁policymaker	-11.6956
▁doom	-11.6956
▁vick	-11.696
▁trek	-11.6961
▁gram	-11.6962
▁leather	-11.6962
esi	-11.6966
▁thoughts	-11.6966
course	-11.6967
▁usher	-11.6968
▁pancreati	-11.6968
spoke	-11.6969
▁carla	-11.6969
▁lyon	-11.6973
▁cheat	-11.6978
▁warhead	-11.6981
nder	-11.6983
▁charr	-11.6985
▁dot	-11.6986
▁lakes	-11.699
▁tail	-11.6991
▁buyout	-11.6993
uki	-11.6994
▁infringe	-11.6995
▁mai	-11.6999
▁beache	-11.7001
▁qala	-11.7004
▁colomb	-11.7011
▁craz	-11.7013
▁gust	-11.7013
used	-11.7014
▁favorites	-11.7015
▁persi	-11.7016
lary	-11.7019
ai	-11.7019
tha	-11.7022
▁micke	-11.7032
▁andrea	-11.7033
▁bamb	-11.7037
▁karim	-11.7038
▁destabilize	-11.7039
dwin	-11.7048
▁hostilit	-11.7053
▁interfer	-11.7056
kia	-11.7058
▁doo	-11.706
▁soda	-11.7066
tel	-11.7078
▁brake	-11.7094
▁costa	-11.7094
hem	-11.7101
▁regulate	-11.7105
▁assassinate	-11.7105
▁helen	-11.7112
bs	-11.7112
▁infections	-11.7115
asha	-11.7117
van	-11.712
rin	-11.7121
eong	-11.7122
ique	-11.7124
▁unhapp	-11.7134
▁conventional	-11.7135
▁scholar	-11.7137
▁emotions	-11.7138
▁carve	-11.7139
▁acquir	-11.714
▁pill	-11.7142
▁hood	-11.7143
▁kissing	-11.7145
▁bayer	-11.7156
bright	-11.716
▁blues	-11.7161
▁ensur	-11.7164
nese	-11.7167
uma	-11.7168
▁bent	-11.7173
▁fu	-11.7178
▁ivanov	-11.718
▁evolv	-11.7184
▁ful	-11.7186
▁towers	-11.7191
ock	-11.7193
▁clippe	-11.7194
▁mus	-11.7196
▁solo	-11.7197
att	-11.7204
▁nh	-11.7205
ci	-11.7209
afford	-11.7216
tina	-11.7217
ature	-11.722
kov	-11.7221
▁breathe	-11.7224
ndra	-11.7229
capri	-11.7235
▁cliff	-11.7241
▁rud	-11.7242
bon	-11.7243
▁shaf	-11.7248
▁roj	-11.7258
▁fla	-11.7263
▁slowing	-11.7267
▁sore	-11.7273
▁excite	-11.7275
▁compos	-11.7278
▁metro	-11.7279
▁snatch	-11.7282
▁separat	-11.7288
ab	-11.7297
▁qualifi	-11.7297
break	-11.7305
▁educat	-11.7308
rative	-11.7311
▁winston	-11.7311
▁seeker	-11.732
▁hoi	-11.7321
ries	-11.7333
▁hom	-11.7334
▁frighten	-11.7336
ories	-11.7341
▁mos	-11.7354
▁amuse	-11.7355
dominant	-11.7357
▁outbreaks	-11.7358
▁henri	-11.7361
ire	-11.7363
▁assum	-11.7371
play	-11.7373
sterda	-11.7375
ology	-11.7375
▁glove	-11.7378
▁munic	-11.7378
iers	-11.7384
▁exception	-11.7387
▁substanti	-11.7387
▁philosoph	-11.739
▁revenues	-11.739
▁accelerat	-11.7391
▁improvements	-11.7396
and	-11.7396
grade	-11.7401
▁hoon	-11.7401
schne	-11.7402
gio	-11.7411
▁kor	-11.7412
jab	-11.7421
▁assure	-11.7421
box	-11.7426
▁chok	-11.7427
▁cu	-11.7447
▁scam	-11.745
▁tipp	-11.7455
uous	-11.7457
▁dish	-11.7458
▁debat	-11.7459
eful	-11.7461
▁christin	-11.7464
▁loya	-11.7472
▁kumar	-11.7479
▁nichols	-11.7479
▁dodg	-11.7482
▁veterinar	-11.7485
▁blank	-11.7486
▁compatriot	-11.7486
▁crawford	-11.7486
▁fatigue	-11.7486
▁immense	-11.7486
▁messenger	-11.7486
▁precinct	-11.7486
▁reprocess	-11.7486
▁ritual	-11.7486
▁subpoena	-11.7486
▁athletic	-11.7486
▁bahrain	-11.7486
▁machete	-11.7486
▁tikrit	-11.7486
▁mismanage	-11.7486
▁heaven	-11.7486
▁pandemic	-11.7486
▁adjourn	-11.7486
▁translator	-11.7486
▁wholesale	-11.7486
▁staunch	-11.7486
▁ailment	-11.7486
▁fabio	-11.7486
▁splash	-11.7486
▁defence	-11.7486
▁litvin	-11.7486
▁lehman	-11.7486
▁appall	-11.7486
▁norris	-11.7486
▁abdel	-11.7486
▁gauge	-11.7486
▁baggage	-11.7486
▁translation	-11.7487
▁feud	-11.7487
▁horror	-11.7487
▁jerem	-11.7487
▁reservation	-11.7487
▁jefferson	-11.7488
lroo	-11.7488
▁embark	-11.7488
▁landfall	-11.7489
▁lavish	-11.7489
▁brent	-11.7489
▁ancestor	-11.7489
▁centimeter	-11.7489
▁cigar	-11.749
▁francois	-11.749
▁considerably	-11.7491
▁outrageous	-11.7491
▁distributor	-11.7492
▁newborn	-11.7492
▁miserable	-11.7492
▁sadden	-11.7492
▁nichol	-11.7493
jeon	-11.7494
▁crippl	-11.7494
▁vary	-11.7494
▁orchestrat	-11.7494
▁billy	-11.7496
▁weird	-11.7496
▁cruz	-11.7497
▁nike	-11.7497
▁transformation	-11.7497
▁boot	-11.7498
▁chimp	-11.7498
▁hardship	-11.7498
▁seminar	-11.7499
onda	-11.7499
▁complication	-11.75
esco	-11.75
▁alcoholic	-11.75
▁marij	-11.7501
▁backward	-11.7501
▁doubl	-11.7502
bane	-11.7502
▁sicken	-11.7504
▁mobil	-11.7504
▁tick	-11.7505
▁graves	-11.7506
▁detector	-11.7507
▁forgot	-11.7508
▁hog	-11.7509
▁festiv	-11.7515
▁spectators	-11.7517
dorf	-11.7519
▁jaw	-11.7524
▁temp	-11.7524
▁bru	-11.7525
yushch	-11.7531
▁stricke	-11.7532
▁liga	-11.7532
▁capitalist	-11.7537
▁lynn	-11.7541
him	-11.7543
▁stair	-11.7548
mont	-11.7548
▁liqu	-11.755
▁trainer	-11.7555
▁hook	-11.7559
▁roller	-11.756
▁prop	-11.7571
▁smuggle	-11.7574
▁volcani	-11.7575
▁chau	-11.7586
▁collid	-11.7587
mates	-11.7591
▁kean	-11.7591
▁bart	-11.7591
▁pric	-11.7594
claren	-11.7594
▁graz	-11.7604
rine	-11.7615
▁irritat	-11.7615
▁detonate	-11.7618
▁inning	-11.7624
▁skipp	-11.7633
▁penguins	-11.7641
▁prey	-11.7651
olmer	-11.7658
▁sai	-11.7661
phis	-11.7664
▁marin	-11.7674
ge	-11.7676
▁qud	-11.7684
▁floren	-11.7688
tting	-11.7695
▁doll	-11.7697
▁odi	-11.7698
▁gamba	-11.7698
lese	-11.7701
▁trauma	-11.7704
▁dear	-11.7709
▁analyz	-11.7711
▁serial	-11.7711
▁chae	-11.7714
▁lashe	-11.7717
jani	-11.7718
▁snapp	-11.7719
▁expose	-11.7729
descent	-11.7734
▁wise	-11.7734
▁disc	-11.7738
▁cred	-11.7746
tta	-11.7757
▁dod	-11.7758
▁donat	-11.7762
▁gill	-11.7767
▁unifi	-11.7768
▁cott	-11.7769
▁independents	-11.7772
▁sacred	-11.7773
mun	-11.7773
▁relocate	-11.7774
thy	-11.7775
▁mour	-11.7779
▁toppl	-11.7784
▁consolidat	-11.7789
▁outage	-11.7797
▁invade	-11.7798
▁lucian	-11.78
▁pak	-11.7806
eh	-11.7807
ped	-11.7813
ks	-11.7816
▁clap	-11.7818
▁brac	-11.7819
▁ivan	-11.7825
▁serv	-11.7836
ize	-11.7839
▁cancell	-11.7839
cover	-11.7842
▁interfere	-11.7843
▁hut	-11.7856
nc	-11.7856
rous	-11.7857
▁facilitate	-11.7858
jo	-11.7861
vich	-11.7867
print	-11.7868
adic	-11.7869
▁kb	-11.7875
ise	-11.7887
▁dissolve	-11.7888
▁armis	-11.7891
ide	-11.7899
tis	-11.7906
▁lovers	-11.7907
ox	-11.791
▁dose	-11.7919
▁distinct	-11.7921
▁juli	-11.7923
▁barks	-11.7926
▁renounce	-11.794
▁candle	-11.7946
ac	-11.7949
are	-11.7951
ife	-11.7953
sud	-11.7957
inous	-11.796
tech	-11.7964
eira	-11.797
▁edg	-11.7973
atic	-11.7982
▁intimidat	-11.7983
fi	-11.7983
▁sensation	-11.7989
▁internationally	-11.799
ima	-11.8005
▁sci	-11.8009
▁concede	-11.801
scale	-11.8014
▁comput	-11.8021
▁chuck	-11.8025
▁nominate	-11.8032
ement	-11.8033
aron	-11.8038
▁valen	-11.8039
mmy	-11.8053
▁pra	-11.8057
▁bruis	-11.8058
ecd	-11.8061
acas	-11.8061
▁clemen	-11.8061
▁orient	-11.8063
napoli	-11.8065
uana	-11.8065
▁distort	-11.8069
▁peta	-11.807
▁porn	-11.807
▁archipelag	-11.8074
▁hamilton	-11.8074
▁integrity	-11.8074
▁jupiter	-11.8074
▁mbeki	-11.8074
▁quebec	-11.8074
▁reconsider	-11.8074
▁skyscraper	-11.8074
▁technological	-11.8074
▁dissatisf	-11.8074
▁dynast	-11.8074
▁pedestrian	-11.8074
▁dormitor	-11.8074
▁firearm	-11.8074
▁tariff	-11.8074
▁cemeter	-11.8074
▁delicate	-11.8074
▁humpback	-11.8074
▁improper	-11.8074
▁renown	-11.8074
▁dmitr	-11.8074
▁foreclosure	-11.8074
▁filipino	-11.8074
▁gloom	-11.8074
▁luft	-11.8074
▁definitive	-11.8074
▁clown	-11.8074
▁rhythm	-11.8074
▁noodle	-11.8075
▁safeguard	-11.8075
▁stint	-11.8075
▁slaying	-11.8075
▁theatre	-11.8075
▁globo	-11.8075
▁falter	-11.8075
▁armenian	-11.8075
▁commentator	-11.8075
▁darling	-11.8075
▁disband	-11.8076
▁advertisement	-11.8076
orenst	-11.8076
▁adj	-11.8076
▁hutchins	-11.8076
▁forthcoming	-11.8077
▁yoko	-11.8077
▁jacket	-11.8077
▁absorb	-11.8077
niste	-11.8078
▁gangster	-11.8078
▁ditch	-11.8078
▁floodwater	-11.8078
▁fritz	-11.8078
▁dignitar	-11.8079
▁feat	-11.8079
uver	-11.8079
▁persist	-11.808
▁installment	-11.8081
▁alvar	-11.8081
▁davyd	-11.8081
▁waiver	-11.8082
▁kaka	-11.8082
▁xp	-11.8082
▁memo	-11.8083
▁canyon	-11.8083
▁canoe	-11.8084
▁checkup	-11.8084
▁zahi	-11.8084
▁reef	-11.8084
▁liberia	-11.8084
vinen	-11.8085
▁jams	-11.8085
▁sheik	-11.8085
▁defiant	-11.8085
▁gripp	-11.8086
▁carriage	-11.8087
▁scorch	-11.8087
▁magnetic	-11.8089
acent	-11.809
▁scientolog	-11.8091
▁roland	-11.8092
▁sampl	-11.8092
▁kh	-11.8094
▁sultan	-11.8094
ky	-11.8094
▁spat	-11.8095
▁homeowner	-11.8097
▁console	-11.8098
▁kook	-11.8099
zvo	-11.8099
rasmus	-11.8099
▁baton	-11.81
▁woke	-11.8101
▁passionate	-11.8102
▁cake	-11.8103
▁jem	-11.8104
nnie	-11.8105
▁char	-11.8105
▁boil	-11.8109
luster	-11.811
▁buffet	-11.8113
ision	-11.8117
▁khala	-11.8117
▁stranger	-11.8121
cent	-11.8124
▁vanish	-11.8127
▁lawless	-11.8132
▁perch	-11.8133
▁um	-11.8133
bye	-11.8136
▁sau	-11.8139
▁verifi	-11.814
▁bands	-11.8144
▁hari	-11.8152
▁depressed	-11.8152
ochi	-11.8154
▁samba	-11.8156
state	-11.8156
oi	-11.8165
fax	-11.8167
▁blackout	-11.8169
yuz	-11.817
vin	-11.8188
ix	-11.8188
ulu	-11.82
▁inhal	-11.821
ference	-11.8213
▁merit	-11.8216
▁snap	-11.8219
▁starv	-11.8224
▁masa	-11.8227
▁bre	-11.8247
ink	-11.8249
pe	-11.8256
▁precedent	-11.8256
aria	-11.8257
riel	-11.8267
▁rust	-11.8269
▁ste	-11.8269
ua	-11.8273
▁jud	-11.8273
▁rub	-11.8276
▁butter	-11.8277
▁rem	-11.8277
trick	-11.8283
▁rage	-11.8286
▁bury	-11.8291
▁vaccines	-11.8305
lit	-11.831
ailing	-11.8313
▁aut	-11.8321
wick	-11.8325
nnis	-11.8326
▁receiver	-11.8329
▁bounc	-11.8331
▁donate	-11.8333
▁partisan	-11.8334
▁blade	-11.8335
▁recommends	-11.8338
▁provoke	-11.8341
▁cre	-11.8343
ram	-11.8344
▁pine	-11.8346
▁attribute	-11.835
▁fuse	-11.835
pate	-11.8352
▁sala	-11.8356
ateur	-11.8358
▁manufacture	-11.8358
▁credibl	-11.8359
▁suz	-11.836
▁retract	-11.836
ition	-11.8362
och	-11.8362
▁funn	-11.8367
▁sue	-11.8372
lan	-11.8372
▁morocc	-11.8375
▁males	-11.8376
▁stabiliz	-11.8389
oria	-11.8389
▁complicate	-11.8392
▁corre	-11.8393
▁lighter	-11.8399
▁serie	-11.8404
ax	-11.8405
rwin	-11.8406
▁corpse	-11.8408
▁squeez	-11.8409
▁kyong	-11.8412
▁pedr	-11.8419
riza	-11.842
▁cris	-11.8426
▁mari	-11.8444
▁mates	-11.8446
▁undermin	-11.8447
▁bash	-11.8452
▁donation	-11.8464
▁entit	-11.8465
ew	-11.8467
▁maru	-11.8487
zi	-11.8491
awa	-11.8491
nstein	-11.8508
▁arch	-11.8513
▁holm	-11.8516
▁lett	-11.8526
ngdu	-11.8529
old	-11.8531
hang	-11.8533
▁berk	-11.8534
▁elector	-11.8538
gar	-11.8539
▁lunche	-11.8547
▁accessor	-11.8558
▁mario	-11.8559
formed	-11.856
▁initiat	-11.8561
▁genom	-11.8569
▁ruins	-11.8572
▁ruth	-11.8593
odor	-11.8597
▁levi	-11.8599
▁arl	-11.86
▁kel	-11.8601
▁blackmail	-11.8603
▁dip	-11.8609
▁default	-11.8619
▁emm	-11.8624
▁gigg	-11.8625
▁intentional	-11.8627
▁persuad	-11.8628
nam	-11.863
beat	-11.8631
continent	-11.8636
constitutional	-11.8636
▁admitt	-11.8638
deal	-11.864
▁correction	-11.8642
▁skip	-11.865
nom	-11.8661
▁desir	-11.8663
▁compil	-11.8663
stair	-11.8666
sang	-11.867
▁fundrais	-11.8679
uart	-11.868
due	-11.868
▁beard	-11.8681
▁boycotted	-11.8682
▁iranians	-11.8684
▁capita	-11.8686
▁cur	-11.8692
anana	-11.8694
▁collide	-11.8696
▁conspir	-11.8696
▁archbishop	-11.8699
▁azerbaijan	-11.8699
▁centrifuge	-11.8699
▁defensive	-11.8699
▁diarrhea	-11.8699
▁eagle	-11.8699
▁fragment	-11.8699
▁mosquito	-11.8699
▁nutrient	-11.8699
▁sanctuar	-11.8699
▁temblor	-11.8699
▁wizard	-11.8699
▁corridor	-11.8699
▁exaggerat	-11.8699
▁explicit	-11.8699
▁sculpture	-11.8699
▁surname	-11.8699
▁unearth	-11.8699
▁mogul	-11.8699
▁paramilitar	-11.8699
▁vendor	-11.8699
▁resurgen	-11.8699
▁abnormal	-11.8699
▁overheat	-11.8699
▁standstill	-11.8699
▁inherit	-11.8699
▁submarine	-11.8699
▁justify	-11.8699
▁dynamic	-11.8699
▁provocation	-11.8699
▁reunion	-11.8699
▁textile	-11.8699
▁chemist	-11.87
▁roadblock	-11.87
▁rooftop	-11.87
▁skeleton	-11.87
▁excellent	-11.87
▁overshadow	-11.87
▁siberia	-11.87
▁elegan	-11.87
▁annul	-11.87
▁rebuke	-11.87
▁heavyweight	-11.87
▁abram	-11.87
▁stump	-11.87
▁meltdown	-11.87
▁felon	-11.87
▁halloween	-11.87
▁hanaro	-11.8701
▁description	-11.8701
atero	-11.8701
▁enron	-11.8701
▁feather	-11.8701
▁robinson	-11.8701
▁orientation	-11.8701
▁estrange	-11.8701
▁leverage	-11.8701
▁rejoin	-11.8702
▁courageous	-11.8702
▁gerald	-11.8702
▁overdose	-11.8702
▁disturbance	-11.8702
▁notify	-11.8703
▁conner	-11.8703
▁interactive	-11.8703
▁blacksburg	-11.8704
▁deterrent	-11.8704
▁shortfall	-11.8704
▁kirk	-11.8706
eval	-11.8706
▁facto	-11.8707
▁breakdown	-11.8708
▁coloss	-11.8708
▁foul	-11.8709
▁fledg	-11.871
▁moroccan	-11.871
▁dismissal	-11.871
▁reassure	-11.8712
▁veer	-11.8712
▁nile	-11.8713
▁zambia	-11.8713
▁ryo	-11.8715
▁crest	-11.8716
▁portrayal	-11.8716
▁cana	-11.8717
▁reap	-11.8718
▁yemeni	-11.872
▁shower	-11.872
▁budd	-11.8723
▁anymore	-11.8723
▁slapp	-11.8724
▁algerian	-11.8725
▁pleasure	-11.8729
▁fisheries	-11.8729
▁horribl	-11.8741
▁plantation	-11.8743
▁assembl	-11.8744
▁mineral	-11.8749
▁bund	-11.875
▁max	-11.875
▁rever	-11.875
▁valentin	-11.8751
▁qara	-11.8751
▁patch	-11.8753
▁wishes	-11.8757
▁ghan	-11.8759
▁showcase	-11.8765
▁motivation	-11.8769
▁maul	-11.8772
▁vera	-11.8775
uc	-11.8776
shmi	-11.8776
▁valeri	-11.8781
▁klo	-11.8782
▁mint	-11.8783
▁zay	-11.8785
rimp	-11.8786
▁walkout	-11.8789
▁reel	-11.879
▁gue	-11.8798
▁yass	-11.8799
▁tackl	-11.8802
▁moss	-11.8809
▁particles	-11.8812
▁burk	-11.8812
diaz	-11.8814
▁forbidd	-11.8817
▁bris	-11.8821
▁deb	-11.8822
vian	-11.8827
▁exceptional	-11.8835
idf	-11.8839
we	-11.8842
▁nano	-11.8843
▁naf	-11.8844
▁stoke	-11.8844
▁cle	-11.8844
▁sabotage	-11.8848
▁inflammat	-11.8848
▁hilar	-11.8872
errill	-11.8874
▁emergenc	-11.8877
▁mag	-11.8883
▁leaning	-11.8891
coni	-11.8894
▁ros	-11.8903
▁zin	-11.8904
▁dome	-11.8909
▁barb	-11.891
uso	-11.8929
▁congratulate	-11.894
▁cheon	-11.8948
cca	-11.8959
▁waterway	-11.896
▁sword	-11.8963
dson	-11.8969
▁kn	-11.897
action	-11.8986
▁bernie	-11.899
▁tian	-11.8997
▁squeeze	-11.8998
▁maure	-11.9
▁tortur	-11.9003
▁fog	-11.9005
▁invad	-11.9007
ylan	-11.9008
ilo	-11.9009
ik	-11.901
unt	-11.9018
▁robbe	-11.9026
▁relation	-11.9026
▁clan	-11.9027
▁lap	-11.9036
▁outlet	-11.9042
▁zo	-11.9043
eparation	-11.9044
pi	-11.9044
anda	-11.9048
ken	-11.9052
▁listing	-11.9057
▁tier	-11.9081
nver	-11.9084
ovic	-11.9092
rek	-11.9096
chen	-11.9098
▁reinforce	-11.9105
▁recogniz	-11.9106
▁pod	-11.9113
▁pale	-11.9113
▁mandel	-11.9125
▁hano	-11.9127
take	-11.9128
▁rand	-11.9128
italia	-11.9129
▁naga	-11.9131
▁pap	-11.914
▁dependenc	-11.9141
▁crumbl	-11.9145
teau	-11.9152
▁arise	-11.9152
aiss	-11.9152
▁zi	-11.9154
▁tur	-11.9156
▁reliabl	-11.9164
▁repli	-11.9168
▁eva	-11.9174
mble	-11.9177
▁bri	-11.9182
zawa	-11.9182
▁para	-11.9186
▁motivate	-11.9189
kawa	-11.919
law	-11.9194
▁deer	-11.9196
▁reliev	-11.9208
▁wilder	-11.9217
▁stabb	-11.9221
related	-11.9232
▁litter	-11.9239
ngue	-11.9254
▁balk	-11.9259
ite	-11.9268
pping	-11.9269
alkati	-11.927
▁za	-11.9279
▁crist	-11.928
kind	-11.9281
▁exo	-11.9288
▁papa	-11.9292
▁tan	-11.9299
ica	-11.9301
secretary	-11.9303
abel	-11.9304
▁wie	-11.9311
▁neuro	-11.9315
▁territori	-11.9318
▁stre	-11.9322
▁hawkin	-11.933
reze	-11.9335
▁polit	-11.9339
bes	-11.9344
▁hal	-11.9345
▁bless	-11.9346
▁bulgaria	-11.9346
▁drinker	-11.9347
▁pas	-11.9348
rada	-11.9355
▁merc	-11.9361
▁spawn	-11.9361
iquit	-11.9363
▁heath	-11.9364
▁orphan	-11.9364
lihood	-11.9364
hansa	-11.9365
▁charisma	-11.9366
▁accumulate	-11.9366
▁affidavit	-11.9366
▁barclay	-11.9366
▁charlotte	-11.9366
▁nephew	-11.9366
▁paraguay	-11.9366
▁precondition	-11.9366
▁sanchez	-11.9366
▁unleash	-11.9366
▁unnecessar	-11.9366
▁malfunction	-11.9366
▁pneum	-11.9366
▁reshuffl	-11.9366
▁vomit	-11.9366
▁gorge	-11.9366
▁bystander	-11.9366
▁thumb	-11.9366
▁sherpa	-11.9366
▁vinci	-11.9366
▁minimiz	-11.9366
▁johansson	-11.9366
▁warlord	-11.9366
▁minimal	-11.9366
▁enlist	-11.9366
▁grocer	-11.9366
▁memoir	-11.9366
▁lawrence	-11.9366
▁redeployment	-11.9367
▁coffin	-11.9367
▁email	-11.9367
▁killers	-11.9367
▁blacklist	-11.9367
▁clamp	-11.9367
▁orphanage	-11.9368
▁garrison	-11.9368
▁spacewalk	-11.9368
▁stroll	-11.9368
▁roam	-11.9368
▁spotlight	-11.9368
▁adolescent	-11.9369
▁bennett	-11.9369
▁reiterate	-11.937
▁swamp	-11.937
▁verbal	-11.937
▁derby	-11.937
▁inevitabl	-11.937
▁pilgrimage	-11.9371
▁peel	-11.9372
▁scout	-11.9372
▁regiment	-11.9372
▁cramp	-11.9372
▁migration	-11.9373
▁martial	-11.9373
▁lenient	-11.9375
▁battlefield	-11.9375
▁luther	-11.9375
▁chopper	-11.9375
aah	-11.9376
▁benoi	-11.9376
dysse	-11.9377
▁zeb	-11.9377
▁hideout	-11.9379
▁hinder	-11.9379
▁nutrition	-11.938
▁wagon	-11.9381
wi	-11.9381
▁barney	-11.9381
▁matchup	-11.9381
iko	-11.9381
▁farmland	-11.9382
hk	-11.9385
▁aggravat	-11.9386
▁classmate	-11.9387
▁rental	-11.9388
▁pur	-11.9388
▁todd	-11.9389
▁tenth	-11.9393
▁jogg	-11.9395
▁olive	-11.9396
▁brewer	-11.9396
▁devote	-11.9397
▁swam	-11.9397
▁hugh	-11.9399
▁amber	-11.9399
▁scal	-11.9399
▁feli	-11.94
▁meyer	-11.9406
▁fried	-11.9406
▁compile	-11.9406
▁swarm	-11.9409
▁exercis	-11.941
▁thorn	-11.941
▁ameli	-11.9412
▁masse	-11.9418
▁reminder	-11.9421
▁nap	-11.9421
▁cox	-11.9421
▁extradit	-11.9422
▁outlin	-11.9424
▁gra	-11.9426
▁pot	-11.9428
▁grove	-11.9429
▁teach	-11.943
▁impressed	-11.9435
▁cove	-11.9435
▁stray	-11.9436
thur	-11.9437
▁rupe	-11.9438
▁eco	-11.9438
▁doming	-11.9438
pisco	-11.944
▁interviewer	-11.9445
▁wrestl	-11.9446
▁provisional	-11.945
▁raft	-11.9451
▁reminiscen	-11.9451
▁rout	-11.9454
maker	-11.9454
▁freezer	-11.9455
irming	-11.9455
▁reproducti	-11.9456
▁gere	-11.9461
▁industrializ	-11.9463
▁nabi	-11.9463
rgency	-11.9468
▁soak	-11.9468
▁salam	-11.947
ague	-11.9474
▁pesh	-11.9475
▁interven	-11.9479
▁vip	-11.9483
eaten	-11.9485
▁refiner	-11.9487
▁stirring	-11.9493
crates	-11.9495
▁stimulate	-11.9498
▁builder	-11.9499
▁ger	-11.9503
▁tide	-11.9504
▁defuse	-11.9504
aire	-11.9505
▁bureaucrat	-11.9506
▁raz	-11.9507
ji	-11.9513
▁mobiliz	-11.9515
yev	-11.9515
▁colli	-11.9522
▁mason	-11.9522
▁quota	-11.953
▁cy	-11.9533
▁accommodate	-11.9534
▁hijacker	-11.9538
iffe	-11.9541
▁esta	-11.9546
oval	-11.9553
▁dash	-11.9557
▁nett	-11.9557
diac	-11.9557
▁ip	-11.9566
▁resistan	-11.9566
zemi	-11.9577
▁xi	-11.958
▁machi	-11.9609
▁rode	-11.9611
▁fey	-11.9623
agen	-11.9625
▁gum	-11.9634
▁pul	-11.9634
▁daw	-11.9638
bert	-11.964
▁destructi	-11.9642
▁xian	-11.9644
uz	-11.9644
▁adel	-11.9647
eigh	-11.9647
inal	-11.9651
ires	-11.9653
gue	-11.9657
ti	-11.9663
▁disciplin	-11.9665
▁rec	-11.9666
eba	-11.9674
▁wei	-11.9678
▁clause	-11.968
▁kati	-11.9681
▁finn	-11.9684
▁lago	-11.9684
▁casp	-11.9692
▁fascinat	-11.9696
▁credi	-11.9703
nis	-11.9704
▁suite	-11.9705
▁zhu	-11.9706
sif	-11.9714
sule	-11.9716
▁spect	-11.9716
▁marco	-11.972
▁kan	-11.9726
▁seo	-11.9734
▁resource	-11.9737
▁enabl	-11.9741
▁viag	-11.9743
▁prosecut	-11.975
▁lis	-11.976
nction	-11.9764
ied	-11.9766
tun	-11.9771
▁concentrat	-11.9771
op	-11.9772
▁anticipate	-11.9775
▁quantit	-11.978
▁reviews	-11.9783
battle	-11.9787
▁sanit	-11.9797
ft	-11.9801
▁advisors	-11.9805
chon	-11.9805
▁kwan	-11.9806
▁periodic	-11.9808
hry	-11.9809
▁hend	-11.981
acks	-11.9814
lain	-11.9816
ery	-11.982
▁hy	-11.9825
▁crossings	-11.9827
▁casual	-11.9829
lula	-11.9831
▁closet	-11.9838
▁dav	-11.9845
▁wil	-11.9847
▁yama	-11.9851
▁mm	-11.9852
▁hen	-11.986
reva	-11.9865
▁calculate	-11.9868
▁morale	-11.9873
hita	-11.9876
ark	-11.9882
▁fam	-11.9883
▁sag	-11.9887
▁belly	-11.989
yu	-11.9895
▁duja	-11.9904
▁appreciat	-11.9907
▁roo	-11.9907
onso	-11.9909
▁insider	-11.9915
voi	-11.9916
▁trapp	-11.9925
▁supervisi	-11.9934
▁jav	-11.9939
▁vil	-11.995
▁translate	-11.9953
▁compensate	-11.9955
▁cal	-11.9956
▁jess	-11.9957
enna	-11.9959
▁timo	-11.9961
▁clutch	-11.9964
▁embezzl	-11.9966
▁vacan	-11.9969
immer	-11.9979
▁integrate	-11.998
▁firefight	-11.9982
▁proportion	-11.9995
fan	-12
▁von	-12.0007
drop	-12.0016
frame	-12.0017
sman	-12.0017
model	-12.0017
together	-12.0017
morning	-12.0018
▁fosse	-12.0018
gate	-12.002
morgan	-12.0021
▁blend	-12.0025
gomer	-12.0027
▁continuous	-12.003
▁domini	-12.0033
▁banker	-12.0039
stability	-12.0044
▁extinguish	-12.0046
▁shau	-12.0048
ologist	-12.0049
ffen	-12.0052
tana	-12.0053
▁prest	-12.0054
▁tele	-12.0054
heim	-12.0063
roads	-12.0063
▁reluctan	-12.0064
kin	-12.0065
▁envelope	-12.0065
▁ib	-12.0068
▁mediate	-12.0068
▁evacu	-12.0071
▁laund	-12.0072
▁deserves	-12.0075
▁corrupt	-12.0076
▁abdulla	-12.0077
kins	-12.0078
▁pediatric	-12.0079
▁acclaim	-12.008
▁clarify	-12.008
▁convenience	-12.008
▁fugitive	-12.008
▁gondola	-12.008
▁jaguar	-12.008
▁jurisdiction	-12.008
▁lithuania	-12.008
▁mathematic	-12.008
▁motorbike	-12.008
▁ossuar	-12.008
▁rainforest	-12.008
▁rendition	-12.008
▁ritchie	-12.008
▁salvador	-12.008
▁specify	-12.008
▁curtain	-12.008
▁evident	-12.008
▁fortunate	-12.008
▁relegat	-12.008
▁telegraph	-12.008
▁erotic	-12.008
▁muhammad	-12.008
▁superstar	-12.008
▁dupre	-12.008
▁gilbert	-12.008
▁blanchett	-12.008
▁freud	-12.008
▁hajj	-12.008
▁envision	-12.008
▁emmanuel	-12.0081
▁cyberspace	-12.0081
▁throng	-12.0081
▁expulsion	-12.0081
▁ceasefire	-12.0081
▁eduard	-12.0081
▁hoop	-12.0081
▁tread	-12.0081
▁crab	-12.0081
▁thieves	-12.0082
▁physicist	-12.0082
▁annoy	-12.0082
▁imagination	-12.0082
▁exert	-12.0082
▁volley	-12.0082
misunderstanding	-12.0082
▁frantic	-12.0082
▁perpetrator	-12.0082
▁motel	-12.0082
▁footprint	-12.0082
▁elbow	-12.0082
▁buff	-12.0083
▁imam	-12.0083
▁nickel	-12.0083
▁collaborator	-12.0083
▁phrase	-12.0083
▁zebra	-12.0083
▁shunn	-12.0084
▁ideological	-12.0084
▁invention	-12.0084
▁fool	-12.0084
▁racist	-12.0084
▁systematic	-12.0084
▁jihadist	-12.0085
▁aisle	-12.0086
▁fundamentalist	-12.0087
▁adaptation	-12.0087
▁thigh	-12.0087
▁pupp	-12.0087
▁swimmer	-12.0087
▁normalization	-12.0088
▁peek	-12.0088
▁heel	-12.0088
▁interpretation	-12.0089
▁nightmare	-12.0089
▁multimillion	-12.009
▁billboard	-12.009
▁deaf	-12.009
▁emitt	-12.0092
▁baptist	-12.0092
▁authoritarian	-12.0094
▁tran	-12.0094
▁refineries	-12.0094
fo	-12.0096
▁charl	-12.0096
guet	-12.0096
▁foment	-12.0096
▁sulli	-12.0096
▁steelers	-12.0098
▁trench	-12.0099
▁shootout	-12.01
▁wrestler	-12.0101
ritis	-12.0101
▁spaceship	-12.0105
▁jamaican	-12.0107
▁hogan	-12.011
▁combatant	-12.0112
▁ridge	-12.0113
▁everton	-12.0114
▁molest	-12.0115
▁crane	-12.0116
▁irra	-12.0116
▁incit	-12.0118
▁versa	-12.0119
▁conductor	-12.0121
▁adventurer	-12.0121
▁libi	-12.0121
▁skidd	-12.013
▁darre	-12.0132
una	-12.0135
▁succession	-12.0136
▁decent	-12.0138
▁mock	-12.014
uez	-12.0141
▁seinfeld	-12.0145
▁defy	-12.0146
▁oz	-12.0148
▁indirect	-12.0149
text	-12.0149
atus	-12.0153
asso	-12.0153
has	-12.0155
▁dipped	-12.0155
▁philipp	-12.016
▁enthusiastic	-12.0167
errez	-12.0168
▁gunfi	-12.0174
▁shre	-12.0175
▁wong	-12.018
▁lexi	-12.0182
emptive	-12.0187
▁lah	-12.0195
▁paradi	-12.0198
▁hatch	-12.0199
ore	-12.0205
▁finalists	-12.0207
ake	-12.0212
▁clone	-12.0213
▁creditor	-12.0215
▁geo	-12.0221
▁hik	-12.0223
▁bro	-12.0223
▁alme	-12.0223
aewoo	-12.0224
thic	-12.0224
▁pir	-12.0226
▁offset	-12.0227
pl	-12.0232
▁fend	-12.0235
▁slice	-12.024
▁stam	-12.0242
▁secretari	-12.0246
safe	-12.0252
xis	-12.0253
▁decorat	-12.0269
▁dancer	-12.027
▁tile	-12.027
aved	-12.0275
istic	-12.0277
ue	-12.0278
▁revers	-12.0278
▁exhaust	-12.028
toff	-12.0283
nants	-12.0286
▁humane	-12.0298
▁stil	-12.0304
▁bucking	-12.0307
▁minded	-12.0307
▁enforc	-12.0309
awar	-12.0319
▁yun	-12.0322
▁scho	-12.0327
than	-12.0327
▁slashing	-12.0327
ico	-12.0329
▁uphold	-12.0331
fraction	-12.0331
ussi	-12.0332
▁dori	-12.0343
▁plagu	-12.0344
▁regrett	-12.0344
▁claudi	-12.0345
lis	-12.0347
▁packs	-12.0356
▁communicat	-12.0356
▁mul	-12.0359
earby	-12.0362
▁paw	-12.0362
▁stevens	-12.0369
▁governors	-12.0374
anxi	-12.0376
▁lan	-12.0376
▁sund	-12.0388
▁bir	-12.039
▁qui	-12.0393
▁retaliat	-12.0397
pot	-12.0398
▁deplor	-12.0404
▁integrati	-12.0406
ears	-12.0409
▁sup	-12.0413
▁underline	-12.042
ehan	-12.0421
▁pett	-12.0423
▁audiences	-12.0431
▁dive	-12.0449
abo	-12.045
▁estra	-12.0452
▁robin	-12.0459
▁lal	-12.0463
▁armi	-12.0464
bola	-12.0465
▁pizz	-12.0473
▁tumble	-12.0473
▁gard	-12.0477
▁interrogat	-12.0487
▁hungar	-12.0499
▁kha	-12.0499
▁gamble	-12.05
▁webb	-12.05
tte	-12.0507
zone	-12.0508
illa	-12.0519
▁vent	-12.0519
▁fle	-12.0519
ersen	-12.0521
▁jitter	-12.0534
▁shout	-12.0542
▁participati	-12.0544
▁mcc	-12.0544
▁kas	-12.055
▁burt	-12.0555
▁stat	-12.0558
horn	-12.0579
illy	-12.0587
▁forge	-12.0591
ites	-12.0599
▁malign	-12.0602
▁coaster	-12.0613
▁transmitt	-12.0615
▁rocker	-12.062
▁lang	-12.0623
▁gag	-12.0634
▁log	-12.0648
glasses	-12.065
▁chatt	-12.0657
ctic	-12.0661
▁cro	-12.0665
▁patt	-12.0666
▁censor	-12.0669
▁nawa	-12.0673
▁jab	-12.0676
▁harle	-12.0677
▁prescrib	-12.0687
▁origins	-12.0693
egas	-12.0696
ph	-12.0712
▁dora	-12.0714
▁render	-12.0718
▁elde	-12.072
▁alg	-12.0726
erber	-12.0735
▁stirr	-12.0737
niya	-12.0746
tice	-12.0746
▁gotte	-12.075
liga	-12.0753
▁norm	-12.0756
decent	-12.0757
diane	-12.0759
▁boni	-12.0766
▁deter	-12.0776
roll	-12.078
▁galax	-12.0781
around	-12.0787
look	-12.0789
four	-12.0793
▁ic	-12.0793
all	-12.0796
▁logg	-12.0801
hurt	-12.0806
▁bibl	-12.0807
▁boundar	-12.0808
▁freight	-12.0811
▁messag	-12.0811
▁ump	-12.0817
uster	-12.0822
▁aggravate	-12.0826
reau	-12.0834
▁mali	-12.0835
▁cull	-12.0835
life	-12.0836
▁hans	-12.0837
ahn	-12.0839
▁emphasi	-12.0841
gs	-12.0845
▁tribun	-12.0845
▁happi	-12.0848
▁administer	-12.0849
▁aggregate	-12.0849
▁bodlander	-12.0849
▁chimpanzee	-12.0849
▁eyewitness	-12.0849
▁frequenc	-12.0849
▁insufficient	-12.0849
▁neglect	-12.0849
▁overflow	-12.0849
▁plaintiff	-12.0849
▁resurrect	-12.0849
▁scooter	-12.0849
▁scowcroft	-12.0849
▁tarmac	-12.0849
▁ultimatum	-12.0849
▁upheaval	-12.0849
▁adolf	-12.0849
▁sporadic	-12.0849
▁voyage	-12.0849
▁delinquent	-12.0849
▁comrade	-12.0849
▁namdaemu	-12.0849
▁warrior	-12.0849
▁ecosystem	-12.085
▁mauritania	-12.085
▁sindh	-12.085
▁jalal	-12.085
▁leopard	-12.085
▁embroi	-12.085
▁identical	-12.085
▁polanski	-12.085
▁knox	-12.085
▁smurf	-12.085
▁refund	-12.085
▁quadruple	-12.085
▁barroso	-12.085
▁delaware	-12.085
▁sermon	-12.085
▁bimbo	-12.085
▁resemblance	-12.085
▁anglican	-12.085
▁vague	-12.085
▁lat	-12.085
▁bulb	-12.085
▁meghani	-12.085
▁analog	-12.085
▁rope	-12.085
▁cedar	-12.085
▁faint	-12.085
▁complicit	-12.085
▁mixture	-12.0851
▁celtic	-12.0851
▁bachelor	-12.0851
▁discard	-12.0851
▁fetch	-12.0852
▁viru	-12.0852
▁snowfall	-12.0852
▁salute	-12.0852
▁workshop	-12.0852
▁enrollment	-12.0852
▁bulldozer	-12.0852
eille	-12.0853
▁characteristic	-12.0853
▁psychiatrist	-12.0853
▁flatten	-12.0853
▁ginger	-12.0853
▁primate	-12.0853
▁rabbit	-12.0853
▁elvi	-12.0853
▁compell	-12.0853
▁legitima	-12.0854
▁abdomen	-12.0854
▁quinn	-12.0854
▁marble	-12.0854
▁reptile	-12.0854
▁unfold	-12.0855
ussain	-12.0855
▁gown	-12.0855
▁calculation	-12.0855
▁bun	-12.0855
▁purse	-12.0856
▁feminin	-12.0856
▁canister	-12.0857
ukov	-12.0857
▁insight	-12.0857
▁frenz	-12.0857
▁intimate	-12.0858
▁bite	-12.0859
▁kennel	-12.086
▁krug	-12.086
▁heroic	-12.086
▁roche	-12.0861
▁void	-12.0861
▁downgrade	-12.0861
▁shotgun	-12.0862
▁thaw	-12.0863
▁burri	-12.0863
▁weightless	-12.0863
▁feast	-12.0864
▁deliberation	-12.0864
▁disneyland	-12.0864
kanit	-12.0864
▁qin	-12.0864
▁assignment	-12.0865
▁prohibition	-12.0865
▁collector	-12.0867
▁chef	-12.0868
tious	-12.0868
▁calder	-12.0869
▁cypr	-12.0869
▁rip	-12.0872
▁sniff	-12.0873
worth	-12.0874
▁braun	-12.0876
▁motorist	-12.0877
▁montrea	-12.0879
▁petrol	-12.0879
▁hillside	-12.0881
heddin	-12.0882
▁compris	-12.0884
▁modifie	-12.0886
▁coward	-12.0887
ipped	-12.0888
▁entertainer	-12.0889
▁startup	-12.0889
▁flies	-12.0889
▁degrad	-12.089
▁readi	-12.0892
▁affection	-12.0894
▁realistic	-12.0895
▁evaluate	-12.0899
▁reconn	-12.0901
ama	-12.0902
▁strapp	-12.0904
▁balco	-12.0905
▁hallway	-12.0907
▁myth	-12.091
▁seeds	-12.091
▁stack	-12.0911
▁overture	-12.0911
▁meal	-12.0912
▁stark	-12.0913
▁trev	-12.0914
▁dogged	-12.0915
▁prob	-12.0916
lept	-12.0917
▁cultivat	-12.0917
▁lament	-12.0918
rov	-12.0919
▁camill	-12.092
vo	-12.0923
▁shall	-12.0931
pb	-12.0931
▁lari	-12.0932
▁lynd	-12.0938
caul	-12.0941
▁proportional	-12.0942
▁fax	-12.0943
ushi	-12.0945
▁schult	-12.0947
▁abn	-12.0949
iz	-12.0949
chemical	-12.095
▁berl	-12.095
▁relian	-12.0956
▁laborer	-12.0963
▁programme	-12.0972
▁cite	-12.0973
▁mona	-12.0979
▁ounces	-12.0981
enberg	-12.0983
▁pier	-12.0984
bee	-12.0996
▁disapprov	-12.1
▁munition	-12.1001
▁cam	-12.1003
rei	-12.1004
▁dresse	-12.1005
▁collud	-12.1009
▁influen	-12.1011
▁viewing	-12.1015
▁dian	-12.102
▁undern	-12.1024
▁dill	-12.1025
▁downer	-12.1027
▁commando	-12.1044
▁gam	-12.1047
trust	-12.1052
▁publicize	-12.1068
▁shaky	-12.1078
▁sake	-12.108
▁popul	-12.1089
wp	-12.1099
▁normaliz	-12.1099
▁confus	-12.1106
▁watt	-12.1106
▁flo	-12.1112
▁lime	-12.112
▁oman	-12.112
ines	-12.1121
▁freeway	-12.1122
enza	-12.1126
▁hindus	-12.1126
▁allocat	-12.1128
▁toshi	-12.1138
▁leno	-12.1143
▁cling	-12.1144
nian	-12.1147
▁qua	-12.115
▁mono	-12.1163
emory	-12.1168
res	-12.1174
oppo	-12.1176
ncy	-12.1176
cb	-12.1178
elhof	-12.1182
ski	-12.1189
▁ripple	-12.1189
▁pools	-12.1194
▁nts	-12.1198
▁gase	-12.1199
▁seon	-12.12
▁cater	-12.1201
sibility	-12.1205
rgen	-12.1207
▁prosecute	-12.1208
ouf	-12.1211
▁reut	-12.1215
oc	-12.1219
▁usage	-12.1221
▁astonish	-12.1227
▁rug	-12.1235
▁tightening	-12.1242
grow	-12.1243
matic	-12.1245
wn	-12.1255
workers	-12.1255
▁vai	-12.1256
tikh	-12.1271
▁thriv	-12.1271
▁taj	-12.1273
eb	-12.1274
dell	-12.1277
ame	-12.1278
▁associates	-12.1279
▁biograph	-12.1286
▁bot	-12.1292
kee	-12.1294
nsu	-12.131
clara	-12.1312
▁finaliz	-12.1315
dero	-12.1316
▁discipline	-12.1321
▁sights	-12.1321
▁nim	-12.1331
▁arrangement	-12.1342
▁beak	-12.1346
▁fuji	-12.1347
▁highland	-12.1351
▁lips	-12.1363
▁rafi	-12.1369
▁disclos	-12.1371
▁opener	-12.1373
▁seasons	-12.1373
▁schum	-12.1384
▁notable	-12.1384
▁dh	-12.1388
saw	-12.139
bury	-12.1396
▁gabriel	-12.1409
▁pol	-12.1415
velt	-12.1419
▁tangib	-12.1422
achi	-12.1422
oros	-12.1426
▁schn	-12.1427
▁leve	-12.1427
rap	-12.1435
▁hur	-12.1435
onian	-12.1436
▁dai	-12.1436
▁compuls	-12.1437
▁bong	-12.1437
▁nasir	-12.1449
mother	-12.1453
unting	-12.1455
▁tyrann	-12.1459
hwa	-12.1465
▁maid	-12.1468
▁shells	-12.1469
dida	-12.1473
bur	-12.1476
▁nova	-12.1479
▁shatter	-12.1487
▁dim	-12.1496
saki	-12.15
acio	-12.1503
umn	-12.1507
▁flavor	-12.1521
oke	-12.1521
ru	-12.1526
▁ann	-12.1528
▁intentions	-12.1536
▁admire	-12.1536
harmonic	-12.1539
yeh	-12.1542
▁riches	-12.1547
▁silic	-12.1552
cker	-12.1557
▁yeon	-12.1558
▁stockhol	-12.1561
▁cate	-12.1562
▁preach	-12.1565
▁beg	-12.1578
▁jen	-12.1579
▁litera	-12.158
iji	-12.1593
▁josh	-12.16
log	-12.16
▁wow	-12.1602
zio	-12.1609
▁albums	-12.1615
schle	-12.1617
nutrition	-12.1618
dian	-12.1618
▁integrat	-12.162
conduct	-12.162
sleep	-12.162
▁revel	-12.1621
foot	-12.1623
ria	-12.1623
chai	-12.1627
taka	-12.1628
▁hyo	-12.163
▁advoca	-12.1633
avoid	-12.1633
▁uncla	-12.1637
▁seale	-12.1644
eads	-12.1645
▁hotte	-12.1648
▁fab	-12.1648
▁roth	-12.1656
▁saga	-12.1659
marked	-12.1662
▁mot	-12.1663
▁lava	-12.1664
▁albania	-12.1664
nica	-12.1664
▁mechanic	-12.1669
▁bike	-12.167
▁strategi	-12.1675
▁clint	-12.1675
▁flip	-12.1676
▁wacho	-12.1677
mpact	-12.1679
rose	-12.168
▁worship	-12.1683
▁palestin	-12.1683
▁brawl	-12.1683
▁constituenc	-12.1683
▁panmunj	-12.1683
▁skyrocket	-12.1683
▁abolition	-12.1683
▁accomplice	-12.1683
▁alejandr	-12.1683
▁avalanche	-12.1683
▁awkward	-12.1683
▁cantaloupe	-12.1683
▁carnival	-12.1683
▁cockpit	-12.1683
▁discontent	-12.1683
▁disqualifi	-12.1683
▁enclave	-12.1683
▁grylls	-12.1683
▁juventu	-12.1683
▁leisure	-12.1683
▁madagascar	-12.1683
▁memorandum	-12.1683
▁pavilion	-12.1683
▁rockefeller	-12.1683
▁trinidad	-12.1683
▁caesar	-12.1683
▁futurist	-12.1683
▁namibia	-12.1683
▁outnumber	-12.1683
▁unhcr	-12.1683
▁aurora	-12.1683
▁backpack	-12.1683
▁connor	-12.1683
▁specimen	-12.1683
▁thymus	-12.1683
▁cheetah	-12.1683
▁mujah	-12.1683
▁blackberr	-12.1683
▁morici	-12.1683
eutic	-12.1683
▁superjumbo	-12.1683
▁paleontologist	-12.1683
▁glory	-12.1683
▁flank	-12.1683
▁desktop	-12.1683
▁suitcase	-12.1683
▁prevail	-12.1683
▁creek	-12.1683
▁preview	-12.1683
▁unify	-12.1683
▁patern	-12.1683
▁intoxicat	-12.1683
▁unreasonabl	-12.1683
▁abdom	-12.1683
▁qualification	-12.1683
▁fertilizer	-12.1684
▁mcqu	-12.1684
omaha	-12.1684
▁cesar	-12.1684
▁forehand	-12.1684
▁refrigerator	-12.1684
▁crouch	-12.1684
ehr	-12.1684
▁cubic	-12.1684
▁resent	-12.1684
▁muddy	-12.1685
▁gym	-12.1685
▁columnist	-12.1685
▁revoke	-12.1685
▁patent	-12.1685
▁stalk	-12.1685
▁commemoration	-12.1686
▁boulo	-12.1686
▁headphone	-12.1686
▁ricard	-12.1686
▁straw	-12.1686
ork	-12.1687
▁dynamit	-12.1687
▁architecture	-12.1687
▁zhe	-12.1687
▁wend	-12.1687
▁feline	-12.1687
▁guti	-12.1687
▁relate	-12.1687
▁touchdown	-12.1687
▁bradley	-12.1687
▁fabrication	-12.1688
▁marshall	-12.1689
▁abductee	-12.169
▁iceberg	-12.1691
▁innovation	-12.1692
ollea	-12.1694
▁ayres	-12.1695
▁hopkin	-12.1695
▁depiction	-12.1695
clusion	-12.1696
▁windsor	-12.1697
▁compatible	-12.1697
▁balkan	-12.1697
▁lame	-12.1698
▁dimensional	-12.1698
▁electorate	-12.1698
▁turkmen	-12.1698
▁colorful	-12.1699
▁barber	-12.17
▁cement	-12.1701
steps	-12.1701
▁sniper	-12.1702
▁counselor	-12.1703
▁groom	-12.1703
▁diwa	-12.1703
▁parliamentarian	-12.1704
▁mountainside	-12.1704
▁woodland	-12.1706
▁downward	-12.1707
▁admir	-12.1708
wadd	-12.1708
pt	-12.1708
▁flush	-12.1709
▁pegg	-12.171
▁hoff	-12.1711
▁betray	-12.1712
▁clement	-12.1712
▁temper	-12.1713
▁claw	-12.1714
▁wax	-12.1714
▁xiao	-12.1716
▁stiff	-12.1716
▁escalator	-12.1719
▁sunny	-12.172
▁deflect	-12.1723
▁hospitalization	-12.1723
▁worm	-12.1727
▁endeavor	-12.173
▁kc	-12.173
▁hernan	-12.1731
▁flexibilit	-12.1732
▁cp	-12.1734
trophy	-12.1736
▁upward	-12.1737
lender	-12.1737
▁gins	-12.174
▁indicator	-12.1744
▁cram	-12.1745
nnah	-12.175
▁affiliat	-12.1754
oir	-12.1756
▁ascend	-12.1759
fest	-12.1766
▁processor	-12.1772
nbc	-12.1772
dah	-12.1774
cheema	-12.1777
▁approache	-12.1779
▁casa	-12.1779
▁candid	-12.178
▁heft	-12.1781
rc	-12.1782
▁charm	-12.1782
▁frig	-12.179
▁cald	-12.179
sour	-12.179
▁mistaken	-12.1791
▁saber	-12.1794
libu	-12.1794
▁skeptical	-12.1799
▁gaul	-12.18
▁oliver	-12.18
eur	-12.1801
hafi	-12.1801
▁sreb	-12.1801
moto	-12.1803
▁rajas	-12.1809
▁verifiabl	-12.1817
rjee	-12.1818
▁nia	-12.182
▁bra	-12.1824
▁ung	-12.1825
▁tsa	-12.1825
▁arche	-12.1826
hu	-12.1827
▁optim	-12.1828
▁eun	-12.1828
cer	-12.1828
▁booster	-12.1835
▁hugg	-12.1837
cini	-12.1837
zan	-12.1837
▁educate	-12.1839
abad	-12.184
eem	-12.1845
▁jeon	-12.1846
▁cr	-12.1848
sville	-12.1848
vi	-12.185
rup	-12.1855
▁porter	-12.1861
▁rewrit	-12.1864
ott	-12.1869
ruz	-12.1869
▁controller	-12.1874
▁initiate	-12.1876
▁shorten	-12.1878
era	-12.1878
bol	-12.1879
pache	-12.1883
▁consume	-12.1888
▁attendants	-12.1894
▁eisen	-12.1898
▁exhausted	-12.19
▁pg	-12.1902
▁biting	-12.1905
ahab	-12.1905
▁fabr	-12.1909
lett	-12.1909
ging	-12.191
▁ent	-12.1911
▁egg	-12.1917
▁shank	-12.1919
nso	-12.1925
tty	-12.193
▁alexandr	-12.1935
ane	-12.1937
wau	-12.1945
▁exchang	-12.1949
▁nuts	-12.1952
▁gunn	-12.1952
▁pessimist	-12.1957
▁incorporate	-12.1962
▁levee	-12.1971
▁georgian	-12.1974
ating	-12.1975
▁ruba	-12.1978
▁pitcher	-12.1981
of	-12.1982
▁pie	-12.1988
rugg	-12.1993
▁banda	-12.1994
▁shand	-12.1995
▁subsidi	-12.1998
yah	-12.1998
▁heroin	-12.1998
cla	-12.2008
▁moussa	-12.2009
▁fr	-12.2016
▁solt	-12.2017
▁naha	-12.2018
▁meteorolog	-12.2019
▁generators	-12.2021
▁obstruct	-12.2025
▁consolidate	-12.2025
▁tutori	-12.2025
▁remed	-12.2028
▁wade	-12.2028
▁lied	-12.2032
bbie	-12.2033
▁asha	-12.2033
riq	-12.204
oni	-12.2041
▁dare	-12.2044
ieu	-12.2046
metric	-12.2061
▁predicts	-12.2063
▁justifi	-12.2063
▁eli	-12.2065
▁vet	-12.2074
▁quant	-12.2081
ob	-12.2082
ili	-12.2085
stice	-12.2086
▁covert	-12.2092
itu	-12.2093
▁commute	-12.2098
▁kerch	-12.2103
▁nat	-12.2109
▁lip	-12.211
▁dedicate	-12.2114
▁agrees	-12.2122
▁excavat	-12.2131
gne	-12.2136
igat	-12.2142
▁preced	-12.2149
tner	-12.2154
uci	-12.218
▁preference	-12.218
▁emotion	-12.2182
▁joan	-12.2182
▁defian	-12.2189
ttle	-12.2192
▁chungchon	-12.2195
vani	-12.2196
▁notion	-12.2198
▁alba	-12.2206
▁mae	-12.2206
▁lars	-12.2206
▁disma	-12.2206
▁vill	-12.2215
▁champ	-12.2226
say	-12.2228
▁bearer	-12.2228
▁generator	-12.2237
wf	-12.2247
▁eurosta	-12.2247
▁athlete	-12.2248
▁grad	-12.225
▁advocat	-12.2259
lumin	-12.2268
▁whiske	-12.227
▁interfa	-12.2284
agar	-12.2285
mill	-12.229
▁tri	-12.2294
▁employer	-12.2297
bal	-12.2298
▁forci	-12.2299
▁intrigu	-12.23
▁saba	-12.2301
▁mirr	-12.2307
▁lash	-12.2307
▁relat	-12.2308
pinning	-12.2309
lines	-12.2315
▁bab	-12.2319
▁drac	-12.233
yar	-12.233
rel	-12.2332
ndell	-12.2337
believ	-12.2338
▁gal	-12.234
cak	-12.2343
lp	-12.2348
▁syn	-12.2354
dullah	-12.2357
▁kana	-12.236
▁thrive	-12.236
▁dece	-12.2361
use	-12.2376
▁convict	-12.239
▁plen	-12.2391
ven	-12.2393
▁beta	-12.2394
▁trends	-12.241
rat	-12.2411
▁maps	-12.2411
lm	-12.2416
▁garri	-12.2419
▁unfit	-12.242
▁kat	-12.2422
▁purge	-12.2428
bun	-12.2432
ghi	-12.2439
anga	-12.2441
uck	-12.2446
▁ele	-12.2449
▁gentle	-12.245
cry	-12.2455
▁infring	-12.2479
trapped	-12.248
tract	-12.2487
▁recorder	-12.2491
lynn	-12.2492
▁satisfact	-12.2504
▁arabs	-12.2505
position	-12.2506
▁ironic	-12.2506
lusive	-12.2509
phone	-12.2516
fayette	-12.2523
tu	-12.2524
week	-12.2525
taek	-12.2527
▁def	-12.2528
▁downsiz	-12.2529
smith	-12.253
media	-12.2532
league	-12.2533
▁tal	-12.2541
hallow	-12.2542
▁fayya	-12.2543
hold	-12.2545
awful	-12.2548
▁ramm	-12.2548
▁settlements	-12.2549
dog	-12.2551
▁sour	-12.2554
▁esp	-12.2559
▁wrangl	-12.2561
▁suf	-12.2561
▁invent	-12.2564
▁server	-12.2565
▁profession	-12.2569
rgis	-12.2574
▁jeopard	-12.2574
gone	-12.2576
▁intra	-12.2582
▁divisi	-12.2583
▁interact	-12.2585
▁innovati	-12.2587
▁specialize	-12.2588
▁accompanie	-12.2589
▁bras	-12.259
▁obsess	-12.2591
▁buoy	-12.2592
▁kazakh	-12.2592
▁autobiograph	-12.2592
▁swirl	-12.2592
▁appetite	-12.2592
▁audiotape	-12.2592
▁ayurved	-12.2592
▁berezovsky	-12.2592
▁crawl	-12.2592
▁culprit	-12.2592
▁demolish	-12.2592
▁disregard	-12.2592
▁djamena	-12.2592
▁erratic	-12.2592
▁fowler	-12.2592
▁gwen	-12.2592
▁jetliner	-12.2592
▁loophole	-12.2592
▁ordinance	-12.2592
▁outflow	-12.2592
▁portfolio	-12.2592
▁rebuff	-12.2592
▁rethink	-12.2592
▁tanzania	-12.2592
▁yugoslav	-12.2592
▁clergy	-12.2592
▁demographic	-12.2592
▁dreamliner	-12.2592
▁indiscriminate	-12.2592
▁souvenir	-12.2592
▁snapshot	-12.2592
▁steadfast	-12.2592
▁contagio	-12.2592
▁mistreat	-12.2592
▁module	-12.2592
▁abstain	-12.2592
▁curtail	-12.2592
▁trunk	-12.2592
▁fraudulent	-12.2592
▁sleeve	-12.2592
▁antenna	-12.2592
▁biometric	-12.2592
▁encrypt	-12.2592
▁seismic	-12.2592
▁unwilling	-12.2592
▁grape	-12.2592
▁cowboy	-12.2592
▁minivan	-12.2592
▁cadet	-12.2592
▁ericsson	-12.2592
▁grasp	-12.2592
▁empower	-12.2592
▁juice	-12.2592
▁diaries	-12.2592
▁charismatic	-12.2592
▁mafia	-12.2592
▁categorical	-12.2592
▁bourse	-12.2592
▁jelly	-12.2592
▁furious	-12.2593
▁goddess	-12.2593
▁evict	-12.2593
▁ecsta	-12.2593
▁breez	-12.2593
▁crescent	-12.2593
▁tanner	-12.2593
▁tigr	-12.2593
▁arrow	-12.2593
▁infra	-12.2593
▁hedge	-12.2593
▁mimic	-12.2593
▁fetus	-12.2593
▁sophi	-12.2593
atorium	-12.2593
▁edmund	-12.2593
▁hosseini	-12.2594
▁protester	-12.2594
▁realign	-12.2594
moon	-12.2594
▁tusk	-12.2594
▁anthropolog	-12.2594
▁racket	-12.2595
▁recit	-12.2595
▁lieber	-12.2595
▁graduation	-12.2595
▁churn	-12.2595
▁airlift	-12.2595
▁birthrate	-12.2595
▁yuko	-12.2595
▁meadow	-12.2595
▁scoop	-12.2595
▁latitude	-12.2596
▁elliot	-12.2596
▁albe	-12.2596
▁bandit	-12.2597
▁stoppage	-12.2597
▁luke	-12.2597
▁freak	-12.2597
▁boon	-12.2598
▁interceptor	-12.2598
▁generous	-12.2598
▁marketplace	-12.2598
▁thankful	-12.2599
▁amass	-12.26
▁submerg	-12.26
▁educator	-12.26
▁artwork	-12.2601
▁incur	-12.2601
▁thoms	-12.2601
▁cogniti	-12.2601
lana	-12.2601
▁elisa	-12.2602
▁valve	-12.2602
▁interruption	-12.2602
▁pew	-12.2603
▁adjustment	-12.2604
▁secularist	-12.2604
▁jorge	-12.2605
uted	-12.2606
▁pierce	-12.2609
▁housekeeper	-12.2609
▁chew	-12.261
▁crusader	-12.2611
▁mauric	-12.2613
▁perez	-12.2613
▁terrifi	-12.2616
▁banana	-12.2619
▁sca	-12.262
▁loung	-12.262
leet	-12.262
▁fein	-12.262
▁fundraiser	-12.2622
▁condon	-12.2624
▁solicit	-12.2627
▁ngo	-12.2627
▁snu	-12.2631
▁airship	-12.2631
▁induce	-12.2632
▁hammon	-12.2634
▁ansa	-12.2634
▁mcle	-12.2639
▁carat	-12.2641
▁equalise	-12.2642
▁pinn	-12.2645
▁fabric	-12.2645
▁lapse	-12.2645
▁clever	-12.2647
▁maldiv	-12.2647
▁flagg	-12.2649
▁kinne	-12.265
▁kad	-12.265
▁lagg	-12.2651
▁mortal	-12.2652
▁jonat	-12.2653
▁aaa	-12.2654
▁violator	-12.2654
▁loosen	-12.2655
▁kraus	-12.2655
▁scann	-12.2656
kong	-12.266
▁dismay	-12.2661
▁commun	-12.2663
▁forceful	-12.2666
▁burre	-12.2666
▁fist	-12.2667
sha	-12.2668
▁blanc	-12.2669
▁ratifi	-12.2669
▁capitalism	-12.267
▁reper	-12.2671
▁zane	-12.2679
▁iq	-12.2681
▁kiku	-12.2681
▁mcnam	-12.2682
▁syndicate	-12.2682
etz	-12.2682
▁reno	-12.2683
▁messi	-12.2686
▁som	-12.2702
lamin	-12.2703
▁simulate	-12.2705
▁boob	-12.2708
▁reads	-12.2711
▁tablet	-12.2714
▁singaporean	-12.2721
▁brod	-12.2726
▁sting	-12.273
▁borg	-12.2731
bul	-12.2732
tze	-12.2736
choles	-12.2739
mes	-12.2741
▁samuel	-12.2743
▁garr	-12.2743
▁forgive	-12.2746
▁incorporat	-12.2747
▁porch	-12.2747
roy	-12.2749
estero	-12.2749
▁jas	-12.2753
▁cardiov	-12.2754
▁blazer	-12.2755
▁imp	-12.2756
▁expir	-12.2762
▁shui	-12.277
zuma	-12.2775
▁hydra	-12.2784
▁icr	-12.2795
hiko	-12.2797
alban	-12.2802
elli	-12.2807
▁giro	-12.2811
▁conciliat	-12.2812
▁helms	-12.2813
▁painter	-12.2827
bly	-12.2831
richt	-12.2834
▁intimidati	-12.2836
stable	-12.284
lar	-12.2846
▁certifi	-12.2848
pat	-12.2849
▁jett	-12.2854
▁tro	-12.2854
▁jessi	-12.286
▁abilit	-12.2862
▁seas	-12.2866
▁camel	-12.2868
▁withstand	-12.2871
▁calculat	-12.2874
ast	-12.2876
soon	-12.2879
▁giz	-12.2879
▁verge	-12.2887
▁barad	-12.2891
▁julian	-12.2892
▁dissolv	-12.2892
wall	-12.2895
stra	-12.2896
▁roos	-12.2901
▁displace	-12.2903
yongsan	-12.2905
▁xia	-12.2915
▁ryd	-12.2917
oda	-12.2925
▁lai	-12.2927
ryl	-12.2927
▁supplements	-12.2928
▁enroll	-12.2933
▁tzi	-12.2938
▁header	-12.2944
▁uneas	-12.2949
▁repressi	-12.2951
shu	-12.2953
▁mao	-12.2956
▁tract	-12.2964
▁hyde	-12.2967
▁perish	-12.2968
▁divin	-12.2969
▁retriev	-12.2975
▁anton	-12.2977
▁cosmo	-12.2981
▁rile	-12.2983
▁gallu	-12.2984
▁frustrate	-12.2985
▁kenne	-12.2987
▁footballer	-12.2996
pon	-12.3004
▁liberate	-12.3008
▁flourish	-12.3012
erous	-12.3013
jaf	-12.3014
▁jamm	-12.3023
nson	-12.3026
dic	-12.3031
▁bully	-12.3034
▁zealander	-12.3037
▁eras	-12.3039
▁sacking	-12.3042
llan	-12.3047
▁poke	-12.3051
▁printer	-12.306
▁directions	-12.3062
▁grill	-12.3063
▁soli	-12.3065
▁pi	-12.3068
▁gome	-12.3072
▁perceiv	-12.3073
▁destroyer	-12.3076
▁relocat	-12.3078
▁stampede	-12.3085
sch	-12.3087
sche	-12.3089
▁birdie	-12.3106
▁fen	-12.3108
▁bait	-12.312
▁prai	-12.3128
▁sequel	-12.3128
▁gia	-12.3132
▁exclude	-12.3133
▁tel	-12.3133
▁mubar	-12.3135
▁gir	-12.3135
dis	-12.3141
▁snipe	-12.3145
hart	-12.3148
▁zai	-12.3149
▁ferri	-12.3155
ically	-12.3157
▁adventures	-12.3157
cin	-12.3159
▁gall	-12.3163
vac	-12.3164
je	-12.3165
▁hamm	-12.317
▁lav	-12.3173
▁gong	-12.3173
omi	-12.318
▁sik	-12.3181
umi	-12.3181
▁surrogate	-12.3201
▁vit	-12.3203
▁verse	-12.3213
▁af	-12.322
▁jeopardize	-12.3229
oom	-12.3231
▁attache	-12.3231
▁supplement	-12.3233
▁regulat	-12.3233
▁missionar	-12.3234
▁diver	-12.3236
▁disguis	-12.3236
▁drops	-12.3245
▁physiolog	-12.3251
lley	-12.3257
inos	-12.3264
▁underscor	-12.3264
cable	-12.3265
▁duch	-12.3267
▁equalize	-12.3275
▁dera	-12.3276
▁pont	-12.3276
smo	-12.3278
▁bain	-12.3286
▁escalate	-12.329
▁reserv	-12.329
▁carre	-12.3296
asia	-12.3298
▁flowing	-12.33
▁germ	-12.33
▁drawings	-12.3313
pc	-12.3316
▁chic	-12.3317
▁smuggl	-12.3318
▁replica	-12.3321
▁earl	-12.3338
iff	-12.3341
▁dott	-12.3342
▁shan	-12.3354
▁sands	-12.3358
doch	-12.3361
▁gwang	-12.3362
▁attitudes	-12.3371
ngal	-12.3378
▁tit	-12.3378
▁geographic	-12.3382
▁shaha	-12.3392
▁foray	-12.34
ovi	-12.34
▁greeting	-12.3402
▁jee	-12.3406
▁nan	-12.3415
▁ober	-12.3419
fe	-12.3419
ddy	-12.3423
▁preside	-12.3424
ure	-12.3432
▁deng	-12.3434
now	-12.3437
bre	-12.3438
▁confiscat	-12.344
▁lonely	-12.344
▁devi	-12.3451
▁normalize	-12.3452
▁hay	-12.3455
▁mit	-12.3458
▁wis	-12.3462
▁grind	-12.3462
▁embrac	-12.3465
▁sto	-12.3476
▁stipulate	-12.3482
dam	-12.3489
▁nikol	-12.3489
▁belts	-12.3491
▁enthusiast	-12.3494
hard	-12.3499
dana	-12.3499
▁fonda	-12.3503
terrestrial	-12.3504
jord	-12.3505
paste	-12.3508
▁yah	-12.3514
▁rebuil	-12.3516
stands	-12.3521
sphere	-12.3525
irna	-12.3526
adequate	-12.3528
ashi	-12.3528
blaze	-12.3529
committee	-12.3529
▁astronom	-12.3529
parents	-12.3529
▁una	-12.353
▁residenc	-12.3533
technology	-12.3534
▁entertain	-12.3537
▁capitaliz	-12.3539
watch	-12.3539
sense	-12.3539
▁yin	-12.3539
jean	-12.3542
visibl	-12.3543
wanted	-12.3545
shot	-12.3549
▁shu	-12.356
rity	-12.356
▁doug	-12.3567
▁magnet	-12.357
▁sweat	-12.3571
izing	-12.3572
▁restructure	-12.3572
▁patron	-12.3574
▁mobilize	-12.3575
▁prominen	-12.3576
▁pardo	-12.3576
▁hardline	-12.3577
▁snub	-12.3579
▁horm	-12.358
▁ensu	-12.3583
▁bankrupt	-12.3585
▁distract	-12.3587
▁pharmac	-12.3589
▁sham	-12.359
▁luz	-12.3591
▁dysfunction	-12.3592
▁absurd	-12.3592
▁blizzard	-12.3592
▁disadvantage	-12.3592
▁matthew	-12.3592
▁netscape	-12.3592
▁pacify	-12.3592
▁precarious	-12.3592
▁revamp	-12.3592
▁soprano	-12.3592
▁spontaneous	-12.3592
▁surcharge	-12.3592
▁thirteen	-12.3592
▁alligator	-12.3592
▁complement	-12.3592
▁recharge	-12.3592
▁transgender	-12.3592
▁belarus	-12.3592
▁cuisine	-12.3592
▁detach	-12.3592
▁inviting	-12.3592
▁tgv	-12.3592
▁rupture	-12.3592
▁telecast	-12.3592
▁basilica	-12.3592
▁deforest	-12.3592
▁senegal	-12.3592
▁theoretical	-12.3592
▁cambridge	-12.3592
▁rutger	-12.3592
▁gymnast	-12.3592
▁solemn	-12.3592
▁wrinkle	-12.3592
▁zhao	-12.3592
▁anorexi	-12.3592
▁cosmetic	-12.3592
▁landlord	-12.3592
▁wrack	-12.3592
▁turbine	-12.3592
▁itinerar	-12.3592
▁kashiwa	-12.3592
▁pelvi	-12.3592
▁twitter	-12.3592
▁purple	-12.3592
▁dispel	-12.3592
▁jockey	-12.3592
▁pharaoh	-12.3592
▁osbourne	-12.3592
▁relentless	-12.3592
▁emphatic	-12.3592
▁vigorous	-12.3592
▁disconnect	-12.3592
▁pinpoint	-12.3592
▁mitch	-12.3592
▁malicious	-12.3592
▁arrowhead	-12.3592
▁commend	-12.3592
▁kirch	-12.3592
▁newcomer	-12.3592
▁affirm	-12.3592
▁stymie	-12.3592
▁effig	-12.3592
▁mudslide	-12.3592
▁arraignment	-12.3592
▁sandbag	-12.3592
▁ravine	-12.3592
▁taunt	-12.3592
▁triang	-12.3593
▁lizard	-12.3593
▁reclaim	-12.3593
▁screw	-12.3593
▁shrunk	-12.3593
▁preemptive	-12.3593
▁unfreez	-12.3593
▁humid	-12.3593
▁screenplay	-12.3593
▁bolivia	-12.3593
▁spew	-12.3593
▁sitcom	-12.3593
▁pleasant	-12.3593
▁intermedia	-12.3593
▁sidewalk	-12.3594
▁czar	-12.3594
▁vigilant	-12.3594
▁ghost	-12.3594
▁temptation	-12.3594
ngchon	-12.3594
▁hamza	-12.3594
▁katz	-12.3594
▁condom	-12.3595
▁paek	-12.3595
▁drummer	-12.3595
▁arsen	-12.3595
▁reneg	-12.3595
▁cremation	-12.3595
▁shrugg	-12.3595
▁haq	-12.3596
▁unlock	-12.3596
▁eld	-12.3596
▁pinch	-12.3596
▁narco	-12.3596
▁dumpling	-12.3596
▁distraction	-12.3597
▁funnel	-12.3597
▁ev	-12.3598
▁solace	-12.3598
▁compass	-12.3599
▁newsweek	-12.3599
▁derive	-12.36
▁booth	-12.3601
▁decoration	-12.3601
▁fluid	-12.3602
▁jamestown	-12.3603
list	-12.3603
▁lb	-12.3604
▁surgical	-12.3604
▁elysee	-12.3604
▁baek	-12.3604
▁waive	-12.3604
kistan	-12.3604
▁feedback	-12.3605
werp	-12.3606
▁chinook	-12.3606
▁complian	-12.3606
▁riddle	-12.3607
▁laurent	-12.3607
▁slovakia	-12.3608
▁tasmania	-12.3608
▁slap	-12.3608
▁contributor	-12.3609
quille	-12.3609
▁marx	-12.3609
▁intestin	-12.361
▁mansion	-12.361
▁handset	-12.361
▁ignite	-12.3612
▁totalitarian	-12.3615
▁ritz	-12.3616
▁playground	-12.3617
▁zahar	-12.3619
▁prevalen	-12.362
▁spectacle	-12.362
rai	-12.3621
tilin	-12.3622
▁newsroom	-12.3623
▁siren	-12.3623
eller	-12.3624
▁taka	-12.3626
▁vonn	-12.3627
▁taji	-12.3629
▁nobu	-12.3629
culty	-12.3629
quet	-12.3631
mat	-12.3633
▁dweller	-12.3633
▁heather	-12.3633
otherap	-12.3634
▁rhe	-12.3636
uman	-12.3637
retz	-12.3639
gon	-12.3639
▁estonian	-12.364
▁alban	-12.364
▁necessity	-12.3642
▁chiap	-12.3649
eth	-12.3651
▁stain	-12.3652
▁abundan	-12.3653
▁offence	-12.3653
▁mold	-12.3653
▁rework	-12.3658
nger	-12.3659
▁fluctuat	-12.3662
pine	-12.3663
▁directive	-12.3663
▁citation	-12.3664
▁shade	-12.3666
hni	-12.3669
riano	-12.367
▁taek	-12.3672
▁coo	-12.3672
▁angri	-12.3683
▁merv	-12.3686
▁sneaker	-12.3691
veh	-12.3692
▁biti	-12.3693
▁shaw	-12.3696
fold	-12.3696
▁jok	-12.3697
▁tsuyo	-12.3699
varna	-12.37
▁insurer	-12.3701
effer	-12.3702
▁timeline	-12.3702
▁merck	-12.3703
▁stoning	-12.3704
▁shutter	-12.3704
news	-12.3705
▁emb	-12.3706
nsei	-12.3707
▁unsur	-12.3708
▁salvage	-12.3711
▁pluck	-12.3712
habi	-12.3714
▁khalil	-12.3716
▁bashir	-12.3722
▁candles	-12.3727
fann	-12.3729
uro	-12.3729
mara	-12.3735
▁navigat	-12.3735
▁beast	-12.3739
▁lemon	-12.3741
bouc	-12.3742
▁swelling	-12.3746
▁confiscate	-12.3747
▁sar	-12.3747
▁lek	-12.3748
▁bah	-12.3754
▁cruiser	-12.3758
▁kua	-12.376
▁suck	-12.3761
andel	-12.3763
▁meg	-12.3765
▁fond	-12.3765
ych	-12.3767
cyclist	-12.377
wich	-12.3772
▁shine	-12.3776
book	-12.3779
▁gregor	-12.3789
nate	-12.3792
ntana	-12.3795
▁unfor	-12.3798
▁endless	-12.3798
oui	-12.3808
▁bald	-12.3809
tractor	-12.3815
▁reveren	-12.3816
▁fractur	-12.3817
▁ec	-12.3828
▁marlboro	-12.3834
▁celesti	-12.3839
▁fluor	-12.384
▁hush	-12.3844
shin	-12.3849
aux	-12.3851
▁scarce	-12.3857
▁shaun	-12.3858
▁baba	-12.3858
▁distincti	-12.3863
▁brisk	-12.3872
▁merchandise	-12.3872
▁rama	-12.3875
▁explains	-12.3878
▁berg	-12.388
▁burge	-12.388
▁couri	-12.3881
tenberg	-12.3888
▁branc	-12.3891
pulsion	-12.3897
▁outsider	-12.3902
amba	-12.3905
dez	-12.3905
▁wonders	-12.3911
▁natali	-12.3916
▁assumption	-12.3916
▁behave	-12.3924
▁ull	-12.3931
▁mesh	-12.3938
▁vir	-12.3941
rdin	-12.3945
ii	-12.3947
yak	-12.3947
▁sara	-12.3952
▁electro	-12.3958
▁barn	-12.3958
▁disguise	-12.396
thura	-12.3961
▁espan	-12.3976
▁mri	-12.3985
▁moderniz	-12.3998
▁pause	-12.3998
▁mosle	-12.4001
▁deliberat	-12.4005
gram	-12.4007
drome	-12.4019
▁grapple	-12.4023
dental	-12.4024
▁abd	-12.4028
▁flyer	-12.4029
▁hijacking	-12.4033
▁exceeding	-12.4034
nda	-12.4035
▁inconvenience	-12.4036
▁baa	-12.4039
▁prag	-12.4048
▁conscript	-12.4049
dler	-12.4061
oul	-12.4061
▁masha	-12.4064
nie	-12.4064
▁rational	-12.4067
▁fri	-12.407
joy	-12.4072
▁homer	-12.4073
▁turki	-12.4075
▁undertake	-12.4086
rock	-12.4089
▁brace	-12.409
ker	-12.4094
enne	-12.4095
▁tira	-12.41
▁robbi	-12.4103
ammar	-12.4103
afe	-12.4105
▁resettle	-12.4106
vara	-12.411
mert	-12.411
tai	-12.4113
gues	-12.4114
pun	-12.4115
▁dishe	-12.4119
tics	-12.4121
▁lind	-12.4126
▁abound	-12.4128
chu	-12.4129
▁qual	-12.4138
evic	-12.4142
holm	-12.4143
▁loser	-12.4144
▁barre	-12.4146
▁wm	-12.4154
lov	-12.4155
▁fume	-12.416
▁erode	-12.4162
unker	-12.4165
avaro	-12.4166
elo	-12.4168
▁discourage	-12.4168
▁ira	-12.4178
▁schu	-12.4183
▁trafficker	-12.4186
▁smithson	-12.4201
mate	-12.4203
▁lou	-12.4203
▁allerg	-12.421
mmunity	-12.4213
ert	-12.4221
▁adrian	-12.4224
▁joo	-12.4226
usch	-12.4228
▁destruct	-12.4229
bas	-12.4232
▁awe	-12.4233
▁dart	-12.4241
▁geno	-12.4242
ff	-12.4246
eij	-12.4246
osa	-12.425
imon	-12.4251
▁venet	-12.4255
▁wald	-12.4257
▁fabricat	-12.4259
▁gem	-12.4267
ika	-12.427
ellen	-12.4272
hoe	-12.4273
▁dine	-12.4277
▁refin	-12.428
▁kau	-12.4291
nz	-12.4296
▁lac	-12.4297
▁py	-12.4297
oxid	-12.4297
▁plague	-12.4299
rne	-12.4303
▁russ	-12.4309
▁ft	-12.431
▁blu	-12.4312
▁structur	-12.4316
ice	-12.4318
glio	-12.4321
▁adulter	-12.4322
tia	-12.4326
▁claud	-12.4327
▁tani	-12.4331
▁skier	-12.4341
▁conceiv	-12.4343
closure	-12.4345
gery	-12.4355
▁spar	-12.4362
▁detainee	-12.4363
▁dj	-12.4365
▁abba	-12.4367
gaz	-12.4368
▁dri	-12.4373
▁corpora	-12.4377
etcher	-12.4379
▁duran	-12.4381
▁phon	-12.4382
▁pits	-12.4384
kova	-12.4385
pinal	-12.4388
▁characterize	-12.4398
▁jol	-12.44
ariya	-12.4402
▁disabilit	-12.4411
mega	-12.4415
owed	-12.4416
onym	-12.4416
ouad	-12.442
▁cheese	-12.4424
▁graduat	-12.4434
▁repatriat	-12.4436
▁retiree	-12.4437
gay	-12.4443
▁casting	-12.4452
▁licens	-12.4453
▁fracture	-12.4457
▁alga	-12.4461
shan	-12.4461
leban	-12.4465
▁activate	-12.4467
ameter	-12.4468
▁duo	-12.447
▁gat	-12.4473
inches	-12.4477
▁tha	-12.4489
▁frankl	-12.4489
▁sunda	-12.4494
▁extradite	-12.4494
▁tame	-12.4498
▁toddlers	-12.4499
▁conceive	-12.4502
▁natal	-12.4505
comfortabl	-12.4511
word	-12.4516
mosh	-12.452
cock	-12.4522
▁atom	-12.4525
▁caffe	-12.4528
▁stri	-12.4531
▁jian	-12.4535
▁boo	-12.4538
▁fruits	-12.454
▁satisfy	-12.4542
▁scarf	-12.4542
tian	-12.4543
cat	-12.4545
▁ruben	-12.4545
▁appreciati	-12.4553
▁beneficia	-12.4554
ole	-12.4556
garve	-12.4556
▁toleran	-12.4559
ducat	-12.456
badi	-12.4561
▁nois	-12.4565
▁cio	-12.4567
▁ego	-12.4568
wha	-12.4573
▁piro	-12.4573
boy	-12.4577
lift	-12.4585
▁elevat	-12.4589
▁sneak	-12.4594
▁imagin	-12.4596
▁wh	-12.4598
▁lens	-12.4599
▁fade	-12.4609
▁parr	-12.461
mitag	-12.4612
▁decreas	-12.4615
tsuo	-12.4617
diari	-12.4622
▁alp	-12.4626
▁circu	-12.4629
▁psycho	-12.463
ready	-12.4631
cube	-12.4635
walk	-12.4636
convenient	-12.4636
predictabl	-12.4638
accurate	-12.4639
effective	-12.464
economic	-12.464
government	-12.464
affected	-12.4641
daughter	-12.4642
season	-12.4642
igan	-12.4644
fox	-12.4645
spring	-12.4646
▁equ	-12.4646
help	-12.4648
accessib	-12.4649
raged	-12.465
▁defer	-12.465
▁comprise	-12.4653
▁vik	-12.4654
▁nativ	-12.4654
roar	-12.4655
zad	-12.4657
▁suicid	-12.4658
▁lid	-12.4659
▁glamo	-12.466
brew	-12.4667
lein	-12.467
heard	-12.4671
yub	-12.4673
money	-12.4674
oven	-12.4674
▁enthusias	-12.4676
▁americ	-12.4686
▁cripple	-12.4687
▁numb	-12.4689
▁exploitati	-12.4697
▁yoshi	-12.4698
▁flour	-12.4698
▁eavesdropp	-12.47
▁mend	-12.4701
▁distr	-12.4703
▁daimler	-12.4703
▁apprehend	-12.4703
▁handcuff	-12.4703
▁immoral	-12.4703
▁aeronautic	-12.4703
▁boulevard	-12.4703
▁consequent	-12.4703
▁demolition	-12.4703
▁derelict	-12.4703
▁entrepreneur	-12.4703
▁grizzl	-12.4703
▁involuntar	-12.4703
▁kilowatt	-12.4703
▁liechtenstein	-12.4703
▁microwave	-12.4703
▁recipient	-12.4703
▁remittance	-12.4703
▁susceptib	-12.4703
▁unravel	-12.4703
▁uruguay	-12.4703
▁vicinity	-12.4703
▁detergent	-12.4703
▁friction	-12.4703
▁occupy	-12.4703
▁avatar	-12.4703
▁banteng	-12.4703
▁manhunt	-12.4703
▁mcclinto	-12.4703
▁straddl	-12.4703
▁pundit	-12.4703
▁whirl	-12.4703
▁classify	-12.4703
▁octopus	-12.4703
▁graveyard	-12.4703
▁lodging	-12.4703
▁conspirator	-12.4703
▁magoni	-12.4703
▁hemorrhag	-12.4703
▁smear	-12.4703
▁indigen	-12.4703
▁marriot	-12.4703
▁wilkins	-12.4703
nthia	-12.4703
▁turtle	-12.4703
▁discord	-12.4703
▁imbalance	-12.4703
▁pupil	-12.4703
▁dissent	-12.4703
hygien	-12.4703
▁aviv	-12.4703
▁quirk	-12.4703
▁entail	-12.4703
▁nonviolen	-12.4703
▁acquaintance	-12.4703
▁procure	-12.4703
▁essay	-12.4703
▁gaffe	-12.4703
▁polygam	-12.4703
▁organisation	-12.4703
▁gharial	-12.4704
▁masterpiece	-12.4704
▁snowstorm	-12.4704
▁idris	-12.4704
▁grievance	-12.4704
▁roast	-12.4704
▁chipmaker	-12.4704
▁minibus	-12.4704
▁nongovernment	-12.4704
▁accommodation	-12.4704
▁dangl	-12.4704
▁graff	-12.4704
▁butterfl	-12.4704
▁scour	-12.4705
▁overreact	-12.4705
▁attire	-12.4705
▁clover	-12.4705
▁luxurious	-12.4705
▁entice	-12.4705
▁barbour	-12.4705
orrow	-12.4706
▁wiretapp	-12.4706
▁haircut	-12.4706
rogba	-12.4706
▁termination	-12.4706
ilja	-12.4706
emic	-12.4706
▁toxin	-12.4707
▁hague	-12.4707
▁exemption	-12.4707
▁curricul	-12.4707
imeter	-12.4707
▁corral	-12.4707
▁sift	-12.4707
▁aspiration	-12.4707
▁cair	-12.4707
▁gigabyte	-12.4707
▁elevation	-12.4707
▁rainbow	-12.4708
▁fringe	-12.4708
▁flawless	-12.4708
▁tamper	-12.4708
▁wolfe	-12.4708
▁gartner	-12.4708
▁marvel	-12.4709
▁carving	-12.4709
tisa	-12.4709
▁downpour	-12.471
▁novelist	-12.471
▁sunlight	-12.471
▁doctrine	-12.471
▁chick	-12.471
▁depot	-12.471
▁anthr	-12.471
▁organism	-12.4711
▁milos	-12.4711
choa	-12.4711
wire	-12.4712
▁vander	-12.4712
▁yuri	-12.4712
▁admiral	-12.4712
▁summar	-12.4713
▁carli	-12.4714
▁subscriber	-12.4714
okou	-12.4714
▁cynical	-12.4715
▁premeditat	-12.4715
▁tenet	-12.4715
▁runaway	-12.4715
▁mound	-12.4716
▁filter	-12.4717
▁injustice	-12.4717
▁fiance	-12.4717
▁jabal	-12.4717
▁holz	-12.4717
midt	-12.4717
▁mccle	-12.4718
▁walt	-12.4718
▁audition	-12.4719
▁adorn	-12.4719
▁respectful	-12.472
▁composition	-12.472
ohn	-12.472
▁hoard	-12.472
▁mongolia	-12.4721
▁unsc	-12.4722
▁sauer	-12.4722
▁fioren	-12.4723
span	-12.4724
▁obeid	-12.4725
▁galv	-12.4726
▁jolt	-12.4726
▁maggi	-12.4727
▁godd	-12.4727
▁sixteen	-12.4729
▁appa	-12.4731
▁ventilat	-12.4733
▁fiji	-12.4734
▁weiss	-12.4735
▁worshipper	-12.4735
▁nye	-12.4735
▁heller	-12.4736
▁lux	-12.4737
▁worthless	-12.4737
▁corona	-12.4738
▁overpower	-12.4738
▁congregation	-12.4738
▁lax	-12.4739
▁iz	-12.4739
▁cache	-12.474
▁prim	-12.4742
aimi	-12.4742
▁oba	-12.4742
▁smol	-12.4743
▁kisses	-12.4744
▁okay	-12.4745
▁transformers	-12.4745
▁borough	-12.4747
▁milita	-12.4747
▁vulnerabilit	-12.4748
▁mukas	-12.4751
▁veil	-12.4752
▁deteriorate	-12.4753
▁shann	-12.4753
▁earnest	-12.4753
nberg	-12.4754
▁covet	-12.4756
▁polite	-12.4756
▁satan	-12.4757
environmentalist	-12.4759
▁nouri	-12.4761
▁gravitation	-12.4763
▁institutional	-12.4763
iena	-12.4764
▁mwan	-12.4765
▁latino	-12.4766
▁ashes	-12.4768
nant	-12.4769
▁bolsh	-12.477
▁alessandr	-12.4771
asahi	-12.4775
▁scanner	-12.4777
▁bugg	-12.4777
▁bombard	-12.4777
▁stutt	-12.4777
▁sphere	-12.4778
▁pil	-12.4778
▁widower	-12.4779
▁trinit	-12.478
▁rightful	-12.4782
▁mok	-12.4782
▁tao	-12.4783
▁rightist	-12.4783
rief	-12.4783
▁indecen	-12.4784
▁sel	-12.4784
nova	-12.4786
▁designation	-12.4788
guel	-12.479
▁rubin	-12.4794
▁zhi	-12.4799
thle	-12.4801
▁meddl	-12.4802
▁hallow	-12.4802
suit	-12.4803
▁sharpen	-12.4805
▁bois	-12.4805
▁inability	-12.481
▁bragg	-12.4813
▁emitter	-12.4815
kfa	-12.4818
▁pressur	-12.4818
▁spite	-12.482
▁calib	-12.4821
egan	-12.4826
▁qur	-12.4829
▁unha	-12.483
▁lankan	-12.4831
▁lick	-12.4832
▁satisfactor	-12.4833
niels	-12.4837
pick	-12.484
▁tactical	-12.4843
▁kristin	-12.4847
▁llc	-12.4851
▁santos	-12.4852
▁beneficiar	-12.4854
▁accessib	-12.4855
▁lombard	-12.4856
▁registr	-12.486
▁skylin	-12.4862
▁wit	-12.4863
▁scarlet	-12.4864
▁matri	-12.4864
ecker	-12.4867
doo	-12.4867
▁qing	-12.4869
▁brew	-12.487
rome	-12.487
▁thu	-12.4873
▁knot	-12.4875
slaughter	-12.4876
▁lauren	-12.4878
▁fury	-12.4879
▁hiker	-12.4881
▁yuca	-12.4883
▁corte	-12.4885
▁penetrat	-12.4887
▁wol	-12.4891
▁twister	-12.4894
▁legg	-12.4895
▁arter	-12.4896
robe	-12.4897
▁wealthie	-12.4908
roz	-12.4909
▁ancest	-12.4909
▁embed	-12.4911
gie	-12.4916
▁bonsa	-12.492
▁kup	-12.4926
▁zem	-12.4927
▁dom	-12.4927
▁tee	-12.4937
enay	-12.4937
▁downside	-12.4937
▁hil	-12.4937
lastic	-12.4938
▁kampu	-12.4938
▁hashim	-12.4939
▁curv	-12.4939
▁slick	-12.494
▁dictate	-12.4942
jid	-12.4943
▁mut	-12.4947
▁visitation	-12.495
▁consultati	-12.4955
▁legislat	-12.4956
pears	-12.4956
▁parish	-12.4958
▁slate	-12.4965
▁skirt	-12.4971
yung	-12.4973
lab	-12.4974
rough	-12.4974
▁examples	-12.4975
▁wink	-12.4978
▁dominan	-12.4978
pal	-12.4979
▁dayton	-12.4982
▁disposa	-12.4986
▁fest	-12.4987
▁goul	-12.4987
▁mun	-12.4988
vision	-12.4992
▁dp	-12.4995
slow	-12.4996
▁moai	-12.4998
▁rok	-12.4999
▁ellis	-12.5006
▁judd	-12.5014
▁distinguish	-12.502
▁yush	-12.5023
ased	-12.5029
▁santor	-12.5031
bei	-12.5033
▁glea	-12.5033
▁matur	-12.5033
▁coupons	-12.5034
▁mello	-12.5034
▁yachts	-12.5034
▁qualifie	-12.5039
▁damp	-12.5041
afsha	-12.5041
▁campo	-12.5042
▁tat	-12.5045
▁blacks	-12.5045
▁equaliz	-12.5047
▁fig	-12.5049
lissa	-12.5052
▁confuse	-12.5054
▁hoy	-12.5055
▁sali	-12.5055
▁pha	-12.5057
▁pontif	-12.5058
riyad	-12.5063
▁bells	-12.5069
▁mod	-12.5075
ema	-12.5076
▁councilor	-12.5076
▁malt	-12.5079
dka	-12.5079
rage	-12.5081
▁likeness	-12.5081
▁maur	-12.5082
▁jaip	-12.5083
prk	-12.5086
▁ichi	-12.5086
▁utilize	-12.5089
▁kab	-12.5089
escent	-12.509
dolph	-12.5097
pur	-12.5103
gu	-12.5106
▁rotte	-12.5107
ollen	-12.511
▁cheng	-12.5113
ichi	-12.5115
▁robes	-12.5115
▁hum	-12.5119
napped	-12.5126
▁jar	-12.5132
▁sarco	-12.5134
hor	-12.5134
cchi	-12.5135
wage	-12.5135
mise	-12.5137
▁perk	-12.5138
▁gaill	-12.5141
▁eclipse	-12.5147
▁jia	-12.5153
▁spik	-12.5162
aq	-12.5167
az	-12.5171
▁avian	-12.5174
▁poet	-12.5175
elipe	-12.5182
young	-12.5182
▁lonel	-12.5185
▁defamat	-12.5185
▁humble	-12.5186
iba	-12.5188
zhn	-12.5189
▁kaz	-12.519
▁servers	-12.5199
▁chai	-12.5205
kka	-12.5208
oslo	-12.5212
etsk	-12.522
▁sander	-12.522
▁misus	-12.5225
▁breeder	-12.5229
▁abide	-12.523
▁stretche	-12.523
▁marul	-12.5231
▁terminate	-12.5243
iar	-12.5243
▁tracker	-12.525
souf	-12.5252
▁chon	-12.5254
▁clima	-12.5254
heng	-12.5254
poly	-12.5265
▁frederic	-12.5268
▁gert	-12.5269
▁stitche	-12.527
rani	-12.5271
▁abductions	-12.5279
haria	-12.5281
ians	-12.5285
▁unsee	-12.5292
▁trooper	-12.5295
rshad	-12.5305
▁unnerv	-12.5306
▁tallie	-12.5307
▁perceive	-12.5317
noble	-12.5321
▁prof	-12.5328
▁renam	-12.5332
lem	-12.5338
▁washing	-12.5346
▁attende	-12.5359
▁activat	-12.536
arat	-12.5361
lam	-12.5368
▁mute	-12.5375
▁toast	-12.538
▁alleviate	-12.5384
▁robe	-12.5391
▁outfield	-12.5395
onic	-12.5395
▁colo	-12.5397
▁oral	-12.54
▁kazu	-12.5401
erno	-12.5404
▁relie	-12.5408
▁holi	-12.5413
▁lange	-12.5416
bach	-12.5418
vp	-12.5422
endo	-12.5423
keeper	-12.5431
▁deco	-12.5432
uni	-12.5437
▁marian	-12.5439
▁alta	-12.544
▁aston	-12.5454
medic	-12.5454
▁dail	-12.5455
low	-12.5455
▁leon	-12.5455
▁afar	-12.5458
▁cosm	-12.5458
▁dair	-12.5462
tri	-12.5469
▁zub	-12.5475
▁mutilat	-12.548
achel	-12.5484
cu	-12.5485
▁desp	-12.55
mps	-12.5514
▁skid	-12.5515
▁levin	-12.5517
gh	-12.5537
▁stranding	-12.5537
▁blockbusters	-12.5539
fusion	-12.5546
▁christo	-12.5549
▁cas	-12.555
▁gila	-12.5551
▁sock	-12.5552
▁meri	-12.5554
▁updat	-12.5561
▁impersonat	-12.5565
science	-12.5566
▁dona	-12.5571
▁insert	-12.5573
ska	-12.5574
eston	-12.5581
sam	-12.5582
▁stimulat	-12.5587
▁tremor	-12.5587
▁hurdle	-12.5588
ain	-12.559
▁yacht	-12.559
▁jenn	-12.5593
roid	-12.5593
▁accomplishment	-12.5593
issan	-12.5594
▁facilitat	-12.5594
▁oppress	-12.5596
rou	-12.5598
▁penguin	-12.56
▁wastes	-12.5605
▁piz	-12.5608
poon	-12.5614
▁intern	-12.5617
▁pillar	-12.5617
▁roadway	-12.5619
xi	-12.5619
ech	-12.5619
▁kal	-12.562
nne	-12.5623
▁mani	-12.5633
▁duc	-12.5636
▁atta	-12.5638
▁victori	-12.5643
▁hono	-12.5647
▁swell	-12.5649
▁commons	-12.565
▁arc	-12.5664
▁idi	-12.5666
dder	-12.5676
▁proteins	-12.5679
▁marker	-12.5687
▁solan	-12.5701
▁spotte	-12.5702
▁defus	-12.5702
▁mariner	-12.5709
nch	-12.571
▁coupon	-12.5714
▁rb	-12.5727
▁forbid	-12.5728
ister	-12.5728
▁aspir	-12.5728
lf	-12.5733
▁assemble	-12.5736
rail	-12.575
▁stab	-12.5751
oise	-12.5753
▁kma	-12.5762
▁confe	-12.5768
iti	-12.5769
osan	-12.5771
▁guse	-12.5774
▁lik	-12.5775
▁mara	-12.5775
match	-12.5777
▁tama	-12.5779
▁samp	-12.5784
ender	-12.5784
▁unt	-12.5787
▁berger	-12.579
▁coma	-12.5792
▁liberaliz	-12.5793
▁pear	-12.5793
fia	-12.5795
▁stereo	-12.5804
▁encircl	-12.5808
▁aq	-12.5816
tent	-12.582
▁yasuhi	-12.5826
omo	-12.5829
ratt	-12.5831
ppe	-12.5843
▁yul	-12.5846
load	-12.585
▁tub	-12.5854
nix	-12.5856
▁chil	-12.5859
▁logic	-12.5861
zine	-12.5864
▁flore	-12.5864
comm	-12.5865
▁suppressi	-12.5866
▁whaler	-12.587
▁thrust	-12.5874
idge	-12.5874
yud	-12.5875
▁manipulate	-12.5875
uddin	-12.5876
embe	-12.5876
▁emer	-12.5877
nourishe	-12.5877
▁expo	-12.5878
gher	-12.5881
▁robb	-12.5882
▁demo	-12.5883
▁mau	-12.5885
realistic	-12.5888
case	-12.5888
bridge	-12.5888
tooth	-12.5889
stroke	-12.589
historic	-12.589
brook	-12.589
hawk	-12.589
graduate	-12.589
▁infuriate	-12.5892
pour	-12.5892
style	-12.5893
swam	-12.5896
▁euthan	-12.5897
gawa	-12.5898
▁secre	-12.5898
reason	-12.5899
fried	-12.5899
apolis	-12.59
▁spoil	-12.5902
▁dipp	-12.5903
siege	-12.5903
▁euph	-12.5904
▁legalize	-12.5906
kaya	-12.5908
▁cristi	-12.5909
▁paralysi	-12.591
▁kum	-12.5912
lee	-12.5924
iah	-12.5926
master	-12.5927
▁olympia	-12.593
trayal	-12.5931
▁disast	-12.5932
▁emir	-12.5935
thma	-12.5935
osu	-12.5936
▁lenien	-12.5937
▁scrub	-12.5943
▁morris	-12.5943
athan	-12.5946
▁eject	-12.5946
▁persecut	-12.5946
▁homo	-12.5947
▁snag	-12.5947
▁bug	-12.5949
▁reconstruct	-12.5949
slaught	-12.5951
▁bjor	-12.5951
cussion	-12.5953
▁spam	-12.5953
▁clarifi	-12.5953
▁reprimand	-12.5953
▁tumult	-12.5953
▁uninhabit	-12.5953
▁dharams	-12.5953
▁encroach	-12.5953
▁mishandl	-12.5953
▁scapegoat	-12.5953
▁stupid	-12.5953
▁bikini	-12.5953
▁brazen	-12.5953
▁chechnya	-12.5953
▁dilemma	-12.5953
▁fountain	-12.5953
▁incorrect	-12.5953
▁kiosk	-12.5953
▁modify	-12.5953
▁montenegr	-12.5953
▁nanotube	-12.5953
▁orangutan	-12.5953
▁pablo	-12.5953
▁permafrost	-12.5953
▁pesticide	-12.5953
▁prejudice	-12.5953
▁remorse	-12.5953
▁rheumato	-12.5953
▁semiconductor	-12.5953
▁subtitle	-12.5953
▁torchbearer	-12.5953
▁unpleasant	-12.5953
▁arrogan	-12.5953
▁blatant	-12.5953
▁linguistic	-12.5953
▁nullify	-12.5953
▁scully	-12.5953
▁entrench	-12.5953
▁glorify	-12.5953
▁sapien	-12.5953
funct	-12.5953
▁oleg	-12.5953
▁qantas	-12.5953
▁glitch	-12.5953
▁mahmud	-12.5953
▁shroud	-12.5953
▁archeologist	-12.5953
▁conversion	-12.5953
▁ernest	-12.5953
▁tweak	-12.5953
▁piercing	-12.5953
▁horizontal	-12.5953
▁thirst	-12.5953
▁scourge	-12.5953
▁outsourc	-12.5953
▁snoop	-12.5953
▁vivid	-12.5953
▁halper	-12.5953
▁electrocut	-12.5953
▁bookstore	-12.5953
▁picnic	-12.5953
▁blunder	-12.5953
▁ivanko	-12.5953
▁irreversibl	-12.5953
▁reschedul	-12.5954
▁eradicat	-12.5954
▁assailant	-12.5954
▁tirade	-12.5954
▁fabian	-12.5954
▁timber	-12.5954
▁bombardier	-12.5954
▁chechen	-12.5954
▁slaughterhouse	-12.5954
▁humbert	-12.5954
▁ovation	-12.5954
▁gunbattle	-12.5954
▁undervalue	-12.5954
▁perennial	-12.5955
▁regroup	-12.5955
▁bancroft	-12.5955
▁calif	-12.5955
▁grue	-12.5955
▁pervasive	-12.5955
▁mulia	-12.5955
▁sunset	-12.5956
▁orchard	-12.5956
▁payroll	-12.5956
▁playboy	-12.5956
▁pharmacist	-12.5957
▁financier	-12.5957
▁dealership	-12.5957
▁precis	-12.5957
▁beau	-12.5957
▁niece	-12.5957
▁neural	-12.5957
▁exhaustive	-12.5957
▁tailor	-12.5957
▁turbulence	-12.5957
▁eldor	-12.5958
lobo	-12.5958
▁giovan	-12.5958
▁rehearsal	-12.5958
▁eros	-12.5958
▁livelihood	-12.5958
▁annex	-12.5958
▁appliance	-12.5958
▁trumpet	-12.5958
osexual	-12.5958
▁hoax	-12.5958
▁rapper	-12.5959
usnes	-12.5959
▁cylinder	-12.5959
▁mountaineer	-12.5959
▁wolve	-12.5959
▁mattress	-12.5959
▁shave	-12.596
▁excavation	-12.596
▁imperialist	-12.596
▁deception	-12.596
▁realtor	-12.596
▁crusade	-12.596
▁contamination	-12.5961
▁socialite	-12.5962
▁lauder	-12.5962
▁neat	-12.5962
▁microbe	-12.5962
▁poach	-12.5962
▁feasibl	-12.5963
▁postcard	-12.5964
▁lurk	-12.5964
▁audi	-12.5964
▁snagg	-12.5964
▁appointee	-12.5964
▁partition	-12.5964
▁plow	-12.5965
▁reversal	-12.5965
▁distortion	-12.5965
ternate	-12.5966
▁monro	-12.5966
guide	-12.5966
lom	-12.5968
ourage	-12.5968
▁keyboard	-12.5968
▁alternate	-12.5968
▁lieutenants	-12.5968
▁trampled	-12.5968
▁haas	-12.5968
mela	-12.5969
▁cjd	-12.5969
▁witch	-12.5969
▁bachel	-12.5971
▁huang	-12.5971
▁harmless	-12.5971
▁stride	-12.5972
▁sitter	-12.5972
▁walton	-12.5973
▁hoist	-12.5974
▁relic	-12.5975
▁selloff	-12.5977
▁pedophile	-12.5977
▁acquittal	-12.5978
nott	-12.5978
▁liar	-12.5979
▁baile	-12.5979
▁stave	-12.5979
▁surre	-12.598
▁defection	-12.598
▁clogg	-12.5981
▁reeves	-12.5981
▁tasting	-12.5982
▁loft	-12.5983
▁schoolgirl	-12.5984
lli	-12.5984
▁evangelist	-12.5984
▁wobble	-12.5987
▁haunt	-12.5987
▁cutback	-12.5989
▁spillway	-12.599
▁pow	-12.5991
gia	-12.5991
▁yank	-12.5992
▁protestant	-12.5993
▁astro	-12.5993
▁cervi	-12.5993
▁beekeeper	-12.5997
▁cellar	-12.5999
▁backhand	-12.5999
▁bundle	-12.6
▁parma	-12.6001
▁polk	-12.6004
▁limon	-12.6005
ulsan	-12.6006
alai	-12.6008
▁lobbie	-12.6009
▁euthanize	-12.6011
▁makeover	-12.6014
▁recreation	-12.6015
▁curti	-12.6017
imo	-12.6021
▁freighter	-12.6022
▁kilo	-12.6022
▁torri	-12.6023
ality	-12.6023
▁kiln	-12.6024
aikon	-12.6024
▁etc	-12.6027
▁tempt	-12.6027
▁ponder	-12.6028
▁reput	-12.6028
▁showroom	-12.6028
▁convenient	-12.6029
▁cabo	-12.6033
kham	-12.6033
▁prudent	-12.6034
▁spurt	-12.6034
gam	-12.6037
hall	-12.604
▁bestsell	-12.6042
▁gonu	-12.6045
▁grader	-12.6045
▁lar	-12.6046
max	-12.6048
▁culminate	-12.605
▁illustrate	-12.6053
▁insur	-12.6053
▁subversi	-12.6056
▁alegr	-12.6056
rash	-12.6056
▁mum	-12.6057
▁suff	-12.6061
pag	-12.6062
▁pag	-12.6062
extraterrestrial	-12.6065
▁compromis	-12.6067
▁shortcoming	-12.6067
▁lent	-12.6068
▁hacke	-12.6068
▁hendri	-12.6068
ucinic	-12.6071
tter	-12.6072
▁midland	-12.6072
hamel	-12.6078
▁honduras	-12.6079
▁eyebrows	-12.6079
▁chamb	-12.6087
▁allowance	-12.609
ingles	-12.6091
▁shum	-12.6093
▁conrad	-12.6093
cott	-12.6093
raped	-12.61
uli	-12.61
▁balanc	-12.6101
agong	-12.6102
iman	-12.6103
▁nico	-12.6103
▁cav	-12.6105
lic	-12.6109
▁mama	-12.6109
▁suffocat	-12.6111
▁afl	-12.6112
▁roan	-12.6115
ttered	-12.6116
▁francesc	-12.6116
▁bac	-12.6116
▁salad	-12.6119
▁defaulter	-12.612
kar	-12.6122
ehead	-12.6123
▁keller	-12.6125
▁lith	-12.6128
▁smog	-12.6128
▁coral	-12.6132
ex	-12.6134
▁krist	-12.614
pr	-12.6141
▁denn	-12.6142
▁refuel	-12.6145
▁patter	-12.6151
▁curl	-12.6151
▁molecul	-12.6155
▁homi	-12.6156
agliar	-12.616
▁shuk	-12.6161
▁spru	-12.6164
weight	-12.6166
wind	-12.6166
▁gasp	-12.6169
▁marty	-12.617
hue	-12.6175
▁implicat	-12.6179
▁countrymen	-12.6184
▁bidders	-12.6189
agh	-12.619
▁amir	-12.619
net	-12.6191
eppel	-12.6194
▁bloodie	-12.6203
illo	-12.621
▁rhon	-12.6213
rang	-12.6214
▁allah	-12.6215
▁piled	-12.6216
ile	-12.6218
▁bao	-12.6222
▁locke	-12.6228
tui	-12.6236
▁qata	-12.6237
▁gut	-12.6239
▁neutralize	-12.6244
mid	-12.6245
▁glid	-12.6246
▁siddiq	-12.6248
ashkar	-12.6252
▁adhere	-12.6252
andra	-12.6252
▁maximize	-12.6255
ough	-12.6257
▁labe	-12.6259
passionate	-12.6266
▁kins	-12.6273
▁insects	-12.6281
link	-12.6284
▁functional	-12.6296
▁billow	-12.6297
gura	-12.6299
ving	-12.6307
▁consula	-12.6311
▁frightening	-12.6313
▁fc	-12.6317
▁nou	-12.6317
▁tremors	-12.6332
▁hurdles	-12.6332
epp	-12.6339
▁fraz	-12.634
▁converter	-12.6347
isch	-12.6348
▁ike	-12.6351
tched	-12.6356
▁hasten	-12.6358
▁wada	-12.6362
▁sule	-12.6362
▁hemi	-12.6364
pper	-12.637
qi	-12.6382
ere	-12.6391
▁chilling	-12.6392
▁rin	-12.6395
▁strat	-12.6412
▁bids	-12.6421
▁rena	-12.6423
uto	-12.6427
▁kost	-12.643
▁whisk	-12.6432
ced	-12.6434
▁naka	-12.6441
▁illuminat	-12.6443
nage	-12.6445
▁inundate	-12.6445
▁extort	-12.6446
ption	-12.6457
aj	-12.646
▁isabell	-12.646
▁stephens	-12.6464
▁lookout	-12.6466
for	-12.6468
rie	-12.6471
▁chery	-12.6474
lix	-12.648
▁ventur	-12.6483
▁tas	-12.6494
elman	-12.6495
eef	-12.6495
knesse	-12.6496
▁tep	-12.6502
▁hai	-12.6502
▁glue	-12.6504
kill	-12.6505
▁divulge	-12.6507
isman	-12.6509
▁crand	-12.6511
▁glamor	-12.6511
ib	-12.6512
▁karr	-12.6519
erick	-12.6522
▁eater	-12.6524
▁shir	-12.653
rum	-12.6532
▁nong	-12.6533
▁murderer	-12.6544
lice	-12.6545
▁swede	-12.6546
▁hale	-12.6546
▁median	-12.6549
▁tripp	-12.655
fm	-12.6552
table	-12.6553
▁akh	-12.6574
icker	-12.6575
▁chem	-12.6581
▁hatha	-12.6582
▁tab	-12.6586
fid	-12.6588
jin	-12.6589
▁shahr	-12.6591
▁commut	-12.6595
▁idle	-12.6596
▁demi	-12.6596
▁tenzin	-12.6603
▁sheer	-12.6608
▁hos	-12.661
ols	-12.6611
iku	-12.6614
ifa	-12.6618
▁arr	-12.6621
▁alto	-12.6631
▁revitaliz	-12.6637
▁angle	-12.665
▁seb	-12.6652
isse	-12.6654
▁foresee	-12.6656
▁clai	-12.666
▁yasa	-12.6662
▁acr	-12.6664
▁vern	-12.6665
uchi	-12.6667
mp	-12.6668
▁politicize	-12.6679
▁teres	-12.6684
▁marcos	-12.6688
▁handler	-12.6688
▁tarnish	-12.6691
▁begg	-12.6694
▁benit	-12.6695
▁muha	-12.6695
▁hubb	-12.6709
▁terminat	-12.6715
▁cau	-12.6716
mb	-12.6717
user	-12.6721
▁congesti	-12.6723
▁mol	-12.6726
▁askari	-12.6726
▁basa	-12.673
▁hashem	-12.6732
▁importer	-12.6733
mir	-12.6735
liot	-12.6736
tour	-12.6756
▁dor	-12.6761
▁hab	-12.6761
aden	-12.6776
oya	-12.6777
▁slamme	-12.6783
▁grappl	-12.6784
rance	-12.6789
▁incon	-12.679
mas	-12.6795
▁riche	-12.6801
ides	-12.6811
▁rah	-12.6816
▁crowe	-12.6818
oto	-12.6832
xa	-12.6839
▁hiroshi	-12.684
▁salvati	-12.6849
▁hp	-12.6852
▁hayd	-12.6853
▁ador	-12.6855
▁carol	-12.6855
rus	-12.6856
▁pains	-12.6856
utt	-12.6858
▁sac	-12.6869
ps	-12.687
▁brow	-12.6872
▁zaina	-12.6873
ien	-12.6887
ency	-12.6888
▁menac	-12.6894
hei	-12.6896
illian	-12.6896
▁inju	-12.69
▁dou	-12.6901
itzer	-12.6902
▁caste	-12.6902
▁socio	-12.6903
▁chul	-12.6916
▁carne	-12.6922
▁gravel	-12.6926
▁corners	-12.693
▁lau	-12.6931
▁gwa	-12.6931
▁huddle	-12.6939
fu	-12.6942
▁petra	-12.6948
oper	-12.6952
▁huddl	-12.6952
▁tyle	-12.6955
acher	-12.6959
▁kla	-12.6962
aries	-12.6966
▁compassion	-12.6972
▁worrying	-12.698
rafa	-12.6985
flation	-12.6988
enez	-12.6989
▁originat	-12.6991
▁variation	-12.6992
▁conven	-12.6993
usted	-12.7002
ety	-12.7007
terres	-12.7011
▁underlin	-12.7012
▁helm	-12.7013
zer	-12.7017
▁insect	-12.7017
zar	-12.702
▁obi	-12.7024
▁gorilla	-12.7031
▁antibiotic	-12.7033
▁attendant	-12.7043
▁integra	-12.7047
▁marti	-12.7048
▁stephan	-12.7049
▁hander	-12.7055
ellwe	-12.706
▁semiti	-12.7061
▁migrat	-12.7067
rick	-12.7069
▁tang	-12.7076
▁unrel	-12.709
lude	-12.7099
▁grani	-12.7103
▁puzzle	-12.7103
gas	-12.7106
▁spi	-12.711
▁gha	-12.711
▁inflat	-12.7113
▁helsin	-12.7116
nier	-12.7117
asco	-12.7118
▁garro	-12.7121
pression	-12.7122
▁overtake	-12.7123
▁flam	-12.7126
▁baku	-12.713
▁seab	-12.7135
▁entitle	-12.7154
lion	-12.7154
▁kuo	-12.7159
▁stok	-12.7162
zy	-12.7162
▁evacuat	-12.7164
▁storie	-12.7165
▁reset	-12.7173
lb	-12.7178
glo	-12.7185
▁insure	-12.7187
sco	-12.7189
▁clu	-12.7196
lson	-12.7196
▁pend	-12.7202
mur	-12.7202
halifa	-12.7203
hara	-12.7205
logy	-12.721
▁paddle	-12.7215
mple	-12.7217
▁gur	-12.722
dou	-12.7221
speak	-12.7221
eu	-12.7228
hbo	-12.7232
▁hoe	-12.724
▁exhibited	-12.7241
osis	-12.7242
ldp	-12.7253
▁lex	-12.7255
▁transmit	-12.7256
erner	-12.7262
gart	-12.7267
tle	-12.7267
uchov	-12.7268
otti	-12.7275
▁trim	-12.7277
▁lamb	-12.7283
▁slavi	-12.7285
▁responsibl	-12.7285
▁upgrad	-12.7288
may	-12.7289
ratify	-12.7295
py	-12.7296
▁imag	-12.7297
announc	-12.73
bras	-12.73
▁const	-12.7304
▁yam	-12.7305
▁revol	-12.7305
▁reunite	-12.7307
▁halle	-12.7308
▁necessit	-12.7308
girls	-12.7316
pleasure	-12.7317
blood	-12.7318
meyer	-12.7318
account	-12.7318
electric	-12.7319
drift	-12.7319
first	-12.7319
proof	-12.7319
▁destin	-12.7319
fair	-12.732
chrys	-12.732
complete	-12.732
stopp	-12.7321
storm	-12.7321
boat	-12.7322
broken	-12.7323
famous	-12.7326
lund	-12.733
doubted	-12.733
tight	-12.7333
▁pino	-12.7334
▁faw	-12.7336
▁bolivar	-12.7339
kma	-12.734
izer	-12.734
tub	-12.7343
▁wrest	-12.7345
elho	-12.7347
▁reassur	-12.735
▁advers	-12.735
wenge	-12.7351
einfeld	-12.7352
tical	-12.7352
linda	-12.7353
▁exclusi	-12.7354
finger	-12.7356
▁dimension	-12.736
ep	-12.7362
▁automat	-12.7363
ratchet	-12.7366
▁cali	-12.7367
▁identi	-12.7368
▁enlarge	-12.7368
▁galler	-12.7371
mulate	-12.7371
▁terroriz	-12.7371
▁seren	-12.7372
▁hunke	-12.7373
▁exempt	-12.7377
▁lyn	-12.7377
▁manifest	-12.7378
▁surroga	-12.7379
▁disgr	-12.7381
▁uproot	-12.7381
▁embolden	-12.7381
▁incarcerat	-12.7381
▁overcrowd	-12.7381
nuptial	-12.7382
▁aberdeen	-12.7382
▁abstention	-12.7382
▁allegiance	-12.7382
▁anaconda	-12.7382
▁ascertain	-12.7382
▁avocado	-12.7382
▁caricature	-12.7382
▁constituent	-12.7382
▁contaminant	-12.7382
▁curiosit	-12.7382
▁dungeon	-12.7382
▁dwarf	-12.7382
▁elicit	-12.7382
▁etiquette	-12.7382
▁expenditure	-12.7382
▁geopolitic	-12.7382
▁greyhound	-12.7382
▁imperative	-12.7382
▁insomnia	-12.7382
▁instinct	-12.7382
▁leicester	-12.7382
▁limousine	-12.7382
▁maverick	-12.7382
▁nostalgi	-12.7382
▁pamphlet	-12.7382
▁piccolo	-12.7382
▁python	-12.7382
▁shockwave	-12.7382
▁trespass	-12.7382
▁unfavorabl	-12.7382
▁unmistakabl	-12.7382
▁unwelcome	-12.7382
▁vegetarian	-12.7382
▁vegetation	-12.7382
▁blasphem	-12.7382
▁cochran	-12.7382
▁jealous	-12.7382
▁succumb	-12.7382
▁blissitt	-12.7382
▁cocktail	-12.7382
▁culver	-12.7382
▁disgust	-12.7382
▁handshake	-12.7382
▁mothball	-12.7382
▁neighbour	-12.7382
▁schwartz	-12.7382
▁stylish	-12.7382
▁vehement	-12.7382
▁newsletter	-12.7382
▁disparit	-12.7382
▁questionnaire	-12.7382
▁whisper	-12.7382
▁necklace	-12.7382
▁wreath	-12.7382
▁anguish	-12.7382
▁astrophysic	-12.7382
▁encompass	-12.7382
▁inherent	-12.7382
▁lobster	-12.7382
▁magellan	-12.7382
▁songwriter	-12.7382
▁futile	-12.7382
▁parcel	-12.7382
▁thunderstorm	-12.7382
▁diagnosis	-12.7382
▁proficien	-12.7382
▁siphon	-12.7382
▁waheed	-12.7382
▁xavi	-12.7382
▁galile	-12.7382
▁shantytown	-12.7382
▁ardent	-12.7382
▁homepage	-12.7382
▁mortem	-12.7382
▁horizon	-12.7382
▁hotspot	-12.7382
▁commence	-12.7382
▁sororit	-12.7382
▁minaret	-12.7382
▁wreak	-12.7382
▁habitual	-12.7382
▁megawatt	-12.7382
▁bracket	-12.7382
▁conquer	-12.7382
▁rookie	-12.7382
▁boutique	-12.7382
▁soundtrack	-12.7382
▁franz	-12.7382
▁discredit	-12.7382
bard	-12.7382
▁kindergarten	-12.7382
▁enslav	-12.7382
▁hippo	-12.7382
▁ransack	-12.7382
▁silk	-12.7382
shep	-12.7382
▁sculptor	-12.7382
▁headscar	-12.7382
▁intersection	-12.7382
▁macedonia	-12.7382
▁hinck	-12.7382
▁texture	-12.7382
▁exonerat	-12.7382
▁trouser	-12.7382
▁peddl	-12.7382
▁drench	-12.7382
▁auctioneer	-12.7383
▁notebook	-12.7383
▁sparse	-12.7383
▁simmon	-12.7383
▁fissi	-12.7383
▁reorganize	-12.7383
▁lafa	-12.7383
▁mujahid	-12.7383
venir	-12.7383
▁mcew	-12.7383
▁harrod	-12.7383
▁stockhausen	-12.7383
▁oxf	-12.7383
▁schill	-12.7383
▁horde	-12.7383
▁anthropologist	-12.7383
▁irving	-12.7383
▁improvis	-12.7383
▁pediatrician	-12.7383
▁arbitrat	-12.7383
▁cereal	-12.7384
▁roberson	-12.7384
▁clump	-12.7384
▁zogb	-12.7384
▁backyard	-12.7384
▁ferment	-12.7384
▁subdue	-12.7384
▁poetry	-12.7384
▁hollow	-12.7384
▁hungarian	-12.7384
pena	-12.7385
▁adamant	-12.7385
▁snarl	-12.7385
▁koala	-12.7385
▁dividend	-12.7385
▁outburst	-12.7385
▁siem	-12.7385
▁spearhead	-12.7385
▁wig	-12.7385
▁stringent	-12.7385
▁variable	-12.7385
▁pumpkin	-12.7386
▁spacesuit	-12.7386
▁ventilator	-12.7386
▁platini	-12.7386
▁gersh	-12.7386
▁streamline	-12.7386
▁guitarist	-12.7386
▁kingsto	-12.7386
▁subtle	-12.7386
▁marque	-12.7386
blanc	-12.7386
cken	-12.7386
▁inexperience	-12.7386
▁quail	-12.7386
▁niche	-12.7386
▁magdalen	-12.7387
▁censure	-12.7387
▁angola	-12.7387
tacean	-12.7387
▁cont	-12.7387
▁seafar	-12.7387
▁repay	-12.7388
▁zhong	-12.7388
▁dampen	-12.7388
▁foam	-12.7388
▁vertical	-12.7388
▁dani	-12.7388
▁cheek	-12.7388
▁earmark	-12.7388
ellin	-12.7388
▁doctorate	-12.7389
egis	-12.7389
grass	-12.7389
▁crossfire	-12.7389
▁latif	-12.7389
▁coax	-12.7389
dience	-12.7389
▁paranoi	-12.7389
▁flagship	-12.7389
▁vaccinat	-12.739
▁lexus	-12.739
▁unload	-12.739
▁meditation	-12.739
▁loch	-12.7391
▁kolk	-12.7391
kagi	-12.7391
▁impatient	-12.7391
▁rapist	-12.7391
▁accura	-12.7392
▁lace	-12.7392
▁baham	-12.7392
▁occurrence	-12.7393
▁blockade	-12.7393
▁morrison	-12.7393
▁medina	-12.7393
▁pelt	-12.7393
▁slur	-12.7394
▁delete	-12.7394
▁underdog	-12.7394
▁breathtaking	-12.7394
wan	-12.7394
▁strive	-12.7394
▁trove	-12.7395
▁potts	-12.7395
▁reposition	-12.7396
▁myeong	-12.7396
▁kurt	-12.7396
▁pristin	-12.7397
ogury	-12.7397
▁aguil	-12.7398
▁adversari	-12.7398
▁holling	-12.7398
▁trimm	-12.7399
▁intruder	-12.7399
▁raven	-12.74
▁pix	-12.74
▁peril	-12.74
▁flopp	-12.74
▁zombie	-12.7402
▁upload	-12.7402
▁grassland	-12.7402
tomed	-12.7402
▁agitat	-12.7403
mund	-12.7403
▁whip	-12.7403
▁interception	-12.7403
▁saucer	-12.7403
▁wrongful	-12.7403
▁equator	-12.7404
▁swee	-12.7404
▁waterboard	-12.7404
▁sanja	-12.7405
▁gadda	-12.7405
▁allergi	-12.7406
▁cramm	-12.7406
▁ferre	-12.7406
▁chronicle	-12.7406
▁align	-12.7407
▁privatiz	-12.7407
▁efp	-12.7407
ktra	-12.7407
▁saeed	-12.7408
▁notori	-12.7408
▁donggu	-12.7409
▁decry	-12.741
▁adm	-12.741
▁mukh	-12.7411
▁ghana	-12.7411
▁trio	-12.7411
▁limitations	-12.7412
▁hypothes	-12.7412
▁sober	-12.7414
▁cavaliers	-12.7414
▁christen	-12.7414
▁tilt	-12.7415
ynov	-12.7415
▁quo	-12.7415
▁badge	-12.7415
▁optical	-12.7416
▁knockout	-12.7421
cuz	-12.7421
▁boj	-12.7422
xter	-12.7422
▁fogg	-12.7423
▁sagg	-12.7424
▁poise	-12.7424
▁resonat	-12.7424
▁bolivarian	-12.7424
irelessly	-12.7424
▁kwak	-12.7426
▁bruise	-12.7427
croft	-12.7429
dine	-12.743
▁bono	-12.7431
▁dumb	-12.7431
vasive	-12.7431
▁analys	-12.7433
▁chua	-12.7435
iyad	-12.7435
▁rhy	-12.7435
▁svet	-12.7436
fication	-12.7437
▁brighten	-12.7438
▁mcde	-12.7441
▁crematori	-12.7442
▁olli	-12.7442
▁tata	-12.7444
▁bode	-12.7449
▁scribe	-12.7449
▁gand	-12.745
▁validate	-12.745
▁kap	-12.745
▁abductor	-12.745
istani	-12.745
▁tril	-12.7451
▁infuriat	-12.7452
▁kuwaiti	-12.7453
▁colom	-12.7456
▁ecolog	-12.7457
▁reggi	-12.7457
ui	-12.7457
▁divo	-12.7458
▁loath	-12.7459
▁kiri	-12.746
▁bumper	-12.7461
▁tow	-12.7462
▁heli	-12.7462
▁hurried	-12.7464
▁underse	-12.7464
▁surprises	-12.7465
▁communiqu	-12.7465
bagh	-12.7465
▁sesh	-12.7467
acle	-12.747
▁haze	-12.7472
▁motorway	-12.7474
▁parasite	-12.7475
▁withhold	-12.7476
▁nutritional	-12.748
▁gani	-12.7481
▁jali	-12.7481
▁villain	-12.7481
▁brandish	-12.7483
▁bangladeshi	-12.7484
▁toughen	-12.7486
▁imply	-12.7494
make	-12.7495
▁cola	-12.7495
stage	-12.7496
▁nang	-12.75
▁wesley	-12.7501
▁tram	-12.7501
▁digest	-12.7503
▁fraternit	-12.751
▁burger	-12.751
guo	-12.751
▁commemorat	-12.7511
slav	-12.7513
▁continuously	-12.7513
▁durham	-12.7514
▁hopeless	-12.7515
cesc	-12.7517
▁kaise	-12.7517
▁arlen	-12.7519
▁consolidati	-12.7521
baz	-12.7524
▁elevate	-12.7524
▁fink	-12.7524
▁ral	-12.7527
uca	-12.7529
▁atkins	-12.753
▁dior	-12.753
▁idiot	-12.7534
alph	-12.7534
▁caul	-12.7537
▁pian	-12.7541
hamble	-12.7541
zburg	-12.7544
▁soba	-12.7548
▁propeller	-12.7552
▁peni	-12.756
▁sellout	-12.7561
▁yaki	-12.7562
▁graphi	-12.7565
▁moderat	-12.7567
▁sprinter	-12.7567
umu	-12.7567
lander	-12.7568
▁rene	-12.7571
▁khaz	-12.7572
▁joking	-12.7579
▁inscription	-12.7583
▁mast	-12.7584
allest	-12.7584
▁hana	-12.7585
▁salem	-12.7586
▁lebr	-12.759
▁replie	-12.7593
▁specifi	-12.7593
opoul	-12.7595
▁shedd	-12.7596
▁bam	-12.7597
▁postur	-12.7599
suke	-12.7603
▁mik	-12.761
▁buckle	-12.761
desta	-12.7613
face	-12.7613
otto	-12.7616
babil	-12.7617
sworth	-12.7619
cragg	-12.7619
▁khu	-12.7622
du	-12.7623
uku	-12.7625
▁wanna	-12.7625
▁padd	-12.7629
▁slipper	-12.763
▁smoothly	-12.7631
▁unionist	-12.7632
hofst	-12.7634
▁narrat	-12.7635
ssels	-12.7638
▁porto	-12.7648
▁shrive	-12.7653
▁grey	-12.7656
▁payout	-12.7657
mitt	-12.7661
nts	-12.7661
ahi	-12.7661
▁puzzl	-12.7668
alo	-12.7671
▁rex	-12.7674
▁sc	-12.7674
▁rica	-12.7674
ads	-12.7677
▁marcia	-12.7681
▁hanky	-12.7683
untle	-12.7683
zhu	-12.7684
tive	-12.7689
assi	-12.7693
eiffe	-12.7693
▁alaskan	-12.7694
rko	-12.7699
▁airb	-12.7701
▁reside	-12.7704
▁kwa	-12.7705
▁refine	-12.7706
▁mayo	-12.7707
▁busi	-12.7707
mission	-12.7709
▁abou	-12.771
leak	-12.771
▁harden	-12.7716
▁getty	-12.7717
▁tarant	-12.7719
▁ponte	-12.7723
zzy	-12.773
▁oppressi	-12.7731
currence	-12.7738
▁gye	-12.7739
▁glance	-12.774
▁cato	-12.7743
▁rott	-12.7743
magh	-12.7744
nmen	-12.7745
vuit	-12.7745
▁roberts	-12.775
dahn	-12.7751
▁billionaires	-12.7753
▁polariz	-12.7754
▁reconvene	-12.7755
shiro	-12.7759
illionaire	-12.7762
▁smiley	-12.7766
▁belated	-12.7771
▁repress	-12.7775
▁favorabl	-12.7785
uil	-12.7789
▁ter	-12.7793
▁jima	-12.7795
▁rancher	-12.7802
▁genital	-12.7805
stick	-12.7805
ugh	-12.7812
ridge	-12.7814
mposition	-12.7823
▁strick	-12.7823
▁pillars	-12.7824
▁accomplishments	-12.7825
byl	-12.7836
hat	-12.7842
rkus	-12.7849
tick	-12.7851
▁zal	-12.7853
gro	-12.7854
▁info	-12.7855
arro	-12.7861
▁abb	-12.7861
▁slop	-12.7863
mphan	-12.7863
efe	-12.7867
urance	-12.7869
▁subsidiz	-12.787
▁intrigue	-12.7872
▁lud	-12.7874
▁bach	-12.7875
▁volk	-12.7884
iki	-12.7891
inne	-12.7895
▁dole	-12.7895
▁cruis	-12.7898
▁sab	-12.7905
▁rai	-12.7906
usa	-12.7906
np	-12.7915
yanni	-12.7918
▁bustl	-12.7927
errone	-12.7931
▁fak	-12.7935
▁riv	-12.7938
▁bucha	-12.7947
▁herman	-12.7951
▁cer	-12.7954
▁merg	-12.7954
▁lease	-12.7955
▁nai	-12.7961
▁ridde	-12.7967
▁conditional	-12.7971
▁ble	-12.7971
▁stra	-12.7972
▁kah	-12.7975
▁mach	-12.7975
▁hosh	-12.7977
▁batt	-12.7978
rw	-12.798
▁gol	-12.7985
▁notic	-12.7985
▁weave	-12.799
▁crisscross	-12.7993
▁gloss	-12.7995
▁loren	-12.7996
▁liner	-12.7996
yong	-12.8002
▁azim	-12.8014
oga	-12.8016
▁sol	-12.8018
▁cube	-12.802
fill	-12.8021
▁calve	-12.8026
▁lark	-12.804
▁proceeding	-12.8045
▁vindicat	-12.8049
▁sig	-12.8051
▁fah	-12.8052
▁whi	-12.8057
ebol	-12.8057
▁circl	-12.8061
iable	-12.8061
▁vari	-12.8067
▁vas	-12.8079
iera	-12.808
scription	-12.8081
▁choke	-12.8084
▁tung	-12.8085
azar	-12.8092
▁promoter	-12.8092
▁stein	-12.8094
▁taba	-12.8096
▁depress	-12.8098
▁alerts	-12.8098
▁rive	-12.8101
▁baron	-12.8105
▁gale	-12.8112
▁hyp	-12.8112
▁brass	-12.8113
tiana	-12.8113
▁amal	-12.8118
▁disco	-12.8127
▁hasti	-12.8131
▁aft	-12.8137
▁monta	-12.814
▁graf	-12.8143
shop	-12.8148
esha	-12.8149
hel	-12.8152
▁beards	-12.8155
▁workout	-12.816
▁harrie	-12.8164
lla	-12.8169
▁lew	-12.8172
gara	-12.818
▁kono	-12.8182
took	-12.8183
▁strangl	-12.8184
▁revitalize	-12.8186
▁wali	-12.8191
[...]
