<pad>	0
<s>	0
</s>	0
<unk>	0
▁.	-0
▁이	-1
했다	-2
▁대	-3
▁있	-4
에서	-5
▁사	-6
▁그	-7
▁지	-8
▁일	-9
▁것	-10
으로	-11
▁수	-12
▁전	-13
▁미	-14
▁가	-15
▁아	-16
▁있다	-17
▁한	-18
▁시	-19
▁주	-20
▁고	-21
▁위	-22
▁보	-23
▁경	-24
▁정	-25
▁말	-26
▁중	-27
▁인	-28
▁기	-29
▁자	-30
하고	-31
▁명	-32
하는	-33
▁부	-34
라고	-35
▁밝	-36
다고	-37
▁발	-38
▁공	-39
▁의	-40
▁년	-41
▁오	-42
▁관	-43
▁국	-44
▁밝혔	-45
▁다	-46
들이	-47
▁유	-48
들은	-49
▁여	-50
▁밝혔다	-51
▁현	-52
▁말했다	-53
▁미국	-54
▁것이	-55
▁조	-56
▁않	-57
▁비	-58
▁상	-59
▁나	-60
▁만	-61
니다	-62
▁하	-63
▁마	-64
▁제	-65
▁소	-66
▁있는	-67
▁연	-68
▁개	-69
통령	-70
▁영	-71
▁세	-72
▁모	-73
▁동	-74
▁대통령	-75
▁선	-76
▁내	-77
으며	-78
▁우	-79
▁지난	-80
었다	-81
▁월	-82
에게	-83
▁해	-84
▁무	-85
▁그는	-86
▁최	-87
▁당	-88
▁후	-89
▁스	-90
▁방	-91
▁바	-92
▁알	-93
▁예	-94
▁파	-95
▁북	-96
▁위해	-97
▁c	-98
▁t	-99
▁받	-100
▁a	-101
▁대한	-102
▁결	-103
▁도	-104
▁회	-105
▁없	-106
▁남	-107
▁에	-108
▁이라	-109
▁현지	-110
▁총	-111
▁정부	-112
▁이번	-113
▁통	-114
▁성	-115
▁구	-116
습니다	-117
▁차	-118
▁전했다	-119
지만	-120
▁반	-121
했다고	-122
▁어	-123
▁신	-124
시간	-125
▁불	-126
이다	-127
▁노	-128
적인	-129
▁대해	-130
▁포	-131
▁장	-132
하기	-133
▁거	-134
in	-135
▁현지시간	-136
▁원	-137
▁달	-138
▁생	-139
▁계	-140
▁강	-141
▁s	-142
▁프	-143
▁실	-144
▁며	-145
▁또	-146
▁이라크	-147
들을	-148
까지	-149
리는	-150
▁매	-151
▁로	-152
▁약	-153
▁폭	-154
▁경찰	-155
▁분	-156
▁사람	-157
됐다	-158
▁올	-159
들의	-160
▁서	-161
▁것으로	-162
▁감	-163
▁때	-164
▁재	-165
▁더	-166
▁명이	-167
▁안	-168
▁교	-169
▁라	-170
▁북한	-171
▁문	-172
▁요	-173
▁피	-174
▁것이라고	-175
▁진	-176
▁중국	-177
하지	-178
▁그러	-179
▁있다고	-180
▁외	-181
▁자신	-182
한다	-183
▁것을	-184
▁한국	-185
▁입	-186
▁열	-187
▁그러나	-188
▁추	-189
았다	-190
였다	-191
on	-192
re	-193
▁사망	-194
▁출	-195
▁주장	-196
적으로	-197
▁호	-198
▁많	-199
▁발생	-200
▁확	-201
▁등	-202
부터	-203
▁군	-204
▁테	-205
에는	-206
▁민	-207
인은	-208
▁행	-209
▁카	-210
▁살	-211
▁다른	-212
▁f	-213
▁명의	-214
하게	-215
▁p	-216
▁영국	-217
▁두	-218
시아	-219
▁같	-220
er	-221
▁지역	-222
▁m	-223
▁관계	-224
▁증	-225
▁투	-226
▁예정	-227
▁작	-228
▁과	-229
▁리	-230
▁배	-231
바마	-232
▁타	-233
▁목	-234
▁베	-235
▁발표	-236
▁설	-237
▁단	-238
▁오바마	-239
▁대변	-240
사는	-241
▁법	-242
리아	-243
장은	-244
▁집	-245
▁한편	-246
기를	-247
▁되	-248
▁승	-249
▁새	-250
▁이라고	-251
an	-252
▁문제	-253
▁건	-254
▁독	-255
들에게	-256
▁화	-257
ti	-258
▁n	-259
졌다	-260
▁보도	-261
▁뉴	-262
▁일본	-263
▁b	-264
▁이후	-265
▁처	-266
▁할	-267
▁관련	-268
▁못	-269
▁후보	-270
▁검	-271
▁금	-272
▁심	-273
▁평	-274
▁세계	-275
▁코	-276
다는	-277
▁버	-278
▁k	-279
▁참	-280
▁치	-281
▁판	-282
▁적	-283
에서는	-284
▁w	-285
에따	-286
자는	-287
면서	-288
▁통해	-289
▁많은	-290
▁위한	-291
▁앞	-292
▁부시	-293
▁들	-294
▁협	-295
▁크	-296
▁클	-297
▁데	-298
▁억	-299
▁언	-300
▁저	-301
▁레	-302
▁번	-303
▁체	-304
하며	-305
▁핵	-306
리고	-307
▁달러	-308
▁대통령은	-309
en	-310
스탄	-311
▁국가	-312
▁병	-313
or	-314
▁물	-315
했으며	-316
자가	-317
관은	-318
사를	-319
▁운	-320
he	-321
▁변	-322
▁가장	-323
▁합	-324
▁필	-325
라는	-326
▁테러	-327
▁학	-328
▁벌	-329
리가	-330
▁동안	-331
▁같은	-332
▁그의	-333
스트	-334
▁경제	-335
▁영화	-336
▁사건	-337
▁산	-338
▁것이다	-339
▁초	-340
▁시작	-341
▁이상	-342
▁대변인은	-343
▁양	-344
문에	-345
스는	-346
▁브	-347
▁공격	-348
▁아프	-349
▁항	-350
원의	-351
▁d	-352
된다	-353
ar	-354
le	-355
리를	-356
▁아이	-357
▁직	-358
▁은	-359
▁i	-360
▁현재	-361
자들은	-362
들과	-363
▁역	-364
▁보고	-365
▁o	-366
▁계획	-367
▁민주	-368
▁임	-369
▁연구	-370
al	-371
▁될	-372
이트	-373
▁사용	-374
▁존	-375
▁국제	-376
▁선거	-377
▁야	-378
▁인터	-379
혐의	-380
▁미군	-381
이라고	-382
▁것은	-383
▁시간	-384
▁한다	-385
▁주장했다	-386
지는	-387
▁메	-388
도록	-389
▁조사	-390
▁e	-391
▁함	-392
▁또한	-393
요일	-394
▁지지	-395
▁는	-396
하다	-397
▁최근	-398
▁돌	-399
상을	-400
▁일부	-401
▁뒤	-402
스라	-403
▁했다	-404
되는	-405
▁경기	-406
으나	-407
▁발견	-408
▁토	-409
었다고	-410
▁덧	-411
▁u	-412
▁덧붙	-413
▁혐의	-414
▁계속	-415
▁페	-416
▁시위	-417
▁특	-418
▁the	-419
▁포함	-420
▁러	-421
력을	-422
▁경우	-423
했습니다	-424
▁보도했다	-425
▁취	-426
▁사실	-427
▁여성	-428
▁덧붙였다	-429
▁및	-430
▁생각	-431
▁태	-432
▁회담	-433
▁요구	-434
▁이란	-435
스라엘	-436
▁환	-437
▁이스라엘	-438
원은	-439
▁설명	-440
했던	-441
▁않았다	-442
▁h	-443
▁표	-444
▁결정	-445
▁박	-446
라이	-447
레이	-448
▁방문	-449
▁에서	-450
자들이	-451
▁자신의	-452
▁석	-453
▁탈	-454
레스	-455
▁지도	-456
로운	-457
▁모든	-458
▁줄	-459
장을	-460
▁비난	-461
▁프로	-462
▁복	-463
리스	-464
▁몇	-465
▁당국	-466
▁라고	-467
▁종	-468
키스탄	-469
es	-470
▁게	-471
▁함께	-472
▁파키스탄	-473
니아	-474
▁당시	-475
르면	-476
▁가능	-477
▁결과	-478
▁점	-479
주의	-480
인이	-481
▁백	-482
▁활	-483
▁프랑	-484
▁g	-485
되고	-486
nn	-487
사가	-488
▁to	-489
▁음	-490
▁팔	-491
해야	-492
▁하는	-493
▁그리고	-494
▁논	-495
▁j	-496
입니다	-497
▁허	-498
▁곳	-499
보다	-500
▁때문에	-501
▁원문	-502
▁걸	-503
▁맞	-504
▁높	-505
시키	-506
원이	-507
▁대선	-508
▁수도	-509
▁인도	-510
▁온	-511
▁모두	-512
▁근	-513
▁드	-514
▁러시아	-515
▁필요	-516
▁cnn	-517
랜드	-518
회의	-519
at	-520
▁간	-521
▁채	-522
▁정치	-523
에따르면	-524
▁애	-525
▁클린	-526
is	-527
▁새로운	-528
▁지원	-529
▁예정이다	-530
▁유엔	-531
▁천	-532
▁친	-533
▁처음	-534
지를	-535
▁프랑스	-536
▁설명했다	-537
자인	-538
▁클린턴	-539
▁충	-540
▁있습니다	-541
지고	-542
▁있으며	-543
▁l	-544
▁정부는	-545
▁경찰은	-546
▁열린	-547
▁in	-548
▁사이	-549
▁숨	-550
▁갖	-551
에도	-552
▁민주당	-553
▁떨	-554
▁본	-555
▁블	-556
▁용	-557
▁알려	-558
▁피해	-559
▁사고	-560
왔다	-561
서는	-562
▁아직	-563
▁찾	-564
▁철	-565
▁기록	-566
▁케	-567
▁터	-568
▁들어	-569
ro	-570
▁기자	-571
장이	-572
▁규	-573
▁좋	-574
▁우리	-575
부는	-576
▁큰	-577
▁떨어	-578
▁유럽	-579
▁있었다	-580
▁우주	-581
▁디	-582
▁를	-583
▁뉴욕	-584
기가	-585
▁없다	-586
원회	-587
▁권	-588
안을	-589
▁담	-590
▁상황	-591
▁않았	-592
▁휴	-593
▁않는	-594
ic	-595
▁질	-596
▁플	-597
▁폭탄	-598
▁그녀	-599
▁대표	-600
▁하고	-601
치를	-602
▁대통령이	-603
▁쿠	-604
it	-605
비아	-606
되어	-607
▁김	-608
▁지난해	-609
▁합의	-610
▁않을	-611
tion	-612
▁아니	-613
▁올해	-614
▁식	-615
이스	-616
▁힐	-617
▁날	-618
▁성명	-619
▁상원의	-620
▁손	-621
▁최고	-622
▁미국의	-623
▁나타	-624
▁압	-625
▁청	-626
▁co	-627
▁국민	-628
▁준	-629
▁이에	-630
▁따	-631
기에	-632
▁무장	-633
▁와	-634
▁네	-635
▁가족	-636
화를	-637
▁of	-638
▁있을	-639
됐다고	-640
그램	-641
▁이날	-642
▁침	-643
▁광	-644
▁있었	-645
▁루	-646
▁비행	-647
부분	-648
ing	-649
▁총리는	-650
▁완	-651
▁체포	-652
▁첫	-653
▁진행	-654
▁접	-655
전을	-656
▁대학	-657
▁패	-658
하여	-659
거나	-660
이고	-661
▁정보	-662
▁속	-663
수는	-664
▁번째	-665
▁위치	-666
▁확인	-667
▁반대	-668
▁끝	-669
▁난	-670
▁부상	-671
▁이슬	-672
이며	-673
자를	-674
▁발생한	-675
▁있다는	-676
동을	-677
▁명을	-678
▁발표했다	-679
과의	-680
▁범	-681
명의	-682
성이	-683
▁받고	-684
▁순	-685
▁이미	-686
▁아프간	-687
▁총리	-688
▁공개	-689
▁대부분	-690
as	-691
ed	-692
▁다음	-693
▁소식	-694
▁잘	-695
▁폐	-696
▁트	-697
▁이는	-698
▁얻	-699
▁희	-700
스의	-701
▁다시	-702
▁만들	-703
▁각	-704
이나	-705
▁주민	-706
▁빠	-707
▁증가	-708
자의	-709
▁이용	-710
▁사람들이	-711
운데	-712
▁워	-713
▁그가	-714
에따라	-715
▁가운데	-716
▁정부가	-717
렸다	-718
▁왕	-719
하면	-720
▁누	-721
▁방송	-722
정부	-723
▁항공	-724
단체	-725
▁중단	-726
▁넘	-727
▁축	-728
▁예상	-729
▁전문	-730
▁의해	-731
원을	-732
▁주요	-733
정을	-734
▁밝혀	-735
사의	-736
타인	-737
▁프로그램	-738
성을	-739
레반	-740
▁우리는	-741
▁골	-742
하면서	-743
▁콜	-744
지역	-745
▁투표	-746
▁탈레반	-747
▁막	-748
스가	-749
▁감독	-750
▁공화	-751
▁내용	-752
▁실시	-753
간의	-754
이는	-755
▁오늘	-756
▁얼	-757
▁이슬람	-758
▁된다	-759
▁된	-760
▁외교	-761
와의	-762
▁인해	-763
▁절	-764
▁차량	-765
▁암	-766
▁여러	-767
▁납	-768
▁병원	-769
▁상태	-770
▁해결	-771
들에	-772
기사	-773
인을	-774
▁홍	-775
▁않은	-776
▁책	-777
로부터	-778
▁을	-779
무장	-780
▁머	-781
는데	-782
▁받아	-783
▁조지	-784
장에서	-785
하려	-786
▁지적	-787
▁됐다	-788
▁밀	-789
▁전쟁	-790
났다	-791
▁인터뷰	-792
▁중요	-793
▁언급	-794
▁언론	-795
▁농	-796
▁독일	-797
▁의회	-798
▁jo	-799
▁향	-800
금을	-801
▁평화	-802
▁팔레스	-803
▁급	-804
드는	-805
▁혐의로	-806
▁tv	-807
▁형	-808
ore	-809
▁이어	-810
했지만	-811
il	-812
▁돌아	-813
디오	-814
▁지금	-815
▁국방	-816
▁폭발	-817
▁대통령의	-818
▁캐	-819
스를	-820
▁re	-821
▁변호	-822
달러	-823
▁정상	-824
위원회	-825
▁도시	-826
▁잡	-827
동차	-828
▁퍼	-829
림픽	-830
▁티	-831
처럼	-832
되지	-833
ins	-834
▁단체	-835
▁원문기사	-836
▁요청	-837
대로	-838
▁학생	-839
무부	-840
▁팔레스타인	-841
기로	-842
▁촉	-843
▁살해	-844
업체	-845
▁승리	-846
▁위치한	-847
▁매우	-848
▁헤	-849
▁있어	-850
▁인터넷	-851
ent	-852
▁데이	-853
▁개월	-854
▁우려	-855
보기	-856
▁악	-857
자로	-858
▁연방	-859
▁호주	-860
▁제공	-861
관이	-862
▁브라	-863
▁석방	-864
▁이유	-865
▁받았다	-866
▁죽	-867
▁공화당	-868
가는	-869
▁매케	-870
▁상승	-871
▁이를	-872
▁없는	-873
▁금융	-874
ou	-875
▁관리	-876
▁이들	-877
▁탄	-878
▁강조	-879
도로	-880
ra	-881
▁편	-882
▁소속	-883
▁추가	-884
사태	-885
▁당선	-886
▁판매	-887
▁?	-888
▁방법	-889
▁참석	-890
▁한다고	-891
▁개발	-892
▁남부	-893
▁마이	-894
▁km	-895
▁떠	-896
임을	-897
▁사실을	-898
수가	-899
▁성공	-900
리카	-901
▁사진	-902
겠다고	-903
▁서울	-904
▁볼	-905
▁모습	-906
▁않고	-907
▁키	-908
▁힘	-909
했고	-910
한다고	-911
기는	-912
되었다	-913
격을	-914
▁맥	-915
스터	-916
▁자동차	-917
▁여행	-918
▁위협	-919
명이	-920
▁개의	-921
▁보여	-922
▁협상	-923
▁베이	-924
▁생산	-925
▁터키	-926
리포	-927
▁관계자는	-928
▁긴	-929
▁기술	-930
▁군사	-931
테러	-932
▁하락	-933
▁어떤	-934
▁joins	-935
냈다	-936
▁쓰	-937
▁구조	-938
▁용의	-939
▁지적했다	-940
▁측	-941
▁그들은	-942
▁올림픽	-943
전에	-944
▁인질	-945
▁하나	-946
자들을	-947
이지	-948
장에	-949
▁위험	-950
▁주지	-951
▁인근	-952
▁명은	-953
▁전문가	-954
▁원문기사보기	-955
▁보안	-956
▁보호	-957
▁사무	-958
▁인정	-959
르는	-960
이었다	-961
되었	-962
업을	-963
▁일어	-964
▁회사	-965
에서의	-966
▁당국은	-967
▁과학	-968
▁ap	-969
▁정책	-970
▁크리스	-971
▁하지	-972
▁이라며	-973
력이	-974
▁반군	-975
▁최소	-976
▁영향	-977
리에	-978
▁보인	-979
▁백악	-980
▁잠	-981
▁없다고	-982
ation	-983
▁검찰	-984
ec	-985
▁폴	-986
▁납치	-987
권을	-988
▁커	-989
치는	-990
▁외국	-991
▁받은	-992
id	-993
센터	-994
▁경고	-995
▁어린	-996
▁준비	-997
인의	-998
▁하지만	-999
있는	-1000
의를	-1001
tic	-1002
▁관광	-1003
부를	-1004
▁건물	-1005
▁으로	-1006
▁북한이	-1007
▁자유	-1008
▁공식	-1009
▁선수	-1010
▁의원	-1011
▁이와	-1012
▁노동	-1013
▁몰	-1014
▁컴	-1015
얀마	-1016
▁이름	-1017
▁제작	-1018
th	-1019
▁ar	-1020
ig	-1021
대를	-1022
했으나	-1023
▁미얀마	-1024
지에	-1025
회담	-1026
▁안전	-1027
하기로	-1028
음을	-1029
▁지구	-1030
▁오후	-1031
했었다	-1032
▁북한의	-1033
명을	-1034
식을	-1035
▁있던	-1036
샤라	-1037
▁것에	-1038
▁공항	-1039
▁마지	-1040
▁받았	-1041
▁an	-1042
▁웹	-1043
▁니	-1044
다드	-1045
▁나는	-1046
▁자살	-1047
싱턴	-1048
▁도착	-1049
▁은행	-1050
▁극	-1051
▁고위	-1052
▁바그	-1053
▁엘	-1054
▁차례	-1055
▁런	-1056
선을	-1057
인트	-1058
▁아시아	-1059
▁보고서	-1060
▁팀	-1061
▁여론	-1062
▁kore	-1063
▁건강	-1064
▁힐러	-1065
▁사회	-1066
▁길	-1067
▁스타	-1068
▁경찰이	-1069
▁인터뷰에서	-1070
▁착	-1071
▁년간	-1072
▁노력	-1073
▁격	-1074
퓨터	-1075
도를	-1076
신은	-1077
▁런던	-1078
▁스페	-1079
▁워싱턴	-1080
st	-1081
▁푸	-1082
▁알카	-1083
▁시민	-1084
▁이러	-1085
▁학교	-1086
▁미국이	-1087
회견	-1088
▁com	-1089
▁앞으로	-1090
▁컴퓨터	-1091
은행	-1092
▁이러한	-1093
▁바그다드	-1094
시켰	-1095
▁치료	-1096
ac	-1097
▁사태	-1098
▁싶	-1099
▁갖고	-1100
▁미국은	-1101
▁정부의	-1102
▁창	-1103
리의	-1104
문을	-1105
▁앞서	-1106
▁밖	-1107
▁동물	-1108
▁마지막	-1109
▁있도록	-1110
▁북부	-1111
▁오는	-1112
▁조직	-1113
▁거래	-1114
나라	-1115
▁촉구	-1116
▁for	-1117
었던	-1118
▁그녀는	-1119
ur	-1120
▁면	-1121
하는데	-1122
▁가진	-1123
▁인쇄	-1124
▁떨어진	-1125
▁강조했다	-1126
지가	-1127
위를	-1128
지지	-1129
▁목표	-1130
씨는	-1131
▁도움	-1132
▁연합	-1133
et	-1134
▁윌	-1135
▁이탈	-1136
세를	-1137
자와	-1138
▁st	-1139
▁빌	-1140
▁놓	-1141
ad	-1142
▁알카에	-1143
수를	-1144
▁발언	-1145
▁연설	-1146
▁기자회견	-1147
▁수상	-1148
▁공동	-1149
▁기업	-1150
하다고	-1151
▁돈	-1152
▁잃	-1153
▁독해	-1154
▁비난했다	-1155
▁r	-1156
▁거부	-1157
▁거의	-1158
▁야당	-1159
▁유명	-1160
▁백악관	-1161
▁장관은	-1162
▁빈	-1163
있다	-1164
▁규모	-1165
▁자신이	-1166
▁혼	-1167
▁결혼	-1168
▁버락	-1169
▁느	-1170
장의	-1171
조사	-1172
▁민간	-1173
▁오전	-1174
▁활동	-1175
▁처음으로	-1176
bc	-1177
사일	-1178
▁논의	-1179
▁슈	-1180
▁출신	-1181
▁가격	-1182
▁국경	-1183
▁불법	-1184
▁차지	-1185
에서도	-1186
▁헬	-1187
▁까지	-1188
▁최대	-1189
리포니아	-1190
ol	-1191
▁삼	-1192
▁캘	-1193
설명	-1194
회를	-1195
▁소비	-1196
같은	-1197
▁경쟁	-1198
▁수감	-1199
▁재판	-1200
했다는	-1201
▁남아	-1202
▁불구	-1203
▁타임	-1204
▁판결	-1205
▁눈	-1206
▁지난달	-1207
▁독해설명	-1208
▁사람들은	-1209
▁금지	-1210
하도록	-1211
동안	-1212
▁수백	-1213
▁이전	-1214
▁충돌	-1215
▁투자	-1216
됐으며	-1217
▁이들은	-1218
▁밤	-1219
기도	-1220
▁부인	-1221
▁환경	-1222
▁헌	-1223
전히	-1224
▁이탈리아	-1225
▁그것	-1226
샤라프	-1227
▁오바마는	-1228
▁보내	-1229
▁좋은	-1230
자들의	-1231
으로부터	-1232
니스탄	-1233
▁무샤라프	-1234
▁샤	-1235
▁다이	-1236
▁라이	-1237
▁사우	-1238
▁심각	-1239
▁베이징	-1240
▁즉	-1241
마스	-1242
심을	-1243
▁관한	-1244
▁희생	-1245
인들이	-1246
▁있지만	-1247
▁북한은	-1248
▁알카에다	-1249
▁un	-1250
▁참가	-1251
▁출연	-1252
▁통과	-1253
▁캘리포니아	-1254
쳤다	-1255
▁많이	-1256
▁밝히	-1257
▁아무	-1258
▁호텔	-1259
사이트	-1260
▁만에	-1261
▁부족	-1262
합니다	-1263
들도	-1264
▁이곳	-1265
▁이런	-1266
▁폭력	-1267
▁이상의	-1268
사인	-1269
센트	-1270
▁운영	-1271
▁않는다	-1272
▁공급	-1273
▁주둔	-1274
un	-1275
군이	-1276
▁콘	-1277
▁참여	-1278
▁유지	-1279
▁친구	-1280
했을	-1281
▁움	-1282
대가	-1283
▁미사일	-1284
▁늘	-1285
제를	-1286
▁약속	-1287
▁역사	-1288
▁전망	-1289
▁하루	-1290
▁보인다	-1291
군은	-1292
▁지방	-1293
el	-1294
▁귀	-1295
▁그를	-1296
▁못했다	-1297
규모	-1298
▁감소	-1299
▁범죄	-1300
▁문제를	-1301
▁없이	-1302
▁코리아	-1303
am	-1304
스타	-1305
▁사망했다	-1306
▁몸	-1307
대한	-1308
세계	-1309
▁동영	-1310
가니스탄	-1311
▁우승	-1312
▁어린이	-1313
▁엄	-1314
▁대상	-1315
▁중요한	-1316
치가	-1317
▁수사	-1318
▁아프가니스탄	-1319
▁바이	-1320
안에	-1321
국의	-1322
니는	-1323
▁최초	-1324
▁artic	-1325
▁구성	-1326
▁이루	-1327
▁지진	-1328
▁article	-1329
감을	-1330
나는	-1331
▁낮	-1332
▁너	-1333
▁정도	-1334
졌다고	-1335
▁미국과	-1336
ss	-1337
라도	-1338
베이	-1339
원들이	-1340
▁박사는	-1341
▁회담을	-1342
드의	-1343
▁갈	-1344
▁움직	-1345
▁징	-1346
▁이야	-1347
▁포인트	-1348
▁보다	-1349
▁가자	-1350
▁변화	-1351
▁불구하고	-1352
▁알려졌다	-1353
▁웹사이트	-1354
▁앤	-1355
▁대의	-1356
자들에게	-1357
▁응	-1358
어진	-1359
▁독립	-1360
▁공격을	-1361
▁봉	-1362
▁기대	-1363
▁일으	-1364
▁놀	-1365
▁스페인	-1366
▁말했습니다	-1367
가를	-1368
르코	-1369
▁맡	-1370
▁반면	-1371
▁아버	-1372
▁장관	-1373
▁특별	-1374
사회	-1375
▁인용	-1376
▁것입니다	-1377
트는	-1378
▁남성	-1379
▁역할	-1380
▁전투	-1381
원들은	-1382
▁딸	-1383
원에	-1384
▁부토	-1385
▁유권	-1386
▁폐쇄	-1387
▁힐러리	-1388
▁퇴	-1389
하자	-1390
▁대사	-1391
▁짐	-1392
▁성명을	-1393
하던	-1394
▁가지	-1395
▁직접	-1396
후보	-1397
▁서비	-1398
리에서	-1399
▁사망한	-1400
▁쇼	-1401
▁안보	-1402
▁전에	-1403
▁기소	-1404
▁회의	-1405
▁것이라는	-1406
▁말을	-1407
▁확실	-1408
ay	-1409
▁웨	-1410
▁칼	-1411
가가	-1412
주는	-1413
▁내려	-1414
▁맨	-1415
리다	-1416
사전	-1417
▁마을	-1418
▁목격	-1419
나라당	-1420
기구	-1421
부가	-1422
▁발사	-1423
▁세의	-1424
▁업	-1425
▁이것	-1426
▁사망했다고	-1427
▁글	-1428
ia	-1429
▁별	-1430
▁펼	-1431
기의	-1432
대의	-1433
▁ch	-1434
▁나라	-1435
▁신문	-1436
▁추정	-1437
▁통신	-1438
▁조치를	-1439
▁한나라당	-1440
계를	-1441
즈는	-1442
▁강화	-1443
▁높은	-1444
▁알고	-1445
▁데이비	-1446
▁모습을	-1447
▁대통령과	-1448
▁발생했다	-1449
스템	-1450
▁어려	-1451
▁콜롬	-1452
▁전세계	-1453
서를	-1454
▁기상	-1455
▁담당	-1456
▁지난주	-1457
▁레바	-1458
▁의하면	-1459
▁가능성이	-1460
▁엔	-1461
▁기간	-1462
▁강력	-1463
▁경선	-1464
▁년에	-1465
▁의견	-1466
▁인권	-1467
인들은	-1468
▁뿐	-1469
▁la	-1470
▁운동	-1471
▁혐의를	-1472
▁성명에서	-1473
▁황	-1474
국은	-1475
물을	-1476
▁이제	-1477
▁중심	-1478
▁지나	-1479
▁행사	-1480
▁확보	-1481
▁지역에서	-1482
▁뜻	-1483
▁캠	-1484
였던	-1485
▁개인	-1486
▁더욱	-1487
▁전체	-1488
▁플로	-1489
원에서	-1490
▁레바논	-1491
이가	-1492
▁되는	-1493
▁석유	-1494
▁인한	-1495
▁일반	-1496
▁주택	-1497
적이	-1498
ter	-1499
▁것이며	-1500
om	-1501
라인	-1502
해서	-1503
▁소유	-1504
▁중국의	-1505
하겠다고	-1506
▁팬	-1507
▁개최	-1508
▁과정	-1509
▁수천	-1510
회에서	-1511
▁중앙	-1512
▁계획을	-1513
▁총리가	-1514
▁믿	-1515
▁문제가	-1516
▁아침	-1517
▁화재	-1518
▁지역에	-1519
시킬	-1520
▁의료	-1521
▁않았다고	-1522
▁도로	-1523
▁이뤄	-1524
▁필요한	-1525
대는	-1526
베트	-1527
측은	-1528
▁때문	-1529
▁마련	-1530
▁핵무	-1531
▁매케인	-1532
▁입장을	-1533
ts	-1534
대에	-1535
▁us	-1536
▁어제	-1537
▁위원	-1538
▁겪	-1539
훈련	-1540
▁일간	-1541
▁아니다	-1542
자들	-1543
▁분석	-1544
▁일을	-1545
us	-1546
▁히	-1547
슨은	-1548
시코	-1549
▁건설	-1550
▁사르코	-1551
갔다	-1552
두고	-1553
▁윌리	-1554
▁v	-1555
머니	-1556
스와	-1557
▁남북	-1558
▁내년	-1559
▁너무	-1560
▁먹	-1561
▁eu	-1562
ce	-1563
드가	-1564
라마	-1565
시켰다	-1566
애나	-1567
▁남편	-1568
▁레이	-1569
▁시도	-1570
▁영향을	-1571
트를	-1572
▁실종	-1573
▁관련된	-1574
▁만달러	-1575
▁폭탄테러	-1576
리자	-1577
소를	-1578
▁여객	-1579
▁있고	-1580
멕시코	-1581
부의	-1582
▁결국	-1583
▁타이	-1584
▁해외	-1585
전에서	-1586
▁티베트	-1587
▁거주	-1588
▁남자	-1589
▁생활	-1590
▁여자	-1591
▁증거	-1592
▁한국의	-1593
▁콜롬비아	-1594
▁기자회견에서	-1595
▁교육	-1596
▁노무	-1597
▁선택	-1598
▁없었다	-1599
▁울	-1600
▁잔	-1601
▁ne	-1602
▁연기	-1603
▁con	-1604
▁풀	-1605
▁효	-1606
▁선고	-1607
▁선언	-1608
▁받을	-1609
▁수행	-1610
▁제조	-1611
▁타고	-1612
었으며	-1613
▁브라운	-1614
▁있었다고	-1615
드리	-1616
품을	-1617
▁노무현	-1618
▁korea	-1619
▁육	-1620
너지	-1621
▁올라	-1622
▁재개	-1623
한다는	-1624
▁and	-1625
스카	-1626
전이	-1627
▁시설	-1628
사와	-1629
▁문제에	-1630
는지	-1631
이자	-1632
지구	-1633
▁또는	-1634
▁아마	-1635
▁일이	-1636
라이나	-1637
▁우리가	-1638
▁탑	-1639
▁산업	-1640
▁어떻	-1641
▁주변	-1642
▁소식통	-1643
▁둘	-1644
▁망	-1645
스크	-1646
▁얼마	-1647
▁이동	-1648
▁비용	-1649
▁시장	-1650
▁프리	-1651
어가	-1652
▁역시	-1653
▁주식	-1654
네시아	-1655
▁년까지	-1656
▁했다고	-1657
▁끌	-1658
▁나오	-1659
▁사상	-1660
▁사건에	-1661
텍사	-1662
▁드러	-1663
▁사람이	-1664
▁어떻게	-1665
▁익	-1666
무를	-1667
▁게임	-1668
▁수준	-1669
▁행동	-1670
▁열리는	-1671
▁조사를	-1672
ri	-1673
▁즐	-1674
스에	-1675
▁그렇	-1676
▁음악	-1677
▁제안	-1678
▁해안	-1679
▁이유로	-1680
▁지도자	-1681
▁뇌	-1682
신을	-1683
제로	-1684
하이	-1685
▁비상	-1686
▁관광객	-1687
▁동영상	-1688
▁찾아	-1689
▁총선	-1690
ve	-1691
▁곧	-1692
국이	-1693
ver	-1694
▁탐	-1695
버트	-1696
▁de	-1697
▁이끌	-1698
▁책임	-1699
▁시스템	-1700
▁아프리카	-1701
▁찬	-1702
랐다	-1703
▁감염	-1704
▁의미	-1705
▁제기	-1706
▁화요일	-1707
▁인도네시아	-1708
▁자금	-1709
▁철수	-1710
▁피해를	-1711
▁플로리다	-1712
ow	-1713
▁샌	-1714
▁라는	-1715
▁라이스	-1716
▁정보를	-1717
▁붙	-1718
▁on	-1719
▁바로	-1720
▁출전	-1721
▁훈련	-1722
▁멕시코	-1723
만에	-1724
▁펜	-1725
스코	-1726
이를	-1727
▁내가	-1728
▁전달	-1729
▁회복	-1730
▁휴대	-1731
▁비디오	-1732
는다	-1733
스로	-1734
▁있게	-1735
▁말하는	-1736
▁예정이라고	-1737
▁전문가들은	-1738
점을	-1739
▁구호	-1740
▁스티	-1741
▁왔다	-1742
▁제출	-1743
▁중동	-1744
쪽으로	-1745
▁윌리엄	-1746
▁자신들의	-1747
가지	-1748
베스	-1749
정에	-1750
▁베네	-1751
▁대선후보	-1752
술을	-1753
▁배우	-1754
약을	-1755
학교	-1756
▁인구	-1757
▁대신	-1758
▁답	-1759
▁기념	-1760
▁년대	-1761
▁따라	-1762
▁수십	-1763
▁부상을	-1764
▁정치적	-1765
무장관은	-1766
당의	-1767
프는	-1768
▁제재	-1769
▁텍사	-1770
▁데이비드	-1771
세력	-1772
▁국영	-1773
▁불가	-1774
▁실패	-1775
▁행위	-1776
겠다는	-1777
▁대규모	-1778
▁보였다	-1779
ap	-1780
oc	-1781
ut	-1782
▁as	-1783
▁사업	-1784
▁달러를	-1785
료를	-1786
▁헌법	-1787
도가	-1788
촬영	-1789
▁주말	-1790
소에서	-1791
ir	-1792
리트	-1793
치고	-1794
▁사라	-1795
▁추락	-1796
였다고	-1797
▁시작했다	-1798
▁흑	-1799
▁부분	-1800
▁저장	-1801
▁파괴	-1802
▁그들의	-1803
▁위원회	-1804
당한	-1805
부에	-1806
▁약어	-1807
▁월에	-1808
▁전화	-1809
▁특히	-1810
▁상원의원	-1811
드로	-1812
▁교통	-1813
▁부모	-1814
▁부정	-1815
▁제시	-1816
하려는	-1817
▁대피	-1818
▁보건	-1819
▁시아	-1820
▁사우디	-1821
▁앞두고	-1822
▁약어표	-1823
드를	-1824
수지	-1825
어를	-1826
▁비롯	-1827
▁에너지	-1828
▁이같은	-1829
▁대부분의	-1830
▁사망하고	-1831
만을	-1832
스러	-1833
스턴	-1834
▁명과	-1835
▁무기	-1836
▁수용	-1837
▁정확	-1838
▁지속	-1839
▁심각한	-1840
▁아니라	-1841
었습니다	-1842
▁벨	-1843
▁감시	-1844
▁관할	-1845
▁국내	-1846
▁주도	-1847
▁송	-1848
▁싸	-1849
▁다우	-1850
▁수단	-1851
▁억달러	-1852
▁포함한	-1853
군의	-1854
나다	-1855
▁고려	-1856
▁사과	-1857
▁아닌	-1858
▁에이	-1859
▁작업	-1860
▁촬영	-1861
▁희망	-1862
▁있었던	-1863
ge	-1864
▁돼	-1865
▁앨	-1866
프트	-1867
행을	-1868
▁가까	-1869
▁교수는	-1870
▁미국인	-1871
▁던	-1872
수로	-1873
피언	-1874
▁그런	-1875
▁비판	-1876
▁조치	-1877
▁포기	-1878
으로써	-1879
▁그들이	-1880
▁만들어	-1881
▁의원은	-1882
▁이상이	-1883
바이	-1884
▁살고	-1885
▁전국	-1886
▁중인	-1887
▁사망자	-1888
▁붕	-1889
사에	-1890
연합	-1891
트로	-1892
▁전해	-1893
▁협력	-1894
ta	-1895
으면	-1896
폭탄	-1897
▁지명	-1898
▁라디오	-1899
▁가자지구	-1900
섰다	-1901
성에	-1902
형을	-1903
▁억원	-1904
▁입은	-1905
▁장면	-1906
▁가지고	-1907
▁것이라	-1908
▁지원을	-1909
▁한국인	-1910
신이	-1911
▁메시	-1912
▁수입	-1913
▁작은	-1914
▁직원	-1915
▁축구	-1916
▁탑승	-1917
▁홍콩	-1918
▁로버트	-1919
▁부통령	-1920
만이	-1921
안이	-1922
▁토론	-1923
▁여전히	-1924
ment	-1925
▁달러의	-1926
▁역할을	-1927
▁퍼센트	-1928
▁벗	-1929
실을	-1930
위원	-1931
▁교도	-1932
▁만나	-1933
▁않다	-1934
▁의사	-1935
▁월요일	-1936
르고	-1937
움을	-1938
회에	-1939
▁안에	-1940
▁태국	-1941
▁당국이	-1942
▁마이클	-1943
고를	-1944
인지	-1945
정한	-1946
▁과거	-1947
▁붕괴	-1948
▁열차	-1949
▁전시	-1950
▁최종	-1951
▁푸틴	-1952
um	-1953
▁젊	-1954
바브	-1955
▁운전	-1956
바브웨	-1957
▁일본의	-1958
▁지역의	-1959
▁pro	-1960
▁경기를	-1961
▁온라인	-1962
▁이루어	-1963
▁생각한다	-1964
▁먼	-1965
▁챔	-1966
겠다	-1967
리그	-1968
시켜	-1969
and	-1970
▁le	-1971
▁시험	-1972
시키는	-1973
ot	-1974
▁좌	-1975
단은	-1976
들로	-1977
리노	-1978
성은	-1979
▁기다	-1980
▁스미	-1981
▁승객	-1982
이라는	-1983
▁나타났다	-1984
▁되어	-1985
▁월드	-1986
▁증시	-1987
▁브라질	-1988
▁경기에서	-1989
ate	-1990
▁결의	-1991
▁난민	-1992
무장관	-1993
▁말한다	-1994
▁짐바브웨	-1995
op	-1996
▁씨	-1997
▁휘	-1998
▁저지	-1999
장으로	-2000
▁관계자가	-2001
▁촉구했다	-2002
보는	-2003
소에	-2004
▁be	-2005
▁없을	-2006
ch	-2007
▁빨	-2008
▁풍	-2009
대표	-2010
시설	-2011
어들	-2012
▁국립	-2013
▁만원	-2014
▁밝힌	-2015
▁국무부	-2016
▁겨	-2017
ers	-2018
▁살아	-2019
▁생존	-2020
▁서로	-2021
▁아르	-2022
▁확산	-2023
리스트	-2024
스에서	-2025
▁y	-2026
▁녹	-2027
▁섬	-2028
버그	-2029
▁다양	-2030
▁만약	-2031
▁암살	-2032
▁오른	-2033
▁정권	-2034
▁후보가	-2035
im	-2036
▁슬	-2037
란드	-2038
▁비해	-2039
▁설치	-2040
▁성장	-2041
▁수색	-2042
▁정신	-2043
▁자회담	-2044
▁뛰	-2045
운드	-2046
ion	-2047
▁결승	-2048
▁그린	-2049
▁동료	-2050
▁동맹	-2051
▁반응	-2052
▁승인	-2053
▁식량	-2054
▁제한	-2055
▁하기	-2056
▁발표한	-2057
▁챔피언	-2058
방송	-2059
운티	-2060
▁구속	-2061
▁상원	-2062
▁수는	-2063
▁회원	-2064
▁민간인	-2065
▁캐나다	-2066
▁한다는	-2067
▁곤	-2068
▁낙	-2069
▁무엇	-2070
▁전통	-2071
▁제품	-2072
▁충분	-2073
▁케냐	-2074
▁경고했다	-2075
▁요구했다	-2076
수의	-2077
해를	-2078
▁심장	-2079
▁정당	-2080
▁항의	-2081
▁시위를	-2082
지의	-2083
▁th	-2084
▁사랑	-2085
▁사임	-2086
▁업체	-2087
▁외국인	-2088
▁밝혀졌다	-2089
▁칸	-2090
단을	-2091
ill	-2092
▁선정	-2093
▁소송	-2094
▁수가	-2095
▁수출	-2096
▁시즌	-2097
▁지불	-2098
▁진압	-2099
▁클린턴은	-2100
▁흔	-2101
운동	-2102
중인	-2103
▁가져	-2104
▁같이	-2105
▁발전	-2106
▁보수	-2107
▁신용	-2108
▁실험	-2109
▁치러	-2110
▁이름을	-2111
▁프라이	-2112
일을	-2113
장인	-2114
▁is	-2115
▁공연	-2116
▁소방	-2117
▁페르	-2118
▁평가	-2119
▁활동을	-2120
▁미국에서	-2121
▁싱	-2122
시킨	-2123
이프	-2124
▁니콜	-2125
▁대법	-2126
▁병사	-2127
▁위반	-2128
▁취임	-2129
▁관계를	-2130
▁사무총	-2131
▁여론조사	-2132
려는	-2133
어나	-2134
igh	-2135
▁경험	-2136
▁명령	-2137
▁분명	-2138
▁여름	-2139
▁종교	-2140
▁지하	-2141
하거나	-2142
▁결과를	-2143
▁내용을	-2144
▁상황을	-2145
▁시아파	-2146
▁중국은	-2147
▁핵무기	-2148
▁견	-2149
▁넣	-2150
어는	-2151
지로	-2152
▁것과	-2153
▁그래	-2154
▁다르	-2155
▁알리	-2156
▁에드	-2157
▁추진	-2158
인인	-2159
일한	-2160
책을	-2161
▁사령	-2162
시키고	-2163
▁년부터	-2164
▁대변인이	-2165
▁이라크에서	-2166
▁홀	-2167
안은	-2168
▁ac	-2169
▁각각	-2170
▁선출	-2171
▁수석	-2172
▁임명	-2173
▁젊은	-2174
▁접근	-2175
▁평균	-2176
하지만	-2177
▁감독은	-2178
▁프로그램을	-2179
ak	-2180
▁왔	-2181
▁무역	-2182
▁있기	-2183
▁전반	-2184
▁경찰에	-2185
bs	-2186
▁벤	-2187
르트	-2188
리와	-2189
▁문화	-2190
▁비밀	-2191
▁성폭	-2192
▁스피	-2193
▁않아	-2194
▁취소	-2195
관을	-2196
리케	-2197
ist	-2198
▁교황	-2199
▁동의	-2200
▁센터	-2201
▁총격	-2202
지니아	-2203
▁pre	-2204
▁사건을	-2205
▁이수지	-2206
▁상원의원은	-2207
▁쉽	-2208
됐던	-2209
▁구제	-2210
▁소녀	-2211
▁장기	-2212
▁행정부	-2213
▁대통령을	-2214
거래	-2215
상이	-2216
스럽	-2217
정이	-2218
지도	-2219
▁나온	-2220
▁마무	-2221
▁밖에	-2222
▁벌어	-2223
▁아메	-2224
▁악화	-2225
▁통제	-2226
▁관심을	-2227
▁사건이	-2228
▁지지를	-2229
이로	-2230
장과	-2231
▁게이	-2232
▁동부	-2233
▁사는	-2234
▁파병	-2235
▁국회의	-2236
▁그녀의	-2237
de	-2238
사건	-2239
오는	-2240
▁걸쳐	-2241
▁나토	-2242
▁단계	-2243
▁받는	-2244
▁연료	-2245
▁작품	-2246
장관은	-2247
▁시리아	-2248
▁후보는	-2249
▁과정에서	-2250
▁왜	-2251
가로	-2252
엘라	-2253
▁돈을	-2254
▁마감	-2255
▁후세	-2256
▁검색	-2257
▁대중	-2258
▁미래	-2259
▁상대	-2260
▁설립	-2261
▁아내	-2262
관계	-2263
리핀	-2264
▁그룹	-2265
▁뉴스	-2266
▁시카	-2267
▁지켜	-2268
▁집중	-2269
지에서	-2270
▁사이에	-2271
되기	-2272
었고	-2273
적을	-2274
▁대비	-2275
▁바란	-2276
▁보유	-2277
▁중에	-2278
▁파견	-2279
▁비행기	-2280
▁잉	-2281
▁개혁	-2282
▁북핵	-2283
▁유죄	-2284
▁주재	-2285
▁허용	-2286
무부는	-2287
▁경찰서	-2288
▁대상으로	-2289
니스	-2290
로는	-2291
리우	-2292
소의	-2293
▁개선	-2294
▁경영	-2295
▁논쟁	-2296
▁뜻을	-2297
▁사퇴	-2298
▁온몸	-2299
▁이집	-2300
▁일에	-2301
▁수요일	-2302
▁일까지	-2303
▁대해서는	-2304
▁되고	-2305
▁로켓	-2306
▁혼란	-2307
▁어머니	-2308
▁관계자들은	-2309
앞서	-2310
▁동성	-2311
▁바이러	-2312
▁북한에	-2313
▁정부에	-2314
▁옮	-2315
명박	-2316
▁구매	-2317
▁대응	-2318
▁배치	-2319
▁살인	-2320
▁야후	-2321
▁일자	-2322
▁해리	-2323
▁환영	-2324
시키기	-2325
캐스터	-2326
▁베네수	-2327
▁시카고	-2328
▁알려진	-2329
▁총리의	-2330
▁텍사스	-2331
▁사람들을	-2332
▁이에앞서	-2333
se	-2334
▁홈	-2335
진이	-2336
▁공습	-2337
▁블로	-2338
▁조건	-2339
대통령	-2340
자들과	-2341
▁new	-2342
▁상대로	-2343
▁이명박	-2344
▁온몸으로	-2345
▁흥	-2346
나지	-2347
진을	-2348
회는	-2349
▁남한	-2350
▁등의	-2351
▁이해	-2352
▁인간	-2353
▁점을	-2354
▁해야	-2355
▁승리를	-2356
▁변호사는	-2357
▁기상캐스터	-2358
▁깨	-2359
▁찰	-2360
끄는	-2361
비를	-2362
어도	-2363
학생	-2364
▁넘어	-2365
▁로마	-2366
▁서부	-2367
▁이래	-2368
▁이로	-2369
▁좋아	-2370
▁발견된	-2371
▁벌이고	-2372
▁갑	-2373
단이	-2374
도의	-2375
메라	-2376
▁마리	-2377
▁유로	-2378
▁자녀	-2379
▁전역	-2380
▁표현	-2381
▁민주주의	-2382
▁아직까지	-2383
관리	-2384
▁두고	-2385
▁사형	-2386
▁선포	-2387
▁임시	-2388
▁사실이	-2389
▁기록했다	-2390
if	-2391
▁십	-2392
기와	-2393
물이	-2394
워드	-2395
트의	-2396
▁양국	-2397
▁크게	-2398
▁사람은	-2399
▁사이트	-2400
리지	-2401
회가	-2402
▁at	-2403
▁강한	-2404
▁아랍	-2405
▁위를	-2406
▁적이	-2407
▁때까지	-2408
▁합니다	-2409
▁밝혔습니다	-2410
▁상원의원이	-2411
▁깊	-2412
산을	-2413
▁고용	-2414
▁고통	-2415
▁복귀	-2416
▁신화	-2417
졌으며	-2418
▁마이크	-2419
▁벌였다	-2420
uc	-2421
번째	-2422
우주	-2423
asa	-2424
▁누구	-2425
▁자체	-2426
▁결정을	-2427
▁받아들	-2428
▁일부터	-2429
▁폭력사태	-2430
bi	-2431
지인	-2432
▁모델	-2433
▁분쟁	-2434
▁인수	-2435
▁재정	-2436
▁쿠바	-2437
▁펜실	-2438
통신은	-2439
▁대사관	-2440
▁명으로	-2441
▁목요일	-2442
▁시간이	-2443
▁아니라고	-2444
▁오바마가	-2445
oo	-2446
▁윈	-2447
려고	-2448
▁같다	-2449
▁등을	-2450
▁마크	-2451
▁바다	-2452
▁스트	-2453
▁최악	-2454
▁한반	-2455
▁효과	-2456
▁검찰은	-2457
▁그것은	-2458
▁다양한	-2459
▁도움이	-2460
▁무장단체	-2461
▁위해서는	-2462
가고	-2463
르게	-2464
선거	-2465
프로	-2466
▁관해	-2467
▁구체	-2468
▁따른	-2469
▁파업	-2470
▁하마스	-2471
되었다고	-2472
▁사르코지	-2473
사로	-2474
진은	-2475
▁광고	-2476
▁기관	-2477
▁연결	-2478
▁이틀	-2479
▁전자	-2480
▁베네수엘라	-2481
▁솔	-2482
많은	-2483
식이	-2484
▁검토	-2485
▁받게	-2486
▁보좌	-2487
▁아바	-2488
▁주한	-2489
▁지시	-2490
▁집권	-2491
▁해당	-2492
▁강력한	-2493
▁못하고	-2494
▁치료를	-2495
▁회장은	-2496
ll	-2497
▁능	-2498
상의	-2499
화가	-2500
▁부근	-2501
트에서	-2502
▁상황이	-2503
▁수많은	-2504
▁필리핀	-2505
▁보고서는	-2506
▁린	-2507
밖에	-2508
▁고속	-2509
▁매년	-2510
▁분야	-2511
▁제임	-2512
▁집행	-2513
▁포르	-2514
▁도움을	-2515
▁미군이	-2516
▁일요일	-2517
▁nasa	-2518
▁버지니아	-2519
ae	-2520
▁컨	-2521
르드	-2522
리즈	-2523
▁sh	-2524
▁높아	-2525
▁소년	-2526
▁어느	-2527
▁전략	-2528
▁처리	-2529
▁가능한	-2530
▁달러에	-2531
▁있다며	-2532
▁자신을	-2533
▁공격으로	-2534
군과	-2535
자에	-2536
▁대만	-2537
▁만명	-2538
▁못한	-2539
▁사항	-2540
▁선박	-2541
▁주간	-2542
였으며	-2543
점에서	-2544
하기도	-2545
▁방법을	-2546
▁이라크에	-2547
▁긴급	-2548
▁받지	-2549
▁압둘	-2550
▁에어	-2551
▁지휘	-2552
▁진출	-2553
▁확신	-2554
▁계획이다	-2555
▁무장세력	-2556
▁프라이머	-2557
▁둔	-2558
르타	-2559
이드	-2560
이어	-2561
▁강제	-2562
▁고객	-2563
▁징역	-2564
▁시간을	-2565
▁정부와	-2566
▁타임즈	-2567
▁ro	-2568
▁근처	-2569
▁선두	-2570
▁수익	-2571
▁아파	-2572
▁작년	-2573
▁영국의	-2574
▁플레이	-2575
이션	-2576
이의	-2577
▁관심	-2578
▁나머	-2579
▁예측	-2580
▁있지	-2581
▁주의	-2582
▁힘들	-2583
스러운	-2584
▁이라크의	-2585
▁주지사는	-2586
▁사람들에게	-2587
다면	-2588
차를	-2589
▁나와	-2590
▁순간	-2591
▁스위	-2592
▁시행	-2593
▁입원	-2594
▁향해	-2595
었지만	-2596
자에게	-2597
▁곳에서	-2598
▁내렸다	-2599
▁오하이	-2600
▁이끄는	-2601
▁발견했다	-2602
▁언급했다	-2603
▁빅	-2604
▁잭	-2605
▁공산	-2606
▁미국을	-2607
▁론	-2608
리로	-2609
율을	-2610
회사	-2611
▁노조	-2612
▁막기	-2613
▁비슷	-2614
▁빠져	-2615
▁오래	-2616
▁정말	-2617
▁제거	-2618
▁국방부	-2619
▁일리노	-2620
▁협상을	-2621
▁다이애나	-2622
▁받았다고	-2623
▁맺	-2624
▁쉬	-2625
키는	-2626
▁근거	-2627
▁만큼	-2628
▁소재	-2629
▁승무	-2630
▁어떠	-2631
▁잘못	-2632
되면서	-2633
▁밝히지	-2634
▁후보를	-2635
▁오하이오	-2636
▁졸	-2637
▁펠	-2638
가인	-2639
배를	-2640
이라	-2641
줬다	-2642
▁he	-2643
▁고등	-2644
▁도쿄	-2645
▁위로	-2646
▁착륙	-2647
▁다음달	-2648
였습니다	-2649
▁사람들의	-2650
▁요청했다	-2651
▁냉	-2652
없이	-2653
자이	-2654
▁논란	-2655
▁마약	-2656
▁만든	-2657
▁목숨	-2658
▁비교	-2659
▁인디	-2660
▁달하는	-2661
▁성폭행	-2662
▁이것은	-2663
▁이란이	-2664
▁정도로	-2665
▁정상회담	-2666
▁주장하고	-2667
▁탁	-2668
도에	-2669
법을	-2670
직을	-2671
▁sp	-2672
▁스포	-2673
▁위성	-2674
가들은	-2675
하였다	-2676
▁되었다	-2677
▁숨지고	-2678
▁이들의	-2679
▁이란의	-2680
em	-2681
▁찍	-2682
비치	-2683
상에	-2684
생활	-2685
투표	-2686
ity	-2687
▁둘러	-2688
▁세르	-2689
▁수치	-2690
▁자연	-2691
▁후에	-2692
▁병력을	-2693
▁북한을	-2694
▁비난을	-2695
▁작업을	-2696
▁최고의	-2697
▁허리케	-2698
겼다	-2699
데이	-2700
상태	-2701
시는	-2702
식에	-2703
제가	-2704
▁소말	-2705
▁신고	-2706
▁여기	-2707
▁집단	-2708
▁하마	-2709
글랜드	-2710
해왔다	-2711
▁어떠한	-2712
▁우리의	-2713
▁소말리아	-2714
▁예상된다	-2715
▁득	-2716
▁묘	-2717
▁id	-2718
▁대회	-2719
▁라며	-2720
▁제외	-2721
▁케이	-2722
▁하며	-2723
▁했던	-2724
▁여성이	-2725
▁움직임	-2726
▁지역을	-2727
▁일리노이	-2728
ks	-2729
▁삶	-2730
결을	-2731
소가	-2732
즈니	-2733
피아	-2734
▁공공	-2735
▁끝에	-2736
▁물론	-2737
▁세금	-2738
▁인물	-2739
▁출발	-2740
된다고	-2741
으로서	-2742
▁말레이	-2743
▁사진을	-2744
▁여부를	-2745
▁적어도	-2746
롤라이나	-2747
▁낸	-2748
기간	-2749
사한	-2750
▁계약	-2751
▁되지	-2752
▁모른	-2753
▁보낸	-2754
▁분리	-2755
▁슈퍼	-2756
▁입고	-2757
▁대표는	-2758
▁미군은	-2759
ef	-2760
내는	-2761
라스	-2762
측이	-2763
▁am	-2764
▁알렉	-2765
▁폭풍	-2766
▁항상	-2767
전으로	-2768
▁프로젝	-2769
ld	-2770
▁습	-2771
러는	-2772
화에	-2773
▁su	-2774
▁경비	-2775
▁기후	-2776
▁수니	-2777
▁접촉	-2778
▁증언	-2779
▁진술	-2780
▁미국에	-2781
▁사이클	-2782
▁완전히	-2783
▁유명한	-2784
폭탄테러	-2785
▁결정했다	-2786
▁발생했다고	-2787
▁듯	-2788
▁묻	-2789
구를	-2790
롭게	-2791
리기	-2792
인과	-2793
하메	-2794
▁wh	-2795
▁곳에	-2796
▁넘는	-2797
▁베컴	-2798
▁시상	-2799
▁아카	-2800
▁의혹	-2801
▁이달	-2802
▁목숨을	-2803
▁병원에	-2804
▁블로그	-2805
▁올랐다	-2806
▁쿠르드	-2807
▁한국은	-2808
▁술	-2809
같이	-2810
개발	-2811
당은	-2812
도는	-2813
로를	-2814
▁se	-2815
▁불안	-2816
▁씨는	-2817
▁압박	-2818
▁예비	-2819
▁자치	-2820
▁조종	-2821
▁fbi	-2822
▁발생해	-2823
▁사건은	-2824
▁유일한	-2825
▁이야기	-2826
▁질문에	-2827
▁주민들이	-2828
▁늦	-2829
량을	-2830
보를	-2831
▁검사	-2832
▁목소	-2833
▁시청	-2834
▁신뢰	-2835
▁아주	-2836
▁의심	-2837
▁적절	-2838
▁출마	-2839
하지는	-2840
▁정부를	-2841
▁최초의	-2842
▁지도자인	-2843
na	-2844
▁좀	-2845
경을	-2846
스토	-2847
이기	-2848
▁거절	-2849
▁경매	-2850
▁노스	-2851
▁대기	-2852
▁명에	-2853
▁무너	-2854
▁바람	-2855
▁아베	-2856
▁청소	-2857
대에서	-2858
▁관련해	-2859
▁방안을	-2860
▁사고가	-2861
▁이집트	-2862
▁휴대폰	-2863
▁korean	-2864
▁끊	-2865
성의	-2866
연구	-2867
art	-2868
▁가스	-2869
▁근무	-2870
▁리버	-2871
▁수술	-2872
▁인사	-2873
▁즉각	-2874
▁해군	-2875
됩니다	-2876
▁가졌다	-2877
▁서비스	-2878
▁삭	-2879
기지	-2880
나이	-2881
상은	-2882
티나	-2883
▁물러	-2884
▁여왕	-2885
▁위에	-2886
▁카르	-2887
이지만	-2888
▁대해서	-2889
▁보여주	-2890
▁사고로	-2891
▁아무런	-2892
▁언론은	-2893
▁여명이	-2894
▁정책을	-2895
▁과학자들은	-2896
들어	-2897
위에	-2898
▁간의	-2899
▁규정	-2900
▁기준	-2901
▁총재	-2902
▁평양	-2903
▁규모의	-2904
▁나왔다	-2905
▁제임스	-2906
지역에서	-2907
▁않았지만	-2908
되었습니다	-2909
ul	-2910
▁걱	-2911
▁톰	-2912
르의	-2913
소는	-2914
안보	-2915
어난	-2916
크는	-2917
▁op	-2918
▁가질	-2919
▁것인	-2920
▁기억	-2921
▁적용	-2922
▁존재	-2923
한다면	-2924
▁게이츠	-2925
▁중국이	-2926
▁카운티	-2927
▁합의했다	-2928
▁확인했다	-2929
▁흡	-2930
량의	-2931
아니	-2932
장관	-2933
▁동결	-2934
▁동원	-2935
▁머물	-2936
▁청와	-2937
하다는	-2938
▁목표로	-2939
▁방문한	-2940
▁월부터	-2941
os	-2942
qu	-2943
해진	-2944
▁개정	-2945
▁등록	-2946
▁성화	-2947
▁애플	-2948
▁유대	-2949
▁유전	-2950
▁장난	-2951
▁저는	-2952
▁트럭	-2953
▁한미	-2954
▁행정	-2955
했는데	-2956
▁의견을	-2957
▁차베스	-2958
▁최악의	-2959
▁반대하는	-2960
▁오바마의	-2961
▁말레이시아	-2962
▁갤	-2963
▁듣	-2964
▁땅	-2965
▁옷	-2966
국인	-2967
군을	-2968
량이	-2969
렀다	-2970
비행	-2971
웠다	-2972
▁go	-2973
▁군인	-2974
▁숨진	-2975
▁실업	-2976
▁영어	-2977
▁이민	-2978
▁해병	-2979
▁힐튼	-2980
일랜드	-2981
▁우려를	-2982
캐롤라이나	-2983
▁품	-2984
그룹	-2985
되며	-2986
마다	-2987
트가	-2988
▁en	-2989
▁느끼	-2990
▁말리	-2991
▁백만	-2992
▁병력	-2993
▁블레	-2994
▁연속	-2995
▁자주	-2996
▁코소	-2997
▁투입	-2998
▁현대	-2999
▁그리스	-3000
▁보이는	-3001
▁사무실	-3002
▁연설을	-3003
▁덴	-3004
▁멸	-3005
브라	-3006
어야	-3007
한을	-3008
ary	-3009
▁고양	-3010
▁년이	-3011
▁당신	-3012
▁들고	-3013
▁박물	-3014
▁법률	-3015
▁부동	-3016
▁블랙	-3017
▁상징	-3018
▁생물	-3019
▁야생	-3020
▁이송	-3021
▁죽음	-3022
하라고	-3023
▁내무부	-3024
▁마드리	-3025
▁만명의	-3026
▁법안을	-3027
▁판결을	-3028
▁필요가	-3029
위원회는	-3030
▁크리스토	-3031
▁테러리스트	-3032
ly	-3033
▁굴	-3034
뉴스	-3035
단의	-3036
도시	-3037
로스	-3038
문이	-3039
방을	-3040
서부	-3041
치의	-3042
▁경호	-3043
▁고래	-3044
▁기본	-3045
▁나가	-3046
▁놓고	-3047
▁새로	-3048
▁아들	-3049
▁오픈	-3050
▁자세	-3051
▁저항	-3052
▁최신	-3053
▁대의원	-3054
▁스포츠	-3055
▁계속해서	-3056
▁델	-3057
▁빙	-3058
국을	-3059
리프	-3060
베즈	-3061
협회	-3062
▁근로	-3063
▁매일	-3064
▁몇몇	-3065
▁위기	-3066
▁임무	-3067
▁저녁	-3068
▁주최	-3069
▁차기	-3070
▁찰스	-3071
▁피터	-3072
리우드	-3073
▁나머지	-3074
▁잉글랜드	-3075
▁돕	-3076
▁벽	-3077
가의	-3078
데미	-3079
동부	-3080
역을	-3081
ith	-3082
▁ms	-3083
▁도중	-3084
▁동시	-3085
▁부패	-3086
▁신청	-3087
▁약물	-3088
▁없어	-3089
▁올메	-3090
▁전혀	-3091
았다고	-3092
▁그에게	-3093
▁미군의	-3094
▁수니파	-3095
▁숨졌다	-3096
▁이라는	-3097
▁하원의	-3098
위가	-3099
tal	-3100
▁것도	-3101
▁마일	-3102
▁세력	-3103
▁주는	-3104
▁홍보	-3105
▁bbc	-3106
▁있음을	-3107
▁카메라	-3108
▁세르비아	-3109
▁밴	-3110
기관	-3111
▁ag	-3112
▁국회	-3113
▁년의	-3114
▁다니	-3115
▁물질	-3116
▁민병	-3117
▁싶어	-3118
▁얼굴	-3119
▁작성	-3120
▁지연	-3121
▁통합	-3122
▁확대	-3123
▁흑인	-3124
아니라	-3125
▁입었다	-3126
▁전까지	-3127
▁판사는	-3128
▁후보에	-3129
▁밝혀지지	-3130
▁주민들은	-3131
▁잇	-3132
로서	-3133
사고	-3134
율이	-3135
친구	-3136
평양	-3137
▁ex	-3138
▁노래	-3139
▁대처	-3140
▁무가	-3141
▁분노	-3142
▁수반	-3143
▁억류	-3144
▁언제	-3145
▁여당	-3146
▁완화	-3147
났다고	-3148
▁마무리	-3149
▁스스로	-3150
▁의원이	-3151
▁선거에서	-3152
ag	-3153
▁괴	-3154
결과	-3155
트리	-3156
트에	-3157
▁구입	-3158
▁대형	-3159
▁무사	-3160
▁불러	-3161
▁스테	-3162
▁싱가	-3163
▁오랫	-3164
▁인상	-3165
▁하이	-3166
▁부시는	-3167
▁시장은	-3168
▁매케인은	-3169
▁비상사태	-3170
▁연설에서	-3171
▁오랫동안	-3172
▁쥐	-3173
률이	-3174
▁보장	-3175
▁빠른	-3176
▁작전	-3177
▁파손	-3178
라비아	-3179
▁스피어	-3180
▁이들을	-3181
▁지수는	-3182
▁확실히	-3183
만아니라	-3184
▁숨졌다고	-3185
보가	-3186
우고	-3187
위는	-3188
▁ce	-3189
▁pl	-3190
▁겪고	-3191
▁나이	-3192
▁등이	-3193
▁불과	-3194
▁우크	-3195
▁주인	-3196
▁직후	-3197
▁클럽	-3198
▁태양	-3199
▁핵심	-3200
▁cat	-3201
▁그렇게	-3202
▁자금을	-3203
▁발견됐다	-3204
ational	-3205
▁칠	-3206
복을	-3207
실험	-3208
았던	-3209
웨이	-3210
지와	-3211
프라	-3212
▁개봉	-3213
▁모여	-3214
▁상당	-3215
▁연장	-3216
▁지배	-3217
렸다고	-3218
▁만명이	-3219
▁소식을	-3220
▁없다는	-3221
▁웨스트	-3222
▁이들이	-3223
하겠다는	-3224
▁병원에서	-3225
▁회담에서	-3226
르기	-3227
민주	-3228
바는	-3229
우리	-3230
항공	-3231
sid	-3232
▁감축	-3233
▁교수	-3234
▁낮은	-3235
▁리처	-3236
▁맞아	-3237
▁멸종	-3238
▁분기	-3239
▁사살	-3240
▁산불	-3241
▁수정	-3242
▁실제	-3243
▁알게	-3244
▁알아	-3245
▁열릴	-3246
▁예방	-3247
▁오랜	-3248
▁원조	-3249
▁조작	-3250
겠지만	-3251
▁대화를	-3252
▁수백만	-3253
▁얼마나	-3254
▁위기에	-3255
▁책임을	-3256
▁가능성을	-3257
▁민주당의	-3258
▁병원으로	-3259
▁크리스토퍼	-3260
da	-3261
▁앉	-3262
▁죄	-3263
가스	-3264
대원	-3265
보호	-3266
푸르	-3267
arc	-3268
ine	-3269
▁끌어	-3270
▁두려	-3271
▁아기	-3272
▁왕세	-3273
▁조금	-3274
▁집계	-3275
▁처벌	-3276
▁축하	-3277
▁표명	-3278
▁허가	-3279
▁말하고	-3280
▁바란다	-3281
▁원자로	-3282
▁행동을	-3283
▁아카데미	-3284
▁허리케인	-3285
포를	-3286
▁결론	-3287
▁내각	-3288
▁노출	-3289
▁북극	-3290
▁떨어져	-3291
▁변호사	-3292
▁보이고	-3293
▁주장을	-3294
▁중이다	-3295
▁관리들은	-3296
▁멀	-3297
▁색	-3298
▁혹	-3299
aea	-3300
▁개를	-3301
▁공군	-3302
▁그중	-3303
▁떠나	-3304
▁목적	-3305
▁방향	-3306
▁의한	-3307
▁자료	-3308
▁절반	-3309
▁주년	-3310
▁주로	-3311
▁총기	-3312
▁카라	-3313
식으로	-3314
▁경찰과	-3315
▁발생할	-3316
▁사람들	-3317
▁월까지	-3318
▁이란은	-3319
▁iaea	-3320
▁with	-3321
▁부상했다고	-3322
tp	-3323
▁궁	-3324
▁래	-3325
리며	-3326
▁강타	-3327
▁개입	-3328
▁골을	-3329
▁기반	-3330
▁네덜	-3331
▁배럴	-3332
▁법정	-3333
▁서명	-3334
▁이혼	-3335
▁주고	-3336
▁주일	-3337
▁질병	-3338
▁차관	-3339
주에서	-3340
하메드	-3341
orth	-3342
▁cia	-3343
▁기회를	-3344
▁남성이	-3345
▁노력을	-3346
▁무가베	-3347
▁보냈다	-3348
▁사우스	-3349
▁시작된	-3350
▁월드컵	-3351
▁일어난	-3352
▁고속도로	-3353
▁소식통은	-3354
▁전망이다	-3355
iv	-3356
▁숙	-3357
▁헨	-3358
내고	-3359
단한	-3360
체를	-3361
▁나무	-3362
▁망명	-3363
▁브리	-3364
▁영한	-3365
▁하다	-3366
▁한영	-3367
▁sou	-3368
▁동성애	-3369
▁문제는	-3370
▁위험한	-3371
▁집에서	-3372
▁부인했다	-3373
▁영한사전	-3374
▁펜실베이	-3375
▁한영사전	-3376
▁척	-3377
디에	-3378
슨이	-3379
조직	-3380
▁고든	-3381
▁말한	-3382
▁먼저	-3383
▁바르	-3384
▁외환	-3385
▁크로	-3386
원으로	-3387
▁번째로	-3388
▁스티브	-3389
▁후보로	-3390
▁블로그에	-3391
▁올메르트	-3392
▁위원장은	-3393
▁사망했으며	-3394
▁우크라이나	-3395
▁펜실베이니아	-3396
▁휩	-3397
란시	-3398
산업	-3399
▁fr	-3400
▁ht	-3401
▁kg	-3402
▁가정	-3403
▁걱정	-3404
▁놀라	-3405
▁대북	-3406
▁번의	-3407
▁보이	-3408
▁속에	-3409
▁엄마	-3410
▁인기	-3411
▁입장	-3412
▁조정	-3413
▁해제	-3414
▁후반	-3415
▁결과가	-3416
▁경제적	-3417
▁리처드	-3418
▁블레어	-3419
▁비슷한	-3420
▁스미스	-3421
▁출신의	-3422
▁code	-3423
▁메시지를	-3424
▁total	-3425
▁대통령에게	-3426
▁롤	-3427
▁염	-3428
▁층	-3429
▁획	-3430
디아	-3431
만한	-3432
분이	-3433
증을	-3434
체가	-3435
▁네팔	-3436
▁보기	-3437
▁보험	-3438
▁사례	-3439
▁안정	-3440
▁연루	-3441
▁원유	-3442
▁전력	-3443
▁지급	-3444
▁찬성	-3445
▁파리	-3446
▁파악	-3447
▁피랍	-3448
▁하게	-3449
▁asp	-3450
▁wor	-3451
▁기록을	-3452
▁대표팀	-3453
▁석방을	-3454
▁일본은	-3455
▁최소한	-3456
▁테러로	-3457
▁http	-3458
▁사용하는	-3459
▁있었으며	-3460
▁낳	-3461
▁윤	-3462
▁킬	-3463
▁킹	-3464
다른	-3465
디어	-3466
선에	-3467
소로	-3468
치로	-3469
타임	-3470
▁단지	-3471
▁대체	-3472
▁못할	-3473
▁센트	-3474
▁장애	-3475
▁태풍	-3476
인들의	-3477
ight	-3478
▁거대한	-3479
▁경기에	-3480
▁구성된	-3481
▁기자는	-3482
▁변화를	-3483
▁영화를	-3484
▁이밖에	-3485
▁이용해	-3486
▁일부는	-3487
▁노대통령	-3488
▁이야기를	-3489
▁긍	-3490
▁봤	-3491
라의	-3492
스키	-3493
지게	-3494
티아	-3495
▁일정	-3496
▁진입	-3497
▁총을	-3498
▁케네	-3499
▁표시	-3500
관계를	-3501
됐지만	-3502
프리카	-3503
▁것처럼	-3504
▁기자가	-3505
▁들어가	-3506
▁스티븐	-3507
▁실시된	-3508
▁알려져	-3509
▁여명의	-3510
▁있는데	-3511
▁대통령에	-3512
▁차지했다	-3513
▁빼	-3514
▁혈	-3515
드와	-3516
들린	-3517
보고	-3518
승을	-3519
▁개국	-3520
▁기타	-3521
▁김정	-3522
▁내부	-3523
▁대답	-3524
▁바라	-3525
▁세기	-3526
▁손을	-3527
▁쇼핑	-3528
▁시드	-3529
▁아부	-3530
▁얻은	-3531
▁가까운	-3532
▁문제로	-3533
▁시위대	-3534
▁아직도	-3535
▁임무를	-3536
▁테러를	-3537
▁회원국	-3538
▁후보의	-3539
▁자신들이	-3540
계의	-3541
르크	-3542
하우	-3543
▁pp	-3544
▁구글	-3545
▁분위	-3546
▁해변	-3547
사에서	-3548
쳤다고	-3549
▁법원은	-3550
▁불만을	-3551
▁공화당의	-3552
▁north	-3553
경제	-3554
라늄	-3555
우는	-3556
점에	-3557
정보	-3558
통신	-3559
항을	-3560
▁기독	-3561
▁당한	-3562
▁라스	-3563
▁며칠	-3564
▁무시	-3565
▁벌인	-3566
▁비자	-3567
▁빨리	-3568
▁시신	-3569
▁원자	-3570
▁이행	-3571
▁인종	-3572
▁점령	-3573
▁파타	-3574
▁프레	-3575
당국은	-3576
인으로	-3577
자들에	-3578
▁가격이	-3579
▁관리는	-3580
▁나섰다	-3581
▁실제로	-3582
▁위해서	-3583
▁정확한	-3584
▁후세인	-3585
함으로써	-3586
▁farc	-3587
▁없습니다	-3588
▁사무총장은	-3589
▁자살폭탄테러	-3590
▁곡	-3591
▁혁	-3592
개의	-3593
경찰	-3594
랭킹	-3595
스테	-3596
연맹	-3597
하길	-3598
ice	-3599
ign	-3600
▁고문	-3601
▁국왕	-3602
▁글로	-3603
▁늘어	-3604
▁대가	-3605
▁물리	-3606
▁쉽게	-3607
▁시티	-3608
▁애완	-3609
▁이웃	-3610
▁임신	-3611
▁증명	-3612
▁클라	-3613
▁확정	-3614
더라도	-3615
돌리자	-3616
환으로	-3617
▁상황에	-3618
▁아르헨	-3619
▁엘리자	-3620
▁청소년	-3621
▁추가로	-3622
▁한반도	-3623
들로부터	-3624
▁끼	-3625
▁몬	-3626
▁섹	-3627
면을	-3628
오와	-3629
청은	-3630
est	-3631
▁가는	-3632
▁대화	-3633
▁시에	-3634
▁음식	-3635
▁지키	-3636
▁최저	-3637
▁추방	-3638
▁한번	-3639
▁형태	-3640
드에서	-3641
▁발언을	-3642
▁사용할	-3643
▁살해한	-3644
▁소프트	-3645
▁실시한	-3646
▁않다고	-3647
▁압력을	-3648
▁테러범	-3649
▁하워드	-3650
▁south	-3651
▁!	-3652
▁르	-3653
▁멜	-3654
▁셰	-3655
가에	-3656
다가	-3657
분을	-3658
재판	-3659
▁그와	-3660
▁긍정	-3661
▁기울	-3662
▁내린	-3663
▁다가	-3664
▁부활	-3665
▁실망	-3666
▁응답	-3667
▁자국	-3668
▁작가	-3669
▁직면	-3670
이었던	-3671
▁전쟁을	-3672
▁주에서	-3673
▁줄어들	-3674
▁토요일	-3675
▁한국과	-3676
▁회담은	-3677
▁나타냈다	-3678
▁보고서를	-3679
▁상황에서	-3680
▁멋	-3681
▁첼	-3682
니가	-3683
바로	-3684
배우	-3685
일린	-3686
ace	-3687
▁메이	-3688
▁반발	-3689
▁방해	-3690
▁신속	-3691
▁즉시	-3692
▁활용	-3693
지역에	-3694
▁ira	-3695
▁수술을	-3696
▁여행을	-3697
▁용의자	-3698
▁이전에	-3699
▁현장에	-3700
▁꾸	-3701
▁콩	-3702
기고	-3703
되면	-3704
리오	-3705
부와	-3706
비가	-3707
주를	-3708
짜리	-3709
출을	-3710
ard	-3711
ial	-3712
▁af	-3713
▁교체	-3714
▁내에	-3715
▁노벨	-3716
▁연락	-3717
▁유세	-3718
▁장악	-3719
▁제이	-3720
▁토니	-3721
▁화산	-3722
체스터	-3723
▁강하게	-3724
▁그녀가	-3725
▁남북한	-3726
▁요구한	-3727
▁준비가	-3728
▁테러가	-3729
▁투표를	-3730
▁행위를	-3731
▁콘돌리자	-3732
▁할리우드	-3733
고한	-3734
라가	-3735
슬러	-3736
제에	-3737
▁거짓	-3738
▁방어	-3739
▁사기	-3740
▁수퍼	-3741
▁순찰	-3742
▁스코	-3743
▁애틀	-3744
▁오마	-3745
▁우선	-3746
▁전기	-3747
▁크루	-3748
▁하원	-3749
하려고	-3750
▁검사를	-3751
▁계획이	-3752
▁드라마	-3753
▁요구를	-3754
▁참석한	-3755
▁코소보	-3756
▁서비스를	-3757
▁시작됐다	-3758
▁우주비행	-3759
ee	-3760
ip	-3761
▁꺾	-3762
격이	-3763
르토	-3764
이던	-3765
정책	-3766
티는	-3767
ian	-3768
▁sc	-3769
▁가수	-3770
▁만족	-3771
▁복용	-3772
▁부대	-3773
▁예술	-3774
▁와인	-3775
▁완전	-3776
▁요르	-3777
▁주가	-3778
▁페더	-3779
▁협조	-3780
지면서	-3781
▁fta	-3782
▁기술을	-3783
▁대사는	-3784
▁대학의	-3785
▁모스크	-3786
▁불가능	-3787
▁사건의	-3788
▁소비자	-3789
▁여행객	-3790
▁이번이	-3791
▁차량을	-3792
▁페일린	-3793
▁않는다고	-3794
▁요구하는	-3795
▁유럽연합	-3796
▁신화통신은	-3797
▁쌍	-3798
▁액	-3799
국가	-3800
마크	-3801
수도	-3802
주교	-3803
준다	-3804
트남	-3805
호를	-3806
▁cl	-3807
▁곳을	-3808
▁끝난	-3809
▁몰아	-3810
▁미시	-3811
▁법안	-3812
▁사드	-3813
▁자택	-3814
▁증권	-3815
스럽게	-3816
▁기독교	-3817
▁말리키	-3818
▁외무부	-3819
▁의장은	-3820
▁총격을	-3821
▁포르투	-3822
란시스코	-3823
▁구체적인	-3824
▁소프트웨	-3825
▁약속했다	-3826
▁열린우리	-3827
▁조사하고	-3828
▁웃	-3829
당이	-3830
무역	-3831
비는	-3832
셀로	-3833
축구	-3834
▁im	-3835
▁감행	-3836
▁갖추	-3837
▁기구	-3838
▁날씨	-3839
▁되면	-3840
▁법적	-3841
▁부문	-3842
▁캠프	-3843
▁흔들	-3844
관들은	-3845
리포터	-3846
상으로	-3847
하라는	-3848
▁김정일	-3849
▁리버풀	-3850
▁매들린	-3851
▁보이지	-3852
▁싱가포	-3853
▁의사를	-3854
▁이것이	-3855
▁회담에	-3856
▁수천명의	-3857
▁페르베즈	-3858
▁포함되어	-3859
▁이스라엘의	-3860
ba	-3861
▁앙	-3862
▁캄	-3863
글라	-3864
만의	-3865
워크	-3866
▁가택	-3867
▁보석	-3868
▁운행	-3869
▁유니	-3870
▁조각	-3871
▁철회	-3872
질랜드	-3873
▁국가의	-3874
▁비롯한	-3875
▁소송을	-3876
▁시리즈	-3877
▁시상식	-3878
▁아바스	-3879
▁아이를	-3880
▁위협을	-3881
▁체포된	-3882
▁핵실험	-3883
▁iraq	-3884
▁못했다고	-3885
▁사이클론	-3886
▁아이들을	-3887
▁아이들이	-3888
▁없었다고	-3889
▁필요하다	-3890
▁웹사이트에	-3891
▁빛	-3892
▁옆	-3893
계획	-3894
기문	-3895
미르	-3896
어로	-3897
처를	-3898
▁긴장	-3899
▁나달	-3900
▁내놓	-3901
▁위안	-3902
▁장례	-3903
▁해적	-3904
기에서	-3905
래스카	-3906
사들이	-3907
적이고	-3908
지수는	-3909
▁cbs	-3910
▁론스타	-3911
▁발표할	-3912
▁베트남	-3913
▁부동산	-3914
▁우라늄	-3915
▁했으며	-3916
▁회담이	-3917
▁뉴질랜드	-3918
▁대부분은	-3919
▁맨체스터	-3920
▁받아들이	-3921
▁인터뷰를	-3922
▁지지하는	-3923
▁공식적으로	-3924
▁크리스마스	-3925
▁앓	-3926
간다	-3927
계에	-3928
드에	-3929
디는	-3930
아몬	-3931
전의	-3932
환을	-3933
all	-3934
▁스파	-3935
▁아래	-3936
▁올랐	-3937
▁이재	-3938
▁이하	-3939
▁캠페	-3940
▁탈출	-3941
▁탐사	-3942
▁헤럴	-3943
때문에	-3944
▁ceo	-3945
▁독립을	-3946
▁됐다고	-3947
▁선거를	-3948
▁속에서	-3949
▁에이즈	-3950
▁이르는	-3951
▁있는지	-3952
▁있으나	-3953
▁조지아	-3954
▁중에는	-3955
▁당선인은	-3956
▁영국에서	-3957
▁중이라고	-3958
▁현장에서	-3959
▁아르헨티나	-3960
ry	-3961
▁얘	-3962
▁훌	-3963
네이	-3964
동물	-3965
됐고	-3966
령을	-3967
리언	-3968
점이	-3969
츠는	-3970
측의	-3971
함을	-3972
▁강경	-3973
▁관여	-3974
▁상업	-3975
▁소지	-3976
▁적극	-3977
▁집을	-3978
▁초기	-3979
▁침해	-3980
▁패션	-3981
▁헬기	-3982
▁힘든	-3983
▁sec	-3984
▁경찰관	-3985
▁곳으로	-3986
▁만드는	-3987
▁않도록	-3988
▁않으면	-3989
▁얻었다	-3990
▁테이프	-3991
▁포르투갈	-3992
▁학생들이	-3993
▁혜	-3994
간에	-3995
금이	-3996
단에	-3997
랑카	-3998
발유	-3999
▁mo	-4000
▁마르	-4001
▁마치	-4002
▁변경	-4003
▁브루	-4004
▁사법	-4005
▁삼성	-4006
▁오르	-4007
▁외곽	-4008
▁이른	-4009
▁전면	-4010
▁질문	-4011
▁찾기	-4012
▁협의	-4013
▁형성	-4014
▁호소	-4015
▁화성	-4016
▁계획에	-4017
▁국제유	-4018
▁반기문	-4019
▁역사상	-4020
▁일어나	-4021
▁장관이	-4022
▁휘발유	-4023
▁지진으로	-4024
▁엘리자베스	-4025
▁붉	-4026
과는	-4027
제는	-4028
주일	-4029
한이	-4030
▁가입	-4031
▁나쁜	-4032
▁로봇	-4033
▁마음	-4034
▁마카	-4035
▁믿고	-4036
▁산타	-4037
▁소개	-4038
▁소요	-4039
▁오사	-4040
▁유혈	-4041
▁인하	-4042
▁일은	-4043
▁주석	-4044
▁피트	-4045
▁학살	-4046
▁향후	-4047
▁화학	-4048
사회의	-4049
왔다고	-4050
▁min	-4051
▁ppp	-4052
▁리비아	-4053
▁사람의	-4054
▁스위스	-4055
▁이상을	-4056
▁주인공	-4057
▁인정했다	-4058
me	-4059
pl	-4060
▁꿈	-4061
▁흘	-4062
선이	-4063
수한	-4064
어스	-4065
주로	-4066
쪽에	-4067
측에	-4068
터를	-4069
트릭	-4070
했기	-4071
▁답변	-4072
▁수영	-4073
▁어렵	-4074
▁육군	-4075
▁음반	-4076
▁입양	-4077
▁집에	-4078
▁탁신	-4079
▁화장	-4080
었으나	-4081
플레이	-4082
▁권리를	-4083
▁사람을	-4084
▁최근의	-4085
▁때문이다	-4086
▁총선에서	-4087
▁덮	-4088
▁훨	-4089
나와	-4090
대학	-4091
류의	-4092
리드	-4093
리조	-4094
미디	-4095
슨의	-4096
시티	-4097
자기	-4098
팀은	-4099
호가	-4100
▁or	-4101
▁걸어	-4102
▁대량	-4103
▁배심	-4104
▁불참	-4105
▁음모	-4106
▁착용	-4107
▁콘서	-4108
▁훨씬	-4109
격으로	-4110
으로는	-4111
▁공격이	-4112
▁단체는	-4113
▁박물관	-4114
▁반정부	-4115
▁벌어진	-4116
▁압둘라	-4117
▁야당인	-4118
▁영화는	-4119
▁오스트	-4120
▁크라이	-4121
▁예정이며	-4122
▁정치적인	-4123
▁타임즈는	-4124
▁해리포터	-4125
▁옥	-4126
골을	-4127
원과	-4128
치지	-4129
하마	-4130
ort	-4131
▁ad	-4132
▁가득	-4133
▁국무	-4134
▁랭킹	-4135
▁방침	-4136
▁보냈	-4137
▁샌프	-4138
▁서식	-4139
▁성인	-4140
▁스웨	-4141
▁실행	-4142
▁앨범	-4143
▁예산	-4144
▁이렇	-4145
▁잠재	-4146
▁좋지	-4147
▁착수	-4148
▁dna	-4149
▁들었다	-4150
▁북한과	-4151
▁일본이	-4152
▁충분한	-4153
▁포함해	-4154
▁협상이	-4155
▁모하메드	-4156
▁요구하고	-4157
▁이라크전	-4158
▁하락했다	-4159
▁샌프란시스코	-4160
▁칭	-4161
거리	-4162
대전	-4163
리칸	-4164
만큼	-4165
시장	-4166
십자	-4167
티모	-4168
ure	-4169
▁ab	-4170
▁네트	-4171
▁무력	-4172
▁성향	-4173
▁수집	-4174
▁심한	-4175
▁영토	-4176
▁중재	-4177
▁천연	-4178
▁해고	-4179
국으로	-4180
▁관리가	-4181
▁발언은	-4182
▁방문할	-4183
▁불리는	-4184
▁사태가	-4185
▁의회의	-4186
▁특별한	-4187
▁대변인인	-4188
▁대부분이	-4189
▁만들었다	-4190
▁방법으로	-4191
▁주장하는	-4192
▁해결하기	-4193
▁국무장관은	-4194
dc	-4195
▁빚	-4196
고래	-4197
시각	-4198
원인	-4199
ess	-4200
▁가르	-4201
▁기능	-4202
▁대다	-4203
▁맞서	-4204
▁맨유	-4205
▁무릎	-4206
▁밀란	-4207
▁붉은	-4208
▁스리	-4209
▁시절	-4210
▁심리	-4211
▁이익	-4212
▁전개	-4213
▁지목	-4214
▁지출	-4215
▁치안	-4216
▁침체	-4217
▁특파	-4218
▁패배	-4219
▁해산	-4220
▁헤즈	-4221
나이티	-4222
틀랜드	-4223
해졌다	-4224
▁who	-4225
▁가능성	-4226
▁경제학	-4227
▁요르단	-4228
▁우승을	-4229
▁익명의	-4230
▁주한미	-4231
함에따라	-4232
▁거주하는	-4233
▁네덜란드	-4234
▁입었다고	-4235
▁presid	-4236
▁든	-4237
▁밑	-4238
▁택	-4239
▁텔	-4240
금융	-4241
르가	-4242
표를	-4243
ans	-4244
▁거뒀	-4245
▁그곳	-4246
▁나를	-4247
▁달리	-4248
▁로이	-4249
▁문을	-4250
▁온난	-4251
▁유리	-4252
▁이메	-4253
▁접속	-4254
▁회견	-4255
▁획득	-4256
▁경찰의	-4257
▁그들을	-4258
▁된다고	-4259
▁반응을	-4260
▁벗어나	-4261
▁원하는	-4262
▁이끌어	-4263
▁경선에서	-4264
▁생각하고	-4265
▁알려지지	-4266
▁의원들은	-4267
▁딜	-4268
동이	-4269
렬한	-4270
므로	-4271
▁공중	-4272
▁누군	-4273
▁담배	-4274
▁도달	-4275
▁로스	-4276
▁리콜	-4277
▁법원	-4278
▁보조	-4279
▁복제	-4280
▁소탕	-4281
▁영변	-4282
▁이르	-4283
▁일로	-4284
▁찾는	-4285
▁측근	-4286
▁치명	-4287
▁편집	-4288
▁폐기	-4289
▁하와	-4290
▁합동	-4291
▁남자가	-4292
▁년에는	-4293
▁밖으로	-4294
▁의회가	-4295
▁적절한	-4296
▁코미디	-4297
▁태평양	-4298
▁항공사	-4299
▁헤즈볼	-4300
▁희생자	-4301
▁다이아몬	-4302
▁어려움을	-4303
▁파키스탄의	-4304
▁뒷	-4305
▁뽑	-4306
▁뿌	-4307
▁엑	-4308
▁켄	-4309
▁흉	-4310
▁흐	-4311
데타	-4312
바다	-4313
실에	-4314
양의	-4315
었을	-4316
져야	-4317
치에	-4318
▁경계	-4319
▁도전	-4320
▁마틴	-4321
▁말해	-4322
▁식품	-4323
▁싶다	-4324
▁약간	-4325
▁잠시	-4326
▁주목	-4327
▁취할	-4328
▁허락	-4329
에게는	-4330
▁결정은	-4331
▁금요일	-4332
▁나타나	-4333
▁대변인	-4334
▁루이스	-4335
▁모습이	-4336
▁바라고	-4337
▁생각을	-4338
▁외교부	-4339
▁이번주	-4340
▁일간의	-4341
▁자리를	-4342
▁제안을	-4343
▁조사에	-4344
▁중국에	-4345
▁케네디	-4346
▁comm	-4347
▁will	-4348
▁러시아의	-4349
▁아일랜드	-4350
▁알래스카	-4351
▁이곳에서	-4352
▁발견했다고	-4353
tv	-4354
담을	-4355
미터	-4356
브는	-4357
세츠	-4358
스톤	-4359
영화	-4360
켰다	-4361
훼손	-4362
▁권고	-4363
▁농축	-4364
▁버마	-4365
▁베를	-4366
▁재산	-4367
▁출시	-4368
▁카페	-4369
▁폭우	-4370
스트로	-4371
▁mar	-4372
▁nbc	-4373
▁관계가	-4374
▁사건과	-4375
▁에드워	-4376
▁여성은	-4377
▁전화를	-4378
▁중국과	-4379
▁청와대	-4380
▁항공기	-4381
무장관이	-4382
▁말합니다	-4383
▁사건으로	-4384
▁아이오와	-4385
▁않았으며	-4386
▁유나이티	-4387
▁체포됐다	-4388
▁현지시각	-4389
▁필요하다고	-4390
▁걷	-4391
▁봄	-4392
건을	-4393
격한	-4394
군에	-4395
나미	-4396
루살	-4397
류를	-4398
업이	-4399
ies	-4400
▁fa	-4401
▁담긴	-4402
▁도와	-4403
▁보관	-4404
▁성과	-4405
▁시기	-4406
▁옮겨	-4407
▁적은	-4408
▁내용이	-4409
▁모두가	-4410
▁발표된	-4411
▁선거캠	-4412
▁수사를	-4413
▁신문은	-4414
▁알렉산	-4415
▁우려가	-4416
▁의회는	-4417
▁장면을	-4418
▁쿠데타	-4419
프로그램	-4420
▁공개했다	-4421
▁동영상을	-4422
▁드러났다	-4423
▁떨어졌다	-4424
▁챔피언스	-4425
▁워싱턴에서	-4426
▁이스라엘과	-4427
▁균	-4428
▁뮤	-4429
▁톤	-4430
국에	-4431
됐을	-4432
라덴	-4433
선의	-4434
인에	-4435
장한	-4436
차가	-4437
▁bo	-4438
▁cm	-4439
▁tr	-4440
▁끝나	-4441
▁디스	-4442
▁만한	-4443
▁바꾸	-4444
▁보면	-4445
▁보통	-4446
▁서방	-4447
▁수요	-4448
▁얼음	-4449
▁에도	-4450
▁자랑	-4451
▁장을	-4452
▁중독	-4453
▁찾고	-4454
▁추측	-4455
▁콜로	-4456
▁트리	-4457
▁해수	-4458
▁휴전	-4459
사들은	-4460
▁nat	-4461
▁갑자기	-4462
▁게임을	-4463
▁관심이	-4464
▁다우존	-4465
▁샤리프	-4466
▁어려운	-4467
▁일주일	-4468
▁핵시설	-4469
▁회사의	-4470
▁회의를	-4471
라이라마	-4472
▁도착했다	-4473
▁보여주는	-4474
▁언급하지	-4475
▁예상했다	-4476
▁중국에서	-4477
▁현재까지	-4478
바라	-4479
병을	-4480
시의	-4481
자금	-4482
제도	-4483
▁겨울	-4484
▁교회	-4485
▁뛰어	-4486
▁마흐	-4487
▁만날	-4488
▁메르	-4489
▁명예	-4490
▁모르	-4491
▁부총	-4492
▁사찰	-4493
▁소행	-4494
▁소환	-4495
▁스키	-4496
▁오브	-4497
▁원제	-4498
▁자리	-4499
▁자이	-4500
▁커피	-4501
▁포경	-4502
▁훌륭	-4503
루살렘	-4504
실에서	-4505
▁강력히	-4506
▁당했다	-4507
▁시작한	-4508
▁이렇게	-4509
▁작전을	-4510
▁총리와	-4511
▁최초로	-4512
▁통신은	-4513
▁했지만	-4514
▁회사인	-4515
이지리아	-4516
▁마이크로	-4517
▁처음이다	-4518
▁달라이라마	-4519
▁대선후보인	-4520
ab	-4521
ey	-4522
▁록	-4523
▁횡	-4524
계가	-4525
공화	-4526
나가	-4527
졌던	-4528
차로	-4529
타나	-4530
하라	-4531
ood	-4532
▁걸릴	-4533
▁권력	-4534
▁나누	-4535
▁대리	-4536
▁동반	-4537
▁라파	-4538
▁맞이	-4539
▁불을	-4540
▁시인	-4541
▁에는	-4542
▁연관	-4543
▁이주	-4544
▁진정	-4545
▁체니	-4546
▁추산	-4547
▁파티	-4548
▁판단	-4549
▁합법	-4550
▁흡연	-4551
상에서	-4552
하고자	-4553
했는지	-4554
▁대법원	-4555
▁명령을	-4556
▁아버지	-4557
▁여성의	-4558
▁올렸다	-4559
▁지금은	-4560
▁치러진	-4561
▁하나의	-4562
▁chin	-4563
▁다르푸르	-4564
▁모스크바	-4565
▁사망자가	-4566
▁일환으로	-4567
▁inter	-4568
▁나이지리아	-4569
국적	-4570
로드	-4571
리게	-4572
수에	-4573
시에	-4574
용을	-4575
율은	-4576
지어	-4577
판을	-4578
anc	-4579
▁개막	-4580
▁건의	-4581
▁남은	-4582
▁모인	-4583
▁설득	-4584
▁세워	-4585
▁업무	-4586
▁오염	-4587
▁음주	-4588
▁정기	-4589
▁초대	-4590
▁통치	-4591
▁폭락	-4592
▁가까이	-4593
▁거래를	-4594
▁것보다	-4595
▁경제가	-4596
▁문제의	-4597
▁밖에서	-4598
▁보좌관	-4599
▁연구를	-4600
▁유사한	-4601
▁장난감	-4602
▁타격을	-4603
▁노력하고	-4604
▁보고했다	-4605
▁스리랑카	-4606
▁아메리칸	-4607
▁일자리를	-4608
▁추정되는	-4609
▁셀	-4610
내에	-4611
도르	-4612
되자	-4613
만은	-4614
사추	-4615
세가	-4616
시피	-4617
아이	-4618
즈가	-4619
트너	-4620
ong	-4621
▁강요	-4622
▁걸친	-4623
▁공무	-4624
▁교착	-4625
▁귀국	-4626
▁나의	-4627
▁단순	-4628
▁대출	-4629
▁명백	-4630
▁발굴	-4631
▁복잡	-4632
▁부과	-4633
▁산악	-4634
▁신경	-4635
▁신체	-4636
▁이사	-4637
▁작동	-4638
▁장식	-4639
▁점점	-4640
▁조합	-4641
▁통화	-4642
▁표를	-4643
▁피고	-4644
▁호세	-4645
글라데	-4646
▁pol	-4647
▁res	-4648
▁공격에	-4649
▁그것이	-4650
▁당신이	-4651
▁모른다	-4652
▁못하는	-4653
▁밝히고	-4654
▁시위에	-4655
▁아이의	-4656
▁않지만	-4657
▁이유는	-4658
▁지진이	-4659
▁화재가	-4660
▁목적으로	-4661
▁방글라데	-4662
▁방문했다	-4663
▁부상했다	-4664
▁선거운동	-4665
▁시장에서	-4666
▁이와같은	-4667
▁오스트리아	-4668
▁national	-4669
▁샘	-4670
▁쏟	-4671
내기	-4672
닷컴	-4673
라디	-4674
불어	-4675
시가	-4676
통상	-4677
프리	-4678
ack	-4679
end	-4680
iss	-4681
▁pe	-4682
▁관객	-4683
▁그에	-4684
▁기존	-4685
▁길을	-4686
▁깊은	-4687
▁대책	-4688
▁매각	-4689
▁방영	-4690
▁선보	-4691
▁소설	-4692
▁스튜	-4693
▁앉아	-4694
▁야기	-4695
▁자본	-4696
▁전당	-4697
▁조선	-4698
▁지정	-4699
▁출석	-4700
▁치열	-4701
▁통일	-4702
▁특정	-4703
▁파예	-4704
▁하면	-4705
회사인	-4706
vern	-4707
▁경제에	-4708
▁년간의	-4709
▁더불어	-4710
▁반군이	-4711
▁시신을	-4712
▁시위가	-4713
▁아무도	-4714
▁위기를	-4715
▁진행된	-4716
▁계속되고	-4717
▁성공했다	-4718
▁기자회견을	-4719
ue	-4720
▁넓	-4721
▁짧	-4722
▁틀	-4723
발을	-4724
상과	-4725
세로	-4726
세포	-4727
스틴	-4728
일리	-4729
▁ec	-4730
▁그림	-4731
▁나서	-4732
▁나스	-4733
▁나아	-4734
▁내릴	-4735
▁도입	-4736
▁레드	-4737
▁사냥	-4738
▁상품	-4739
▁새끼	-4740
▁서브	-4741
▁수송	-4742
▁아스	-4743
▁엄청	-4744
▁엘리	-4745
▁의존	-4746
▁자기	-4747
▁천만	-4748
▁취재	-4749
▁칠레	-4750
▁폭행	-4751
▁피난	-4752
▁하늘	-4753
▁합류	-4754
▁해양	-4755
▁후임	-4756
▁훼손	-4757
국장은	-4758
보다는	-4759
아시아	-4760
음에도	-4761
▁jap	-4762
▁관련이	-4763
▁됩니다	-4764
▁무기를	-4765
▁사태를	-4766
▁생활을	-4767
▁언론이	-4768
▁의회에	-4769
▁있다면	-4770
▁주지사	-4771
사추세츠	-4772
▁것이라며	-4773
▁고등학교	-4774
▁국무장관	-4775
▁싱가포르	-4776
▁연구진은	-4777
▁조사에서	-4778
▁바그다드에서	-4779
▁president	-4780
▁묵	-4781
▁털	-4782
대회	-4783
드시	-4784
바키	-4785
선은	-4786
주에	-4787
튜브	-4788
평화	-4789
후드	-4790
▁sa	-4791
▁가량	-4792
▁건축	-4793
▁검거	-4794
▁관람	-4795
▁그루	-4796
▁부여	-4797
▁분의	-4798
▁비록	-4799
▁사담	-4800
▁식당	-4801
▁여겨	-4802
▁이중	-4803
▁인식	-4804
▁잔해	-4805
▁전날	-4806
▁전직	-4807
▁추적	-4808
▁파산	-4809
▁폐지	-4810
부에서	-4811
으면서	-4812
있었다	-4813
▁off	-4814
▁것이고	-4815
▁계획은	-4816
▁남아공	-4817
▁논의할	-4818
▁덴마크	-4819
▁레이스	-4820
▁사실상	-4821
▁스웨덴	-4822
▁시설을	-4823
▁없으며	-4824
▁여객기	-4825
▁위험이	-4826
▁이유를	-4827
▁폭발로	-4828
▁증가하고	-4829
▁japan	-4830
▁남아프리카	-4831
▁이스라엘이	-4832
▁노스캐롤라이나	-4833
▁섭	-4834
▁숫	-4835
▁쌓	-4836
라미	-4837
린다	-4838
수인	-4839
없는	-4840
정은	-4841
틀러	-4842
학자	-4843
ama	-4844
ust	-4845
▁al	-4846
▁나갈	-4847
▁년을	-4848
▁농민	-4849
▁달성	-4850
▁돌려	-4851
▁리히	-4852
▁말라	-4853
▁멋진	-4854
▁버스	-4855
▁봉쇄	-4856
▁은신	-4857
▁의학	-4858
▁체결	-4859
▁트레	-4860
▁풀려	-4861
▁행복	-4862
▁혜택	-4863
▁힘을	-4864
▁dis	-4865
▁것인지	-4866
▁결정에	-4867
▁그래서	-4868
▁민주화	-4869
▁부상자	-4870
▁분명히	-4871
▁빠르게	-4872
▁신원을	-4873
▁폭탄이	-4874
졌습니다	-4875
▁기다리고	-4876
▁인디애나	-4877
▁자리에서	-4878
▁주지사가	-4879
▁클린턴이	-4880
▁지도자들은	-4881
▁govern	-4882
to	-4883
▁x	-4884
▁멈	-4885
▁캔	-4886
네스	-4887
라로	-4888
실이	-4889
하였	-4890
efa	-4891
ell	-4892
led	-4893
ren	-4894
▁가옥	-4895
▁개가	-4896
▁고조	-4897
▁대항	-4898
▁독재	-4899
▁명확	-4900
▁모색	-4901
▁목록	-4902
▁무료	-4903
▁문서	-4904
▁받기	-4905
▁생명	-4906
▁성적	-4907
▁실질	-4908
▁줄기	-4909
▁철도	-4910
▁출판	-4911
▁콩고	-4912
▁페루	-4913
작업을	-4914
eric	-4915
▁ioc	-4916
▁가격을	-4917
▁국경을	-4918
▁그동안	-4919
▁따라서	-4920
▁말까지	-4921
▁반드시	-4922
▁시드니	-4923
▁운동을	-4924
▁이재민	-4925
▁피해가	-4926
▁해결을	-4927
▁uefa	-4928
▁국제사회	-4929
▁부근에서	-4930
▁세계대전	-4931
▁시위대는	-4932
▁여자친구	-4933
▁예루살렘	-4934
▁운영하는	-4935
▁제안했다	-4936
▁챔피언스리그	-4937
og	-4938
구가	-4939
산화	-4940
수와	-4941
어버	-4942
어의	-4943
지기	-4944
진다	-4945
ant	-4946
▁고발	-4947
▁군부	-4948
▁극단	-4949
▁노예	-4950
▁득표	-4951
▁만일	-4952
▁배출	-4953
▁비서	-4954
▁빠진	-4955
▁열대	-4956
▁완벽	-4957
▁운송	-4958
▁인공	-4959
▁자원	-4960
▁절대	-4961
▁하던	-4962
는지는	-4963
들과의	-4964
리조나	-4965
▁계약을	-4966
▁권력을	-4967
▁내용의	-4968
▁니콜라	-4969
▁달러로	-4970
▁돌아가	-4971
▁방문을	-4972
▁승무원	-4973
▁시장에	-4974
▁있었고	-4975
▁정확히	-4976
▁조치가	-4977
▁준비를	-4978
▁증거를	-4979
▁질문을	-4980
▁한국이	-4981
▁네트워크	-4982
▁보인다고	-4983
▁시스템을	-4984
▁외교통상	-4985
ations	-4986
▁과학자들이	-4987
▁이스라엘은	-4988
ib	-4989
▁z	-4990
▁옐	-4991
▁읽	-4992
공항	-4993
나마	-4994
봉송	-4995
아야	-4996
안전	-4997
우스	-4998
이크	-4999
일러	-5000
터는	-5001
트라	-5002
혔다	-5003
ire	-5004
oun	-5005
ton	-5006
▁ra	-5007
▁감바	-5008
▁고대	-5009
▁고향	-5010
▁골프	-5011
▁광산	-5012
▁구출	-5013
▁근본	-5014
▁기지	-5015
▁누가	-5016
▁달려	-5017
▁되찾	-5018
▁등장	-5019
▁디지	-5020
▁민감	-5021
▁승려	-5022
▁아웅	-5023
▁연주	-5024
▁유력	-5025
▁자극	-5026
▁자산	-5027
▁자선	-5028
▁재검	-5029
▁조기	-5030
▁철저	-5031
▁측은	-5032
▁클리	-5033
▁고통을	-5034
▁대가로	-5035
▁라운드	-5036
▁선거에	-5037
▁적십자	-5038
▁제재를	-5039
▁주식시	-5040
▁줄리아	-5041
▁한국에	-5042
▁회사는	-5043
▁훈련을	-5044
▁국민들은	-5045
▁국방부는	-5046
▁시위대가	-5047
▁위원회는	-5048
▁이라크를	-5049
▁관계자들이	-5050
▁마지막으로	-5051
▁쇠	-5052
냐는	-5053
네자	-5054
대중	-5055
령은	-5056
연금	-5057
위로	-5058
정거	-5059
함이	-5060
lec	-5061
▁it	-5062
▁pc	-5063
▁강도	-5064
▁결선	-5065
▁국정	-5066
▁레알	-5067
▁마찬	-5068
▁매장	-5069
▁분열	-5070
▁불능	-5071
▁선물	-5072
▁소매	-5073
▁소수	-5074
▁아동	-5075
▁아름	-5076
▁앤드	-5077
▁올린	-5078
▁운항	-5079
▁유가	-5080
▁응급	-5081
▁이양	-5082
▁주문	-5083
▁청문	-5084
▁추구	-5085
▁출동	-5086
▁커플	-5087
▁코커	-5088
레이크	-5089
베이거	-5090
업체인	-5091
▁frb	-5092
▁공연을	-5093
▁네바다	-5094
▁능력을	-5095
▁마치고	-5096
▁사령관	-5097
▁에어버	-5098
▁유럽의	-5099
▁이로써	-5100
▁이후로	-5101
▁nato	-5102
▁마찬가지	-5103
▁생각하는	-5104
▁의회에서	-5105
▁제공하는	-5106
▁지역으로	-5107
▁외무장관은	-5108
▁폭탄테러가	-5109
ub	-5110
▁낭	-5111
▁뼈	-5112
르도	-5113
석을	-5114
에선	-5115
유지	-5116
주고	-5117
티스	-5118
ash	-5119
der	-5120
▁교환	-5121
▁급속	-5122
▁만난	-5123
▁무죄	-5124
▁민족	-5125
▁보잉	-5126
▁브래	-5127
▁상점	-5128
▁수의	-5129
▁위조	-5130
▁입증	-5131
▁장착	-5132
▁재미	-5133
▁재배	-5134
▁재활	-5135
▁킬로	-5136
▁텔레	-5137
달라고	-5138
움에서	-5139
▁감독이	-5140
▁고양이	-5141
▁납치된	-5142
▁다국적	-5143
▁마리가	-5144
▁마리의	-5145
▁변화가	-5146
▁사장은	-5147
▁상태에	-5148
▁소식이	-5149
▁아마디	-5150
▁안전한	-5151
▁여러분	-5152
▁전쟁에	-5153
▁프리미	-5154
▁혐의가	-5155
아라비아	-5156
▁대선에서	-5157
▁러시아는	-5158
▁성화봉송	-5159
▁일본에서	-5160
▁핵무기를	-5161
▁발생했으며	-5162
▁보고서에서	-5163
▁일반적으로	-5164
▁americ	-5165
▁사우디아라비아	-5166
▁값	-5167
▁똑	-5168
▁왼	-5169
교도	-5170
니의	-5171
질을	-5172
첨단	-5173
탄을	-5174
파로	-5175
해질	-5176
화된	-5177
▁gm	-5178
▁고립	-5179
▁골드	-5180
▁공유	-5181
▁관찰	-5182
▁리조	-5183
▁방지	-5184
▁베르	-5185
▁보는	-5186
▁삶을	-5187
▁선발	-5188
▁신임	-5189
▁쓰러	-5190
▁외무	-5191
▁잃은	-5192
▁차를	-5193
하기를	-5194
▁가치가	-5195
▁결과는	-5196
▁논의를	-5197
▁당신은	-5198
▁디즈니	-5199
▁라이트	-5200
▁소녀의	-5201
▁승리한	-5202
▁시장의	-5203
▁실종된	-5204
▁약속을	-5205
▁에후드	-5206
▁일하는	-5207
▁현재의	-5208
이었다고	-5209
▁공항에서	-5210
▁기대하고	-5211
▁선언했다	-5212
▁역사적인	-5213
▁우려하고	-5214
▁계획이라고	-5215
▁일리노이주	-5216
▁프로그램에	-5217
di	-5218
ff	-5219
ga	-5220
▁듀	-5221
▁맹	-5222
▁욕	-5223
기업	-5224
러스	-5225
물에	-5226
언을	-5227
전문	-5228
ang	-5229
ast	-5230
▁감사	-5231
▁개방	-5232
▁군중	-5233
▁극복	-5234
▁맞춰	-5235
▁명도	-5236
▁바뀌	-5237
▁발간	-5238
▁보복	-5239
▁빈곤	-5240
▁사원	-5241
▁생긴	-5242
▁손상	-5243
▁수를	-5244
▁스프	-5245
▁유치	-5246
▁인생	-5247
▁입국	-5248
▁중순	-5249
▁측정	-5250
▁통한	-5251
▁펠로	-5252
▁필립	-5253
▁협박	-5254
▁환자	-5255
가에서	-5256
레스트	-5257
▁fro	-5258
▁경제를	-5259
▁국제적	-5260
▁나오는	-5261
▁나이트	-5262
▁내용은	-5263
▁다니엘	-5264
▁동티모	-5265
▁마카오	-5266
▁명에게	-5267
▁받아야	-5268
▁사용한	-5269
▁승인을	-5270
▁쓰나미	-5271
▁안전을	-5272
▁있어서	-5273
▁저장된	-5274
▁충분히	-5275
▁타이틀	-5276
▁토마스	-5277
▁서울에서	-5278
▁세계은행	-5279
▁있었지만	-5280
▁체포했다	-5281
▁라스베이거	-5282
▁베이징에서	-5283
▁전했습니다	-5284
ps	-5285
▁펀	-5286
니오	-5287
대와	-5288
로의	-5289
시를	-5290
씨가	-5291
주민	-5292
중한	-5293
지며	-5294
프의	-5295
햄프	-5296
화로	-5297
ars	-5298
▁bl	-5299
▁me	-5300
▁갖게	-5301
▁거두	-5302
▁곤잘	-5303
▁관영	-5304
▁기사	-5305
▁논평	-5306
▁로드	-5307
▁로비	-5308
▁리그	-5309
▁매춘	-5310
▁무선	-5311
▁발병	-5312
▁배제	-5313
▁보낼	-5314
▁복구	-5315
▁봉사	-5316
▁북미	-5317
▁상공	-5318
▁시각	-5319
▁연행	-5320
▁은퇴	-5321
▁장소	-5322
▁중지	-5323
▁한때	-5324
▁합병	-5325
됐으나	-5326
생활을	-5327
ance	-5328
▁par	-5329
▁개월간	-5330
▁관계자	-5331
▁김대중	-5332
▁대학교	-5333
▁법원이	-5334
▁수익을	-5335
▁아니면	-5336
▁아마도	-5337
▁여부는	-5338
▁영화의	-5339
▁유권자	-5340
▁자세한	-5341
▁첫번째	-5342
▁파트너	-5343
▁다쳤다고	-5344
▁미국과의	-5345
▁바르셀로	-5346
▁발생하지	-5347
▁수상했다	-5348
▁승리했다	-5349
▁이라크와	-5350
▁했습니다	-5351
▁국방장관은	-5352
▁폭탄테러로	-5353
ie	-5354
관에	-5355
노동	-5356
명은	-5357
슬림	-5358
와는	-5359
전은	-5360
클라	-5361
▁no	-5362
▁거쳐	-5363
▁단속	-5364
▁대를	-5365
▁막을	-5366
▁매니	-5367
▁묘사	-5368
▁불길	-5369
▁불편	-5370
▁삭제	-5371
▁세인	-5372
▁스캔	-5373
▁스탠	-5374
▁쏟아	-5375
▁적합	-5376
▁점차	-5377
▁조류	-5378
▁주차	-5379
▁죽은	-5380
▁채택	-5381
▁출산	-5382
▁카불	-5383
▁후원	-5384
나지르	-5385
햄프셔	-5386
▁검사는	-5387
▁법원에	-5388
▁베를린	-5389
▁시장이	-5390
▁안에서	-5391
▁오사마	-5392
▁의사가	-5393
▁제대로	-5394
▁주장에	-5395
▁총리를	-5396
▁케이블	-5397
▁태어난	-5398
▁만들어진	-5399
▁베나지르	-5400
▁보유하고	-5401
▁외환은행	-5402
▁진행되고	-5403
▁맛	-5404
▁힌	-5405
기술	-5406
리나	-5407
서에	-5408
▁ha	-5409
▁가난	-5410
▁공정	-5411
▁과도	-5412
▁내정	-5413
▁단어	-5414
▁세트	-5415
▁시사	-5416
▁앓고	-5417
▁연예	-5418
▁유발	-5419
▁인류	-5420
▁임기	-5421
▁재난	-5422
▁저질	-5423
▁조성	-5424
▁초래	-5425
▁코스	-5426
라이언	-5427
였지만	-5428
올림픽	-5429
인들을	-5430
▁abc	-5431
▁가격은	-5432
▁대단한	-5433
▁대학생	-5434
▁블라디	-5435
▁비용이	-5436
▁상당한	-5437
▁오늘날	-5438
▁오래된	-5439
▁올해의	-5440
▁유엔은	-5441
▁익명을	-5442
▁일정을	-5443
▁자료를	-5444
▁책임이	-5445
▁폭탄을	-5446
▁혐의에	-5447
▁회사가	-5448
▁휴대전	-5449
▁cons	-5450
▁가능성은	-5451
▁다우존스	-5452
▁대회에서	-5453
▁발생하는	-5454
▁백악관은	-5455
▁사령관은	-5456
▁증가했다	-5457
▁학생들은	-5458
▁회의에서	-5459
▁스코틀랜드	-5460
▁궤	-5461
▁묶	-5462
▁센	-5463
▁쫓	-5464
▁켈	-5465
권에	-5466
권이	-5467
렸던	-5468
받고	-5469
범위	-5470
봤다	-5471
에만	-5472
위의	-5473
프레	-5474
▁가슴	-5475
▁간주	-5476
▁개표	-5477
▁거리	-5478
▁고고	-5479
▁고소	-5480
▁구금	-5481
▁규제	-5482
▁그리	-5483
▁급등	-5484
▁따뜻	-5485
▁마시	-5486
▁상호	-5487
▁시달	-5488
▁알바	-5489
▁어디	-5490
▁얻기	-5491
▁월의	-5492
▁존스	-5493
▁존중	-5494
▁찾을	-5495
▁최우	-5496
▁펼쳐	-5497
▁화물	-5498
됐었다	-5499
라고예	-5500
선에서	-5501
▁tal	-5502
▁tim	-5503
▁거뒀다	-5504
▁논란이	-5505
▁레스토	-5506
▁말하며	-5507
▁못하게	-5508
▁스타디	-5509
▁애틀랜	-5510
▁여성을	-5511
▁이산화	-5512
▁자신은	-5513
▁자유를	-5514
▁지역은	-5515
▁천주교	-5516
▁표했다	-5517
▁보여줬다	-5518
▁상승했다	-5519
▁중요하다	-5520
▁국민들에게	-5521
▁헐	-5522
나우	-5523
내지	-5524
부양	-5525
성과	-5526
중앙	-5527
한지	-5528
▁가로	-5529
▁공장	-5530
▁기밀	-5531
▁기회	-5532
▁나올	-5533
▁미니	-5534
▁바닥	-5535
▁방안	-5536
▁비타	-5537
▁알코	-5538
▁압수	-5539
▁앞에	-5540
▁청구	-5541
▁투어	-5542
력기구	-5543
land	-5544
▁국가를	-5545
▁국제원	-5546
▁그러한	-5547
▁두번째	-5548
▁모기지	-5549
▁바스라	-5550
▁발언에	-5551
▁북동부	-5552
▁여학생	-5553
▁일으킨	-5554
▁잃었다	-5555
▁재판을	-5556
▁저지른	-5557
▁중국을	-5558
▁집으로	-5559
▁총선을	-5560
▁평화를	-5561
▁피해자	-5562
위원회가	-5563
▁cont	-5564
▁over	-5565
▁구제금융	-5566
▁뉴욕에서	-5567
▁보안관은	-5568
▁와인하우	-5569
▁카르자이	-5570
▁콜로라도	-5571
▁기자들에게	-5572
▁발견됐다고	-5573
▁뿐만아니라	-5574
▁열린우리당	-5575
ft	-5576
▁갇	-5577
▁롬	-5578
▁쓴	-5579
경기	-5580
드라	-5581
력에	-5582
릴라	-5583
모리	-5584
수사	-5585
아나	-5586
즈의	-5587
포드	-5588
ake	-5589
ase	-5590
enc	-5591
und	-5592
▁검문	-5593
▁검은	-5594
▁과격	-5595
▁군은	-5596
▁기부	-5597
▁기쁘	-5598
▁년과	-5599
▁대결	-5600
▁대륙	-5601
▁돌파	-5602
▁되기	-5603
▁머리	-5604
▁못해	-5605
▁배가	-5606
▁보상	-5607
▁부부	-5608
▁비틀	-5609
▁빙하	-5610
▁스크	-5611
▁스턴	-5612
▁아흐	-5613
▁얻어	-5614
▁얻을	-5615
▁예를	-5616
▁의무	-5617
▁의장	-5618
▁재건	-5619
▁전인	-5620
▁절차	-5621
▁지상	-5622
▁지질	-5623
▁체중	-5624
▁출입	-5625
▁충격	-5626
▁프린	-5627
▁항구	-5628
났으며	-5629
되었던	-5630
빈라덴	-5631
▁결과에	-5632
▁국가가	-5633
▁법안이	-5634
▁베컴은	-5635
▁선두를	-5636
▁세금을	-5637
▁심지어	-5638
▁아웅산	-5639
▁영화제	-5640
▁예정된	-5641
▁월스트	-5642
▁중대한	-5643
▁테스트	-5644
▁프레스	-5645
플레이션	-5646
▁elec	-5647
▁거부했다	-5648
▁검색어가	-5649
▁국민들의	-5650
▁국회의원	-5651
▁레스토랑	-5652
▁말했다고	-5653
▁받았으며	-5654
▁블라고예	-5655
▁시민들이	-5656
▁차관보는	-5657
▁호텔에서	-5658
▁방글라데시	-5659
▁주민들에게	-5660
▁보도에따르면	-5661
▁오사마빈라덴	-5662
sa	-5663
▁덕	-5664
▁숀	-5665
▁짓	-5666
▁흰	-5667
담당	-5668
레나	-5669
렌스	-5670
르지	-5671
상황	-5672
스런	-5673
왔던	-5674
으려	-5675
이즈	-5676
졌고	-5677
피해	-5678
화의	-5679
out	-5680
ric	-5681
▁가해	-5682
▁내내	-5683
▁다루	-5684
▁달간	-5685
▁도망	-5686
▁메릴	-5687
▁몸을	-5688
▁방콕	-5689
▁블루	-5690
▁비공	-5691
▁사막	-5692
▁산림	-5693
▁샤라	-5694
▁순방	-5695
▁알라	-5696
▁탄핵	-5697
▁혹은	-5698
▁휩싸	-5699
됐다는	-5700
되었고	-5701
세력이	-5702
카르타	-5703
▁bus	-5704
▁공격은	-5705
▁노동자	-5706
▁답했다	-5707
▁독일의	-5708
▁두려워	-5709
▁벌금을	-5710
▁비용을	-5711
▁소장은	-5712
▁시작할	-5713
▁없지만	-5714
▁외교적	-5715
▁위험에	-5716
▁이란에	-5717
▁일으키	-5718
▁젊은이	-5719
▁총장은	-5720
▁호나우	-5721
ister	-5722
▁보호하기	-5723
▁인터넷을	-5724
▁즉각적인	-5725
▁예정입니다	-5726
▁government	-5727
iz	-5728
▁꼭	-5729
▁멤	-5730
너는	-5731
서양	-5732
서의	-5733
수록	-5734
월드	-5735
일은	-5736
조차	-5737
준비	-5738
탱크	-5739
팀이	-5740
▁qu	-5741
▁강풍	-5742
▁개헌	-5743
▁걸려	-5744
▁구축	-5745
▁다윈	-5746
▁리차	-5747
▁만여	-5748
▁맞추	-5749
▁맡은	-5750
▁물이	-5751
▁미술	-5752
▁비극	-5753
▁성직	-5754
▁시내	-5755
▁쓰촨	-5756
▁온실	-5757
▁유출	-5758
▁진영	-5759
▁축제	-5760
▁침입	-5761
▁통계	-5762
▁판사	-5763
▁폭격	-5764
가들이	-5765
단에서	-5766
하겠다	-5767
▁ass	-5768
▁같다고	-5769
▁구조대	-5770
▁나스닥	-5771
▁두바이	-5772
▁디자인	-5773
▁리히터	-5774
▁보내는	-5775
▁사용될	-5776
▁샌디에	-5777
▁샤라포	-5778
▁시기에	-5779
▁완전한	-5780
▁왕세자	-5781
▁원인을	-5782
▁이곳에	-5783
▁일부를	-5784
▁증거가	-5785
▁패트릭	-5786
▁합의를	-5787
위원회의	-5788
▁from	-5789
▁가능성에	-5790
▁결의안을	-5791
▁경기부양	-5792
▁공식적인	-5793
▁국민들이	-5794
▁런던에서	-5795
▁미시시피	-5796
▁바이러스	-5797
▁수백명의	-5798
▁애리조나	-5799
▁용의자가	-5800
▁주장하며	-5801
▁카스트로	-5802
▁블라디미르	-5803
▁사르코지는	-5804
▁소프트웨어	-5805
▁웹사이트를	-5806
▁체포했다고	-5807
▁핵프로그램	-5808
▁전세계적으로	-5809
kk	-5810
더는	-5811
라며	-5812
률을	-5813
메이	-5814
선수	-5815
위해	-5816
체의	-5817
터리	-5818
히려	-5819
age	-5820
red	-5821
▁ob	-5822
▁공모	-5823
▁그들	-5824
▁노르	-5825
▁높이	-5826
▁뒤에	-5827
▁명인	-5828
▁물고	-5829
▁복무	-5830
▁부담	-5831
▁붙잡	-5832
▁상관	-5833
▁소득	-5834
▁압도	-5835
▁영웅	-5836
▁올려	-5837
▁원칙	-5838
▁이론	-5839
▁인명	-5840
▁자르	-5841
▁잡고	-5842
▁촉발	-5843
▁추모	-5844
▁캄보	-5845
▁케빈	-5846
▁클레	-5847
▁탈북	-5848
금으로	-5849
lear	-5850
ress	-5851
▁관계에	-5852
▁둘러싸	-5853
▁마쳤다	-5854
▁만들고	-5855
▁머리를	-5856
▁머물고	-5857
▁배럴당	-5858
▁배심원	-5859
▁보도를	-5860
▁일부가	-5861
▁전부터	-5862
▁확실한	-5863
▁회담의	-5864
▁훌륭한	-5865
되었으며	-5866
학자들은	-5867
▁cent	-5868
▁당선인의	-5869
▁미사일을	-5870
▁받아들일	-5871
▁변호사가	-5872
▁비판했다	-5873
▁실패했다	-5874
▁오바마와	-5875
▁캄보디아	-5876
▁공개적으로	-5877
▁비상사태를	-5878
▁지도자들이	-5879
up	-5880
▁객	-5881
▁꺼	-5882
▁쌀	-5883
▁옹	-5884
▁텐	-5885
거운	-5886
달을	-5887
라델	-5888
라를	-5889
말을	-5890
비의	-5891
애미	-5892
통제	-5893
하에	-5894
환경	-5895
▁em	-5896
▁거듭	-5897
▁게재	-5898
▁골든	-5899
▁날아	-5900
▁낸시	-5901
▁높다	-5902
▁눈이	-5903
▁들여	-5904
▁마라	-5905
▁물을	-5906
▁배경	-5907
▁벌여	-5908
▁법을	-5909
▁봉송	-5910
▁분에	-5911
▁빈민	-5912
▁새벽	-5913
▁시속	-5914
▁오토	-5915
▁외부	-5916
▁일찍	-5917
▁작용	-5918
▁정해	-5919
▁주연	-5920
▁중부	-5921
▁채널	-5922
▁천재	-5923
▁촉진	-5924
▁해임	-5925
▁헨리	-5926
▁호랑	-5927
공화국	-5928
글뉴스	-5929
단체가	-5930
단체는	-5931
되어야	-5932
받았다	-5933
보장이	-5934
정부는	-5935
조치를	-5936
▁결론을	-5937
▁그것을	-5938
▁디지털	-5939
▁라이벌	-5940
▁방송은	-5941
▁부부는	-5942
▁비타민	-5943
▁산사태	-5944
▁상하이	-5945
▁알코올	-5946
▁엄청난	-5947
▁연구에	-5948
▁인근에	-5949
▁중앙일	-5950
▁집회를	-5951
▁차량이	-5952
▁태도를	-5953
▁해결할	-5954
▁fore	-5955
▁도시에서	-5956
▁마감했다	-5957
▁마이애미	-5958
▁실시되는	-5959
▁우리나라	-5960
▁제기했다	-5961
▁윌리엄스는	-5962
▁캘리포니아주	-5963
ud	-5964
▁딕	-5965
▁잊	-5966
▁훔	-5967
다운	-5968
련의	-5969
망을	-5970
변화	-5971
비로	-5972
서가	-5973
위기	-5974
타는	-5975
호는	-5976
활동	-5977
ens	-5978
▁tw	-5979
▁가구	-5980
▁감금	-5981
▁감지	-5982
▁겨냥	-5983
▁결코	-5984
▁곳은	-5985
▁그레	-5986
▁근육	-5987
▁뉴저	-5988
▁대로	-5989
▁등에	-5990
▁로한	-5991
▁롤링	-5992
▁많다	-5993
▁몰려	-5994
▁비핵	-5995
▁상을	-5996
▁수하	-5997
▁심사	-5998
▁쌍둥	-5999
▁열어	-6000
▁옷을	-6001
▁위의	-6002
▁입법	-6003
▁입을	-6004
▁정착	-6005
▁졸업	-6006
▁차드	-6007
▁체코	-6008
▁초반	-6009
▁특수	-6010
▁폭파	-6011
▁프랭	-6012
▁피닉	-6013
▁후진	-6014
네자드	-6015
카운티	-6016
활동을	-6017
▁경기가	-6018
▁과정을	-6019
▁그렇지	-6020
▁방법이	-6021
▁상태로	-6022
▁언론에	-6023
▁연루된	-6024
▁일본에	-6025
▁증가한	-6026
▁차량에	-6027
▁치열한	-6028
▁토네이	-6029
▁폴란드	-6030
▁필라델	-6031
▁했다는	-6032
▁현장을	-6033
▁화이트	-6034
▁긍정적인	-6035
▁무엇보다	-6036
▁비난하고	-6037
▁생각했다	-6038
▁수석대표	-6039
▁자신에게	-6040
▁참석했다	-6041
▁평가했다	-6042
▁프리미어	-6043
▁한국에서	-6044
▁국제사회의	-6045
▁미국인들이	-6046
▁minister	-6047
gh	-6048
▁갱	-6049
▁겸	-6050
▁좁	-6051
겨진	-6052
다시	-6053
민족	-6054
밀한	-6055
셔츠	-6056
일이	-6057
즈를	-6058
지자	-6059
ath	-6060
ect	-6061
▁fl	-6062
▁te	-6063
▁갖춘	-6064
▁거대	-6065
▁과반	-6066
▁급증	-6067
▁눈에	-6068
▁다리	-6069
▁다섯	-6070
▁다운	-6071
▁뒤를	-6072
▁미칠	-6073
▁부르	-6074
▁부채	-6075
▁북쪽	-6076
▁빅토	-6077
▁사전	-6078
▁수년	-6079
▁안토	-6080
▁예전	-6081
▁원숭	-6082
▁의약	-6083
▁일제	-6084
▁전용	-6085
▁존슨	-6086
▁종합	-6087
▁최루	-6088
▁침몰	-6089
▁카를	-6090
▁풀어	-6091
▁플루	-6092
▁항소	-6093
▁현실	-6094
▁홍수	-6095
▁흥미	-6096
▁흥분	-6097
갔다고	-6098
았으며	-6099
있다고	-6100
자이자	-6101
했다며	-6102
▁all	-6103
▁nuc	-6104
▁가족과	-6105
▁가즈니	-6106
▁거리에	-6107
▁규모가	-6108
▁그랜드	-6109
▁나에게	-6110
▁당국의	-6111
▁동맹국	-6112
▁받으며	-6113
▁보스턴	-6114
▁사태에	-6115
▁상태가	-6116
▁아들이	-6117
▁아파트	-6118
▁여당인	-6119
▁연구는	-6120
▁의혹을	-6121
▁인질로	-6122
▁전역에	-6123
▁조치는	-6124
▁지하철	-6125
▁초점을	-6126
▁트레이	-6127
▁파운드	-6128
▁폭발이	-6129
회의에서	-6130
▁결선투표	-6131
▁관리들이	-6132
▁아메리카	-6133
▁자치정부	-6134
▁프랑스의	-6135
뿐만아니라	-6136
▁world	-6137
▁마이크로소	-6138
▁합의했다고	-6139
▁블라고예비치	-6140
▁nuclear	-6141
▁아프가니스탄에서	-6142
▁밥	-6143
률은	-6144
명한	-6145
목을	-6146
비와	-6147
셔널	-6148
업에	-6149
조합	-6150
중에	-6151
차별	-6152
타오	-6153
화는	-6154
ain	-6155
ass	-6156
ays	-6157
ond	-6158
ost	-6159
▁ib	-6160
▁up	-6161
▁공포	-6162
▁그라	-6163
▁기각	-6164
▁날짜	-6165
▁남극	-6166
▁늦게	-6167
▁대립	-6168
▁돌입	-6169
▁부양	-6170
▁분류	-6171
▁수만	-6172
▁안타	-6173
▁영양	-6174
▁오딩	-6175
▁올리	-6176
▁왕실	-6177
▁전염	-6178
▁중간	-6179
▁차단	-6180
▁찾은	-6181
▁초청	-6182
▁포로	-6183
▁피츠	-6184
무역협	-6185
ence	-6186
▁def	-6187
▁pkk	-6188
▁tra	-6189
▁win	-6190
▁공개된	-6191
▁공항에	-6192
▁그대로	-6193
▁달러가	-6194
▁로이터	-6195
▁마무드	-6196
▁목표를	-6197
▁사회적	-6198
▁세계의	-6199
▁승리할	-6200
▁아이폰	-6201
▁오히려	-6202
▁위대한	-6203
▁음식을	-6204
▁이사회	-6205
▁잘못된	-6206
▁증시는	-6207
▁참여한	-6208
▁페르난	-6209
▁펼쳤다	-6210
▁화재로	-6211
▁가족들이	-6212
▁미국으로	-6213
▁브라이언	-6214
▁여객기가	-6215
▁이산화탄	-6216
▁이에따라	-6217
▁컴퓨터를	-6218
▁지지자들은	-6219
감이	-6220
관의	-6221
기록	-6222
끄러	-6223
몬트	-6224
움이	-6225
케이	-6226
프가	-6227
필드	-6228
ild	-6229
oci	-6230
ors	-6231
urn	-6232
▁공간	-6233
▁광부	-6234
▁금리	-6235
▁다큐	-6236
▁대치	-6237
▁만남	-6238
▁물에	-6239
▁반복	-6240
▁반영	-6241
▁베어	-6242
▁소집	-6243
▁신도	-6244
▁에릭	-6245
▁일과	-6246
▁전설	-6247
▁정의	-6248
▁정찰	-6249
▁탄압	-6250
▁투쟁	-6251
라마바	-6252
왔으며	-6253
용으로	-6254
작전을	-6255
적이며	-6256
직에서	-6257
eral	-6258
port	-6259
▁gro	-6260
▁out	-6261
▁경험이	-6262
▁공산당	-6263
▁기록한	-6264
▁다음날	-6265
▁라이언	-6266
▁리차드	-6267
▁벨기에	-6268
▁사고를	-6269
▁사실은	-6270
▁세력이	-6271
▁아기를	-6272
▁위협이	-6273
▁유튜브	-6274
▁이같이	-6275
▁인구가	-6276
▁장면이	-6277
▁정도의	-6278
▁정책에	-6279
▁포함돼	-6280
▁하면서	-6281
▁혜택을	-6282
▁활주로	-6283
▁휴가를	-6284
시켰다고	-6285
▁뉴햄프셔	-6286
▁방식으로	-6287
▁부상으로	-6288
▁사람들과	-6289
▁세계적인	-6290
▁여성들이	-6291
▁움직임을	-6292
▁진술했다	-6293
▁투표에서	-6294
▁알카에다와	-6295
▁이루어졌다	-6296
▁인플레이션	-6297
▁필라델피아	-6298
▁낼	-6299
▁닥	-6300
▁쓸	-6301
공격	-6302
니어	-6303
범죄	-6304
소와	-6305
아는	-6306
오픈	-6307
키퍼	-6308
테네	-6309
한번	-6310
해온	-6311
▁가게	-6312
▁가을	-6313
▁관중	-6314
▁구멍	-6315
▁기도	-6316
▁남동	-6317
▁로저	-6318
▁마사	-6319
▁뮤지	-6320
▁미성	-6321
▁보지	-6322
▁부딪	-6323
▁상반	-6324
▁상상	-6325
▁소형	-6326
▁스톤	-6327
▁에베	-6328
▁와이	-6329
▁우울	-6330
▁이자	-6331
▁임금	-6332
▁전환	-6333
▁포럼	-6334
▁폭설	-6335
▁해도	-6336
▁혁명	-6337
렸으며	-6338
안에서	-6339
▁ban	-6340
▁his	-6341
▁가족이	-6342
▁가했다	-6343
▁감염된	-6344
▁골키퍼	-6345
▁그루지	-6346
▁나라의	-6347
▁남동부	-6348
▁년에서	-6349
▁다큐멘	-6350
▁단어장	-6351
▁당국에	-6352
▁또다시	-6353
▁무슬림	-6354
▁미군을	-6355
▁방문객	-6356
▁방송을	-6357
▁브랜드	-6358
▁수상한	-6359
▁아이가	-6360
▁여성과	-6361
▁영화에	-6362
▁예정인	-6363
▁장관의	-6364
▁제공할	-6365
▁조사가	-6366
▁주장한	-6367
▁패배를	-6368
▁페이지	-6369
▁홍수로	-6370
▁plan	-6371
▁국가안보	-6372
▁국제원자	-6373
▁논의하기	-6374
▁다시한번	-6375
▁비행기를	-6376
▁아이들은	-6377
▁아이들의	-6378
▁알렉산더	-6379
▁영향력을	-6380
▁이미지를	-6381
▁진행되는	-6382
▁킬로미터	-6383
▁china	-6384
▁목격자들은	-6385
▁이슬라마바	-6386
▁전문가들이	-6387
▁증가했다고	-6388
▁조사에따르면	-6389
▁까	-6390
▁랜	-6391
각을	-6392
먼은	-6393
뱅크	-6394
보험	-6395
위츠	-6396
있던	-6397
차례	-6398
치게	-6399
커는	-6400
코맥	-6401
품이	-6402
ive	-6403
▁ba	-6404
▁dv	-6405
▁가치	-6406
▁각료	-6407
▁감옥	-6408
▁개시	-6409
▁게시	-6410
▁기온	-6411
▁난사	-6412
▁누리	-6413
▁달라	-6414
▁담겨	-6415
▁당부	-6416
▁라덴	-6417
▁맡고	-6418
▁배후	-6419
▁분간	-6420
▁사육	-6421
▁세포	-6422
▁순례	-6423
▁스카	-6424
▁아난	-6425
▁아라	-6426
▁않게	-6427
▁않기	-6428
▁에게	-6429
▁에스	-6430
▁예선	-6431
▁왼쪽	-6432
▁요원	-6433
▁위인	-6434
▁입수	-6435
▁자문	-6436
▁종종	-6437
▁주에	-6438
▁진화	-6439
▁질환	-6440
▁출생	-6441
▁코끼	-6442
▁쿠웨	-6443
▁포드	-6444
▁황금	-6445
라에서	-6446
립니다	-6447
▁hiv	-6448
▁vis	-6449
▁개혁을	-6450
▁검찰이	-6451
▁국장은	-6452
▁단체가	-6453
▁당신의	-6454
▁돌아다	-6455
▁마리아	-6456
▁무사히	-6457
▁미군과	-6458
▁미디어	-6459
▁벌이는	-6460
▁부시의	-6461
▁상태를	-6462
▁우리를	-6463
▁의원의	-6464
▁인간의	-6465
▁조종사	-6466
▁진정한	-6467
▁테러에	-6468
▁part	-6469
▁것이었다	-6470
▁내무부는	-6471
▁사람에게	-6472
▁아버지가	-6473
▁안전하게	-6474
▁있었으나	-6475
▁제조업체	-6476
▁항공우주	-6477
▁백악관에서	-6478
▁알카에다의	-6479
▁에베레스트	-6480
▁외교통상부	-6481
▁한나라당은	-6482
▁사우스캐롤라이나	-6483
▁닉	-6484
▁뭄	-6485
가와	-6486
감독	-6487
계는	-6488
금지	-6489
기자	-6490
느냐	-6491
더스	-6492
라면	-6493
라에	-6494
받을	-6495
일에	-6496
조를	-6497
주가	-6498
책임	-6499
해줄	-6500
화와	-6501
tit	-6502
▁가담	-6503
▁계좌	-6504
▁곳의	-6505
▁공을	-6506
▁나은	-6507
▁날개	-6508
▁다행	-6509
▁많아	-6510
▁불이	-6511
▁비평	-6512
▁살의	-6513
▁상어	-6514
▁선관	-6515
▁선원	-6516
▁섭취	-6517
▁섹스	-6518
▁소리	-6519
▁소위	-6520
▁손에	-6521
▁쓰레	-6522
▁연쇄	-6523
▁옹호	-6524
▁인민	-6525
▁일시	-6526
▁재임	-6527
▁적대	-6528
▁조원	-6529
▁캐릭	-6530
▁팀이	-6531
▁프라	-6532
▁플래	-6533
레스를	-6534
부르크	-6535
식에서	-6536
점으로	-6537
정부가	-6538
했음을	-6539
▁ind	-6540
▁mil	-6541
▁감독의	-6542
▁개발을	-6543
▁거리를	-6544
▁결과로	-6545
▁나오지	-6546
▁남성은	-6547
▁된다는	-6548
▁둘러싼	-6549
▁방법은	-6550
▁베스트	-6551
▁북서부	-6552
▁비교적	-6553
▁사업을	-6554
▁승리로	-6555
▁안정을	-6556
▁여사는	-6557
▁역사적	-6558
▁요청을	-6559
▁인기를	-6560
▁인질을	-6561
▁자신과	-6562
▁제작한	-6563
▁충돌이	-6564
▁케이트	-6565
▁키바키	-6566
▁통신이	-6567
▁페이스	-6568
▁하나로	-6569
▁하나인	-6570
겠습니다	-6571
▁show	-6572
▁가족들은	-6573
▁발생하고	-6574
▁비난하는	-6575
▁않겠다고	-6576
▁오바마를	-6577
▁우리에게	-6578
▁지도자가	-6579
▁쿠웨이트	-6580
▁행정부가	-6581
▁후진타오	-6582
▁월스트리트	-6583
▁보고서에따르면	-6584
ax	-6585
sp	-6586
▁링	-6587
▁컬	-6588
동맹	-6589
방에	-6590
부로	-6591
비에	-6592
생물	-6593
석이	-6594
성장	-6595
스마	-6596
야는	-6597
제재	-6598
치며	-6599
터가	-6600
행한	-6601
혹한	-6602
ese	-6603
les	-6604
ous	-6605
ves	-6606
▁ur	-6607
▁가벼	-6608
▁갑작	-6609
▁개체	-6610
▁고유	-6611
▁구간	-6612
▁구역	-6613
▁글을	-6614
▁동생	-6615
▁말이	-6616
▁무게	-6617
▁보일	-6618
▁보존	-6619
▁선제	-6620
▁송환	-6621
▁수립	-6622
▁시나	-6623
▁식료	-6624
▁쓰고	-6625
▁에콰	-6626
▁예멘	-6627
▁적발	-6628
▁조용	-6629
▁지붕	-6630
▁천억	-6631
▁축소	-6632
▁호흡	-6633
▁화려	-6634
▁회장	-6635
관에서	-6636
라스틱	-6637
▁nba	-6638
▁곳이다	-6639
▁광범위	-6640
▁기회가	-6641
▁남서부	-6642
▁년만에	-6643
▁단체의	-6644
▁돌고래	-6645
▁마라톤	-6646
▁마음을	-6647
▁미성년	-6648
▁미시간	-6649
▁불가피	-6650
▁상당히	-6651
▁생물학	-6652
▁세인트	-6653
▁소규모	-6654
▁아이디	-6655
▁여론조	-6656
▁인용해	-6657
▁재검토	-6658
▁절차를	-6659
▁주도한	-6660
▁지원할	-6661
▁직원이	-6662
▁차례에	-6663
▁참석할	-6664
▁총재는	-6665
▁최근에	-6666
▁최대의	-6667
▁충격을	-6668
▁탑승객	-6669
▁협상에	-6670
▁혼란을	-6671
▁후보인	-6672
▁희망을	-6673
▁힐튼은	-6674
▁근처에서	-6675
▁대의원을	-6676
▁보여주고	-6677
▁북쪽으로	-6678
▁수준으로	-6679
▁연방준비	-6680
▁오바마에	-6681
▁월요일에	-6682
▁이용하는	-6683
▁치명적인	-6684
▁표명했다	-6685
▁헌법재판	-6686
▁경찰서장은	-6687
▁성공적으로	-6688
▁세계적으로	-6689
▁프라이머리	-6690
▁intern	-6691
pe	-6692
▁숲	-6693
▁옛	-6694
▁퀸	-6695
▁팝	-6696
▁폰	-6697
널드	-6698
려진	-6699
로이	-6700
밀히	-6701
복선	-6702
의회	-6703
지원	-6704
질이	-6705
튼은	-6706
패를	-6707
are	-6708
iti	-6709
▁걸린	-6710
▁곳이	-6711
▁길이	-6712
▁낙관	-6713
▁되돌	-6714
▁듣고	-6715
▁리더	-6716
▁마친	-6717
▁모래	-6718
▁반박	-6719
▁방사	-6720
▁부산	-6721
▁세로	-6722
▁세부	-6723
▁신규	-6724
▁이륙	-6725
▁이식	-6726
▁일의	-6727
▁자제	-6728
▁전복	-6729
▁정지	-6730
▁제목	-6731
▁제트	-6732
▁짧은	-6733
▁차별	-6734
▁참모	-6735
▁침공	-6736
▁태운	-6737
▁폭스	-6738
▁표준	-6739
▁행진	-6740
▁협정	-6741
▁횡령	-6742
▁후지	-6743
기라이	-6744
도에서	-6745
베니아	-6746
운동을	-6747
폴리스	-6748
▁dvd	-6749
▁iss	-6750
▁not	-6751
▁sol	-6752
▁가족을	-6753
▁갖추고	-6754
▁것임을	-6755
▁국민의	-6756
▁근거로	-6757
▁뉴욕의	-6758
▁달리고	-6759
▁도착한	-6760
▁뭄바이	-6761
▁민감한	-6762
▁반군의	-6763
▁발견한	-6764
▁발표를	-6765
▁부부가	-6766
▁사용해	-6767
▁상황은	-6768
▁생각이	-6769
▁시위는	-6770
▁실시할	-6771
▁영국은	-6772
▁원주민	-6773
▁이름이	-6774
▁일어날	-6775
▁정권을	-6776
▁주었다	-6777
▁차이가	-6778
▁파나마	-6779
▁했었다	-6780
▁호주의	-6781
▁가택연금	-6782
▁받아들여	-6783
▁운영하고	-6784
▁의미한다	-6785
▁차지하고	-6786
▁샌디에이고	-6787
▁지역에서는	-6788
▁국제원자력기구	-6789
▁싫	-6790
▁핀	-6791
결승	-6792
니까	-6793
니에	-6794
도우	-6795
리어	-6796
버리	-6797
비스	-6798
유럽	-6799
율로	-6800
접한	-6801
주지	-6802
직에	-6803
코는	-6804
펠드	-6805
확인	-6806
ome	-6807
ork	-6808
orn	-6809
ven	-6810
▁md	-6811
▁pa	-6812
▁가상	-6813
▁관측	-6814
▁눈을	-6815
▁뉴올	-6816
▁당초	-6817
▁리드	-6818
▁마비	-6819
▁말할	-6820
▁모건	-6821
▁모니	-6822
▁물건	-6823
▁미스	-6824
▁발휘	-6825
▁백인	-6826
▁보게	-6827
▁부사	-6828
▁부적	-6829
▁불쾌	-6830
▁비치	-6831
▁상영	-6832
▁수리	-6833
▁수비	-6834
▁스콜	-6835
▁신중	-6836
▁아는	-6837
▁얘기	-6838
▁에티	-6839
▁용납	-6840
▁저희	-6841
▁중남	-6842
▁책을	-6843
▁출두	-6844
▁케리	-6845
▁코카	-6846
▁특징	-6847
▁하미	-6848
▁호르	-6849
▁홈페	-6850
드리게	-6851
메이트	-6852
법원은	-6853
onom	-6854
▁are	-6855
▁건물이	-6856
▁결혼을	-6857
▁경찰청	-6858
▁계속될	-6859
▁교황은	-6860
▁규정을	-6861
▁도로를	-6862
▁레이건	-6863
▁메르켈	-6864
▁문제와	-6865
▁미치는	-6866
▁바라는	-6867
▁법무부	-6868
▁비서실	-6869
▁상태다	-6870
▁선수가	-6871
▁수감자	-6872
▁않았던	-6873
▁압박을	-6874
▁양국의	-6875
▁영국인	-6876
▁이브라	-6877
▁일어났	-6878
▁일이다	-6879
▁있어야	-6880
▁중단할	-6881
▁출연한	-6882
▁크레이	-6883
▁투표에	-6884
▁하루에	-6885
▁합의한	-6886
▁했으나	-6887
▁확인할	-6888
▁계속되는	-6889
▁뉴올리언	-6890
▁동티모르	-6891
▁발표하고	-6892
▁변호사인	-6893
▁소식통이	-6894
▁에드워즈	-6895
▁주둔하고	-6896
▁탈레반은	-6897
▁party	-6898
▁매사추세츠	-6899
▁미국인들은	-6900
▁안전보장이	-6901
▁체포됐다고	-6902
▁한나라당의	-6903
▁마이크로소프트	-6904
fl	-6905
▁꼬	-6906
▁뱀	-6907
▁윔	-6908
▁틸	-6909
급을	-6910
등을	-6911
물로	-6912
물의	-6913
바르	-6914
받은	-6915
설을	-6916
스티	-6917
시와	-6918
안의	-6919
일으	-6920
임이	-6921
점은	-6922
진과	-6923
ree	-6924
▁공약	-6925
▁구단	-6926
▁낮추	-6927
▁내보	-6928
▁내일	-6929
▁대대	-6930
▁따돌	-6931
▁래리	-6932
▁루아	-6933
▁본격	-6934
▁북동	-6935
▁빌딩	-6936
▁빨간	-6937
▁선임	-6938
▁수면	-6939
▁수여	-6940
▁시라	-6941
▁앤더	-6942
▁없게	-6943
▁없고	-6944
▁여명	-6945
▁연금	-6946
▁오스	-6947
▁원래	-6948
▁의도	-6949
▁정교	-6950
▁진실	-6951
▁출구	-6952
▁친척	-6953
▁쿠퍼	-6954
▁탄생	-6955
▁탱크	-6956
▁푸에	-6957
▁회계	-6958
▁효율	-6959
관들이	-6960
된다면	-6961
적이다	-6962
주의자	-6963
reat	-6964
▁가족은	-6965
▁경제의	-6966
▁관련한	-6967
▁교육을	-6968
▁군사적	-6969
▁난민촌	-6970
▁남자는	-6971
▁노력이	-6972
▁대상이	-6973
▁등으로	-6974
▁만들기	-6975
▁매니저	-6976
▁별다른	-6977
▁복잡한	-6978
▁분만에	-6979
▁사고는	-6980
▁생명을	-6981
▁속도로	-6982
▁아들을	-6983
▁애완견	-6984
▁앤드류	-6985
▁양측은	-6986
▁언급을	-6987
▁우주선	-6988
▁정권이	-6989
▁철수를	-6990
▁파업을	-6991
▁평화와	-6992
▁하락한	-6993
▁하와이	-6994
▁행사를	-6995
▁헬기가	-6996
했었다고	-6997
▁coun	-6998
▁개인적인	-6999
▁교도소에	-7000
▁국제공항	-7001
▁남부에서	-7002
▁매케인이	-7003
▁부통령은	-7004
▁불러일으	-7005
▁성관계를	-7006
▁영화배우	-7007
▁예를들어	-7008
▁주장한다	-7009
▁아프간에서	-7010
▁지지자들이	-7011
▁크라이슬러	-7012
ph	-7013
▁엠	-7014
교를	-7015
나의	-7016
니와	-7017
니티	-7018
락을	-7019
레인	-7020
름을	-7021
마는	-7022
식의	-7023
연한	-7024
였고	-7025
오고	-7026
ite	-7027
one	-7028
▁cr	-7029
▁금연	-7030
▁기여	-7031
▁끝날	-7032
▁나눴	-7033
▁녹음	-7034
▁달린	-7035
▁당황	-7036
▁딸이	-7037
▁떠난	-7038
▁벌금	-7039
▁부유	-7040
▁살이	-7041
▁샘플	-7042
▁성추	-7043
▁세가	-7044
▁솔직	-7045
▁수배	-7046
▁시대	-7047
▁신조	-7048
▁알지	-7049
▁어깨	-7050
▁얻고	-7051
▁영상	-7052
▁옐친	-7053
▁완료	-7054
▁의문	-7055
▁일상	-7056
▁종결	-7057
▁처해	-7058
▁침략	-7059
▁편의	-7060
▁향상	-7061
▁허커	-7062
▁협회	-7063
▁화면	-7064
되거나	-7065
문에서	-7066
시에서	-7067
해야만	-7068
▁exp	-7069
▁고위관	-7070
▁공습을	-7071
▁그레이	-7072
▁나타난	-7073
▁루이지	-7074
▁마흐디	-7075
▁목표는	-7076
▁무고한	-7077
▁밝혀진	-7078
▁범인이	-7079
▁법안은	-7080
▁식료품	-7081
▁신고를	-7082
▁원인이	-7083
▁은행의	-7084
▁음악을	-7085
▁인도의	-7086
▁일본과	-7087
▁일본인	-7088
▁자리에	-7089
▁조사한	-7090
▁종류의	-7091
▁죽음을	-7092
▁차례의	-7093
▁촬영한	-7094
▁팬들은	-7095
▁펠로시	-7096
▁후보와	-7097
적이라고	-7098
▁lead	-7099
▁news	-7100
▁국가들은	-7101
▁국방장관	-7102
▁들어갔다	-7103
▁로드리게	-7104
▁마드리드	-7105
▁바란다고	-7106
▁방문하는	-7107
▁브라운은	-7108
▁상태에서	-7109
▁않는다는	-7110
▁예비선거	-7111
▁외무장관	-7112
▁의사들은	-7113
▁인근에서	-7114
▁자카르타	-7115
▁조건으로	-7116
▁지점에서	-7117
▁천연가스	-7118
▁클린턴의	-7119
▁플라스틱	-7120
▁하마스가	-7121
▁해안에서	-7122
▁화요일에	-7123
▁다이아몬드	-7124
▁스타디움에서	-7125
▁foreign	-7126
▁끔	-7127
▁널	-7128
▁댄	-7129
▁햄	-7130
교통	-7131
나무	-7132
단히	-7133
데스	-7134
로가	-7135
마자	-7136
블던	-7137
식은	-7138
체제	-7139
타르	-7140
토늄	-7141
팀을	-7142
폴리	-7143
프를	-7144
학과	-7145
eek	-7146
man	-7147
▁we	-7148
▁갖는	-7149
▁관료	-7150
▁국토	-7151
▁군이	-7152
▁기차	-7153
▁낙태	-7154
▁담은	-7155
▁로딕	-7156
▁매달	-7157
▁벗어	-7158
▁본부	-7159
▁본토	-7160
▁불에	-7161
▁빠질	-7162
▁상륙	-7163
▁선호	-7164
▁설문	-7165
▁세비	-7166
▁습격	-7167
▁아시	-7168
▁앞둔	-7169
▁양의	-7170
▁유도	-7171
▁좌절	-7172
▁철군	-7173
▁축출	-7174
▁쿠즈	-7175
▁탐험	-7176
▁투르	-7177
▁팀을	-7178
▁파이	-7179
▁퍼거	-7180
▁해서	-7181
▁환호	-7182
국에서	-7183
냈다고	-7184
당국이	-7185
스트는	-7186
시스템	-7187
tive	-7188
▁day	-7189
▁hou	-7190
▁mon	-7191
▁sup	-7192
▁tro	-7193
▁가치를	-7194
▁결정할	-7195
▁교도소	-7196
▁국가로	-7197
▁기쁘다	-7198
▁놀라운	-7199
▁다리를	-7200
▁단체인	-7201
▁대표가	-7202
▁데이빗	-7203
▁동일한	-7204
▁만났다	-7205
▁뮤지컬	-7206
▁보도가	-7207
▁보이며	-7208
▁브리핑	-7209
▁사상자	-7210
▁사실에	-7211
▁상당의	-7212
▁생방송	-7213
▁성명은	-7214
▁시신이	-7215
▁실수를	-7216
▁않기로	-7217
▁윔블던	-7218
▁유엔의	-7219
▁이용할	-7220
▁일으킬	-7221
▁작업에	-7222
▁증시가	-7223
▁지지선	-7224
▁처벌을	-7225
▁충돌로	-7226
▁카트리	-7227
▁푸틴은	-7228
▁프랭크	-7229
▁하나는	-7230
▁학교에	-7231
▁회장이	-7232
ution	-7233
▁국가들이	-7234
▁밝혔으며	-7235
▁밝혔지만	-7236
▁부정적인	-7237
▁비난하며	-7238
▁비행기가	-7239
▁사용하지	-7240
▁상태이다	-7241
▁아버지는	-7242
▁원자로를	-7243
▁유혈사태	-7244
▁인질들을	-7245
▁있었다는	-7246
▁지원하는	-7247
▁평화유지	-7248
▁obama	-7249
▁대선후보로	-7250
▁분석가들은	-7251
▁유권자들이	-7252
▁프리미어리그	-7253
▁첩	-7254
▁템	-7255
격히	-7256
렸고	-7257
미니	-7258
발전	-7259
봉사	-7260
슨과	-7261
자료	-7262
전쟁	-7263
책이	-7264
톨릭	-7265
판이	-7266
향을	-7267
화한	-7268
ber	-7269
erv	-7270
ide	-7271
▁sk	-7272
▁sn	-7273
▁ww	-7274
▁갔다	-7275
▁개장	-7276
▁건너	-7277
▁급락	-7278
▁느낄	-7279
▁돕기	-7280
▁동남	-7281
▁되길	-7282
▁딸을	-7283
▁러닝	-7284
▁맞는	-7285
▁메디	-7286
▁멤버	-7287
▁몰고	-7288
▁발포	-7289
▁부서	-7290
▁사설	-7291
▁손님	-7292
▁알제	-7293
▁암컷	-7294
▁약화	-7295
▁여섯	-7296
▁위스	-7297
▁유인	-7298
▁정거	-7299
▁주유	-7300
▁주주	-7301
▁직전	-7302
▁창출	-7303
▁청년	-7304
▁태어	-7305
▁테네	-7306
▁파라	-7307
▁파파	-7308
▁포착	-7309
▁현장	-7310
▁형제	-7311
▁휩쓸	-7312
▁힌두	-7313
당했다	-7314
리프는	-7315
오피아	-7316
은행은	-7317
타나모	-7318
ates	-7319
▁mbc	-7320
▁건강이	-7321
▁광고를	-7322
▁구호를	-7323
▁기업의	-7324
▁뉴저지	-7325
▁돌아오	-7326
▁라파엘	-7327
▁민병대	-7328
▁보이콧	-7329
▁사과를	-7330
▁성장을	-7331
▁소식은	-7332
▁여부에	-7333
▁영국군	-7334
▁이제는	-7335
▁장군은	-7336
▁주의를	-7337
▁참여할	-7338
▁파바로	-7339
▁평화적	-7340
▁평화협	-7341
▁피라미	-7342
왔습니다	-7343
인들에게	-7344
축구연맹	-7345
▁거주하고	-7346
▁공개됐다	-7347
▁군인들이	-7348
▁남자친구	-7349
▁드러냈다	-7350
▁못하도록	-7351
▁소유하고	-7352
▁심각하게	-7353
▁않는다면	-7354
▁에어버스	-7355
▁인도주의	-7356
▁일이라고	-7357
▁지시했다	-7358
▁직접적인	-7359
▁해당하는	-7360
▁milit	-7361
▁루이지애나	-7362
▁에티오피아	-7363
▁자유무역협	-7364
▁폭력사태가	-7365
oy	-7366
▁겁	-7367
▁닫	-7368
▁럼	-7369
▁썼	-7370
▁컵	-7371
관인	-7372
교육	-7373
량은	-7374
로코	-7375
마디	-7376
물은	-7377
법은	-7378
브를	-7379
연방	-7380
연히	-7381
입어	-7382
즈와	-7383
하르	-7384
호의	-7385
▁au	-7386
▁ir	-7387
▁개편	-7388
▁계열	-7389
▁고급	-7390
▁괴한	-7391
▁내고	-7392
▁노트	-7393
▁데에	-7394
▁돼지	-7395
▁떠올	-7396
▁마돈	-7397
▁번역	-7398
▁북서	-7399
▁세속	-7400
▁소련	-7401
▁애니	-7402
▁열고	-7403
▁의뢰	-7404
▁잇따	-7405
▁재직	-7406
▁전사	-7407
▁제리	-7408
▁종료	-7409
▁주기	-7410
▁주전	-7411
▁줄어	-7412
▁줄일	-7413
▁진보	-7414
▁처한	-7415
▁캐롤	-7416
▁콜린	-7417
▁토크	-7418
▁하에	-7419
▁혼자	-7420
▁화합	-7421
▁활약	-7422
만으로	-7423
장관이	-7424
지역을	-7425
ical	-7426
▁att	-7427
▁fda	-7428
▁imf	-7429
▁격렬한	-7430
▁결의안	-7431
▁경쟁을	-7432
▁납치범	-7433
▁논쟁이	-7434
▁대다수	-7435
▁도시의	-7436
▁마리를	-7437
▁명에서	-7438
▁부분을	-7439
▁북부에	-7440
▁빠져나	-7441
▁사드르	-7442
▁상승한	-7443
▁성향의	-7444
▁세계적	-7445
▁소식에	-7446
▁수도인	-7447
▁시드의	-7448
▁양국은	-7449
▁언론의	-7450
▁오스카	-7451
▁원하고	-7452
▁이곳은	-7453
▁이란과	-7454
▁지지자	-7455
▁차이로	-7456
▁피닉스	-7457
▁힘입어	-7458
▁prot	-7459
▁곤잘레스	-7460
▁관타나모	-7461
▁매케인의	-7462
▁발표됐다	-7463
▁밝혔다고	-7464
▁방향으로	-7465
▁법원에서	-7466
▁불가리아	-7467
▁선포했다	-7468
▁않았으나	-7469
▁위치하고	-7470
▁자택에서	-7471
▁전망했다	-7472
▁지도자는	-7473
▁지원하고	-7474
▁직원들이	-7475
▁추정된다	-7476
▁프로젝트	-7477
▁state	-7478
▁visit	-7479
▁상원의원의	-7480
▁전국적으로	-7481
▁펜실베니아	-7482
▁econom	-7483
▁깃	-7484
▁롱	-7485
▁탔	-7486
경에	-7487
경은	-7488
고기	-7489
도상	-7490
돼야	-7491
란을	-7492
래스	-7493
론은	-7494
론이	-7495
리코	-7496
보건	-7497
성근	-7498
소속	-7499
슬리	-7500
승희	-7501
심이	-7502
아노	-7503
용이	-7504
이한	-7505
터스	-7506
품에	-7507
할지	-7508
duc	-7509
oul	-7510
ret	-7511
▁nk	-7512
▁가속	-7513
▁개성	-7514
▁공룡	-7515
▁군대	-7516
▁군의	-7517
▁금액	-7518
▁끔찍	-7519
▁남겨	-7520
▁농업	-7521
▁당사	-7522
▁도요	-7523
▁떠오	-7524
▁멀리	-7525
▁미주	-7526
▁벽돌	-7527
▁보스	-7528
▁복역	-7529
▁식민	-7530
▁신분	-7531
▁실린	-7532
▁심문	-7533
▁야스	-7534
▁양육	-7535
▁억제	-7536
▁오리	-7537
▁자동	-7538
▁잡아	-7539
▁점검	-7540
▁좀더	-7541
▁차이	-7542
▁천문	-7543
▁카터	-7544
▁탄광	-7545
▁통상	-7546
▁피살	-7547
▁하여	-7548
당에서	-7549
있으며	-7550
페이스	-7551
▁war	-7552
▁가족의	-7553
▁경기침	-7554
▁나이가	-7555
▁논쟁을	-7556
▁들어간	-7557
▁라이브	-7558
▁마스터	-7559
▁모양의	-7560
▁물러나	-7561
▁미국측	-7562
▁받았던	-7563
▁사항을	-7564
▁살아남	-7565
▁생산을	-7566
▁손실을	-7567
▁시장을	-7568
▁아테네	-7569
▁않았고	-7570
▁완벽한	-7571
▁일에는	-7572
▁정신적	-7573
▁주가는	-7574
▁주년을	-7575
▁중남미	-7576
▁최선을	-7577
▁테니스	-7578
▁통일부	-7579
▁투자가	-7580
▁페더러	-7581
▁포함된	-7582
▁필요로	-7583
▁하미드	-7584
▁한국군	-7585
▁한국을	-7586
▁행사에	-7587
▁행위에	-7588
한글뉴스	-7589
▁공산주의	-7590
▁국무부는	-7591
▁극단주의	-7592
▁뉴욕타임	-7593
▁러시아가	-7594
▁마을에서	-7595
▁무장대원	-7596
▁민주당이	-7597
▁보입니다	-7598
▁에콰도르	-7599
▁요구하며	-7600
▁용의자로	-7601
▁유럽에서	-7602
▁유지하고	-7603
▁전반적인	-7604
▁전통적인	-7605
▁좋아하는	-7606
▁주한미군	-7607
▁지지하고	-7608
▁캠페인을	-7609
▁탈레반이	-7610
▁포함하여	-7611
▁행정부의	-7612
▁talks	-7613
▁결정했다고	-7614
▁때문이라고	-7615
▁상원의원과	-7616
▁예정이었다	-7617
▁이스라엘에	-7618
▁곰	-7619
▁띄	-7620
▁밟	-7621
▁엉	-7622
▁햇	-7623
그로	-7624
내며	-7625
라드	-7626
문제	-7627
바스	-7628
비상	-7629
사무	-7630
사항	-7631
실은	-7632
유를	-7633
이상	-7634
체에	-7635
향이	-7636
호르	-7637
own	-7638
▁nh	-7639
▁간부	-7640
▁간에	-7641
▁갇혀	-7642
▁검증	-7643
▁기금	-7644
▁나선	-7645
▁나설	-7646
▁넘겨	-7647
▁놓여	-7648
▁느낀	-7649
▁도청	-7650
▁되며	-7651
▁떠날	-7652
▁말에	-7653
▁매매	-7654
▁메일	-7655
▁미네	-7656
▁방위	-7657
▁벌써	-7658
▁불어	-7659
▁석을	-7660
▁선전	-7661
▁술을	-7662
▁술집	-7663
▁아담	-7664
▁아틀	-7665
▁알레	-7666
▁양자	-7667
▁어두	-7668
▁에넹	-7669
▁연간	-7670
▁울포	-7671
▁윤리	-7672
▁일축	-7673
▁자발	-7674
▁잡혀	-7675
▁징후	-7676
▁카드	-7677
▁카리	-7678
▁카메	-7679
▁크레	-7680
▁트로	-7681
▁함유	-7682
서에서	-7683
았지만	-7684
이즈미	-7685
자동차	-7686
자이너	-7687
젤레스	-7688
판결을	-7689
해지고	-7690
olog	-7691
▁dem	-7692
▁eng	-7693
▁ins	-7694
▁man	-7695
▁rec	-7696
▁가벼운	-7697
▁감사의	-7698
▁건강에	-7699
▁건강한	-7700
▁게릴라	-7701
▁기소된	-7702
▁남부에	-7703
▁남편인	-7704
▁도시인	-7705
▁디스크	-7706
▁떠났다	-7707
▁루아얄	-7708
▁막대한	-7709
▁모르는	-7710
▁반대로	-7711
▁보도에	-7712
▁보호를	-7713
▁소속의	-7714
▁쓰촨성	-7715
▁않으며	-7716
▁오른쪽	-7717
▁우주왕	-7718
▁위험을	-7719
▁은행에	-7720
▁이뤄진	-7721
▁이용한	-7722
▁제공한	-7723
▁제출한	-7724
▁조사는	-7725
▁조사할	-7726
▁준결승	-7727
▁중이던	-7728
▁증가할	-7729
▁지역인	-7730
▁테러는	-7731
▁투자를	-7732
▁팬들이	-7733
▁합의에	-7734
▁활동에	-7735
▁회의에	-7736
▁효과가	-7737
아일랜드	-7738
았습니다	-7739
▁opec	-7740
▁공습으로	-7741
▁교통사고	-7742
▁당선인이	-7743
▁대학에서	-7744
▁민주당은	-7745
▁사망자는	-7746
▁사용하고	-7747
▁올림픽을	-7748
▁외무부는	-7749
▁이뤄졌다	-7750
▁인터넷에	-7751
▁자유롭게	-7752
▁조지아주	-7753
▁페더러는	-7754
자들로부터	-7755
▁seoul	-7756
▁있었습니다	-7757
▁정상회담을	-7758
▁american	-7759
fp	-7760
▁떼	-7761
▁뜨	-7762
▁쏘	-7763
▁앵	-7764
▁얀	-7765
기금	-7766
기기	-7767
다란	-7768
당을	-7769
라와	-7770
린은	-7771
바오	-7772
법에	-7773
사령	-7774
소한	-7775
실로	-7776
아가	-7777
제르	-7778
조건	-7779
진압	-7780
티가	-7781
피스	-7782
ife	-7783
min	-7784
▁ru	-7785
▁가고	-7786
▁가즈	-7787
▁갈라	-7788
▁고무	-7789
▁공원	-7790
▁교섭	-7791
▁기계	-7792
▁느꼈	-7793
▁다룬	-7794
▁도살	-7795
▁만년	-7796
▁면담	-7797
▁몸에	-7798
▁보급	-7799
▁사절	-7800
▁쉽지	-7801
▁실무	-7802
▁실직	-7803
▁아닙	-7804
▁양곤	-7805
▁업계	-7806
▁영업	-7807
▁오렌	-7808
▁우고	-7809
▁유감	-7810
▁점거	-7811
▁제압	-7812
▁조절	-7813
▁처방	-7814
▁커뮤	-7815
▁탈락	-7816
▁화해	-7817
▁휴가	-7818
▁흘러	-7819
때까지	-7820
면에서	-7821
시리즈	-7822
원들의	-7823
지수가	-7824
프라임	-7825
하마드	-7826
행위를	-7827
회의에	-7828
▁cdc	-7829
▁fif	-7830
▁pri	-7831
▁경선을	-7832
▁경험을	-7833
▁고고학	-7834
▁권성근	-7835
▁그녀를	-7836
▁글로벌	-7837
▁나달은	-7838
▁남성의	-7839
▁노래를	-7840
▁높다고	-7841
▁다음주	-7842
▁다쳤다	-7843
▁대회를	-7844
▁데일리	-7845
▁또다른	-7846
▁법안에	-7847
▁베네딕	-7848
▁부토의	-7849
▁스크린	-7850
▁시간에	-7851
▁약간의	-7852
▁얼마전	-7853
▁에이커	-7854
▁영국과	-7855
▁오클라	-7856
▁왕자가	-7857
▁원인은	-7858
▁월에는	-7859
▁이익을	-7860
▁일련의	-7861
▁전하고	-7862
▁조승희	-7863
▁차관은	-7864
▁총상을	-7865
▁포르노	-7866
▁하거나	-7867
▁할머니	-7868
▁해병대	-7869
▁핵개발	-7870
▁회사를	-7871
▁히틀러	-7872
▁more	-7873
▁고려하고	-7874
▁고이즈미	-7875
▁국가에서	-7876
▁기소됐다	-7877
▁당했다고	-7878
▁아니라는	-7879
▁아니었다	-7880
▁아프간에	-7881
▁이와같이	-7882
▁중동평화	-7883
▁챔피언십	-7884
▁클린턴에	-7885
▁호소했다	-7886
▁확인됐다	-7887
▁무샤라프는	-7888
▁상원의원을	-7889
▁발표했습니다	-7890
▁여론조사에서	-7891
pa	-7892
▁핸	-7893
개를	-7894
경영	-7895
글로	-7896
날드	-7897
노스	-7898
니야	-7899
두는	-7900
령이	-7901
모스	-7902
사관	-7903
았을	-7904
어질	-7905
에미	-7906
우기	-7907
작전	-7908
종의	-7909
체는	-7910
카트	-7911
키로	-7912
터키	-7913
itt	-7914
▁by	-7915
▁my	-7916
▁ph	-7917
▁sy	-7918
▁가짜	-7919
▁곳곳	-7920
▁교전	-7921
▁금메	-7922
▁금속	-7923
▁놀이	-7924
▁동북	-7925
▁들이	-7926
▁마케	-7927
▁맞고	-7928
▁매출	-7929
▁맥도	-7930
▁멈추	-7931
▁모금	-7932
▁무슨	-7933
▁미첼	-7934
▁미터	-7935
▁반도	-7936
▁발발	-7937
▁붙여	-7938
▁블록	-7939
▁서서	-7940
▁서양	-7941
▁숨을	-7942
▁스토	-7943
▁엔터	-7944
▁연계	-7945
▁연례	-7946
▁열심	-7947
▁일치	-7948
▁있은	-7949
▁잡지	-7950
▁전형	-7951
▁주립	-7952
▁중의	-7953
▁즐길	-7954
▁지고	-7955
▁지는	-7956
▁진지	-7957
▁취한	-7958
▁크라	-7959
▁타밀	-7960
▁탄도	-7961
▁테이	-7962
▁통행	-7963
▁퇴원	-7964
▁팀의	-7965
▁파월	-7966
▁풍부	-7967
▁하버	-7968
▁학대	-7969
나에서	-7970
머니는	-7971
베르토	-7972
스트라	-7973
졌지만	-7974
지역의	-7975
쳤으며	-7976
혐의로	-7977
▁fin	-7978
▁fir	-7979
▁경매에	-7980
▁공격한	-7981
▁국가에	-7982
▁권리가	-7983
▁남편이	-7984
▁노트북	-7985
▁뉴욕주	-7986
▁늘어나	-7987
▁도미니	-7988
▁됐으며	-7989
▁목사는	-7990
▁방송에	-7991
▁불능화	-7992
▁뿐이다	-7993
▁살해된	-7994
▁수입을	-7995
▁심장마	-7996
▁앞서고	-7997
▁엄격한	-7998
▁연구소	-7999
▁연기를	-8000
▁연합군	-8001
▁열대성	-8002
▁열렸다	-8003
▁유대인	-8004
▁의견이	-8005
▁이끌고	-8006
▁이메일	-8007
▁일으켰	-8008
▁제외한	-8009
▁지구에	-8010
▁최첨단	-8011
▁폭우로	-8012
▁행동에	-8013
▁향하는	-8014
▁conf	-8015
▁wash	-8016
▁강전에서	-8017
▁결정적인	-8018
▁나타내는	-8019
▁동성애자	-8020
▁보여준다	-8021
▁아닙니다	-8022
▁아름다운	-8023
▁알바니아	-8024
▁연구소의	-8025
▁오클라호	-8026
▁용의자는	-8027
▁위원장이	-8028
▁위협하고	-8029
▁일어나는	-8030
▁준비하고	-8031
▁중이었다	-8032
▁참석하지	-8033
▁타임즈가	-8034
▁확산되고	-8035
ington	-8036
▁결승전에서	-8037
▁시작했다고	-8038
▁알카에다가	-8039
▁우주비행사	-8040
▁secret	-8041
▁넬	-8042
▁몽	-8043
▁턱	-8044
거를	-8045
국과	-8046
는가	-8047
드베	-8048
란타	-8049
력은	-8050
문은	-8051
병이	-8052
생산	-8053
세한	-8054
이와	-8055
졌을	-8056
치와	-8057
크가	-8058
통이	-8059
트와	-8060
판에	-8061
행위	-8062
확실	-8063
ach	-8064
ops	-8065
▁uc	-8066
▁가중	-8067
▁거론	-8068
▁계산	-8069
▁그만	-8070
▁기숙	-8071
▁내지	-8072
▁냈다	-8073
▁단행	-8074
▁당해	-8075
▁데려	-8076
▁도심	-8077
▁때는	-8078
▁모양	-8079
▁모욕	-8080
▁무덤	-8081
▁무승	-8082
▁미리	-8083
▁믿을	-8084
▁밀려	-8085
▁박탈	-8086
▁발행	-8087
▁법무	-8088
▁부탁	-8089
▁부터	-8090
▁빼앗	-8091
▁세탁	-8092
▁씨가	-8093
▁압력	-8094
▁야구	-8095
▁양성	-8096
▁양키	-8097
▁여권	-8098
▁옆에	-8099
▁유기	-8100
▁유통	-8101
▁음성	-8102
▁이다	-8103
▁전년	-8104
▁정전	-8105
▁제약	-8106
▁조심	-8107
▁준수	-8108
▁직업	-8109
▁차베	-8110
▁채취	-8111
▁카지	-8112
▁택시	-8113
▁터널	-8114
▁퇴임	-8115
▁펼친	-8116
▁폭동	-8117
▁플라	-8118
▁하자	-8119
▁허드	-8120
▁형사	-8121
되기도	-8122
레스는	-8123
비치는	-8124
상태에	-8125
자금을	-8126
회의를	-8127
ency	-8128
▁gen	-8129
▁has	-8130
▁roh	-8131
▁강제로	-8132
▁건물에	-8133
▁경기는	-8134
▁계속된	-8135
▁고위급	-8136
▁국가인	-8137
▁남학생	-8138
▁너무나	-8139
▁대서양	-8140
▁대책을	-8141
▁데이터	-8142
▁들어갈	-8143
▁메드베	-8144
▁무엇을	-8145
▁방문은	-8146
▁법원의	-8147
▁불확실	-8148
▁브래드	-8149
▁사임을	-8150
▁사진이	-8151
▁상처를	-8152
▁서울시	-8153
▁서장은	-8154
▁성공을	-8155
▁안으로	-8156
▁알렉스	-8157
▁알렸다	-8158
▁야후의	-8159
▁여지가	-8160
▁역사를	-8161
▁위스콘	-8162
▁윈도우	-8163
▁유명인	-8164
▁이후에	-8165
▁인터폴	-8166
▁일본을	-8167
▁일하고	-8168
▁잃어버	-8169
▁자리잡	-8170
▁중에서	-8171
▁증언을	-8172
▁커다란	-8173
▁터키의	-8174
▁테네시	-8175
들에게는	-8176
▁time	-8177
▁가능성도	-8178
▁가족들과	-8179
▁담당자는	-8180
▁대법원은	-8181
▁동영상이	-8182
▁디자이너	-8183
▁미얀마의	-8184
▁법정에서	-8185
▁보고서에	-8186
▁빅토리아	-8187
▁아니지만	-8188
▁앞으로도	-8189
▁언급하며	-8190
▁여성들은	-8191
▁움직임은	-8192
▁이루어진	-8193
▁이름으로	-8194
▁이브라힘	-8195
▁제시했다	-8196
▁테러조직	-8197
▁텍사스주	-8198
▁플루토늄	-8199
▁대통령으로	-8200
▁민주주의를	-8201
▁오클라호마	-8202
▁통과시켰다	-8203
▁프라이머리에서	-8204
ck	-8205
ls	-8206
po	-8207
vs	-8208
▁딘	-8209
▁써	-8210
▁옳	-8211
▁웰	-8212
▁팽	-8213
▁펄	-8214
넬라	-8215
념을	-8216
단과	-8217
되길	-8218
로에	-8219
미는	-8220
받아	-8221
법원	-8222
사업	-8223
세프	-8224
아버	-8225
아의	-8226
았고	-8227
어요	-8228
연료	-8229
제네	-8230
지방	-8231
진의	-8232
체로	-8233
카는	-8234
클럽	-8235
▁ge	-8236
▁pm	-8237
▁pr	-8238
▁교외	-8239
▁귀환	-8240
▁기원	-8241
▁낮아	-8242
▁노인	-8243
▁느낌	-8244
▁다수	-8245
▁망원	-8246
▁맥캔	-8247
▁모술	-8248
▁모아	-8249
▁무자	-8250
▁밀어	-8251
▁바탕	-8252
▁바티	-8253
▁부검	-8254
▁분께	-8255
▁살모	-8256
▁수류	-8257
▁신발	-8258
▁실현	-8259
▁아지	-8260
▁애국	-8261
▁요리	-8262
▁원인	-8263
▁유일	-8264
▁이득	-8265
▁잇는	-8266
▁정리	-8267
▁조약	-8268
▁종식	-8269
▁중태	-8270
▁판다	-8271
▁해저	-8272
▁활발	-8273
단체인	-8274
들이다	-8275
스럽다	-8276
에게도	-8277
진으로	-8278
트레이	-8279
▁int	-8280
▁기사를	-8281
▁내려진	-8282
▁누구도	-8283
▁느끼고	-8284
▁머레이	-8285
▁발표는	-8286
▁방문해	-8287
▁방법에	-8288
▁병력이	-8289
▁사진은	-8290
▁사형을	-8291
▁생각해	-8292
▁성공한	-8293
▁수행할	-8294
▁스타벅	-8295
▁스타일	-8296
▁스파이	-8297
▁영국에	-8298
▁영화가	-8299
▁왕자는	-8300
▁위하여	-8301
▁유죄를	-8302
▁자녀를	-8303
▁자르다	-8304
▁작업이	-8305
▁작품을	-8306
▁적합한	-8307
▁전투기	-8308
▁최우선	-8309
▁탑승한	-8310
▁토크쇼	-8311
▁파파라	-8312
▁판결이	-8313
▁폭력을	-8314
▁해수면	-8315
▁화려한	-8316
▁활동이	-8317
▁회사에	-8318
▁효과를	-8319
시키려는	-8320
▁york	-8321
▁계획하고	-8322
▁광범위한	-8323
▁국가비상	-8324
▁남아있는	-8325
▁누군가가	-8326
▁메릴랜드	-8327
▁모른다고	-8328
▁보고서가	-8329
▁선거관리	-8330
▁시작으로	-8331
▁실시했다	-8332
▁아라비아	-8333
▁아랍에미	-8334
▁아웅산수	-8335
▁예상하고	-8336
▁위스콘신	-8337
▁전역에서	-8338
▁제출했다	-8339
▁주민들을	-8340
▁주민들의	-8341
▁추정하고	-8342
▁카메라를	-8343
▁코소보의	-8344
▁타이틀을	-8345
▁플레이를	-8346
▁행정부는	-8347
▁홈페이지	-8348
▁개인적으로	-8349
▁국제유가가	-8350
▁요구했다고	-8351
▁안전보장이사회	-8352
▁washington	-8353
▁붐	-8354
괴한	-8355
근혜	-8356
먼트	-8357
비넨	-8358
성화	-8359
시대	-8360
아를	-8361
어와	-8362
어져	-8363
우며	-8364
종을	-8365
지대	-8366
착륙	-8367
크라	-8368
파가	-8369
프롬	-8370
▁ye	-8371
▁갤런	-8372
▁고안	-8373
▁교사	-8374
▁권총	-8375
▁남용	-8376
▁넘게	-8377
▁높게	-8378
▁뉴델	-8379
▁단독	-8380
▁담고	-8381
▁데뷔	-8382
▁도디	-8383
▁동계	-8384
▁루이	-8385
▁맞은	-8386
▁불교	-8387
▁비아	-8388
▁산책	-8389
▁신호	-8390
▁실려	-8391
▁심의	-8392
▁아나	-8393
▁양쪽	-8394
▁염려	-8395
▁완성	-8396
▁워너	-8397
▁원내	-8398
▁원정	-8399
▁유사	-8400
▁유타	-8401
▁이슈	-8402
▁이적	-8403
▁자전	-8404
▁자행	-8405
▁잭슨	-8406
▁증강	-8407
▁치를	-8408
▁투명	-8409
▁포셋	-8410
▁했고	-8411
▁현금	-8412
▁후송	-8413
갔으며	-8414
거래소	-8415
시키며	-8416
시하고	-8417
역에서	-8418
원들을	-8419
이사회	-8420
▁aig	-8421
▁ear	-8422
▁inc	-8423
▁its	-8424
▁one	-8425
▁가난한	-8426
▁강진이	-8427
▁공정한	-8428
▁국립공	-8429
▁규모를	-8430
▁근로자	-8431
▁나이로	-8432
▁내리는	-8433
▁대선에	-8434
▁도착할	-8435
▁동물원	-8436
▁디스커	-8437
▁미래를	-8438
▁미래에	-8439
▁받는다	-8440
▁방문에	-8441
▁변화에	-8442
▁보고를	-8443
▁보내고	-8444
▁사생활	-8445
▁사용된	-8446
▁사퇴를	-8447
▁상대방	-8448
▁세대를	-8449
▁수사에	-8450
▁신속히	-8451
▁실험을	-8452
▁심하게	-8453
▁알리는	-8454
▁여러번	-8455
▁오렌지	-8456
▁왕자의	-8457
▁위안부	-8458
▁위에서	-8459
▁이내에	-8460
▁이처럼	-8461
▁인구의	-8462
▁인사를	-8463
▁일자리	-8464
▁정치인	-8465
▁진전이	-8466
▁친환경	-8467
▁테일러	-8468
▁하이브	-8469
▁학생이	-8470
▁허가를	-8471
▁현재는	-8472
istan	-8473
▁bush	-8474
▁open	-8475
▁거부권을	-8476
▁거절했다	-8477
▁국제우주	-8478
▁기대한다	-8479
▁내렸다고	-8480
▁높아지고	-8481
▁달러까지	-8482
▁대피했다	-8483
▁메드베데	-8484
▁모두에게	-8485
▁목소리를	-8486
▁베네딕토	-8487
▁보냈다고	-8488
▁뿐이라고	-8489
▁사이트를	-8490
▁상황이다	-8491
▁생각하지	-8492
▁선수들은	-8493
▁선수들이	-8494
▁세속주의	-8495
▁숨졌으며	-8496
▁않았다는	-8497
▁연구결과	-8498
▁의원들이	-8499
▁이라크는	-8500
▁이메일을	-8501
▁일어났다	-8502
▁치러지는	-8503
▁학교에서	-8504
▁핵실험을	-8505
▁house	-8506
▁무장세력이	-8507
▁서브프라임	-8508
▁국가비상사태	-8509
▁international	-8510
ds	-8511
ix	-8512
ke	-8513
▁굉	-8514
▁꽃	-8515
▁뚫	-8516
▁츠	-8517
▁콰	-8518
▁큐	-8519
▁펭	-8520
관련	-8521
나를	-8522
나에	-8523
렸을	-8524
마를	-8525
매매	-8526
블로	-8527
시오	-8528
시한	-8529
쓰고	-8530
씨의	-8531
었기	-8532
역에	-8533
정도	-8534
췄다	-8535
카드	-8536
커스	-8537
케인	-8538
킥을	-8539
파의	-8540
평균	-8541
혁명	-8542
ict	-8543
our	-8544
▁do	-8545
▁dr	-8546
▁각국	-8547
▁간호	-8548
▁고의	-8549
▁구류	-8550
▁국세	-8551
▁급습	-8552
▁널리	-8553
▁당의	-8554
▁대전	-8555
▁델타	-8556
▁도난	-8557
▁등급	-8558
▁만화	-8559
▁먹고	-8560
▁모임	-8561
▁미드	-8562
▁바꿀	-8563
▁박스	-8564
▁방출	-8565
▁비가	-8566
▁성격	-8567
▁세대	-8568
▁소아	-8569
▁소장	-8570
▁스탈	-8571
▁안내	-8572
▁안드	-8573
▁앨런	-8574
▁억만	-8575
▁얻게	-8576
▁엑스	-8577
▁요한	-8578
▁워터	-8579
▁웨인	-8580
▁유람	-8581
▁유산	-8582
▁유행	-8583
▁임대	-8584
▁자바	-8585
▁장려	-8586
▁재고	-8587
▁전격	-8588
▁점이	-8589
▁정유	-8590
▁줄리	-8591
▁초에	-8592
▁총에	-8593
▁토로	-8594
▁통보	-8595
▁트라	-8596
▁티벳	-8597
▁페이	-8598
▁포트	-8599
▁향한	-8600
▁호송	-8601
겼다고	-8602
등학교	-8603
사항을	-8604
으려고	-8605
은행이	-8606
크리트	-8607
▁bda	-8608
▁ibm	-8609
▁mdc	-8610
▁rel	-8611
▁감바리	-8612
▁것인가	-8613
▁견해를	-8614
▁결정이	-8615
▁계속할	-8616
▁공개한	-8617
▁공항을	-8618
▁금리를	-8619
▁기분이	-8620
▁나라를	-8621
▁남자를	-8622
▁년으로	-8623
▁다르다	-8624
▁데리고	-8625
▁돌아갈	-8626
▁동안의	-8627
▁맡았다	-8628
▁메이저	-8629
▁명백한	-8630
▁목적을	-8631
▁부대를	-8632
▁부족한	-8633
▁비행을	-8634
▁서신을	-8635
▁성과를	-8636
▁소년이	-8637
▁아마존	-8638
▁아이들	-8639
▁얼굴을	-8640
▁원한다	-8641
▁유럽과	-8642
▁유엔이	-8643
▁의사는	-8644
▁의회를	-8645
▁이란을	-8646
▁이뤄질	-8647
▁일간지	-8648
▁재무부	-8649
▁전략을	-8650
▁전체가	-8651
▁제치고	-8652
▁중이며	-8653
▁지역이	-8654
▁출신인	-8655
▁치러질	-8656
▁클레이	-8657
▁파이프	-8658
▁퍼거슨	-8659
됨에따라	-8660
▁fifa	-8661
▁국가들의	-8662
▁국가정보	-8663
▁국제적인	-8664
▁되었다고	-8665
▁벌어졌다	-8666
▁보좌관은	-8667
▁비디오를	-8668
▁사용했다	-8669
▁살모넬라	-8670
▁시위대를	-8671
▁연구원은	-8672
▁영화에서	-8673
▁울포위츠	-8674
▁이라크내	-8675
▁중단했다	-8676
▁지도자로	-8677
▁직원들은	-8678
▁카를로스	-8679
▁파리에서	-8680
▁무장세력의	-8681
▁발견되었다	-8682
▁시위자들은	-8683
▁않았습니다	-8684
▁유권자들은	-8685
▁상승했습니다	-8686
▁자살폭탄테러가	-8687
ah	-8688
▁굳	-8689
▁렌	-8690
▁봐	-8691
▁짝	-8692
▁쳐	-8693
▁춤	-8694
공급	-8695
과학	-8696
구의	-8697
도와	-8698
라바	-8699
력과	-8700
력의	-8701
면에	-8702
모를	-8703
받는	-8704
사이	-8705
인다	-8706
인민	-8707
입을	-8708
제이	-8709
조한	-8710
크의	-8711
튼의	-8712
파울	-8713
플루	-8714
히는	-8715
ble	-8716
for	-8717
ish	-8718
ute	-8719
▁cd	-8720
▁가끔	-8721
▁강에	-8722
▁강행	-8723
▁결심	-8724
▁교토	-8725
▁군과	-8726
▁기아	-8727
▁깨끗	-8728
▁내다	-8729
▁대우	-8730
▁도덕	-8731
▁동참	-8732
▁라우	-8733
▁막아	-8734
▁만능	-8735
▁맨해	-8736
▁먹는	-8737
▁모집	-8738
▁무렵	-8739
▁묻는	-8740
▁박사	-8741
▁반전	-8742
▁발매	-8743
▁부러	-8744
▁부속	-8745
▁불만	-8746
▁세운	-8747
▁수족	-8748
▁수컷	-8749
▁숙박	-8750
▁시점	-8751
▁약혼	-8752
▁언덕	-8753
▁역임	-8754
▁연극	-8755
▁였다	-8756
▁영구	-8757
▁옥스	-8758
▁왜곡	-8759
▁요즘	-8760
▁위생	-8761
▁유적	-8762
▁이외	-8763
▁이정	-8764
▁장교	-8765
▁재무	-8766
▁전범	-8767
▁조항	-8768
▁주거	-8769
▁찾지	-8770
▁측이	-8771
▁치솟	-8772
▁포장	-8773
▁항생	-8774
▁행렬	-8775
▁협약	-8776
국들은	-8777
랜드는	-8778
럼비아	-8779
렀다고	-8780
으므로	-8781
정부의	-8782
졌으나	-8783
총리는	-8784
ains	-8785
uman	-8786
▁감정을	-8787
▁기능을	-8788
▁긴장이	-8789
▁납치한	-8790
▁다니는	-8791
▁돌아와	-8792
▁런던의	-8793
▁마이스	-8794
▁바티칸	-8795
▁박근혜	-8796
▁범죄를	-8797
▁보다는	-8798
▁상파울	-8799
▁세력을	-8800
▁수반은	-8801
▁시신은	-8802
▁신원이	-8803
▁아스날	-8804
▁업무를	-8805
▁연구가	-8806
▁열심히	-8807
▁왔다고	-8808
▁우울증	-8809
▁유력한	-8810
▁의원을	-8811
▁전쟁이	-8812
▁존스턴	-8813
▁주요한	-8814
▁중단을	-8815
▁취하고	-8816
▁크기의	-8817
▁텔레비	-8818
▁투표가	-8819
▁피랍된	-8820
▁피하기	-8821
▁해수욕	-8822
▁호텔에	-8823
▁work	-8824
▁가능하다	-8825
▁공개하지	-8826
▁관계자의	-8827
▁국민투표	-8828
▁내려졌다	-8829
▁노르웨이	-8830
▁당부했다	-8831
▁받아왔다	-8832
▁분리주의	-8833
▁분위기를	-8834
▁승인했다	-8835
▁시티그룹	-8836
▁아버지인	-8837
▁아시아의	-8838
▁위원회의	-8839
▁일으켰다	-8840
▁자동차업	-8841
▁자원봉사	-8842
▁재판에서	-8843
▁전해졌다	-8844
▁정부군이	-8845
▁차지하는	-8846
▁최고경영	-8847
▁출연했다	-8848
▁테이프를	-8849
▁평화적인	-8850
▁first	-8851
▁다우지수는	-8852
▁오하이오주	-8853
▁용의자들을	-8854
▁적극적으로	-8855
▁정기적으로	-8856
▁파키스탄에	-8857
▁프랑스에서	-8858
▁프로그램이	-8859
▁하이브리드	-8860
▁학생들에게	-8861
▁국제우주정거	-8862
▁아랍에미리트	-8863
▁아마디네자드	-8864
▁military	-8865
go	-8866
▁굿	-8867
▁깔	-8868
▁덜	-8869
검사	-8870
것도	-8871
니를	-8872
니언	-8873
당에	-8874
독한	-8875
려야	-8876
마르	-8877
미를	-8878
받침	-8879
범한	-8880
보안	-8881
본부	-8882
색을	-8883
서치	-8884
애틀	-8885
올로	-8886
정상	-8887
정의	-8888
지다	-8889
타이	-8890
테르	-8891
티에	-8892
피를	-8893
해가	-8894
해주	-8895
lic	-8896
mer	-8897
pos	-8898
urt	-8899
▁gu	-8900
▁lg	-8901
▁강간	-8902
▁것일	-8903
▁고어	-8904
▁공대	-8905
▁꺾고	-8906
▁남쪽	-8907
▁내리	-8908
▁당일	-8909
▁덕분	-8910
▁던진	-8911
▁럼스	-8912
▁모리	-8913
▁미셸	-8914
▁박격	-8915
▁발이	-8916
▁봤다	-8917
▁부결	-8918
▁사인	-8919
▁삭감	-8920
▁산맥	-8921
▁상의	-8922
▁스노	-8923
▁신사	-8924
▁아빠	-8925
▁약탈	-8926
▁없애	-8927
▁에따	-8928
▁연출	-8929
▁외계	-8930
▁우편	-8931
▁워렌	-8932
▁유수	-8933
▁음료	-8934
▁일고	-8935
▁저렴	-8936
▁전파	-8937
▁접수	-8938
▁제정	-8939
▁진전	-8940
▁체류	-8941
▁치매	-8942
▁카스	-8943
▁크리	-8944
▁표결	-8945
▁한달	-8946
▁해상	-8947
▁해소	-8948
▁해체	-8949
▁회동	-8950
고에서	-8951
까지도	-8952
어졌다	-8953
에게서	-8954
이라며	-8955
통신이	-8956
하려던	-8957
ople	-8958
▁rep	-8959
▁가져올	-8960
▁간단한	-8961
▁개발에	-8962
▁건물을	-8963
▁경고를	-8964
▁구호물	-8965
▁남성을	-8966
▁내용에	-8967
▁돌아올	-8968
▁디트로	-8969
▁못한다	-8970
▁무장한	-8971
▁반군은	-8972
▁방향을	-8973
▁부분이	-8974
▁생존자	-8975
▁선거가	-8976
▁수감된	-8977
▁수사가	-8978
▁수치는	-8979
▁실패한	-8980
▁앞섰다	-8981
▁억만장	-8982
▁에르도	-8983
▁연락을	-8984
▁예정이	-8985
▁올라가	-8986
▁위협에	-8987
▁음주운	-8988
▁이유가	-8989
▁장관과	-8990
▁전에는	-8991
▁제시한	-8992
▁제품을	-8993
▁조직을	-8994
▁주식을	-8995
▁진행될	-8996
▁총기를	-8997
▁켄터키	-8998
▁파업에	-8999
▁편지를	-9000
▁해안에	-9001
▁행위는	-9002
▁현상이	-9003
▁형태의	-9004
▁환자가	-9005
대회에서	-9006
렸습니다	-9007
시장에서	-9008
위원장은	-9009
▁apec	-9010
▁가즈프롬	-9011
▁개발도상	-9012
▁거리에서	-9013
▁관련하여	-9014
▁권고했다	-9015
▁대표하는	-9016
▁못했지만	-9017
▁반대하고	-9018
▁병사들이	-9019
▁분석했다	-9020
▁선고했다	-9021
▁시나리오	-9022
▁않습니다	-9023
▁에드워드	-9024
▁여객기는	-9025
▁윌리엄스	-9026
▁의심되는	-9027
▁인질들이	-9028
▁정부에서	-9029
▁차전에서	-9030
▁창기라이	-9031
▁출신으로	-9032
▁출전하지	-9033
▁클린턴과	-9034
▁피츠버그	-9035
▁항의하는	-9036
▁헤럴드는	-9037
▁확신한다	-9038
▁확인되지	-9039
▁회견에서	-9040
▁press	-9041
▁동영상에서	-9042
▁디트로이트	-9043
▁러닝메이트	-9044
▁연구원들은	-9045
▁유나이티드	-9046
▁유죄판결을	-9047
▁지속적으로	-9048
▁people	-9049
bo	-9050
▁괜	-9051
▁덩	-9052
▁융	-9053
국민	-9054
기부	-9055
나게	-9056
노조	-9057
놓고	-9058
당인	-9059
런스	-9060
마의	-9061
만간	-9062
보좌	-9063
석에	-9064
연을	-9065
음이	-9066
조약	-9067
지우	-9068
차는	-9069
크를	-9070
클로	-9071
클리	-9072
타를	-9073
학을	-9074
ory	-9075
▁거친	-9076
▁결합	-9077
▁괜찮	-9078
▁구경	-9079
▁기증	-9080
▁기획	-9081
▁깊이	-9082
▁끊임	-9083
▁내전	-9084
▁돈이	-9085
▁마찰	-9086
▁만료	-9087
▁매입	-9088
▁물가	-9089
▁물어	-9090
▁미셀	-9091
▁발급	-9092
▁베탕	-9093
▁북측	-9094
▁상처	-9095
▁소니	-9096
▁솔로	-9097
▁송금	-9098
▁수락	-9099
▁쉬운	-9100
▁슬로	-9101
▁시골	-9102
▁실적	-9103
▁싶지	-9104
▁양측	-9105
▁에너	-9106
▁연말	-9107
▁영장	-9108
▁오를	-9109
▁인내	-9110
▁잠수	-9111
▁점유	-9112
▁정밀	-9113
▁즐기	-9114
▁지점	-9115
▁진상	-9116
▁차가	-9117
▁체계	-9118
▁총통	-9119
▁취급	-9120
▁케르	-9121
▁코너	-9122
▁터뜨	-9123
▁파편	-9124
▁포획	-9125
▁피신	-9126
▁헬리	-9127
병으로	-9128
시키지	-9129
위에서	-9130
정으로	-9131
태평양	-9132
▁cor	-9133
▁개발한	-9134
▁거부한	-9135
▁기지를	-9136
▁긴장을	-9137
▁남부의	-9138
▁남자의	-9139
▁대테러	-9140
▁뒷받침	-9141
▁북극곰	-9142
▁분노를	-9143
▁분쟁을	-9144
▁비공식	-9145
▁사고의	-9146
▁사이버	-9147
▁석방된	-9148
▁선수로	-9149
▁스튜어	-9150
▁안보를	-9151
▁언급한	-9152
▁없다며	-9153
▁열었다	-9154
▁오프라	-9155
▁우리당	-9156
▁원자력	-9157
▁위치를	-9158
▁위치해	-9159
▁유세를	-9160
▁은신처	-9161
▁의문을	-9162
▁이곳을	-9163
▁일제히	-9164
▁자격이	-9165
▁자국의	-9166
▁자세히	-9167
▁전투를	-9168
▁접촉을	-9169
▁조만간	-9170
▁조치로	-9171
▁줄이기	-9172
▁즐기는	-9173
▁지수가	-9174
▁참가한	-9175
▁출전할	-9176
▁캐릭터	-9177
▁크루즈	-9178
▁특사는	-9179
▁하도록	-9180
▁행진을	-9181
tions	-9182
▁high	-9183
▁miss	-9184
▁거짓말을	-9185
▁결혼식을	-9186
▁계속하고	-9187
▁그들에게	-9188
▁문제들을	-9189
▁발견되지	-9190
▁사과했다	-9191
▁샤라포바	-9192
▁수십명이	-9193
▁수요일에	-9194
▁수천명이	-9195
▁시인했다	-9196
▁아무것도	-9197
▁안토니오	-9198
▁엘리베이	-9199
▁용의자를	-9200
▁재무장관	-9201
▁줄기세포	-9202
▁테러와의	-9203
▁포함됐다	-9204
▁힐러리가	-9205
ration	-9206
▁교도소에서	-9207
▁디스커버리	-9208
▁소비자들이	-9209
▁수사관들은	-9210
▁이스라엘을	-9211
▁파키스탄이	-9212
▁플로리다주	-9213
▁associ	-9214
▁secretary	-9215
ai	-9216
fo	-9217
▁갔	-9218
▁깁	-9219
▁닭	-9220
▁뮌	-9221
▁쟁	-9222
▁쪽	-9223
▁험	-9224
관과	-9225
구조	-9226
르바	-9227
름이	-9228
말라	-9229
명에	-9230
백을	-9231
분야	-9232
석은	-9233
세이	-9234
업자	-9235
자스	-9236
자원	-9237
청이	-9238
치인	-9239
타다	-9240
타운	-9241
통합	-9242
티의	-9243
파인	-9244
허가	-9245
ral	-9246
rol	-9247
vel	-9248
▁ny	-9249
▁가깝	-9250
▁가리	-9251
▁각종	-9252
▁교과	-9253
▁국적	-9254
▁기분	-9255
▁기뻐	-9256
▁나섰	-9257
▁내의	-9258
▁노던	-9259
▁느껴	-9260
▁다소	-9261
▁던져	-9262
▁덴버	-9263
▁독도	-9264
▁동굴	-9265
▁득점	-9266
▁리오	-9267
▁면서	-9268
▁무산	-9269
▁물품	-9270
▁발렌	-9271
▁발령	-9272
▁발의	-9273
▁배포	-9274
▁벌이	-9275
▁복합	-9276
▁부처	-9277
▁불황	-9278
▁사마	-9279
▁산하	-9280
▁상위	-9281
▁생겨	-9282
▁소총	-9283
▁손해	-9284
▁스콧	-9285
▁신의	-9286
▁실수	-9287
▁심슨	-9288
▁쓰는	-9289
▁씨의	-9290
▁아민	-9291
▁악의	-9292
▁엉덩	-9293
▁예언	-9294
▁위축	-9295
▁유괴	-9296
▁유조	-9297
▁인형	-9298
▁장벽	-9299
▁절약	-9300
▁제니	-9301
▁종사	-9302
▁주류	-9303
▁줄을	-9304
▁찍은	-9305
▁참전	-9306
▁추천	-9307
▁치른	-9308
▁통근	-9309
▁피추	-9310
▁필수	-9311
▁하드	-9312
▁회수	-9313
▁히트	-9314
단체의	-9315
대학교	-9316
들보다	-9317
중이다	-9318
학자인	-9319
ited	-9320
▁acc	-9321
▁aid	-9322
▁dec	-9323
▁tri	-9324
▁two	-9325
▁감독을	-9326
▁검색어	-9327
▁경기장	-9328
▁과정에	-9329
▁교전을	-9330
▁국민을	-9331
▁기술이	-9332
▁끔찍한	-9333
▁넣었다	-9334
▁느끼는	-9335
▁다수의	-9336
▁다행히	-9337
▁대비해	-9338
▁대한민	-9339
▁돌아온	-9340
▁된다면	-9341
▁명이다	-9342
▁모여들	-9343
▁무소속	-9344
▁무죄를	-9345
▁번이나	-9346
▁범인은	-9347
▁보여준	-9348
▁보유한	-9349
▁본부를	-9350
▁분량의	-9351
▁분야에	-9352
▁브로드	-9353
▁사례가	-9354
▁사용을	-9355
▁사회에	-9356
▁사회의	-9357
▁새롭게	-9358
▁세웠다	-9359
▁소리를	-9360
▁소유한	-9361
▁슈퍼볼	-9362
▁스탈린	-9363
▁시애틀	-9364
▁실시될	-9365
▁아니며	-9366
▁안전에	-9367
▁오늘밤	-9368
▁외무성	-9369
▁우간다	-9370
▁유전자	-9371
▁유지할	-9372
▁의미가	-9373
▁의장이	-9374
▁인상을	-9375
▁있기를	-9376
▁자금이	-9377
▁조직의	-9378
▁죽음에	-9379
▁집회에	-9380
▁출연해	-9381
▁카지노	-9382
▁테러의	-9383
▁트라볼	-9384
▁판결에	-9385
▁평가를	-9386
▁포스트	-9387
▁한다면	-9388
▁행동이	-9389
▁협력을	-9390
▁협정을	-9391
위원회에	-9392
ainst	-9393
▁comp	-9394
▁검토하고	-9395
▁남쪽으로	-9396
▁동의했다	-9397
▁레이스를	-9398
▁방송에서	-9399
▁법적으로	-9400
▁부상자가	-9401
▁북한과의	-9402
▁불법으로	-9403
▁브레이크	-9404
▁사용되는	-9405
▁샤리프는	-9406
▁수백명이	-9407
▁예상되고	-9408
▁예측했다	-9409
▁온실가스	-9410
▁움직임이	-9411
▁워싱턴의	-9412
▁이들에게	-9413
▁전달했다	-9414
▁전쟁으로	-9415
▁증가하는	-9416
▁최고치를	-9417
▁출구조사	-9418
▁프랑스는	-9419
▁하마스의	-9420
▁활동하고	-9421
illion	-9422
▁human	-9423
▁노대통령은	-9424
▁재무장관은	-9425
▁지도자들을	-9426
▁폭력사태로	-9427
▁center	-9428
▁연방준비제도	-9429
▁지지자들에게	-9430
▁against	-9431
av	-9432
ms	-9433
▁댈	-9434
▁램	-9435
▁킨	-9436
▁헝	-9437
▁흩	-9438
가격	-9439
과정	-9440
길을	-9441
까요	-9442
내려	-9443
널티	-9444
니고	-9445
대책	-9446
되던	-9447
드폰	-9448
렌은	-9449
례를	-9450
림을	-9451
미한	-9452
방이	-9453
법이	-9454
복지	-9455
본을	-9456
브가	-9457
브레	-9458
빌리	-9459
색의	-9460
시로	-9461
심한	-9462
우석	-9463
절한	-9464
제품	-9465
클린	-9466
퍼드	-9467
평가	-9468
프에	-9469
협력	-9470
ook	-9471
ung	-9472
▁sw	-9473
▁가동	-9474
▁게리	-9475
▁고수	-9476
▁공사	-9477
▁규칙	-9478
▁균형	-9479
▁급진	-9480
▁나눠	-9481
▁날이	-9482
▁남녀	-9483
▁남미	-9484
▁남서	-9485
▁내게	-9486
▁내로	-9487
▁놀랄	-9488
▁다비	-9489
▁도핑	-9490
▁독감	-9491
▁돌을	-9492
▁드는	-9493
▁딜러	-9494
▁라울	-9495
▁레오	-9496
▁로맨	-9497
▁매도	-9498
▁매몰	-9499
▁모의	-9500
▁모험	-9501
▁반미	-9502
▁배급	-9503
▁버냉	-9504
▁버크	-9505
▁벌일	-9506
▁보증	-9507
▁복원	-9508
▁브랜	-9509
▁브로	-9510
▁생태	-9511
▁선진	-9512
▁슬픔	-9513
▁안나	-9514
▁암호	-9515
▁얼룩	-9516
▁오케	-9517
▁자사	-9518
▁작곡	-9519
▁절도	-9520
▁중반	-9521
▁지분	-9522
▁처형	-9523
▁첩보	-9524
▁첫날	-9525
▁취해	-9526
▁침묵	-9527
▁카디	-9528
▁카자	-9529
▁칸다	-9530
▁칼리	-9531
▁코피	-9532
▁클로	-9533
▁톤의	-9534
▁피할	-9535
▁해방	-9536
▁호날	-9537
▁호전	-9538
▁화염	-9539
거리는	-9540
공격을	-9541
국들이	-9542
까지는	-9543
내에서	-9544
달라는	-9545
메이션	-9546
문제를	-9547
센터는	-9548
스러워	-9549
시킨다	-9550
아티아	-9551
어지는	-9552
인에게	-9553
작으로	-9554
제네거	-9555
지역인	-9556
플루엔	-9557
할만한	-9558
화되고	-9559
enti	-9560
▁sur	-9561
▁강화할	-9562
▁경계를	-9563
▁교전이	-9564
▁급격히	-9565
▁기준금	-9566
▁끝까지	-9567
▁내셔널	-9568
▁노력할	-9569
▁뉴욕에	-9570
▁늘어날	-9571
▁다리가	-9572
▁단순히	-9573
▁담배를	-9574
▁대선주	-9575
▁대회에	-9576
▁들어와	-9577
▁레이저	-9578
▁리조트	-9579
▁머리카	-9580
▁목적이	-9581
▁못했던	-9582
▁미시건	-9583
▁미주리	-9584
▁바하마	-9585
▁반체제	-9586
▁밝히며	-9587
▁베이루	-9588
▁부인인	-9589
▁부토는	-9590
▁브리트	-9591
▁브리티	-9592
▁산불이	-9593
▁서울에	-9594
▁선박이	-9595
▁선택할	-9596
▁세계를	-9597
▁시간의	-9598
▁시작될	-9599
▁약속한	-9600
▁양측이	-9601
▁연기가	-9602
▁영상을	-9603
▁외쳤다	-9604
▁인도분	-9605
▁임기를	-9606
▁입수한	-9607
▁자신에	-9608
▁재판에	-9609
▁재판이	-9610
▁존스는	-9611
▁철저히	-9612
▁최고위	-9613
▁토대로	-9614
▁헬리콥	-9615
▁휴스턴	-9616
아프리카	-9617
▁have	-9618
▁거래됐다	-9619
▁공격했다	-9620
▁그곳에서	-9621
▁대표단은	-9622
▁목요일에	-9623
▁북한에서	-9624
▁스튜디오	-9625
▁스페인의	-9626
▁실질적인	-9627
▁야생동물	-9628
▁연구에서	-9629
▁요르단강	-9630
▁이라크로	-9631
▁인정하지	-9632
▁일어나고	-9633
▁자동차를	-9634
▁장소에서	-9635
▁전합니다	-9636
▁정부군과	-9637
▁지역사회	-9638
▁징역형을	-9639
▁총리에게	-9640
▁크레이그	-9641
▁하마스는	-9642
▁헤즈볼라	-9643
▁호주오픈	-9644
▁확인하기	-9645
▁가족들에게	-9646
▁정치적으로	-9647
▁크로아티아	-9648
▁프로그램의	-9649
▁항공우주국	-9650
▁troops	-9651
▁라스베이거스	-9652
▁인도네시아의	-9653
▁england	-9654
af	-9655
cc	-9656
mp	-9657
▁닌	-9658
▁촛	-9659
그라	-9660
다이	-9661
데버	-9662
드러	-9663
들인	-9664
듯이	-9665
디슈	-9666
라리	-9667
리야	-9668
리티	-9669
메르	-9670
물인	-9671
법의	-9672
보로	-9673
사절	-9674
세는	-9675
세에	-9676
있을	-9677
제의	-9678
지수	-9679
차량	-9680
처리	-9681
쿠니	-9682
타가	-9683
타의	-9684
토는	-9685
해도	-9686
해에	-9687
화될	-9688
int	-9689
ons	-9690
▁ai	-9691
▁가죽	-9692
▁감정	-9693
▁광장	-9694
▁군함	-9695
▁금년	-9696
▁나빠	-9697
▁네이	-9698
▁달아	-9699
▁대폭	-9700
▁도울	-9701
▁마침	-9702
▁만장	-9703
▁말로	-9704
▁메리	-9705
▁면접	-9706
▁몸값	-9707
▁무대	-9708
▁무효	-9709
▁뮌헨	-9710
▁반등	-9711
▁발레	-9712
▁부실	-9713
▁분경	-9714
▁사면	-9715
▁삶의	-9716
▁얻지	-9717
▁엔지	-9718
▁역대	-9719
▁울프	-9720
▁원치	-9721
▁입어	-9722
▁적응	-9723
▁전임	-9724
▁제네	-9725
▁제도	-9726
▁제일	-9727
▁종이	-9728
▁중도	-9729
▁집필	-9730
▁집회	-9731
▁친선	-9732
▁클루	-9733
▁키드	-9734
▁편안	-9735
▁플레	-9736
▁피부	-9737
▁피의	-9738
▁하트	-9739
▁했을	-9740
▁화가	-9741
▁확장	-9742
관계가	-9743
구에서	-9744
냈으며	-9745
시키려	-9746
rest	-9747
ther	-9748
▁가량의	-9749
▁개표가	-9750
▁겨냥한	-9751
▁국회에	-9752
▁기자의	-9753
▁남성과	-9754
▁남편은	-9755
▁내리고	-9756
▁노동당	-9757
▁뉴욕시	-9758
▁단체를	-9759
▁도시를	-9760
▁동물을	-9761
▁라호르	-9762
▁메모리	-9763
▁명확히	-9764
▁물건을	-9765
▁미군에	-9766
▁미래의	-9767
▁바닥에	-9768
▁바람이	-9769
▁방식을	-9770
▁보도한	-9771
▁부르는	-9772
▁부모가	-9773
▁분쟁이	-9774
▁사라진	-9775
▁선거는	-9776
▁속도를	-9777
▁스프링	-9778
▁시위로	-9779
▁신뢰를	-9780
▁신호를	-9781
▁쌍둥이	-9782
▁안보리	-9783
▁않겠다	-9784
▁압바스	-9785
▁야당은	-9786
▁여사가	-9787
▁연료를	-9788
▁외교관	-9789
▁원숭이	-9790
▁유감을	-9791
▁이르기	-9792
▁이스트	-9793
▁임기가	-9794
▁전력을	-9795
▁전체에	-9796
▁정치범	-9797
▁주장이	-9798
▁줄이는	-9799
▁지구의	-9800
▁지수도	-9801
▁추락한	-9802
▁취하지	-9803
▁태우고	-9804
▁특별히	-9805
▁판매를	-9806
▁하는데	-9807
▁항공은	-9808
▁행사할	-9809
▁호랑이	-9810
▁환경에	-9811
▁회의가	-9812
▁히드로	-9813
시키는데	-9814
에서부터	-9815
ublic	-9816
▁says	-9817
▁국방부가	-9818
▁기자들이	-9819
▁당선자는	-9820
▁데이비스	-9821
▁둘러싸고	-9822
▁러시아와	-9823
▁밝혔었다	-9824
▁밝혔으나	-9825
▁보였다고	-9826
▁본선에서	-9827
▁부인하고	-9828
▁사망자를	-9829
▁사상자가	-9830
▁스미스의	-9831
▁시민들은	-9832
▁아버지의	-9833
▁예정되어	-9834
▁이슬람교	-9835
▁이어졌다	-9836
▁인명피해	-9837
▁일으키는	-9838
▁저항세력	-9839
▁전쟁에서	-9840
▁제외하고	-9841
▁증언했다	-9842
▁테러단체	-9843
▁표시했다	-9844
▁확인하고	-9845
▁trans	-9846
▁가자지구를	-9847
▁때문입니다	-9848
▁받아들이지	-9849
▁상원의원에	-9850
▁애니메이션	-9851
▁어린이들이	-9852
▁우주왕복선	-9853
▁이탈리아의	-9854
▁프로그램은	-9855
▁파키스탄에서	-9856
▁팔레스타인의	-9857
▁닷	-9858
▁랄	-9859
▁슛	-9860
▁팜	-9861
권은	-9862
당국	-9863
돌이	-9864
디가	-9865
마트	-9866
무드	-9867
박한	-9868
병은	-9869
보장	-9870
선과	-9871
세기	-9872
션을	-9873
습을	-9874
의원	-9875
인도	-9876
전략	-9877
커가	-9878
크로	-9879
통을	-9880
현정	-9881
ern	-9882
ick	-9883
▁il	-9884
▁lp	-9885
▁mm	-9886
▁가한	-9887
▁개설	-9888
▁고장	-9889
▁김선	-9890
▁나왔	-9891
▁내세	-9892
▁당원	-9893
▁독자	-9894
▁딸의	-9895
▁리우	-9896
▁마스	-9897
▁만이	-9898
▁매력	-9899
▁맥주	-9900
▁모가	-9901
▁모으	-9902
▁무크	-9903
▁믿는	-9904
▁발을	-9905
▁방화	-9906
▁버진	-9907
▁번호	-9908
▁부작	-9909
▁블룸	-9910
▁상담	-9911
▁세웠	-9912
▁숨어	-9913
▁슈워	-9914
▁시일	-9915
▁싸움	-9916
▁아칸	-9917
▁앞선	-9918
▁역전	-9919
▁연안	-9920
▁열려	-9921
▁영광	-9922
▁예배	-9923
▁예약	-9924
▁유용	-9925
▁음란	-9926
▁입력	-9927
▁장비	-9928
▁저택	-9929
▁전부	-9930
▁점프	-9931
▁제프	-9932
▁조명	-9933
▁조짐	-9934
▁종파	-9935
▁주당	-9936
▁징계	-9937
▁칼라	-9938
▁타협	-9939
▁토마	-9940
▁퇴역	-9941
▁파크	-9942
▁펭귄	-9943
▁포괄	-9944
▁폭로	-9945
▁품목	-9946
▁휴먼	-9947
바에서	-9948
상태를	-9949
세력을	-9950
스타인	-9951
었는데	-9952
었는지	-9953
자였던	-9954
작업이	-9955
최지우	-9956
arch	-9957
ings	-9958
▁bar	-9959
▁law	-9960
▁usa	-9961
▁강타한	-9962
▁개선을	-9963
▁거리로	-9964
▁검찰의	-9965
▁것이기	-9966
▁고현정	-9967
▁공급을	-9968
▁관람객	-9969
▁그곳에	-9970
▁글래스	-9971
▁기대를	-9972
▁기반을	-9973
▁나눴다	-9974
▁나와즈	-9975
▁나타났	-9976
▁남한의	-9977
▁노력의	-9978
▁뉴스의	-9979
▁달라고	-9980
▁답변을	-9981
▁드라이	-9982
▁들어온	-9983
▁때마다	-9984
▁떨어질	-9985
▁라모스	-9986
▁런던에	-9987
▁마케팅	-9988
▁모두를	-9989
▁목소리	-9990
▁문서를	-9991
▁박사가	-9992
▁베탕쿠	-9993
▁보상을	-9994
▁부분은	-9995
▁붕괴된	-9996
▁비난한	-9997
▁선거의	-9998
▁성직자	-9999
▁세에서	-10000
▁센터의	-10001
▁손상을	-10002
▁시라크	-10003
▁아이는	-10004
▁야당의	-10005
▁야당이	-10006
▁언제나	-10007
▁에스토	-10008
▁영향력	-10009
▁요구에	-10010
▁요청한	-10011
▁운동가	-10012
▁원하지	-10013
▁이름의	-10014
▁인기가	-10015
▁일에도	-10016
▁있었기	-10017
▁자격을	-10018
▁자살한	-10019
▁재개할	-10020
▁재활용	-10021
▁중심에	-10022
▁지방의	-10023
▁차량은	-10024
▁총리로	-10025
▁취했다	-10026
▁친구가	-10027
▁통해서	-10028
▁하버드	-10029
▁행사가	-10030
▁형태로	-10031
▁확보할	-10032
되었다는	-10033
되었지만	-10034
하였으며	-10035
▁meet	-10036
▁강화하고	-10037
▁경쟁자인	-10038
▁관점에서	-10039
▁국민들을	-10040
▁국방위원	-10041
▁국회에서	-10042
▁근본주의	-10043
▁대사관은	-10044
▁들어가는	-10045
▁라이벌인	-10046
▁럼스펠드	-10047
▁말하면서	-10048
▁밝혀냈다	-10049
▁벌였다고	-10050
▁베어스턴	-10051
▁생산하는	-10052
▁수상자인	-10053
▁애틀랜타	-10054
▁에따르면	-10055
▁에르도간	-10056
▁연방수사	-10057
▁영국으로	-10058
▁인질들의	-10059
▁일어나지	-10060
▁책임자인	-10061
▁취소했다	-10062
▁크리스마	-10063
▁탈레반과	-10064
▁테러지원	-10065
▁필요성을	-10066
▁해결책을	-10067
▁행사에서	-10068
▁호주에서	-10069
▁확신했다	-10070
▁회사들이	-10071
▁휴대전화	-10072
▁힐러리는	-10073
▁court	-10074
▁secur	-10075
▁관광객들이	-10076
▁국무장관이	-10077
▁되었습니다	-10078
▁미국에서는	-10079
▁상원의원인	-10080
▁에스토니아	-10081
▁지지선언을	-10082
▁하락했습니다	-10083
hd	-10084
▁류	-10085
▁줬	-10086
▁챙	-10087
감은	-10088
개월	-10089
검찰	-10090
게도	-10091
고가	-10092
골로	-10093
두를	-10094
롭고	-10095
르며	-10096
바일	-10097
바흐	-10098
밴드	-10099
비한	-10100
선한	-10101
세대	-10102
세와	-10103
이란	-10104
이면	-10105
장애	-10106
주기	-10107
청의	-10108
총장	-10109
켓을	-10110
하러	-10111
호에	-10112
ief	-10113
ise	-10114
rac	-10115
▁bm	-10116
▁bu	-10117
▁감기	-10118
▁거둔	-10119
▁권리	-10120
▁년전	-10121
▁녹색	-10122
▁대니	-10123
▁대략	-10124
▁뒤집	-10125
▁들을	-10126
▁라시	-10127
▁로버	-10128
▁리얼	-10129
▁매주	-10130
▁머무	-10131
▁명칭	-10132
▁바꿔	-10133
▁바쿠	-10134
▁반환	-10135
▁발달	-10136
▁발효	-10137
▁배를	-10138
▁배상	-10139
▁뱅크	-10140
▁본다	-10141
▁성사	-10142
▁손실	-10143
▁수수	-10144
▁스텔	-10145
▁승점	-10146
▁신원	-10147
▁안락	-10148
▁암시	-10149
▁역설	-10150
▁와의	-10151
▁요새	-10152
▁운반	-10153
▁유입	-10154
▁유해	-10155
▁은하	-10156
▁의석	-10157
▁임상	-10158
▁잡은	-10159
▁제의	-10160
▁조속	-10161
▁존경	-10162
▁좋다	-10163
▁줄여	-10164
▁지낸	-10165
▁차로	-10166
▁착취	-10167
▁창설	-10168
▁채가	-10169
▁최후	-10170
▁침팬	-10171
▁타계	-10172
▁털어	-10173
▁파란	-10174
▁펀드	-10175
▁포터	-10176
▁피로	-10177
▁하산	-10178
▁하얀	-10179
▁한층	-10180
▁할지	-10181
▁행성	-10182
▁현상	-10183
▁혈액	-10184
▁흰색	-10185
▁히스	-10186
대표는	-10187
돼있다	-10188
되지만	-10189
베리아	-10190
연구소	-10191
지기도	-10192
하자는	-10193
해서는	-10194
회장은	-10195
ents	-10196
iver	-10197
▁cap	-10198
▁car	-10199
▁kim	-10200
▁wto	-10201
▁경영진	-10202
▁공급이	-10203
▁국가는	-10204
▁국가들	-10205
▁근처에	-10206
▁끝나는	-10207
▁나가는	-10208
▁나오고	-10209
▁노력에	-10210
▁높이의	-10211
▁덕분에	-10212
▁동유럽	-10213
▁만개의	-10214
▁만명에	-10215
▁머리에	-10216
▁명백히	-10217
▁모로코	-10218
▁목적은	-10219
▁무장대	-10220
▁미국산	-10221
▁미끄러	-10222
▁병원을	-10223
▁복귀할	-10224
▁분위기	-10225
▁사람과	-10226
▁사원을	-10227
▁사이언	-10228
▁선출된	-10229
▁쇠고기	-10230
▁수업을	-10231
▁시까지	-10232
▁실업수	-10233
▁싶다고	-10234
▁쓰레기	-10235
▁않아도	-10236
▁어두운	-10237
▁어려움	-10238
▁여왕의	-10239
▁연구의	-10240
▁영감을	-10241
▁올리고	-10242
▁요청할	-10243
▁의석을	-10244
▁이래로	-10245
▁인근서	-10246
▁일으켜	-10247
▁자살을	-10248
▁자이언	-10249
▁작성한	-10250
▁정도가	-10251
▁정보가	-10252
▁정상화	-10253
▁제작된	-10254
▁조건을	-10255
▁조치에	-10256
▁종교적	-10257
▁주가가	-10258
▁주장은	-10259
▁진전을	-10260
▁차례로	-10261
▁차이나	-10262
▁차지한	-10263
▁카라치	-10264
▁코스피	-10265
▁티셔츠	-10266
▁패리스	-10267
▁폭발물	-10268
▁필요할	-10269
▁하나가	-10270
▁해왔다	-10271
▁혼란에	-10272
▁확인된	-10273
▁환경을	-10274
▁환자의	-10275
▁황우석	-10276
▁회견을	-10277
되었는데	-10278
▁city	-10279
▁take	-10280
▁경제성장	-10281
▁골든글로	-10282
▁교전으로	-10283
▁기록하며	-10284
▁대대적인	-10285
▁리처드슨	-10286
▁명단에서	-10287
▁명이라고	-10288
▁모가디슈	-10289
▁무승부를	-10290
▁반박했다	-10291
▁부통령이	-10292
▁북부에서	-10293
▁분야에서	-10294
▁사랑하는	-10295
▁상공에서	-10296
▁상승세를	-10297
▁슈퍼대의	-10298
▁스트레스	-10299
▁야스쿠니	-10300
▁어머니가	-10301
▁억달러의	-10302
▁원자바오	-10303
▁이라크인	-10304
▁일반적인	-10305
▁입었으며	-10306
▁제공하고	-10307
▁지도부는	-10308
▁지속적인	-10309
▁지지율을	-10310
▁추산했다	-10311
▁클린턴을	-10312
▁하더라도	-10313
▁현지경찰	-10314
트레이어스	-10315
▁가자지구에	-10316
▁감소했다고	-10317
▁사무총장이	-10318
▁스피어스는	-10319
▁웹사이트는	-10320
▁이산화탄소	-10321
▁주장했지만	-10322
▁지지한다고	-10323
▁한나라당이	-10324
▁마이스페이스	-10325
aw	-10326
co	-10327
np	-10328
▁꼽	-10329
▁닐	-10330
▁뚜	-10331
▁란	-10332
▁했	-10333
건은	-10334
견을	-10335
구에	-10336
냄새	-10337
너럴	-10338
누엘	-10339
당과	-10340
데일	-10341
등한	-10342
디스	-10343
로우	-10344
론을	-10345
론의	-10346
르던	-10347
리한	-10348
미널	-10349
받지	-10350
부대	-10351
부모	-10352
브스	-10353
성한	-10354
소시	-10355
쉬는	-10356
스텔	-10357
심의	-10358
악한	-10359
열에	-10360
주인	-10361
증권	-10362
지면	-10363
집행	-10364
치기	-10365
팀의	-10366
포트	-10367
한국	-10368
ket	-10369
▁gl	-10370
▁po	-10371
▁so	-10372
▁가라	-10373
▁가축	-10374
▁가할	-10375
▁거세	-10376
▁검시	-10377
▁겨우	-10378
▁격돌	-10379
▁고민	-10380
▁공기	-10381
▁관절	-10382
▁끌고	-10383
▁내는	-10384
▁뇌물	-10385
▁도메	-10386
▁되풀	-10387
▁듣지	-10388
▁따를	-10389
▁레빈	-10390
▁메인	-10391
▁면제	-10392
▁반란	-10393
▁밝힐	-10394
▁불평	-10395
▁설계	-10396
▁세우	-10397
▁소화	-10398
▁실은	-10399
▁안젤	-10400
▁알렌	-10401
▁알파	-10402
▁연대	-10403
▁연임	-10404
▁영원	-10405
▁오고	-10406
▁유시	-10407
▁이룩	-10408
▁이바	-10409
▁전원	-10410
▁정식	-10411
▁정오	-10412
▁중계	-10413
▁진흙	-10414
▁집무	-10415
▁채의	-10416
▁추종	-10417
▁추출	-10418
▁충족	-10419
▁취득	-10420
▁침수	-10421
▁칭찬	-10422
▁카우	-10423
▁콘텐	-10424
▁크다	-10425
▁파르	-10426
▁폴리	-10427
▁피플	-10428
▁학년	-10429
▁헤이	-10430
▁현행	-10431
▁호킹	-10432
면으로	-10433
블랜드	-10434
사건에	-10435
시켜야	-10436
연상을	-10437
이트를	-10438
조사를	-10439
총장은	-10440
테리아	-10441
해에서	-10442
해주는	-10443
▁afp	-10444
▁air	-10445
▁hol	-10446
▁nfl	-10447
▁org	-10448
▁ter	-10449
▁top	-10450
▁wfp	-10451
▁감사를	-10452
▁계획의	-10453
▁공공장	-10454
▁관계는	-10455
▁국민이	-10456
▁군대가	-10457
▁단계에	-10458
▁단순한	-10459
▁대기업	-10460
▁도시로	-10461
▁독일인	-10462
▁들어오	-10463
▁로스앤	-10464
▁로켓포	-10465
▁로한은	-10466
▁마라도	-10467
▁만명을	-10468
▁무엇이	-10469
▁바다로	-10470
▁박격포	-10471
▁반군을	-10472
▁방문이	-10473
▁버냉키	-10474
▁버마의	-10475
▁범죄에	-10476
▁보안관	-10477
▁사고에	-10478
▁사태는	-10479
▁사태의	-10480
▁수류탄	-10481
▁수준의	-10482
▁수치다	-10483
▁신문에	-10484
▁신발을	-10485
▁알제리	-10486
▁야후는	-10487
▁양국간	-10488
▁언급은	-10489
▁없었던	-10490
▁올리는	-10491
▁우리베	-10492
▁위기가	-10493
▁의미를	-10494
▁의지를	-10495
▁이어질	-10496
▁이해할	-10497
▁있거나	-10498
▁장거리	-10499
▁장비를	-10500
▁전기가	-10501
▁정책이	-10502
▁제니퍼	-10503
▁제조업	-10504
▁제출할	-10505
▁줄이고	-10506
▁카자흐	-10507
▁터키군	-10508
▁투데이	-10509
▁투표할	-10510
▁판결은	-10511
▁판매할	-10512
▁합의는	-10513
▁헬기를	-10514
▁협력할	-10515
▁활성화	-10516
▁힐튼이	-10517
지역으로	-10518
ights	-10519
ondon	-10520
▁bank	-10521
▁lpga	-10522
▁pros	-10523
▁serv	-10524
▁같습니다	-10525
▁국회의사	-10526
▁남아있다	-10527
▁네바다주	-10528
▁도로에서	-10529
▁드립니다	-10530
▁목격자는	-10531
▁무장괴한	-10532
▁받았지만	-10533
▁방지하기	-10534
▁백악관에	-10535
▁보호하고	-10536
▁보호하는	-10537
▁사라졌다	-10538
▁사무실을	-10539
▁상관없이	-10540
▁수퍼대의	-10541
▁시달리고	-10542
▁시스템이	-10543
▁시작되는	-10544
▁예상보다	-10545
▁유일하게	-10546
▁자회담에	-10547
▁전대통령	-10548
▁전세계에	-10549
▁조사하기	-10550
▁주최측은	-10551
▁중단하고	-10552
▁진출했다	-10553
▁차원에서	-10554
▁참여하는	-10555
▁추가적인	-10556
▁추정했다	-10557
▁칸다하르	-10558
▁컴퓨터가	-10559
▁크리스티	-10560
▁탈레반의	-10561
▁티베트의	-10562
▁퍼센트의	-10563
▁페이스북	-10564
▁폭풍으로	-10565
▁프랑스와	-10566
▁후보들은	-10567
▁count	-10568
▁elect	-10569
▁경기부양책	-10570
▁다큐멘터리	-10571
▁시상식에서	-10572
▁시카고에서	-10573
▁이르기까지	-10574
▁인도주의적	-10575
▁중요하다고	-10576
▁london	-10577
▁가자지구에서	-10578
▁로스앤젤레스	-10579
▁아프가니스탄에	-10580
▁아프가니스탄의	-10581
▁security	-10582
sh	-10583
▁렉	-10584
▁웬	-10585
▁짜	-10586
▁쿼	-10587
▁튀	-10588
감시	-10589
개혁	-10590
금은	-10591
나귀	-10592
냈던	-10593
놓은	-10594
라노	-10595
란히	-10596
미가	-10597
베리	-10598
보의	-10599
부인	-10600
산층	-10601
소득	-10602
수감	-10603
수준	-10604
숙한	-10605
스프	-10606
시즌	-10607
예를	-10608
워터	-10609
인데	-10610
있고	-10611
조정	-10612
조치	-10613
참모	-10614
츠의	-10615
캐슬	-10616
턴은	-10617
표가	-10618
행정	-10619
히고	-10620
ech	-10621
ety	-10622
way	-10623
▁ak	-10624
▁거머	-10625
▁과시	-10626
▁광우	-10627
▁근교	-10628
▁기습	-10629
▁기조	-10630
▁나노	-10631
▁내비	-10632
▁놓은	-10633
▁다녀	-10634
▁단일	-10635
▁대지	-10636
▁도주	-10637
▁두개	-10638
▁둘째	-10639
▁드물	-10640
▁들은	-10641
▁러드	-10642
▁레논	-10643
▁로빈	-10644
▁롬니	-10645
▁만났	-10646
▁맞붙	-10647
▁매머	-10648
▁맺고	-10649
▁모터	-10650
▁몰래	-10651
▁몸무	-10652
▁밤새	-10653
▁배아	-10654
▁백신	-10655
▁밴드	-10656
▁범행	-10657
▁베리	-10658
▁벤자	-10659
▁부른	-10660
▁분실	-10661
▁불공	-10662
▁비영	-10663
▁비유	-10664
▁사카	-10665
▁사탕	-10666
▁생성	-10667
▁생일	-10668
▁서신	-10669
▁선을	-10670
▁성전	-10671
▁세를	-10672
▁세실	-10673
▁세이	-10674
▁소실	-10675
▁숫자	-10676
▁승부	-10677
▁싶은	-10678
▁악어	-10679
▁앞당	-10680
▁언어	-10681
▁여부	-10682
▁연령	-10683
▁연휴	-10684
▁예수	-10685
▁오키	-10686
▁올바	-10687
▁우방	-10688
▁위태	-10689
▁유효	-10690
▁응원	-10691
▁이례	-10692
▁이며	-10693
▁인계	-10694
▁일할	-10695
▁자크	-10696
▁잠을	-10697
▁장치	-10698
▁저널	-10699
▁전송	-10700
▁절감	-10701
▁주교	-10702
▁주미	-10703
▁지중	-10704
▁창조	-10705
▁출국	-10706
▁취약	-10707
▁크고	-10708
▁타지	-10709
▁탄소	-10710
▁패한	-10711
▁포위	-10712
▁포츠	-10713
▁해를	-10714
▁허블	-10715
▁호화	-10716
▁회부	-10717
▁회색	-10718
▁힘이	-10719
는지에	-10720
메리카	-10721
방에서	-10722
스와의	-10723
였으나	-10724
으려는	-10725
의사를	-10726
하기는	-10727
하는지	-10728
ense	-10729
▁fed	-10730
▁may	-10731
▁sch	-10732
▁url	-10733
▁결혼식	-10734
▁경우가	-10735
▁계획한	-10736
▁구체적	-10737
▁국가주	-10738
▁그룹의	-10739
▁기간에	-10740
▁기간을	-10741
▁김선일	-10742
▁눈물을	-10743
▁뉴캐슬	-10744
▁느낀다	-10745
▁당국과	-10746
▁당나귀	-10747
▁대만의	-10748
▁대사가	-10749
▁대주교	-10750
▁동반한	-10751
▁되돌아	-10752
▁말라고	-10753
▁맞았다	-10754
▁명단에	-10755
▁무너져	-10756
▁바람직	-10757
▁발사를	-10758
▁발전을	-10759
▁버스를	-10760
▁보여줄	-10761
▁본사를	-10762
▁부부의	-10763
▁북부의	-10764
▁비판을	-10765
▁빠졌다	-10766
▁사항은	-10767
▁서울의	-10768
▁설치된	-10769
▁셰이크	-10770
▁손해를	-10771
▁쇼핑몰	-10772
▁수십억	-10773
▁수용할	-10774
▁시설에	-10775
▁심문을	-10776
▁아내와	-10777
▁아들인	-10778
▁아이돌	-10779
▁아칸소	-10780
▁양국이	-10781
▁엘바라	-10782
▁여왕은	-10783
▁열차가	-10784
▁영국이	-10785
▁오마르	-10786
▁의무를	-10787
▁의혹에	-10788
▁일정이	-10789
▁임무는	-10790
▁있었을	-10791
▁자산을	-10792
▁자세를	-10793
▁재정적	-10794
▁재확인	-10795
▁접전을	-10796
▁제안한	-10797
▁제프리	-10798
▁주인이	-10799
▁중산층	-10800
▁지속될	-10801
▁참석해	-10802
▁찾았다	-10803
▁최선의	-10804
▁축구팬	-10805
▁케이시	-10806
▁코끼리	-10807
▁토론을	-10808
▁판단을	-10809
▁프레드	-10810
▁하나를	-10811
▁할아버	-10812
▁행사는	-10813
▁향하고	-10814
▁호텔을	-10815
▁후지모	-10816
경기에서	-10817
선거에서	-10818
센터에서	-10819
적이었다	-10820
▁life	-10821
▁공동으로	-10822
▁구조대원	-10823
▁군인들은	-10824
▁금지하고	-10825
▁기록하고	-10826
▁대통령도	-10827
▁브리티시	-10828
▁비밀리에	-10829
▁비행기에	-10830
▁사람들도	-10831
▁세계보건	-10832
▁세트에서	-10833
▁승객들이	-10834
▁않겠다는	-10835
▁어머니와	-10836
▁유세에서	-10837
▁전국적인	-10838
▁점프하는	-10839
▁정해지지	-10840
▁중요성을	-10841
▁지구에서	-10842
▁지지율이	-10843
▁촉구하는	-10844
▁총격으로	-10845
▁학생들의	-10846
▁헤럴드가	-10847
▁후보들이	-10848
▁관계자들과	-10849
▁다이애나가	-10850
▁대통령과의	-10851
▁버지니아주	-10852
▁소식입니다	-10853
▁아시아에서	-10854
▁엘바라데이	-10855
▁의원들에게	-10856
▁짐바브웨의	-10857
▁카자흐스탄	-10858
▁폭력사태를	-10859
▁폭탄테러를	-10860
▁프로젝트를	-10861
▁경찰에따르면	-10862
▁해수욕장에서	-10863
▁연방준비제도이사회	-10864
az	-10865
cr	-10866
sc	-10867
▁끈	-10868
▁댓	-10869
▁밸	-10870
▁앰	-10871
▁즈	-10872
▁핑	-10873
건설	-10874
경이	-10875
길에	-10876
너스	-10877
놨다	-10878
다코	-10879
락은	-10880
로지	-10881
망이	-10882
문의	-10883
병에	-10884
보면	-10885
브리	-10886
액은	-10887
여행	-10888
우로	-10889
운을	-10890
유로	-10891
음악	-10892
재를	-10893
종일	-10894
죄로	-10895
줘야	-10896
질유	-10897
타와	-10898
테인	-10899
티를	-10900
호한	-10901
ail	-10902
▁bb	-10903
▁br	-10904
▁hy	-10905
▁kn	-10906
▁kt	-10907
▁lo	-10908
▁가기	-10909
▁가서	-10910
▁개별	-10911
▁격리	-10912
▁경보	-10913
▁군데	-10914
▁그럼	-10915
▁기초	-10916
▁끌려	-10917
▁닥터	-10918
▁당혹	-10919
▁도발	-10920
▁도서	-10921
▁두뇌	-10922
▁드림	-10923
▁디에	-10924
▁땅을	-10925
▁로페	-10926
▁마호	-10927
▁막고	-10928
▁면역	-10929
▁몸이	-10930
▁문자	-10931
▁바위	-10932
▁방치	-10933
▁배로	-10934
▁병에	-10935
▁부품	-10936
▁비준	-10937
▁비즈	-10938
▁빠뜨	-10939
▁서안	-10940
▁서쪽	-10941
▁설정	-10942
▁스케	-10943
▁시판	-10944
▁신장	-10945
▁실어	-10946
▁싫어	-10947
▁아끼	-10948
▁아사	-10949
▁아우	-10950
▁오피	-10951
▁원화	-10952
▁유망	-10953
▁의식	-10954
▁인신	-10955
▁인치	-10956
▁일단	-10957
▁일명	-10958
▁잃고	-10959
▁입학	-10960
▁자서	-10961
▁재경	-10962
▁재벌	-10963
▁제가	-10964
▁조셉	-10965
▁조언	-10966
▁좌파	-10967
▁줄이	-10968
▁지닌	-10969
▁지뢰	-10970
▁진단	-10971
▁첨단	-10972
▁촛불	-10973
▁추격	-10974
▁측에	-10975
▁치고	-10976
▁침투	-10977
▁키스	-10978
▁타결	-10979
▁테리	-10980
▁통증	-10981
▁틀림	-10982
▁평소	-10983
▁폴란	-10984
▁해석	-10985
▁해킹	-10986
▁홈런	-10987
▁후퇴	-10988
▁휴양	-10989
기간을	-10990
된다는	-10991
사건을	-10992
서비스	-10993
선으로	-10994
시위를	-10995
었다는	-10996
화하는	-10997
able	-10998
alth	-10999
ital	-11000
ward	-11001
▁bur	-11002
▁cam	-11003
▁get	-11004
▁leg	-11005
▁med	-11006
▁mus	-11007
▁pml	-11008
▁ref	-11009
▁sum	-11010
▁개최된	-11011
▁거래가	-11012
▁겪었다	-11013
▁경기도	-11014
▁경기의	-11015
▁경제는	-11016
▁경제와	-11017
▁고려해	-11018
▁고향인	-11019
▁공화국	-11020
▁과거의	-11021
▁구하기	-11022
▁국세청	-11023
▁군대를	-11024
▁규모는	-11025
▁기도를	-11026
▁나토군	-11027
▁날씨가	-11028
▁남편과	-11029
▁년에도	-11030
▁논의가	-11031
▁누르고	-11032
▁뉴스는	-11033
▁대표인	-11034
▁되풀이	-11035
▁마련할	-11036
▁마을에	-11037
▁말아야	-11038
▁맡았던	-11039
▁모았다	-11040
▁무너진	-11041
▁물었다	-11042
▁미네소	-11043
▁미드필	-11044
▁발표에	-11045
▁방송의	-11046
▁벤자민	-11047
▁보호할	-11048
▁불렀다	-11049
▁사임할	-11050
▁생산할	-11051
▁성추행	-11052
▁소녀가	-11053
▁소리가	-11054
▁수치를	-11055
▁시장과	-11056
▁시즌을	-11057
▁아기가	-11058
▁아기의	-11059
▁아들의	-11060
▁알자와	-11061
▁양측의	-11062
▁어디서	-11063
▁언제든	-11064
▁오딩가	-11065
▁운행을	-11066
▁유수프	-11067
▁응답자	-11068
▁의식을	-11069
▁인정한	-11070
▁인정할	-11071
▁있을지	-11072
▁장치를	-11073
▁전망이	-11074
▁전쟁의	-11075
▁전하며	-11076
▁중국인	-11077
▁증시의	-11078
▁지나지	-11079
▁지진은	-11080
▁지키고	-11081
▁지키기	-11082
▁진술을	-11083
▁차이를	-11084
▁타이완	-11085
▁태국의	-11086
▁터키는	-11087
▁토론토	-11088
▁판사가	-11089
▁페트로	-11090
▁풍부한	-11091
▁프로듀	-11092
▁피아노	-11093
▁한다며	-11094
▁합의가	-11095
▁헌법을	-11096
▁호르몬	-11097
▁화상을	-11098
▁회동을	-11099
▁힘들다	-11100
▁week	-11101
▁경찰서에	-11102
▁글래스고	-11103
▁기반으로	-11104
▁기상청은	-11105
▁니콜라스	-11106
▁대답했다	-11107
▁라이스는	-11108
▁명령했다	-11109
▁모습으로	-11110
▁민주당과	-11111
▁받았으나	-11112
▁벌어지고	-11113
▁부문에서	-11114
▁비즈니스	-11115
▁사임했다	-11116
▁상원에서	-11117
▁상파울루	-11118
▁시점에서	-11119
▁아이들과	-11120
▁애완동물	-11121
▁억달러를	-11122
▁연기했다	-11123
▁예상되는	-11124
▁우주정거	-11125
▁웨스트버	-11126
▁위협하는	-11127
▁위협했다	-11128
▁유명하다	-11129
▁이라크가	-11130
▁이용하고	-11131
▁이재민이	-11132
▁인디아나	-11133
▁인종차별	-11134
▁일정으로	-11135
▁자신감을	-11136
▁장난감을	-11137
▁재정경제	-11138
▁정상들은	-11139
▁제공했다	-11140
▁지나치게	-11141
▁지방에서	-11142
▁착수했다	-11143
▁참가했다	-11144
▁참여하지	-11145
▁참여했다	-11146
▁추진하고	-11147
▁커뮤니티	-11148
▁쿠데타로	-11149
▁쿠르드족	-11150
▁판결했다	-11151
▁팔레스타	-11152
▁플레이어	-11153
▁확실하지	-11154
▁활동하는	-11155
▁회사들은	-11156
▁plans	-11157
▁국제유가는	-11158
▁아이디어를	-11159
▁지도자들과	-11160
▁투자자들은	-11161
▁투자자들이	-11162
▁한국인들이	-11163
▁former	-11164
▁세계보건기구	-11165
▁정상회담에서	-11166
▁남아프리카공화국	-11167
▁association	-11168
ma	-11169
ug	-11170
▁릭	-11171
▁빗	-11172
▁빵	-11173
▁툴	-11174
가족	-11175
거는	-11176
경비	-11177
공사	-11178
그래	-11179
극을	-11180
긴다	-11181
대사	-11182
돌프	-11183
동생	-11184
되게	-11185
두에	-11186
들리	-11187
디언	-11188
디의	-11189
려면	-11190
뤘다	-11191
문과	-11192
베르	-11193
병의	-11194
비엘	-11195
센은	-11196
야의	-11197
얄라	-11198
열을	-11199
오염	-11200
욕을	-11201
인수	-11202
일라	-11203
자지	-11204
작업	-11205
조로	-11206
주와	-11207
중계	-11208
트맨	-11209
퍼스	-11210
형에	-11211
ctv	-11212
ugh	-11213
▁hs	-11214
▁pf	-11215
▁가결	-11216
▁가던	-11217
▁각자	-11218
▁갈등	-11219
▁격려	-11220
▁결함	-11221
▁계곡	-11222
▁고마	-11223
▁공판	-11224
▁공학	-11225
▁구사	-11226
▁구할	-11227
▁구형	-11228
▁그때	-11229
▁길에	-11230
▁김경	-11231
▁냄새	-11232
▁누드	-11233
▁단식	-11234
▁대면	-11235
▁대에	-11236
▁동일	-11237
▁동점	-11238
▁뒤따	-11239
▁듯한	-11240
▁때가	-11241
▁라왈	-11242
▁레저	-11243
▁로라	-11244
▁만찬	-11245
▁맞게	-11246
▁몸집	-11247
▁미친	-11248
▁바나	-11249
▁바에	-11250
▁방한	-11251
▁복사	-11252
▁본드	-11253
▁빛을	-11254
▁속옷	-11255
▁속한	-11256
▁수업	-11257
▁승용	-11258
▁시범	-11259
▁쓰여	-11260
▁아닐	-11261
▁악영	-11262
▁야자	-11263
▁양보	-11264
▁얻는	-11265
▁에디	-11266
▁에버	-11267
▁에탄	-11268
▁여년	-11269
▁예보	-11270
▁오징	-11271
▁오프	-11272
▁우호	-11273
▁월과	-11274
▁이나	-11275
▁이내	-11276
▁일방	-11277
▁일째	-11278
▁자라	-11279
▁자백	-11280
▁잔디	-11281
▁저작	-11282
▁정통	-11283
▁제패	-11284
▁조장	-11285
▁종말	-11286
▁종신	-11287
▁종양	-11288
▁좋게	-11289
▁즐거	-11290
▁지수	-11291
▁지침	-11292
▁집어	-11293
▁차림	-11294
▁차에	-11295
▁채워	-11296
▁총알	-11297
▁출장	-11298
▁침범	-11299
▁침착	-11300
▁캐리	-11301
▁캠벨	-11302
▁코네	-11303
▁콜레	-11304
▁테마	-11305
▁퇴직	-11306
▁티모	-11307
▁평론	-11308
▁평방	-11309
▁폴슨	-11310
▁피셔	-11311
▁하리	-11312
▁호수	-11313
▁호의	-11314
▁회피	-11315
대사는	-11316
대학의	-11317
렸지만	-11318
명으로	-11319
버그는	-11320
스탄불	-11321
스트롱	-11322
시설을	-11323
자리에	-11324
장치를	-11325
적이지	-11326
ange	-11327
ants	-11328
atch	-11329
▁ann	-11330
▁reg	-11331
▁sci	-11332
▁가격에	-11333
▁가져다	-11334
▁갤런당	-11335
▁경찰을	-11336
▁공격의	-11337
▁국제사	-11338
▁군부가	-11339
▁권한을	-11340
▁그린피	-11341
▁금융위	-11342
▁기술의	-11343
▁년형을	-11344
▁니케이	-11345
▁다음과	-11346
▁단어를	-11347
▁단체에	-11348
▁대선을	-11349
▁대중의	-11350
▁대학살	-11351
▁던졌다	-11352
▁도널드	-11353
▁뒤에서	-11354
▁라이프	-11355
▁마약을	-11356
▁매코맥	-11357
▁맥케인	-11358
▁맥코맥	-11359
▁맨해튼	-11360
▁모바일	-11361
▁무엇인	-11362
▁바바라	-11363
▁바이오	-11364
▁방사능	-11365
▁버몬트	-11366
▁베컴이	-11367
▁부상당	-11368
▁브루스	-11369
▁비교해	-11370
▁비무장	-11371
▁사업에	-11372
▁산불로	-11373
▁생일을	-11374
▁선언한	-11375
▁세계에	-11376
▁소수의	-11377
▁수위가	-11378
▁스피처	-11379
▁시도를	-11380
▁식량을	-11381
▁식민지	-11382
▁아스널	-11383
▁아흐메	-11384
▁안타깝	-11385
▁얼음이	-11386
▁여파로	-11387
▁역사가	-11388
▁연승을	-11389
▁영장을	-11390
▁오리건	-11391
▁요구할	-11392
▁우승한	-11393
▁이것을	-11394
▁이름은	-11395
▁입국을	-11396
▁자유의	-11397
▁장소로	-11398
▁재판은	-11399
▁잭슨은	-11400
▁정신과	-11401
▁정치에	-11402
▁존드로	-11403
▁주말에	-11404
▁주어진	-11405
▁중상을	-11406
▁지원에	-11407
▁지지율	-11408
▁참가할	-11409
▁철저한	-11410
▁총기난	-11411
▁총선에	-11412
▁최대한	-11413
▁출마할	-11414
▁출전한	-11415
▁커지고	-11416
▁크라우	-11417
▁투표는	-11418
▁특이한	-11419
▁페널티	-11420
▁필요는	-11421
▁협조를	-11422
단체들은	-11423
통합민주	-11424
▁fire	-11425
▁rese	-11426
▁가족에게	-11427
▁개최되는	-11428
▁결의안에	-11429
▁경제적인	-11430
▁국가보안	-11431
▁금지하는	-11432
▁기본적인	-11433
▁단체들은	-11434
▁당국자는	-11435
▁대부분을	-11436
▁데이터를	-11437
▁도미니카	-11438
▁동영상은	-11439
▁동쪽으로	-11440
▁떨어지는	-11441
▁마흐무드	-11442
▁만달러를	-11443
▁말했지만	-11444
▁미드필더	-11445
▁박테리아	-11446
▁법무장관	-11447
▁부상자는	-11448
▁부족으로	-11449
▁부총리는	-11450
▁브리트니	-11451
▁사망하는	-11452
▁사무총장	-11453
▁사용되고	-11454
▁사이트에	-11455
▁사회주의	-11456
▁상승으로	-11457
▁선정됐다	-11458
▁수사관은	-11459
▁수하르토	-11460
▁시스템은	-11461
▁시위대와	-11462
▁알자와히	-11463
▁암스트롱	-11464
▁앞으로의	-11465
▁어린이를	-11466
▁어머니는	-11467
▁연구팀은	-11468
▁용의자의	-11469
▁유권자의	-11470
▁이스탄불	-11471
▁일자리가	-11472
▁일축했다	-11473
▁전문가인	-11474
▁정상적인	-11475
▁좋아한다	-11476
▁중단됐다	-11477
▁중심으로	-11478
▁중앙정보	-11479
▁차베스는	-11480
▁카트리나	-11481
▁케르비엘	-11482
▁학생들과	-11483
▁확인하는	-11484
▁환경보호	-11485
▁후세인의	-11486
▁death	-11487
▁관광객들은	-11488
▁동계올림픽	-11489
▁메사추세츠	-11490
▁보도합니다	-11491
▁사망자수가	-11492
▁살해했다고	-11493
▁수감자들을	-11494
▁시위자들이	-11495
▁아웅산수치	-11496
▁알카에다는	-11497
▁이라크전에	-11498
▁크리스티나	-11499
▁확인했다고	-11500
▁모스크바에서	-11501
▁미국인들에게	-11502
▁사망했습니다	-11503
▁유럽축구연맹	-11504
▁control	-11505
▁research	-11506
dp	-11507
wc	-11508
▁굶	-11509
▁꽤	-11510
▁닿	-11511
▁룰	-11512
▁룸	-11513
▁앗	-11514
▁옵	-11515
▁칩	-11516
▁캥	-11517
가리	-11518
개가	-11519
거루	-11520
겔라	-11521
구로	-11522
냐고	-11523
로로	-11524
머는	-11525
봉을	-11526
부족	-11527
비용	-11528
산이	-11529
상승	-11530
시바	-11531
엄한	-11532
웨어	-11533
유의	-11534
작을	-11535
장치	-11536
재가	-11537
저널	-11538
적은	-11539
카르	-11540
통화	-11541
해져	-11542
ces	-11543
ino	-11544
▁ev	-11545
▁간섭	-11546
▁감추	-11547
▁건립	-11548
▁걷는	-11549
▁격추	-11550
▁경신	-11551
▁고정	-11552
▁공략	-11553
▁교내	-11554
▁군용	-11555
▁그날	-11556
▁김계	-11557
▁꿈을	-11558
▁나쁘	-11559
▁냉동	-11560
▁넣어	-11561
▁노왁	-11562
▁농부	-11563
▁닉슨	-11564
▁다짐	-11565
▁달에	-11566
▁돕고	-11567
▁딸인	-11568
▁라틴	-11569
▁러셀	-11570
▁리치	-11571
▁마주	-11572
▁매수	-11573
▁메뉴	-11574
▁미망	-11575
▁미트	-11576
▁미하	-11577
▁바퀴	-11578
▁방북	-11579
▁방식	-11580
▁백화	-11581
▁번영	-11582
▁복부	-11583
▁복지	-11584
▁볼리	-11585
▁불행	-11586
▁브레	-11587
▁산소	-11588
▁서버	-11589
▁선생	-11590
▁세균	-11591
▁수마	-11592
▁수지	-11593
▁시경	-11594
▁식이	-11595
▁아미	-11596
▁악성	-11597
▁안겨	-11598
▁않자	-11599
▁애도	-11600
▁얼리	-11601
▁오직	-11602
▁오차	-11603
▁완공	-11604
▁요하	-11605
▁운하	-11606
▁월터	-11607
▁웨이	-11608
▁잃지	-11609
▁장갑	-11610
▁전과	-11611
▁전미	-11612
▁전비	-11613
▁정체	-11614
▁정한	-11615
▁지킬	-11616
▁책정	-11617
▁초고	-11618
▁초과	-11619
▁켈리	-11620
▁크누	-11621
▁타입	-11622
▁토양	-11623
▁펼칠	-11624
▁포유	-11625
▁폭도	-11626
▁폭등	-11627
▁하반	-11628
▁합참	-11629
▁후쿠	-11630
▁흥행	-11631
겼으며	-11632
계획을	-11633
기적인	-11634
되지는	-11635
력으로	-11636
렸다는	-11637
문제에	-11638
세포를	-11639
소시에	-11640
시키다	-11641
어가고	-11642
였다는	-11643
이트는	-11644
코비치	-11645
하다며	-11646
혔다고	-11647
회담을	-11648
acks	-11649
ploy	-11650
▁bmw	-11651
▁est	-11652
▁eta	-11653
▁fts	-11654
▁pak	-11655
▁sen	-11656
▁가정에	-11657
▁가하고	-11658
▁걸렸다	-11659
▁경보를	-11660
▁경선이	-11661
▁경향이	-11662
▁경호원	-11663
▁고립된	-11664
▁공격할	-11665
▁공항은	-11666
▁과반수	-11667
▁과학자	-11668
▁교수가	-11669
▁구스마	-11670
▁국왕은	-11671
▁국왕이	-11672
▁그래미	-11673
▁그런가	-11674
▁기술은	-11675
▁기준을	-11676
▁나란히	-11677
▁나타낸	-11678
▁네덜란	-11679
▁뇌물을	-11680
▁대단히	-11681
▁대학은	-11682
▁도시에	-11683
▁동물의	-11684
▁마침내	-11685
▁만장일	-11686
▁메시지	-11687
▁모니터	-11688
▁모르고	-11689
▁목격한	-11690
▁몸무게	-11691
▁법정에	-11692
▁보안을	-11693
▁불안한	-11694
▁비영리	-11695
▁비자를	-11696
▁빠질까	-11697
▁사랑에	-11698
▁사적인	-11699
▁살해할	-11700
▁샘플을	-11701
▁석방할	-11702
▁선데이	-11703
▁수개월	-11704
▁수용소	-11705
▁시도한	-11706
▁시작해	-11707
▁신속한	-11708
▁아들은	-11709
▁아이티	-11710
▁않았을	-11711
▁어려워	-11712
▁에서는	-11713
▁엔데버	-11714
▁여명을	-11715
▁여배우	-11716
▁여사와	-11717
▁위기로	-11718
▁유니버	-11719
▁유럽을	-11720
▁유리한	-11721
▁음모를	-11722
▁의약품	-11723
▁이사는	-11724
▁이상한	-11725
▁이었다	-11726
▁이의를	-11727
▁이틀간	-11728
▁일정은	-11729
▁자메이	-11730
▁작품은	-11731
▁잡았다	-11732
▁장관급	-11733
▁장관을	-11734
▁장기간	-11735
▁장악한	-11736
▁재개될	-11737
▁재배치	-11738
▁저희는	-11739
▁전망을	-11740
▁제너럴	-11741
▁주목을	-11742
▁준장은	-11743
▁지원한	-11744
▁진행할	-11745
▁질환을	-11746
▁출동한	-11747
▁출전을	-11748
▁취임한	-11749
▁캔자스	-11750
▁캥거루	-11751
▁코커스	-11752
▁크로커	-11753
▁타임스	-11754
▁탈라바	-11755
▁탈북자	-11756
▁터미널	-11757
▁파병을	-11758
▁패스를	-11759
▁페리노	-11760
▁폐쇄를	-11761
▁하여금	-11762
▁학대를	-11763
▁행동은	-11764
▁협의를	-11765
▁화장실	-11766
▁회장의	-11767
▁후에도	-11768
▁휴대용	-11769
으로서의	-11770
▁down	-11771
▁said	-11772
▁this	-11773
▁강조하고	-11774
▁거부하고	-11775
▁건물에서	-11776
▁것이지만	-11777
▁경찰관은	-11778
▁공원에서	-11779
▁국영방송	-11780
▁국토안보	-11781
▁금메달을	-11782
▁기소했다	-11783
▁뉴멕시코	-11784
▁담당하고	-11785
▁돌아왔다	-11786
▁들어있는	-11787
▁따뜻하면	-11788
▁매케인을	-11789
▁모르겠다	-11790
▁목소리로	-11791
▁무시하고	-11792
▁미얀마를	-11793
▁민주변화	-11794
▁보수주의	-11795
▁부사장은	-11796
▁브라질의	-11797
▁사람들에	-11798
▁사용하기	-11799
▁사원에서	-11800
▁산사태로	-11801
▁산타클로	-11802
▁상태라고	-11803
▁선수들의	-11804
▁성폭행을	-11805
▁세실리아	-11806
▁스미스는	-11807
▁스파이스	-11808
▁스피어스	-11809
▁싶어한다	-11810
▁알베르토	-11811
▁애틀란타	-11812
▁여기에는	-11813
▁오토바이	-11814
▁오픈에서	-11815
▁올랐으며	-11816
▁왔습니다	-11817
▁움직이고	-11818
▁움직임에	-11819
▁이상으로	-11820
▁자리잡고	-11821
▁전적으로	-11822
▁조선중앙	-11823
▁주도하는	-11824
▁주지사의	-11825
▁지역이다	-11826
▁지원하기	-11827
▁착용하고	-11828
▁충격으로	-11829
▁컬럼비아	-11830
▁팬들에게	-11831
▁평양에서	-11832
▁표현했다	-11833
▁피추시킨	-11834
▁하겠다고	-11835
▁하나이다	-11836
▁하락세를	-11837
▁하락하며	-11838
▁하원의원	-11839
▁해외에서	-11840
▁환영했다	-11841
▁후보에게	-11842
위원회에서	-11843
으로부터의	-11844
minist	-11845
▁prime	-11846
▁무샤라프의	-11847
▁바이러스에	-11848
▁샤라포바는	-11849
▁슈워제네거	-11850
▁아이들에게	-11851
▁엘리베이터	-11852
▁월드시리즈	-11853
▁이슬람교도	-11854
▁전반적으로	-11855
▁체포되었다	-11856
▁클리블랜드	-11857
▁테러지원국	-11858
▁파키스탄은	-11859
▁평화적으로	-11860
▁market	-11861
▁police	-11862
▁prosec	-11863
▁united	-11864
▁자유무역협정	-11865
titution	-11866
▁administ	-11867
▁economic	-11868
▁election	-11869
ik	-11870
pt	-11871
we	-11872
xt	-11873
▁람	-11874
▁쉴	-11875
▁탓	-11876
▁톱	-11877
▁팩	-11878
▁픽	-11879
▁혐	-11880
개로	-11881
노는	-11882
능을	-11883
류가	-11884
마리	-11885
멘토	-11886
물질	-11887
분간	-11888
분한	-11889
브로	-11890
세요	-11891
수수	-11892
심은	-11893
야만	-11894
오가	-11895
오프	-11896
웠던	-11897
이저	-11898
인권	-11899
일인	-11900
있지	-11901
자고	-11902
자르	-11903
잡을	-11904
장암	-11905
쟁을	-11906
전선	-11907
절을	-11908
종이	-11909
주택	-11910
즈에	-11911
지리	-11912
질러	-11913
카를	-11914
카스	-11915
테랑	-11916
해로	-11917
호른	-11918
ads	-11919
als	-11920
ged	-11921
ock	-11922
ron	-11923
unc	-11924
▁ps	-11925
▁강의	-11926
▁갤럭	-11927
▁고아	-11928
▁골로	-11929
▁공통	-11930
▁구름	-11931
▁구의	-11932
▁궁극	-11933
▁권한	-11934
▁그냥	-11935
▁기권	-11936
▁나치	-11937
▁낙찰	-11938
▁납세	-11939
▁낭비	-11940
▁내장	-11941
▁넓은	-11942
▁년도	-11943
▁농작	-11944
▁닌텐	-11945
▁다녔	-11946
▁다뤄	-11947
▁대담	-11948
▁대와	-11949
▁라인	-11950
▁많지	-11951
▁말은	-11952
▁맹세	-11953
▁밀리	-11954
▁밀림	-11955
▁밀집	-11956
▁바가	-11957
▁바오	-11958
▁발부	-11959
▁배나	-11960
▁배에	-11961
▁불매	-11962
▁사직	-11963
▁색깔	-11964
▁서약	-11965
▁성경	-11966
▁세는	-11967
▁셔츠	-11968
▁수잔	-11969
▁시한	-11970
▁아크	-11971
▁앗아	-11972
▁어휘	-11973
▁에미	-11974
▁여유	-11975
▁열쇠	-11976
▁예로	-11977
▁올드	-11978
▁올릴	-11979
▁요인	-11980
▁용인	-11981
▁원격	-11982
▁월경	-11983
▁위법	-11984
▁유골	-11985
▁유태	-11986
▁이겨	-11987
▁이벤	-11988
▁인지	-11989
▁일년	-11990
▁자매	-11991
▁정규	-11992
▁종의	-11993
▁죄수	-11994
▁주관	-11995
▁주를	-11996
▁죽을	-11997
▁중소	-11998
▁지내	-11999
▁지미	-12000
▁지저	-12001
▁직장	-12002
▁차전	-12003
▁참배	-12004
▁체스	-12005
▁출범	-12006
▁측의	-12007
▁코트	-12008
▁크기	-12009
▁터치	-12010
▁토지	-12011
▁통역	-12012
▁특사	-12013
▁파운	-12014
▁편지	-12015
▁허위	-12016
▁헤르	-12017
▁혁신	-12018
▁화석	-12019
▁확고	-12020
▁후계	-12021
경기에	-12022
계에서	-12023
기록을	-12024
레스테	-12025
레이션	-12026
방송의	-12027
버렸다	-12028
법원에	-12029
브리지	-12030
슬러는	-12031
시간을	-12032
인들과	-12033
정책을	-12034
ally	-12035
ious	-12036
reak	-12037
umer	-12038
▁bag	-12039
▁cal	-12040
▁det	-12041
▁lee	-12042
▁각국의	-12043
▁감옥에	-12044
▁개국이	-12045
▁건강을	-12046
▁걸었다	-12047
▁검찰에	-12048
▁겁니다	-12049
▁고려할	-12050
▁고문을	-12051
▁곧바로	-12052
▁공항의	-12053
▁과도한	-12054
▁규제를	-12055
▁그쳤다	-12056
▁급속히	-12057
▁기온이	-12058
▁남편을	-12059
▁달한다	-12060
▁돌려보	-12061
▁때로는	-12062
▁뛰어난	-12063
▁뛰어들	-12064
▁레이더	-12065
▁로딕은	-12066
▁린제이	-12067
▁마호메	-12068
▁만남을	-12069
▁명성을	-12070
▁모델을	-12071
▁무기한	-12072
▁무책임	-12073
▁물질을	-12074
▁믿는다	-12075
▁반군에	-12076
▁받았고	-12077
▁벨몬트	-12078
▁보내기	-12079
▁봤다고	-12080
▁부근에	-12081
▁부상한	-12082
▁빠르면	-12083
▁사람도	-12084
▁사전에	-12085
▁사태로	-12086
▁생중계	-12087
▁선거법	-12088
▁성관계	-12089
▁아끼지	-12090
▁아니고	-12091
▁아이슬	-12092
▁악화될	-12093
▁않다는	-12094
▁알리기	-12095
▁알았다	-12096
▁암살된	-12097
▁어려울	-12098
▁에이미	-12099
▁여동생	-12100
▁연관된	-12101
▁연합은	-12102
▁열렸던	-12103
▁올바른	-12104
▁요구가	-12105
▁운전을	-12106
▁유가족	-12107
▁유엔과	-12108
▁은행이	-12109
▁의료진	-12110
▁이른바	-12111
▁이씨는	-12112
▁인권을	-12113
▁인식을	-12114
▁일만에	-12115
▁임명된	-12116
▁재산을	-12117
▁저렴한	-12118
▁전화로	-12119
▁정권은	-12120
▁정당이	-12121
▁정보부	-12122
▁정책은	-12123
▁제공해	-12124
▁제이미	-12125
▁제품에	-12126
▁주민이	-12127
▁주석은	-12128
▁주치의	-12129
▁지중해	-12130
▁진단을	-12131
▁진실을	-12132
▁차례나	-12133
▁초대형	-12134
▁초래할	-12135
▁총리에	-12136
▁최우수	-12137
▁태양열	-12138
▁파견된	-12139
▁펼치고	-12140
▁피난민	-12141
▁하기로	-12142
▁학교를	-12143
▁행위가	-12144
▁헤럴드	-12145
▁협상은	-12146
▁홍수가	-12147
▁홍콩의	-12148
▁확인한	-12149
▁확인해	-12150
해달라고	-12151
icial	-12152
▁back	-12153
▁가능하게	-12154
▁공격하는	-12155
▁국민에게	-12156
▁기자들의	-12157
▁끊임없이	-12158
▁다운로드	-12159
▁다음으로	-12160
▁독일에서	-12161
▁매케인에	-12162
▁모르지만	-12163
▁모하마드	-12164
▁미네소타	-12165
▁발생했던	-12166
▁본격적인	-12167
▁승려들이	-12168
▁신용카드	-12169
▁아버지와	-12170
▁아흐마디	-12171
▁악영향을	-12172
▁엔지니어	-12173
▁엔터테인	-12174
▁여성들을	-12175
▁오키나와	-12176
▁오피니언	-12177
▁우주에서	-12178
▁워싱턴에	-12179
▁의료진은	-12180
▁의료진이	-12181
▁의원들의	-12182
▁이용하여	-12183
▁자선단체	-12184
▁전형적인	-12185
▁진행중인	-12186
▁초등학교	-12187
▁포기하지	-12188
▁포함하고	-12189
▁폭발물을	-12190
▁프리메라	-12191
▁협상에서	-12192
▁희망하고	-12193
▁chief	-12194
▁under	-12195
▁교통사고로	-12196
▁기록했다고	-12197
▁내무장관은	-12198
▁라운드에서	-12199
▁무샤라프가	-12200
▁생각합니다	-12201
▁생방송으로	-12202
▁선거운동을	-12203
▁수색작업을	-12204
▁스피어스가	-12205
▁알카에다를	-12206
▁어린이들을	-12207
▁이스라엘군	-12208
▁일부에서는	-12209
▁토네이도가	-12210
▁구조대원들이	-12211
▁베네수엘라의	-12212
▁사이클론으로	-12213
▁살해하겠다고	-12214
▁유권자들에게	-12215
▁퍼트레이어스	-12216
▁chinese	-12217
▁general	-12218
▁웨스트버지니아	-12219
ha	-12220
ij	-12221
la	-12222
▁겐	-12223
▁깜	-12224
▁댐	-12225
▁삽	-12226
▁섞	-12227
▁웅	-12228
▁첨	-12229
▁첸	-12230
▁쾌	-12231
▁팰	-12232
것을	-12233
관광	-12234
달라	-12235
데르	-12236
동영	-12237
란다	-12238
레즈	-12239
류에	-12240
머스	-12241
무니	-12242
속에	-12243
수산	-12244
수출	-12245
신문	-12246
알라	-12247
연상	-12248
연설	-12249
였을	-12250
와이	-12251
요원	-12252
운트	-12253
원들	-12254
의약	-12255
일로	-12256
있게	-12257
잡이	-12258
재로	-12259
전시	-12260
주며	-12261
지길	-12262
지스	-12263
지않	-12264
층을	-12265
층이	-12266
티컷	-12267
anu	-12268
gra	-12269
lam	-12270
mit	-12271
ool	-12272
tim	-12273
▁dc	-12274
▁가뭄	-12275
▁가볍	-12276
▁감량	-12277
▁걸프	-12278
▁검출	-12279
▁고생	-12280
▁고심	-12281
▁과다	-12282
▁과잉	-12283
▁과테	-12284
▁구타	-12285
▁군복	-12286
▁그랜	-12287
▁그로	-12288
▁기쁨	-12289
▁기적	-12290
▁꾸준	-12291
▁넣은	-12292
▁년째	-12293
▁녹화	-12294
▁농산	-12295
▁뇌졸	-12296
▁단백	-12297
▁당뇨	-12298
▁독점	-12299
▁뒤로	-12300
▁레인	-12301
▁리틀	-12302
▁링컨	-12303
▁마닐	-12304
▁말고	-12305
▁맞을	-12306
▁맡게	-12307
▁맺은	-12308
▁메가	-12309
▁무리	-12310
▁무어	-12311
▁배럭	-12312
▁번에	-12313
▁베니	-12314
▁별로	-12315
▁병역	-12316
▁보드	-12317
▁부각	-12318
▁불명	-12319
▁비싼	-12320
▁뿌리	-12321
▁삼림	-12322
▁선적	-12323
▁세컨	-12324
▁쇼에	-12325
▁시의	-12326
▁심판	-12327
▁안고	-12328
▁야간	-12329
▁없기	-12330
▁연립	-12331
▁열정	-12332
▁오락	-12333
▁와서	-12334
▁왕자	-12335
▁위장	-12336
▁유동	-12337
▁유물	-12338
▁유포	-12339
▁유혹	-12340
▁육상	-12341
▁의구	-12342
▁이브	-12343
▁재발	-12344
▁재생	-12345
▁전례	-12346
▁제국	-12347
▁종업	-12348
▁좌익	-12349
▁준다	-12350
▁증진	-12351
▁지폐	-12352
▁짝짓	-12353
▁체인	-12354
▁체제	-12355
▁클래	-12356
▁테크	-12357
▁톰슨	-12358
▁파울	-12359
▁피어	-12360
▁피오	-12361
▁해가	-12362
▁혼합	-12363
▁홀리	-12364
▁환수	-12365
거리가	-12366
관으로	-12367
났지만	-12368
되도록	-12369
라이프	-12370
사건이	-12371
선고를	-12372
성으로	-12373
에서만	-12374
웨스트	-12375
자들로	-12376
자로서	-12377
카드를	-12378
테니스	-12379
트로터	-12380
해진다	-12381
행위에	-12382
form	-12383
hdad	-12384
▁bbk	-12385
▁bri	-12386
▁env	-12387
▁mic	-12388
▁pow	-12389
▁sex	-12390
▁ufo	-12391
▁was	-12392
▁you	-12393
▁감소를	-12394
▁강경한	-12395
▁강에서	-12396
▁건설을	-12397
▁경관은	-12398
▁공개할	-12399
▁공군기	-12400
▁공장을	-12401
▁과학적	-12402
▁구멍을	-12403
▁국무총	-12404
▁국정원	-12405
▁근소한	-12406
▁남편의	-12407
▁노리에	-12408
▁뉴욕증	-12409
▁달러화	-12410
▁당분간	-12411
▁당수는	-12412
▁대결을	-12413
▁대체할	-12414
▁도로에	-12415
▁독일은	-12416
▁되면서	-12417
▁마을을	-12418
▁맨유는	-12419
▁문제다	-12420
▁미국발	-12421
▁미치지	-12422
▁발견돼	-12423
▁방송이	-12424
▁배터리	-12425
▁베테랑	-12426
▁변화의	-12427
▁부인과	-12428
▁부인이	-12429
▁부토가	-12430
▁블로거	-12431
▁비롯해	-12432
▁비율이	-12433
▁사이로	-12434
▁새겨진	-12435
▁새끼를	-12436
▁생활에	-12437
▁세번째	-12438
▁세상을	-12439
▁세트를	-12440
▁소년의	-12441
▁소방관	-12442
▁소방대	-12443
▁솔로몬	-12444
▁수요가	-12445
▁수준을	-12446
▁스카이	-12447
▁시기를	-12448
▁시한을	-12449
▁식으로	-12450
▁신청을	-12451
▁실종자	-12452
▁싱가폴	-12453
▁안타까	-12454
▁애쓰고	-12455
▁에넹은	-12456
▁여진이	-12457
▁역사의	-12458
▁연이어	-12459
▁열렬한	-12460
▁영화로	-12461
▁예산을	-12462
▁예수의	-12463
▁오늘은	-12464
▁월에도	-12465
▁위반한	-12466
▁위치에	-12467
▁이들에	-12468
▁이베이	-12469
▁이정인	-12470
▁인도와	-12471
▁임신한	-12472
▁입원한	-12473
▁작업은	-12474
▁장소를	-12475
▁장착된	-12476
▁전략적	-12477
▁전원이	-12478
▁정동영	-12479
▁정상에	-12480
▁제기한	-12481
▁제도를	-12482
▁제안에	-12483
▁주도의	-12484
▁주식은	-12485
▁지구로	-12486
▁지명을	-12487
▁직면한	-12488
▁집행유	-12489
▁처음에	-12490
▁추수감	-12491
▁콘서트	-12492
▁터키가	-12493
▁토론회	-12494
▁판정을	-12495
▁퍼레이	-12496
▁평범한	-12497
▁평화상	-12498
▁포스터	-12499
▁학교의	-12500
▁항소할	-12501
▁해주는	-12502
▁헬기니	-12503
▁확률이	-12504
과정에서	-12505
적으로는	-12506
▁fund	-12507
▁into	-12508
▁결승전에	-12509
▁결의안은	-12510
▁공개되지	-12511
▁교회에서	-12512
▁국가대표	-12513
▁규정하고	-12514
▁나타내고	-12515
▁내무부가	-12516
▁논의하고	-12517
▁논의했다	-12518
▁대표단이	-12519
▁대표들은	-12520
▁도움으로	-12521
▁만달러의	-12522
▁말했으며	-12523
▁민간인이	-12524
▁배제하지	-12525
▁백악관의	-12526
▁보건복지	-12527
▁보여주기	-12528
▁북한으로	-12529
▁사용한다	-12530
▁살아있는	-12531
▁선수들을	-12532
▁수만명의	-12533
▁시작하는	-12534
▁없었지만	-12535
▁연합군은	-12536
▁연합군이	-12537
▁예정대로	-12538
▁우주선이	-12539
▁유지하기	-12540
▁유지하는	-12541
▁응답자의	-12542
▁의료보험	-12543
▁이란에서	-12544
▁인도에서	-12545
▁인플루엔	-12546
▁자신들을	-12547
▁장기적인	-12548
▁재판관은	-12549
▁줄어들고	-12550
▁지목했다	-12551
▁진행하는	-12552
▁참석하기	-12553
▁코미디언	-12554
▁콘서트를	-12555
▁쿠데타를	-12556
▁탈라바니	-12557
▁터키군은	-12558
▁틸트로터	-12559
▁학생들을	-12560
▁행동으로	-12561
▁확보했다	-12562
▁휴대폰을	-12563
▁희망한다	-12564
ission	-12565
▁journ	-12566
▁관계당국은	-12567
▁구체적으로	-12568
▁국제사회가	-12569
▁만장일치로	-12570
▁무장단체가	-12571
▁바그다드에	-12572
▁바그다드의	-12573
▁바이러스가	-12574
▁사살했다고	-12575
▁시작되었다	-12576
▁추수감사절	-12577
▁크리스티아	-12578
▁agency	-12579
▁health	-12580
▁leader	-12581
▁결과에따르면	-12582
▁웹사이트에서	-12583
▁baghdad	-12584
▁consumer	-12585
▁pakistan	-12586
be	-12587
tc	-12588
▁q	-12589
▁됐	-12590
▁펌	-12591
▁횟	-12592
▁힉	-12593
각이	-12594
건강	-12595
국제	-12596
놀드	-12597
라나	-12598
레아	-12599
먼이	-12600
문화	-12601
방위	-12602
비오	-12603
살상	-12604
서도	-12605
스포	-12606
씨를	-12607
온난	-12608
익을	-12609
인한	-12610
조에	-12611
주재	-12612
처에	-12613
체와	-12614
탕카	-12615
티드	-12616
파이	-12617
페이	-12618
피크	-12619
day	-12620
ger	-12621
ile	-12622
pro	-12623
vie	-12624
vis	-12625
▁hd	-12626
▁ma	-12627
▁os	-12628
▁감안	-12629
▁갤러	-12630
▁결렬	-12631
▁결별	-12632
▁고백	-12633
▁곤돌	-12634
▁공직	-12635
▁군수	-12636
▁궁금	-12637
▁극장	-12638
▁기가	-12639
▁기둥	-12640
▁나간	-12641
▁난폭	-12642
▁냉각	-12643
▁노선	-12644
▁녹아	-12645
▁당이	-12646
▁당첨	-12647
▁덩어	-12648
▁동쪽	-12649
▁드문	-12650
▁땅에	-12651
▁라크	-12652
▁루마	-12653
▁리브	-12654
▁리타	-12655
▁리트	-12656
▁마샤	-12657
▁마오	-12658
▁막는	-12659
▁맥코	-12660
▁모닝	-12661
▁뮤직	-12662
▁미들	-12663
▁밀매	-12664
▁밖의	-12665
▁받던	-12666
▁밝은	-12667
▁배터	-12668
▁버린	-12669
▁범람	-12670
▁벽에	-12671
▁보류	-12672
▁부추	-12673
▁붙어	-12674
▁브란	-12675
▁브뤼	-12676
▁비방	-12677
▁비싸	-12678
▁사장	-12679
▁새해	-12680
▁수직	-12681
▁술에	-12682
▁스틸	-12683
▁식물	-12684
▁썼다	-12685
▁앤디	-12686
▁앨라	-12687
▁앵커	-12688
▁야심	-12689
▁어울	-12690
▁억압	-12691
▁엔진	-12692
▁여야	-12693
▁역을	-12694
▁온천	-12695
▁요격	-12696
▁요소	-12697
▁운이	-12698
▁윈프	-12699
▁유예	-12700
▁이건	-12701
▁이끈	-12702
▁이데	-12703
▁이룬	-12704
▁인력	-12705
▁인원	-12706
▁입지	-12707
▁입찰	-12708
▁자격	-12709
▁잠정	-12710
▁잡기	-12711
▁지에	-12712
▁지칭	-12713
▁창립	-12714
▁채권	-12715
▁채로	-12716
▁척이	-12717
▁컨퍼	-12718
▁타운	-12719
▁탐지	-12720
▁퇴장	-12721
▁파고	-12722
▁퍼져	-12723
▁페퍼	-12724
▁펠리	-12725
▁평생	-12726
▁하려	-12727
▁한쪽	-12728
▁항복	-12729
▁행한	-12730
▁헌신	-12731
경기를	-12732
는지를	-12733
떨어진	-12734
로서는	-12735
면서도	-12736
문제가	-12737
상태가	-12738
수술을	-12739
스트를	-12740
심으로	-12741
으로의	-12742
크에서	-12743
하려면	-12744
혁명군	-12745
ated	-12746
ator	-12747
orts	-12748
ound	-12749
reet	-12750
▁arm	-12751
▁mad	-12752
▁pop	-12753
▁suv	-12754
▁갖는다	-12755
▁같았다	-12756
▁개월이	-12757
▁거라고	-12758
▁게임에	-12759
▁격차로	-12760
▁경우에	-12761
▁공군은	-12762
▁공무원	-12763
▁공습이	-12764
▁그린스	-12765
▁극적인	-12766
▁기간이	-12767
▁긴밀한	-12768
▁김계관	-12769
▁끝났다	-12770
▁나가고	-12771
▁논란을	-12772
▁높이고	-12773
▁뉴스를	-12774
▁대답을	-12775
▁대도시	-12776
▁대사를	-12777
▁더보기	-12778
▁도로가	-12779
▁동안에	-12780
▁동원해	-12781
▁라왈핀	-12782
▁로맨틱	-12783
▁로한이	-12784
▁리서치	-12785
▁맥도날	-12786
▁면담을	-12787
▁밀란은	-12788
▁바스크	-12789
▁발견은	-12790
▁발표가	-12791
▁범행을	-12792
▁보고는	-12793
▁부당한	-12794
▁부대가	-12795
▁부딪혀	-12796
▁분명한	-12797
▁불길이	-12798
▁비핵화	-12799
▁비행사	-12800
▁사인을	-12801
▁상반기	-12802
▁상승을	-12803
▁상승할	-12804
▁상품을	-12805
▁서로를	-12806
▁세력의	-12807
▁세우고	-12808
▁소유의	-12809
▁수단을	-12810
▁숨지게	-12811
▁승부를	-12812
▁앙겔라	-12813
▁앞에서	-12814
▁얘기를	-12815
▁어렵게	-12816
▁어렵다	-12817
▁업체인	-12818
▁에탄올	-12819
▁오르며	-12820
▁오스틴	-12821
▁왔으며	-12822
▁외치며	-12823
▁우려로	-12824
▁우즈는	-12825
▁원장은	-12826
▁은행은	-12827
▁이하의	-12828
▁인접한	-12829
▁일기로	-12830
▁일에서	-12831
▁자이툰	-12832
▁저질렀	-12833
▁전달한	-12834
▁전역의	-12835
▁전체를	-12836
▁점수를	-12837
▁점에서	-12838
▁접근을	-12839
▁접근할	-12840
▁정보는	-12841
▁주장해	-12842
▁중점을	-12843
▁지니고	-12844
▁지원이	-12845
▁질병을	-12846
▁창문을	-12847
▁취임식	-12848
▁취해야	-12849
▁카리스	-12850
▁카톨릭	-12851
▁터무니	-12852
▁터키를	-12853
▁토마토	-12854
▁투탕카	-12855
▁폭발은	-12856
▁폴라로	-12857
▁표적이	-12858
▁프랑크	-12859
▁피해는	-12860
▁하원은	-12861
▁학생들	-12862
▁해결에	-12863
▁해군은	-12864
▁해안을	-12865
▁향하던	-12866
▁허커비	-12867
▁협회는	-12868
▁확신을	-12869
▁활용할	-12870
▁후보자	-12871
기때문에	-12872
레스테롤	-12873
리우드의	-12874
지리스탄	-12875
했는지는	-12876
▁cand	-12877
▁conc	-12878
▁ftse	-12879
▁star	-12880
▁stri	-12881
▁wild	-12882
▁year	-12883
▁가자시티	-12884
▁개월간의	-12885
▁것인지에	-12886
▁게임에서	-12887
▁결승에서	-12888
▁공장에서	-12889
▁관광객이	-12890
▁그루지아	-12891
▁기념하기	-12892
▁기다리는	-12893
▁기록적인	-12894
▁기업들이	-12895
▁기울이고	-12896
▁나머지는	-12897
▁노력으로	-12898
▁담겨있다	-12899
▁대중교통	-12900
▁대한민국	-12901
▁도착했을	-12902
▁돌아가는	-12903
▁루마니아	-12904
▁리얼리티	-12905
▁말입니다	-12906
▁보스니아	-12907
▁부정선거	-12908
▁블룸버그	-12909
▁사건에서	-12910
▁사망했고	-12911
▁살해했다	-12912
▁서명했다	-12913
▁석방됐다	-12914
▁소개했다	-12915
▁소수민족	-12916
▁수행하고	-12917
▁승리하는	-12918
▁승리하며	-12919
▁언론과의	-12920
▁오케스트	-12921
▁외교부는	-12922
▁원인으로	-12923
▁이끌었던	-12924
▁이데올로	-12925
▁이뤄지지	-12926
▁이자율을	-12927
▁자메이카	-12928
▁장악하고	-12929
▁정보기관	-12930
▁제공하기	-12931
▁중앙은행	-12932
▁지지율로	-12933
▁총격전이	-12934
▁추구하는	-12935
▁친구들과	-12936
▁파파라치	-12937
▁페르난도	-12938
▁페일린은	-12939
▁포함된다	-12940
▁푸에르토	-12941
▁한반도의	-12942
▁항공사는	-12943
▁해변에서	-12944
▁핵시설을	-12945
통합민주신	-12946
▁peace	-12947
▁soldi	-12948
▁가자지구의	-12949
▁고위관리는	-12950
▁노동자들이	-12951
▁동남아시아	-12952
▁러시아에서	-12953
▁메드베데프	-12954
▁사무실에서	-12955
▁살모넬라균	-12956
▁상태입니다	-12957
▁생각한다고	-12958
▁용의자들이	-12959
▁유권자들의	-12960
▁자회담에서	-12961
▁전통적으로	-12962
▁정부로부터	-12963
▁정상적으로	-12964
▁참가자들은	-12965
▁파키스탄을	-12966
▁희생자들을	-12967
▁달라이라마는	-12968
▁대통합민주신	-12969
▁이라크에서의	-12970
▁이스라엘군은	-12971
▁america	-12972
dy	-12973
ty	-12974
▁갓	-12975
▁놔	-12976
▁닮	-12977
▁쉐	-12978
▁싣	-12979
▁컸	-12980
▁퓨	-12981
감과	-12982
건이	-12983
기상	-12984
노프	-12985
느라	-12986
둘러	-12987
라트	-12988
마에	-12989
맨은	-12990
모는	-12991
미국	-12992
바리	-12993
북한	-12994
빌에	-12995
사람	-12996
사진	-12997
샤는	-12998
선언	-12999
세탁	-13000
셀러	-13001
소연	-13002
여야	-13003
예방	-13004
인해	-13005
일즈	-13006
임에	-13007
자치	-13008
잡지	-13009
줄기	-13010
츠를	-13011
층의	-13012
폭력	-13013
해의	-13014
헤드	-13015
aim	-13016
air	-13017
ecd	-13018
hed	-13019
▁간첩	-13020
▁감면	-13021
▁감원	-13022
▁검정	-13023
▁계절	-13024
▁고집	-13025
▁공안	-13026
▁공조	-13027
▁군을	-13028
▁권유	-13029
▁글렌	-13030
▁급파	-13031
▁기번	-13032
▁나뉘	-13033
▁나자	-13034
▁낙하	-13035
▁날을	-13036
▁남지	-13037
▁농구	-13038
▁농장	-13039
▁농촌	-13040
▁단기	-13041
▁도박	-13042
▁돕는	-13043
▁됐던	-13044
▁두목	-13045
▁두자	-13046
▁뒤덮	-13047
▁디아	-13048
▁랜드	-13049
▁레젭	-13050
▁로열	-13051
▁마가	-13052
▁마텔	-13053
▁만의	-13054
▁만톤	-13055
▁머피	-13056
▁모토	-13057
▁무려	-13058
▁보아	-13059
▁본래	-13060
▁볼튼	-13061
▁분양	-13062
▁분출	-13063
▁비만	-13064
▁빌리	-13065
▁뽑아	-13066
▁사제	-13067
▁산유	-13068
▁산토	-13069
▁상정	-13070
▁섬에	-13071
▁성당	-13072
▁세라	-13073
▁속해	-13074
▁싸울	-13075
▁아로	-13076
▁아웃	-13077
▁약품	-13078
▁언더	-13079
▁얼어	-13080
▁연애	-13081
▁예일	-13082
▁올랜	-13083
▁요금	-13084
▁유네	-13085
▁유아	-13086
▁이길	-13087
▁임산	-13088
▁자부	-13089
▁자위	-13090
▁장의	-13091
▁재차	-13092
▁저격	-13093
▁정글	-13094
▁정직	-13095
▁제퍼	-13096
▁조그	-13097
▁조카	-13098
▁중년	-13099
▁줬다	-13100
▁지식	-13101
▁지표	-13102
▁질식	-13103
▁집이	-13104
▁쫓겨	-13105
▁처럼	-13106
▁추도	-13107
▁카나	-13108
▁칼로	-13109
▁쿼터	-13110
▁키우	-13111
▁타는	-13112
▁터진	-13113
▁퇴치	-13114
▁팔루	-13115
▁펼쳤	-13116
▁평창	-13117
▁피델	-13118
▁한글	-13119
▁현직	-13120
▁혐오	-13121
▁호위	-13122
▁황교	-13123
가스를	-13124
거래를	-13125
국들의	-13126
내용을	-13127
들에서	-13128
르에서	-13129
방으로	-13130
법안을	-13131
보다도	-13132
사고가	-13133
센터의	-13134
안으로	-13135
연하게	-13136
원서를	-13137
웠다고	-13138
작업에	-13139
지거나	-13140
지었다	-13141
탈리아	-13142
파운드	-13143
하기에	-13144
reen	-13145
▁can	-13146
▁cur	-13147
▁del	-13148
▁gir	-13149
▁pet	-13150
▁red	-13151
▁wwf	-13152
▁가볍게	-13153
▁가속화	-13154
▁가스를	-13155
▁가졌던	-13156
▁가톨릭	-13157
▁개국의	-13158
▁건물로	-13159
▁결정될	-13160
▁결정한	-13161
▁경력을	-13162
▁경보가	-13163
▁고래를	-13164
▁광장에	-13165
▁구매할	-13166
▁끌어들	-13167
▁끝내고	-13168
▁나라가	-13169
▁나라는	-13170
▁날짜를	-13171
▁남자아	-13172
▁노조는	-13173
▁논쟁의	-13174
▁누구든	-13175
▁니제르	-13176
▁다하고	-13177
▁당신을	-13178
▁대선이	-13179
▁데니스	-13180
▁동부에	-13181
▁뜨거운	-13182
▁마르코	-13183
▁마을의	-13184
▁마음이	-13185
▁만나는	-13186
▁면에서	-13187
▁몬타나	-13188
▁무차별	-13189
▁물러날	-13190
▁반군과	-13191
▁발사된	-13192
▁발사한	-13193
▁버시바	-13194
▁변화는	-13195
▁보고가	-13196
▁복용한	-13197
▁부모는	-13198
▁부시가	-13199
▁부시와	-13200
▁부정부	-13201
▁부족을	-13202
▁분석가	-13203
▁불편한	-13204
▁브뤼셀	-13205
▁빙하가	-13206
▁빨간색	-13207
▁사카쉬	-13208
▁산업이	-13209
▁생각은	-13210
▁석방에	-13211
▁선택한	-13212
▁설립한	-13213
▁성범죄	-13214
▁세워진	-13215
▁세컨드	-13216
▁센터는	-13217
▁소감을	-13218
▁소아과	-13219
▁수익이	-13220
▁승객을	-13221
▁시기가	-13222
▁시대에	-13223
▁신경을	-13224
▁싸움을	-13225
▁아내가	-13226
▁앨범을	-13227
▁야후가	-13228
▁억류된	-13229
▁엄마가	-13230
▁업체가	-13231
▁여권을	-13232
▁여자아	-13233
▁열리고	-13234
▁오르는	-13235
▁우주로	-13236
▁의견에	-13237
▁의원과	-13238
▁이동할	-13239
▁이유에	-13240
▁작전에	-13241
▁전기를	-13242
▁정권의	-13243
▁제조사	-13244
▁조언을	-13245
▁중서부	-13246
▁증거로	-13247
▁지금이	-13248
▁지나친	-13249
▁지위를	-13250
▁지점에	-13251
▁직면해	-13252
▁천명의	-13253
▁첼시는	-13254
▁첼시의	-13255
▁촬영을	-13256
▁충돌을	-13257
▁치르는	-13258
▁쿠바의	-13259
▁크리켓	-13260
▁태어나	-13261
▁통과한	-13262
▁파업이	-13263
▁페인트	-13264
▁포기할	-13265
▁폭동이	-13266
▁폭발해	-13267
▁한번도	-13268
▁합참의	-13269
▁해제할	-13270
▁행위로	-13271
▁협정에	-13272
▁호르타	-13273
▁화재는	-13274
▁확실시	-13275
코비치는	-13276
▁call	-13277
▁face	-13278
▁good	-13279
▁oecd	-13280
▁that	-13281
▁zanu	-13282
▁강력하게	-13283
▁경고하고	-13284
▁공급하는	-13285
▁그라운드	-13286
▁근무하는	-13287
▁금융제재	-13288
▁나타나고	-13289
▁내용이다	-13290
▁내전으로	-13291
▁다큐멘터	-13292
▁대량살상	-13293
▁대처하기	-13294
▁동물들이	-13295
▁득표율을	-13296
▁레바논의	-13297
▁마련했다	-13298
▁미국인의	-13299
▁반대했다	-13300
▁발생한지	-13301
▁벌어지는	-13302
▁보수적인	-13303
▁불가능한	-13304
▁불과했다	-13305
▁비행기는	-13306
▁사상자는	-13307
▁상징적인	-13308
▁상태였다	-13309
▁선택했다	-13310
▁소요사태	-13311
▁수마트라	-13312
▁시간으로	-13313
▁시스템에	-13314
▁식품의약	-13315
▁신속하게	-13316
▁앤더슨은	-13317
▁여객기를	-13318
▁여객기의	-13319
▁여러가지	-13320
▁여성에게	-13321
▁여성으로	-13322
▁연속으로	-13323
▁움직이는	-13324
▁원한다고	-13325
▁은신처를	-13326
▁이끌었다	-13327
▁이루어질	-13328
▁인용하여	-13329
▁인정하고	-13330
▁잃었다고	-13331
▁있겠지만	-13332
▁전설적인	-13333
▁조사했다	-13334
▁주지사와	-13335
▁지도자를	-13336
▁진행됐다	-13337
▁최저치를	-13338
▁추락했다	-13339
▁콘크리트	-13340
▁타임스가	-13341
▁테스트를	-13342
▁특파원이	-13343
▁판매하는	-13344
▁퍼센트가	-13345
▁풀려났다	-13346
▁피라미드	-13347
▁하마스와	-13348
▁한국은행	-13349
▁항공기가	-13350
▁환자들이	-13351
▁희생자가	-13352
▁about	-13353
▁group	-13354
▁union	-13355
▁white	-13356
▁국방장관이	-13357
▁도착했다고	-13358
▁미국인들의	-13359
▁바르셀로나	-13360
▁받아들였다	-13361
▁발견했으며	-13362
▁브로드웨이	-13363
▁스피어스의	-13364
▁아웅산수지	-13365
▁에드워즈는	-13366
▁연방수사국	-13367
▁이루어지고	-13368
▁콜레스테롤	-13369
▁파키스탄과	-13370
▁프로그램과	-13371
▁필요하다는	-13372
▁해리포터와	-13373
▁홈페이지에	-13374
▁희생자들의	-13375
▁희생자들이	-13376
▁office	-13377
▁rights	-13378
▁천문학자들은	-13379
▁프리메라리가	-13380
cd	-13381
ep	-13382
io	-13383
mo	-13384
wn	-13385
▁꿀	-13386
▁낡	-13387
▁멘	-13388
▁뭉	-13389
▁쏜	-13390
▁왈	-13391
▁젖	-13392
▁젠	-13393
▁족	-13394
▁짙	-13395
▁켐	-13396
▁훈	-13397
▁휠	-13398
가게	-13399
과이	-13400
나르	-13401
델타	-13402
락이	-13403
렐은	-13404
리즘	-13405
벌리	-13406
범이	-13407
변을	-13408
상업	-13409
석방	-13410
세스	-13411
시다	-13412
시미	-13413
시스	-13414
씨와	-13415
액이	-13416
요한	-13417
우가	-13418
우조	-13419
웰은	-13420
이게	-13421
자문	-13422
적의	-13423
질환	-13424
쿠버	-13425
탄과	-13426
투스	-13427
편에	-13428
편이	-13429
포로	-13430
해준	-13431
ank	-13432
hes	-13433
ord	-13434
tig	-13435
▁gr	-13436
▁가이	-13437
▁간접	-13438
▁걸고	-13439
▁곡물	-13440
▁공부	-13441
▁괴롭	-13442
▁굉장	-13443
▁깨달	-13444
▁남을	-13445
▁남측	-13446
▁누설	-13447
▁능력	-13448
▁당장	-13449
▁대조	-13450
▁더글	-13451
▁더블	-13452
▁데비	-13453
▁동요	-13454
▁동해	-13455
▁됐고	-13456
▁롱고	-13457
▁루시	-13458
▁리사	-13459
▁만평	-13460
▁맞출	-13461
▁맡아	-13462
▁매체	-13463
▁맨하	-13464
▁모자	-13465
▁몬테	-13466
▁무서	-13467
▁문학	-13468
▁미치	-13469
▁밀러	-13470
▁바비	-13471
▁바시	-13472
▁발송	-13473
▁발자	-13474
▁법에	-13475
▁병을	-13476
▁보트	-13477
▁보행	-13478
▁볼드	-13479
▁부당	-13480
▁부의	-13481
▁불태	-13482
▁비어	-13483
▁상임	-13484
▁생기	-13485
▁생후	-13486
▁샤론	-13487
▁서해	-13488
▁세에	-13489
▁섹시	-13490
▁수습	-13491
▁수염	-13492
▁순교	-13493
▁순회	-13494
▁시몬	-13495
▁시체	-13496
▁시키	-13497
▁신생	-13498
▁신설	-13499
▁신종	-13500
▁십년	-13501
▁십대	-13502
▁십만	-13503
▁싱글	-13504
▁아리	-13505
▁애널	-13506
▁언색	-13507
▁에밀	-13508
▁에바	-13509
▁영부	-13510
▁영입	-13511
▁예금	-13512
▁온건	-13513
▁외각	-13514
▁우드	-13515
▁월말	-13516
▁의지	-13517
▁인천	-13518
▁일곱	-13519
▁일기	-13520
▁일대	-13521
▁잃게	-13522
▁잃을	-13523
▁임박	-13524
▁임원	-13525
▁자루	-13526
▁잡스	-13527
▁잡을	-13528
▁잡힌	-13529
▁장군	-13530
▁적힌	-13531
▁전세	-13532
▁전의	-13533
▁점은	-13534
▁접한	-13535
▁정비	-13536
▁제보	-13537
▁제인	-13538
▁조달	-13539
▁졸릭	-13540
▁죽어	-13541
▁진공	-13542
▁차고	-13543
▁천여	-13544
▁초콜	-13545
▁총살	-13546
▁테헤	-13547
▁토끼	-13548
▁퇴진	-13549
▁트랜	-13550
▁트루	-13551
▁팀에	-13552
▁팀은	-13553
▁파워	-13554
▁표면	-13555
▁풍력	-13556
▁풍자	-13557
▁해명	-13558
▁향년	-13559
▁호킨	-13560
▁후안	-13561
▁휴일	-13562
고했다	-13563
뉴스는	-13564
라이브	-13565
렸으나	-13566
릴랜드	-13567
문으로	-13568
변인은	-13569
부들이	-13570
았으나	-13571
어지고	-13572
월드컵	-13573
임이사	-13574
터바흐	-13575
회사가	-13576
▁cro	-13577
▁dep	-13578
▁glo	-13579
▁gnp	-13580
▁hot	-13581
▁six	-13582
▁tax	-13583
▁가이드	-13584
▁거머쥐	-13585
▁거짓말	-13586
▁경사는	-13587
▁경우는	-13588
▁경의를	-13589
▁계기가	-13590
▁고어는	-13591
▁공동성	-13592
▁관리를	-13593
▁교수인	-13594
▁교황의	-13595
▁구성할	-13596
▁국기를	-13597
▁군복을	-13598
▁그림을	-13599
▁금융시	-13600
▁기관의	-13601
▁기술에	-13602
▁기존의	-13603
▁꾸준히	-13604
▁끌어올	-13605
▁끝나지	-13606
▁남겼다	-13607
▁높였다	-13608
▁누구나	-13609
▁늘어난	-13610
▁능력이	-13611
▁다르게	-13612
▁더이상	-13613
▁도전을	-13614
▁독일과	-13615
▁들어보	-13616
▁등에서	-13617
▁따뜻한	-13618
▁떨어뜨	-13619
▁리더십	-13620
▁말았다	-13621
▁목표가	-13622
▁못하면	-13623
▁문화를	-13624
▁발전소	-13625
▁법적인	-13626
▁베이비	-13627
▁별도로	-13628
▁병력은	-13629
▁보낸다	-13630
▁보도된	-13631
▁사냥꾼	-13632
▁사망에	-13633
▁살았던	-13634
▁살짜리	-13635
▁생각할	-13636
▁서부의	-13637
▁선수는	-13638
▁설명을	-13639
▁성적을	-13640
▁소방서	-13641
▁속으로	-13642
▁수반이	-13643
▁수행한	-13644
▁순례객	-13645
▁슈나이	-13646
▁스텔스	-13647
▁식사를	-13648
▁신부는	-13649
▁신행정	-13650
▁실수로	-13651
▁실험에	-13652
▁아놀드	-13653
▁아이만	-13654
▁아직은	-13655
▁애플은	-13656
▁앨라배	-13657
▁어디에	-13658
▁여사의	-13659
▁연패를	-13660
▁열린다	-13661
▁오래전	-13662
▁올해는	-13663
▁용납할	-13664
▁운행이	-13665
▁원조를	-13666
▁위성을	-13667
▁유망주	-13668
▁이득을	-13669
▁이소연	-13670
▁이어진	-13671
▁자사의	-13672
▁자신도	-13673
▁작용할	-13674
▁작전이	-13675
▁장례식	-13676
▁장면은	-13677
▁장소에	-13678
▁장애가	-13679
▁저녁식	-13680
▁적당한	-13681
▁전문의	-13682
▁전통을	-13683
▁전투가	-13684
▁정말로	-13685
▁정보에	-13686
▁정부청	-13687
▁제목의	-13688
▁주머니	-13689
▁주변을	-13690
▁주유소	-13691
▁줄어든	-13692
▁증거는	-13693
▁지구를	-13694
▁지난밤	-13695
▁지명에	-13696
▁지속된	-13697
▁지시를	-13698
▁지정된	-13699
▁지켜보	-13700
▁지키지	-13701
▁진출에	-13702
▁차지할	-13703
▁추진할	-13704
▁친구인	-13705
▁케냐의	-13706
▁파괴된	-13707
▁하기도	-13708
▁합의된	-13709
▁해결책	-13710
▁향했다	-13711
▁허드슨	-13712
▁회장과	-13713
▁휴식을	-13714
리스트인	-13715
항공우주	-13716
했음에도	-13717
▁aust	-13718
▁host	-13719
▁next	-13720
▁wind	-13721
▁가졌다고	-13722
▁가족들을	-13723
▁가했다고	-13724
▁강화했다	-13725
▁경쟁에서	-13726
▁고객들이	-13727
▁공항으로	-13728
▁관광산업	-13729
▁구호품을	-13730
▁그렇다면	-13731
▁그루지야	-13732
▁그린스펀	-13733
▁기념하는	-13734
▁내비쳤다	-13735
▁다국적군	-13736
▁답변했다	-13737
▁대변인의	-13738
▁도쿄에서	-13739
▁동부에서	-13740
▁들어오는	-13741
▁러시아를	-13742
▁롱고리아	-13743
▁무크타다	-13744
▁무하메드	-13745
▁받았다는	-13746
▁발표하지	-13747
▁방콕에서	-13748
▁변호사를	-13749
▁보였지만	-13750
▁부적절한	-13751
▁불과하다	-13752
▁불법적인	-13753
▁사령관이	-13754
▁생각했던	-13755
▁서비스가	-13756
▁서식하는	-13757
▁서쪽으로	-13758
▁선거캠페	-13759
▁선관위는	-13760
▁선보였다	-13761
▁소지하고	-13762
▁시민들의	-13763
▁시작했고	-13764
▁신고했다	-13765
▁실업수당	-13766
▁아이디어	-13767
▁악화되고	-13768
▁안보리의	-13769
▁어려움이	-13770
▁어머니인	-13771
▁억만장자	-13772
▁에너지를	-13773
▁여겨지는	-13774
▁연결하는	-13775
▁외교정책	-13776
▁원한다면	-13777
▁이야기가	-13778
▁이야기는	-13779
▁입장이다	-13780
▁자본주의	-13781
▁자살폭탄	-13782
▁자유로운	-13783
▁자회담이	-13784
▁전투기가	-13785
▁전투에서	-13786
▁전해지고	-13787
▁정식으로	-13788
▁주도하고	-13789
▁줄리아니	-13790
▁중태라고	-13791
▁증권거래	-13792
▁지구온난	-13793
▁직원들의	-13794
▁참가하는	-13795
▁컴퓨터와	-13796
▁클럽에서	-13797
▁클레이코	-13798
▁탈레반에	-13799
▁탑승하고	-13800
▁태국에서	-13801
▁파업으로	-13802
▁한국전쟁	-13803
▁한반도에	-13804
▁행정부에	-13805
▁허용하는	-13806
▁호나우두	-13807
▁효과적인	-13808
ancial	-13809
▁earth	-13810
▁islam	-13811
▁국경지역에	-13812
▁노대통령의	-13813
▁당국자들은	-13814
▁대량살상무	-13815
▁대선주자인	-13816
▁라우터바흐	-13817
▁리히터규모	-13818
▁목격했다고	-13819
▁바이러스는	-13820
▁받았습니다	-13821
▁부상했으며	-13822
▁상대적으로	-13823
▁수용소에서	-13824
▁승무원들은	-13825
▁실종됐다고	-13826
▁여론조사를	-13827
▁오바마에게	-13828
▁요청했다고	-13829
▁이라크전을	-13830
▁인터넷에서	-13831
▁코리아타임	-13832
▁프로젝트에	-13833
eration	-13834
ization	-13835
▁school	-13836
▁threat	-13837
▁보도했습니다	-13838
▁austral	-13839
▁관계자에따르면	-13840
▁인도네시아에서	-13841
▁financial	-13842
▁constitution	-13843
▁administration	-13844
br	-13845
do	-13846
so	-13847
▁곁	-13848
▁낫	-13849
▁딴	-13850
▁샀	-13851
▁솜	-13852
▁숭	-13853
▁콤	-13854
▁퀴	-13855
▁킴	-13856
▁틈	-13857
▁펴	-13858
강을	-13859
고는	-13860
구역	-13861
글리	-13862
기념	-13863
기증	-13864
나드	-13865
낸셜	-13866
레드	-13867
렬히	-13868
로그	-13869
링턴	-13870
마가	-13871
마드	-13872
마켓	-13873
모어	-13874
몬드	-13875
무라	-13876
바의	-13877
반응	-13878
받게	-13879
버는	-13880
버린	-13881
버스	-13882
법과	-13883
별로	-13884
봐야	-13885
수술	-13886
스케	-13887
슬램	-13888
시픽	-13889
신저	-13890
아리	-13891
액을	-13892
액의	-13893
어에	-13894
오밍	-13895
용의	-13896
원도	-13897
이익	-13898
중국	-13899
중을	-13900
지나	-13901
지오	-13902
직원	-13903
차이	-13904
천옹	-13905
청을	-13906
트만	-13907
튼을	-13908
폰테	-13909
폴로	-13910
햄은	-13911
협상	-13912
화학	-13913
act	-13914
ame	-13915
app	-13916
bal	-13917
erg	-13918
its	-13919
mex	-13920
ony	-13921
ues	-13922
▁jp	-13923
▁sg	-13924
▁가금	-13925
▁가두	-13926
▁강아	-13927
▁개념	-13928
▁개와	-13929
▁개조	-13930
▁객실	-13931
▁경유	-13932
▁구급	-13933
▁그럴	-13934
▁극히	-13935
▁기름	-13936
▁낡은	-13937
▁납부	-13938
▁낮게	-13939
▁내야	-13940
▁넬슨	-13941
▁년은	-13942
▁노숙	-13943
▁놀랍	-13944
▁다룰	-13945
▁다툼	-13946
▁단축	-13947
▁달할	-13948
▁동행	-13949
▁땅콩	-13950
▁라자	-13951
▁레노	-13952
▁로보	-13953
▁리스	-13954
▁린다	-13955
▁만델	-13956
▁맞춘	-13957
▁매트	-13958
▁먹을	-13959
▁명명	-13960
▁목에	-13961
▁몰디	-13962
▁무관	-13963
▁무의	-13964
▁무중	-13965
▁물려	-13966
▁반다	-13967
▁발명	-13968
▁배달	-13969
▁보르	-13970
▁부수	-13971
▁비로	-13972
▁빈번	-13973
▁살펴	-13974
▁상속	-13975
▁상자	-13976
▁서류	-13977
▁서열	-13978
▁서한	-13979
▁선동	-13980
▁스릴	-13981
▁시께	-13982
▁시트	-13983
▁시합	-13984
▁신시	-13985
▁실용	-13986
▁안심	-13987
▁연맹	-13988
▁연상	-13989
▁예외	-13990
▁오페	-13991
▁옮기	-13992
▁왕궁	-13993
▁외신	-13994
▁우익	-13995
▁위크	-13996
▁육성	-13997
▁이반	-13998
▁일삼	-13999
▁있길	-14000
▁잊지	-14001
▁자란	-14002
▁자와	-14003
▁장성	-14004
▁장이	-14005
▁재단	-14006
▁제라	-14007
▁제어	-14008
▁조차	-14009
▁주된	-14010
▁중대	-14011
▁진료	-14012
▁진열	-14013
▁진원	-14014
▁초당	-14015
▁출간	-14016
▁키티	-14017
▁탑재	-14018
▁투기	-14019
▁투항	-14020
▁팔을	-14021
▁패널	-14022
▁포옹	-14023
▁폭넓	-14024
▁푸켓	-14025
▁하비	-14026
▁해협	-14027
▁현수	-14028
▁호박	-14029
▁화폐	-14030
▁황박	-14031
▁후속	-14032
감으로	-14033
나갔다	-14034
들간의	-14035
라인을	-14036
리면서	-14037
미사일	-14038
범으로	-14039
법으로	-14040
사들의	-14041
사진을	-14042
성에서	-14043
위기에	-14044
자마자	-14045
주었다	-14046
하지도	-14047
협정을	-14048
ater	-14049
stem	-14050
▁bet	-14051
▁che	-14052
▁col	-14053
▁fil	-14054
▁gps	-14055
▁har	-14056
▁mem	-14057
▁가라앉	-14058
▁가방을	-14059
▁가석방	-14060
▁가슴에	-14061
▁감독과	-14062
▁거두며	-14063
▁걸리는	-14064
▁결승전	-14065
▁결심을	-14066
▁결정된	-14067
▁결함이	-14068
▁경기후	-14069
▁경로를	-14070
▁경우를	-14071
▁계획과	-14072
▁관여한	-14073
▁교황이	-14074
▁구조를	-14075
▁군정은	-14076
▁군정이	-14077
▁권한이	-14078
▁궤도를	-14079
▁균형을	-14080
▁그룹은	-14081
▁극심한	-14082
▁급상승	-14083
▁기리기	-14084
▁기업에	-14085
▁기자를	-14086
▁김경준	-14087
▁나타내	-14088
▁남았다	-14089
▁내리지	-14090
▁노선을	-14091
▁노조가	-14092
▁논평을	-14093
▁놓았다	-14094
▁니스텔	-14095
▁대신해	-14096
▁대출을	-14097
▁대표와	-14098
▁대화가	-14099
▁도착해	-14100
▁돈세탁	-14101
▁되어야	-14102
▁두려움	-14103
▁라일라	-14104
▁로널드	-14105
▁마련된	-14106
▁만나고	-14107
▁말하지	-14108
▁메르세	-14109
▁못하다	-14110
▁무너지	-14111
▁문화적	-14112
▁물러난	-14113
▁미국내	-14114
▁미하일	-14115
▁바람에	-14116
▁발언이	-14117
▁방안에	-14118
▁배우인	-14119
▁버렸다	-14120
▁버스에	-14121
▁벌이던	-14122
▁병원의	-14123
▁보리스	-14124
▁부모의	-14125
▁부분에	-14126
▁부상은	-14127
▁부유한	-14128
▁분기에	-14129
▁불안정	-14130
▁비정부	-14131
▁비틀즈	-14132
▁사기를	-14133
▁사랑을	-14134
▁사항이	-14135
▁삼엄한	-14136
▁상세한	-14137
▁상원은	-14138
▁선박에	-14139
▁선박을	-14140
▁선택을	-14141
▁소니는	-14142
▁소문이	-14143
▁손해배	-14144
▁시에서	-14145
▁시점에	-14146
▁식이요	-14147
▁신천옹	-14148
▁심리학	-14149
▁심슨은	-14150
▁아라파	-14151
▁아이다	-14152
▁아이팟	-14153
▁애플의	-14154
▁언론을	-14155
▁에서도	-14156
▁역할에	-14157
▁연관이	-14158
▁열차는	-14159
▁오토바	-14160
▁외국의	-14161
▁요인이	-14162
▁우비넨	-14163
▁운영을	-14164
▁운전사	-14165
▁웃으며	-14166
▁윌리암	-14167
▁유가가	-14168
▁유람선	-14169
▁유럽에	-14170
▁이른다	-14171
▁이전의	-14172
▁이틀째	-14173
▁인디언	-14174
▁일부로	-14175
▁일정에	-14176
▁자금은	-14177
▁작성된	-14178
▁잠재적	-14179
▁저자인	-14180
▁전에도	-14181
▁전통적	-14182
▁점이다	-14183
▁접어들	-14184
▁정책의	-14185
▁제시할	-14186
▁중단된	-14187
▁증가로	-14188
▁지방에	-14189
▁지배를	-14190
▁지불할	-14191
▁지진의	-14192
▁지하드	-14193
▁차량의	-14194
▁착륙을	-14195
▁찬사를	-14196
▁철수할	-14197
▁체제를	-14198
▁총으로	-14199
▁카스트	-14200
▁커피를	-14201
▁코스타	-14202
▁코카인	-14203
▁크기가	-14204
▁클레멘	-14205
▁타블로	-14206
▁타이거	-14207
▁탁신은	-14208
▁테헤란	-14209
▁통과할	-14210
▁통화를	-14211
▁투쟁을	-14212
▁트레킹	-14213
▁파업은	-14214
▁파티를	-14215
▁폭설로	-14216
▁표한다	-14217
▁프라임	-14218
▁하는지	-14219
▁하에서	-14220
▁한국계	-14221
▁해리왕	-14222
▁해준다	-14223
▁확산을	-14224
▁힌두교	-14225
그로폰테	-14226
이었으며	-14227
하겠지만	-14228
하였다고	-14229
ijing	-14230
iness	-14231
ition	-14232
ivers	-14233
ology	-14234
tical	-14235
▁hsbc	-14236
▁post	-14237
▁russ	-14238
▁soci	-14239
▁갑작스런	-14240
▁게이츠는	-14241
▁결의안이	-14242
▁경찰관이	-14243
▁고양이를	-14244
▁고조되고	-14245
▁공격하기	-14246
▁구스마오	-14247
▁구호단체	-14248
▁국제사면	-14249
▁기업들은	-14250
▁기업들의	-14251
▁끌어들이	-14252
▁나오면서	-14253
▁나타나는	-14254
▁내다봤다	-14255
▁노력했다	-14256
▁높아졌다	-14257
▁뉴욕상업	-14258
▁당선자가	-14259
▁당신에게	-14260
▁대표들이	-14261
▁돌아갔다	-14262
▁돌아오는	-14263
▁돌입했다	-14264
▁마련하기	-14265
▁말했었다	-14266
▁매들린의	-14267
▁무너졌다	-14268
▁무엇인지	-14269
▁미얀마에	-14270
▁발생하자	-14271
▁발언으로	-14272
▁방문하고	-14273
▁방침이다	-14274
▁백악관을	-14275
▁버시바우	-14276
▁베이징에	-14277
▁베탕쿠르	-14278
▁분명하다	-14279
▁분석가는	-14280
▁분석가인	-14281
▁비극적인	-14282
▁비핵화를	-14283
▁사람으로	-14284
▁사실이다	-14285
▁삼성그룹	-14286
▁생산량을	-14287
▁선거캠프	-14288
▁성공적인	-14289
▁세계무역	-14290
▁수행하는	-14291
▁시민들을	-14292
▁시위대에	-14293
▁시작하기	-14294
▁싶어하는	-14295
▁양국간의	-14296
▁어소시에	-14297
▁여객기에	-14298
▁여겨지고	-14299
▁외곽에서	-14300
▁요청하는	-14301
▁요하네스	-14302
▁용의자인	-14303
▁우려하는	-14304
▁위원회가	-14305
▁이송됐다	-14306
▁이전에는	-14307
▁일요일에	-14308
▁일이었다	-14309
▁잃어버린	-14310
▁재미있는	-14311
▁정권인수	-14312
▁정보통신	-14313
▁제공한다	-14314
▁지켜보는	-14315
▁직원들을	-14316
▁진지하게	-14317
▁처음에는	-14318
▁총격전을	-14319
▁총기난사	-14320
▁컴퓨터에	-14321
▁테네시주	-14322
▁텔레비전	-14323
▁특파원은	-14324
▁평화로운	-14325
▁폐쇄하고	-14326
▁하원에서	-14327
▁한국으로	-14328
▁해결하는	-14329
▁헬리콥터	-14330
▁확실하다	-14331
▁환영한다	-14332
▁후임으로	-14333
들에따르면	-14334
vestig	-14335
▁break	-14336
▁claim	-14337
▁democ	-14338
▁movie	-14339
▁nymex	-14340
▁start	-14341
▁결과에따라	-14342
▁경제적으로	-14343
▁골든글로브	-14344
▁긍정적으로	-14345
▁기록했으며	-14346
▁떨어졌다고	-14347
▁발견됐으며	-14348
▁발표하면서	-14349
▁베를린에서	-14350
▁베스트셀러	-14351
▁사르코지가	-14352
▁선거캠프는	-14353
▁시작했으며	-14354
▁아파트에서	-14355
▁여론조사는	-14356
▁예상된다고	-14357
▁올림픽에서	-14358
▁일시적으로	-14359
▁자발적으로	-14360
▁전문가들의	-14361
▁주식시장이	-14362
▁주차장에서	-14363
▁중앙일보가	-14364
▁타블로이드	-14365
▁플로리다의	-14366
▁하원의장은	-14367
▁한국인들은	-14368
▁현지경찰이	-14369
▁arrest	-14370
▁candid	-14371
▁resign	-14372
▁street	-14373
▁summit	-14374
▁system	-14375
▁로드리게스는	-14376
▁매사추세츠주	-14377
▁크라이슬러는	-14378
▁팔레스타인과	-14379
▁푸에르토리코	-14380
▁프라이머리를	-14381
▁beijing	-14382
▁defense	-14383
▁society	-14384
▁국가비상사태를	-14385
▁investig	-14386
ca	-14387
lp	-14388
▁랩	-14389
▁뭔	-14390
▁봅	-14391
▁샬	-14392
▁션	-14393
▁째	-14394
▁췌	-14395
▁핫	-14396
강산	-14397
경색	-14398
권의	-14399
그리	-14400
꺼이	-14401
나갈	-14402
네트	-14403
능한	-14404
데자	-14405
라니	-14406
럽게	-14407
리학	-14408
막을	-14409
만인	-14410
묘한	-14411
문서	-14412
바에	-14413
벌을	-14414
변에	-14415
보나	-14416
분의	-14417
식량	-14418
에트	-14419
우드	-14420
운영	-14421
워즈	-14422
자키	-14423
제인	-14424
조가	-14425
지요	-14426
측과	-14427
퀘어	-14428
토록	-14429
투어	-14430
파르	-14431
파에	-14432
팍스	-14433
펀드	-14434
편을	-14435
함과	-14436
함에	-14437
행동	-14438
황을	-14439
ely	-14440
ied	-14441
ned	-14442
ult	-14443
▁fc	-14444
▁wr	-14445
▁각기	-14446
▁갖춰	-14447
▁갱신	-14448
▁거센	-14449
▁걸음	-14450
▁견해	-14451
▁경주	-14452
▁공주	-14453
▁공표	-14454
▁과일	-14455
▁광대	-14456
▁구를	-14457
▁구분	-14458
▁구상	-14459
▁귀를	-14460
▁김영	-14461
▁깜짝	-14462
▁끝내	-14463
▁나르	-14464
▁나체	-14465
▁납북	-14466
▁내달	-14467
▁노란	-14468
▁노엘	-14469
▁다카	-14470
▁대공	-14471
▁데는	-14472
▁도구	-14473
▁돌며	-14474
▁될지	-14475
▁들며	-14476
▁때도	-14477
▁때에	-14478
▁라마	-14479
▁루디	-14480
▁리터	-14481
▁마터	-14482
▁만개	-14483
▁맞교	-14484
▁맞설	-14485
▁매리	-14486
▁면허	-14487
▁반짝	-14488
▁방코	-14489
▁법의	-14490
▁병이	-14491
▁본거	-14492
▁부를	-14493
▁부착	-14494
▁불거	-14495
▁불필	-14496
▁비율	-14497
▁빼고	-14498
▁사로	-14499
▁사모	-14500
▁사촌	-14501
▁상무	-14502
▁상세	-14503
▁스탤	-14504
▁스필	-14505
▁심어	-14506
▁쓰지	-14507
▁씨를	-14508
▁아브	-14509
▁아유	-14510
▁안다	-14511
▁양은	-14512
▁양조	-14513
▁어리	-14514
▁여덟	-14515
▁완수	-14516
▁외딴	-14517
▁외출	-14518
▁울머	-14519
▁위헌	-14520
▁은폐	-14521
▁이성	-14522
▁인적	-14523
▁인준	-14524
▁자고	-14525
▁자진	-14526
▁작별	-14527
▁장래	-14528
▁적게	-14529
▁적지	-14530
▁전념	-14531
▁절단	-14532
▁점에	-14533
▁접경	-14534
▁제주	-14535
▁졌다	-14536
▁조세	-14537
▁죄를	-14538
▁주권	-14539
▁주력	-14540
▁쫓아	-14541
▁처분	-14542
▁첫째	-14543
▁청중	-14544
▁카림	-14545
▁탄약	-14546
▁투옥	-14547
▁판명	-14548
▁팔려	-14549
▁팽팽	-14550
▁하퍼	-14551
▁합리	-14552
▁행방	-14553
▁행해	-14554
▁혼다	-14555
▁흡수	-14556
다니는	-14557
다코타	-14558
대서양	-14559
되기를	-14560
렌스탐	-14561
부장은	-14562
석에서	-14563
업체가	-14564
여부를	-14565
왔다는	-14566
이기도	-14567
이치로	-14568
일러는	-14569
자들도	-14570
장에게	-14571
조사에	-14572
지원을	-14573
프라이	-14574
하우스	-14575
하이머	-14576
회사는	-14577
eren	-14578
head	-14579
turn	-14580
▁aut	-14581
▁bro	-14582
▁ecb	-14583
▁faa	-14584
▁per	-14585
▁str	-14586
▁unh	-14587
▁wid	-14588
▁wti	-14589
▁가동을	-14590
▁가이트	-14591
▁가하는	-14592
▁감추지	-14593
▁감축할	-14594
▁강세를	-14595
▁개인의	-14596
▁개정을	-14597
▁검토할	-14598
▁것과는	-14599
▁경쟁이	-14600
▁공격해	-14601
▁구입한	-14602
▁국가와	-14603
▁궤도에	-14604
▁근처의	-14605
▁금강산	-14606
▁기금을	-14607
▁기꺼이	-14608
▁기다려	-14609
▁깃발을	-14610
▁나폴리	-14611
▁내년에	-14612
▁내부의	-14613
▁년대에	-14614
▁놀라게	-14615
▁다루는	-14616
▁단거리	-14617
▁단계로	-14618
▁대응할	-14619
▁대표단	-14620
▁데이브	-14621
▁도덕적	-14622
▁동생인	-14623
▁두개골	-14624
▁디에고	-14625
▁떠나지	-14626
▁똑같은	-14627
▁라스무	-14628
▁레드삭	-14629
▁로드맵	-14630
▁마누엘	-14631
▁마시는	-14632
▁마찰을	-14633
▁만나기	-14634
▁많았다	-14635
▁망명을	-14636
▁맺었다	-14637
▁먹이를	-14638
▁메디컬	-14639
▁명단을	-14640
▁모하메	-14641
▁목록을	-14642
▁무너뜨	-14643
▁무료로	-14644
▁무중력	-14645
▁물질이	-14646
▁물품을	-14647
▁바다에	-14648
▁바이든	-14649
▁밝히기	-14650
▁방송국	-14651
▁버스는	-14652
▁변호인	-14653
▁북측의	-14654
▁비난이	-14655
▁비용은	-14656
▁비율은	-14657
▁빈라덴	-14658
▁산업의	-14659
▁삼았다	-14660
▁생겼다	-14661
▁서명한	-14662
▁석유를	-14663
▁선생님	-14664
▁선정된	-14665
▁선포한	-14666
▁설립된	-14667
▁설치한	-14668
▁성공할	-14669
▁성장이	-14670
▁세계가	-14671
▁수비수	-14672
▁수색을	-14673
▁수준에	-14674
▁수치가	-14675
▁순간에	-14676
▁스콜세	-14677
▁시간은	-14678
▁시민이	-14679
▁시부터	-14680
▁시험을	-14681
▁아들과	-14682
▁아로요	-14683
▁알자지	-14684
▁약물을	-14685
▁언급도	-14686
▁언론과	-14687
▁얼어붙	-14688
▁없도록	-14689
▁없었고	-14690
▁여왕이	-14691
▁영어를	-14692
▁올랜도	-14693
▁와중에	-14694
▁요구해	-14695
▁우려해	-14696
▁우주의	-14697
▁의사와	-14698
▁의사의	-14699
▁이건희	-14700
▁이바노	-14701
▁이행할	-14702
▁인터내	-14703
▁임무에	-14704
▁잘못을	-14705
▁전반에	-14706
▁점으로	-14707
▁조직은	-14708
▁주변의	-14709
▁죽음의	-14710
▁지나가	-14711
▁지내고	-14712
▁징역형	-14713
▁참석을	-14714
▁초부터	-14715
▁친구와	-14716
▁캠페인	-14717
▁테러와	-14718
▁테이블	-14719
▁텔레콤	-14720
▁트럭이	-14721
▁파도가	-14722
▁팬들의	-14723
▁폐쇄할	-14724
▁폭격기	-14725
▁폭격을	-14726
▁피해여	-14727
▁필리스	-14728
▁하려는	-14729
▁학부모	-14730
▁함유된	-14731
▁혐의와	-14732
▁호날두	-14733
▁호주는	-14734
▁혼란이	-14735
▁화해를	-14736
▁확보에	-14737
▁회의는	-14738
▁후쿠다	-14739
▁휴전을	-14740
되었으나	-14741
법원에서	-14742
회견에서	-14743
▁char	-14744
▁euro	-14745
▁head	-14746
▁make	-14747
▁park	-14748
▁stud	-14749
▁가로질러	-14750
▁가졌으며	-14751
▁강화하는	-14752
▁격돌한다	-14753
▁결정하기	-14754
▁경찰에게	-14755
▁고양이가	-14756
▁곳곳에서	-14757
▁공화당은	-14758
▁관계자와	-14759
▁구조대가	-14760
▁국가들과	-14761
▁급속도로	-14762
▁기후변화	-14763
▁나스닥은	-14764
▁나타나지	-14765
▁뉴저지주	-14766
▁대통령궁	-14767
▁동물보호	-14768
▁동영상에	-14769
▁드레스를	-14770
▁루아얄은	-14771
▁리버풀은	-14772
▁마터호른	-14773
▁매릴랜드	-14774
▁매케인과	-14775
▁메시지가	-14776
▁멸종위기	-14777
▁모른다는	-14778
▁못했으며	-14779
▁무대에서	-14780
▁미국인이	-14781
▁발생한다	-14782
▁보고되지	-14783
▁보조금을	-14784
▁부모들이	-14785
▁부통령의	-14786
▁사생활을	-14787
▁살해하고	-14788
▁소렌스탐	-14789
▁소속으로	-14790
▁수단으로	-14791
▁스스로를	-14792
▁시리아와	-14793
▁시사했다	-14794
▁신용경색	-14795
▁실종됐다	-14796
▁안젤리나	-14797
▁압도적인	-14798
▁연구하는	-14799
▁올림픽에	-14800
▁올해들어	-14801
▁요원들이	-14802
▁우승자인	-14803
▁위원장의	-14804
▁유네스코	-14805
▁의미하는	-14806
▁의존하고	-14807
▁이뤄져야	-14808
▁이뤄지고	-14809
▁이후에도	-14810
▁인정하는	-14811
▁입원했다	-14812
▁있었는지	-14813
▁자전거를	-14814
▁재무부는	-14815
▁적극적인	-14816
▁정확하게	-14817
▁조사하는	-14818
▁중국으로	-14819
▁지도자의	-14820
▁집회에서	-14821
▁최근까지	-14822
▁최루탄을	-14823
▁코네티컷	-14824
▁테러범이	-14825
▁텍사스와	-14826
▁토로했다	-14827
▁투탕카멘	-14828
▁폐쇄했다	-14829
▁포기했다	-14830
▁포틀랜드	-14831
▁푸에르타	-14832
▁프랑스가	-14833
▁하마스를	-14834
▁합법적인	-14835
▁해안경비	-14836
▁현지에서	-14837
▁교착상태에	-14838
▁국제적으로	-14839
▁그랜드슬램	-14840
▁기준금리를	-14841
▁나타났다고	-14842
▁뉴스입니다	-14843
▁무장세력을	-14844
▁배심원단은	-14845
▁보고서에는	-14846
▁비평가들은	-14847
▁사망자수는	-14848
▁스트레스를	-14849
▁시작됐으며	-14850
▁아니었다고	-14851
▁와지리스탄	-14852
▁자르다리는	-14853
▁자체적으로	-14854
▁젊은이들이	-14855
▁직접적으로	-14856
▁추가적으로	-14857
▁추정된다고	-14858
▁코커스에서	-14859
▁콜롬비아의	-14860
▁플로리다에	-14861
▁할리우드의	-14862
▁효과적으로	-14863
▁forces	-14864
▁public	-14865
▁달라이라마가	-14866
▁주장했습니다	-14867
▁프로그램에서	-14868
▁committ	-14869
▁journal	-14870
▁소식통에따르면	-14871
▁official	-14872
▁prosecut	-14873
▁commission	-14874
dm	-14875
fk	-14876
gs	-14877
▁둥	-14878
▁띠	-14879
▁럭	-14880
▁롭	-14881
▁맑	-14882
▁멍	-14883
▁뻔	-14884
▁셔	-14885
▁싼	-14886
▁씻	-14887
▁잦	-14888
▁튜	-14889
감에	-14890
감한	-14891
강한	-14892
건의	-14893
결혼	-14894
고등	-14895
귀한	-14896
그레	-14897
끼를	-14898
넷소	-14899
대출	-14900
럴드	-14901
려져	-14902
류는	-14903
마이	-14904
마저	-14905
망에	-14906
모델	-14907
바가	-14908
바닥	-14909
바를	-14910
바인	-14911
방의	-14912
방한	-14913
번에	-14914
베키	-14915
비안	-14916
비츠	-14917
스팅	-14918
어서	-14919
없다	-14920
에다	-14921
연대	-14922
오를	-14923
와르	-14924
왔고	-14925
이에	-14926
인하	-14927
있어	-14928
자산	-14929
자유	-14930
적일	-14931
제한	-14932
중독	-14933
질의	-14934
취를	-14935
치료	-14936
카이	-14937
코가	-14938
코드	-14939
크레	-14940
타스	-14941
터에	-14942
티노	-14943
티브	-14944
팀에	-14945
팅을	-14946
펠러	-14947
폰을	-14948
프와	-14949
한한	-14950
혈을	-14951
효과	-14952
ale	-14953
leg	-14954
uge	-14955
ush	-14956
▁fe	-14957
▁fi	-14958
▁sl	-14959
▁가야	-14960
▁가혹	-14961
▁개회	-14962
▁건이	-14963
▁게놈	-14964
▁겪은	-14965
▁경이	-14966
▁공범	-14967
▁과장	-14968
▁구해	-14969
▁국유	-14970
▁그랬	-14971
▁금전	-14972
▁길게	-14973
▁날카	-14974
▁낳은	-14975
▁넣고	-14976
▁농담	-14977
▁눈보	-14978
▁단절	-14979
▁대단	-14980
▁대원	-14981
▁더미	-14982
▁델라	-14983
▁도피	-14984
▁독특	-14985
▁돌풍	-14986
▁되살	-14987
▁든다	-14988
▁딜런	-14989
▁뚜렷	-14990
▁라드	-14991
▁라싸	-14992
▁로렌	-14993
▁로얄	-14994
▁루스	-14995
▁마루	-14996
▁만회	-14997
▁말도	-14998
▁말아	-14999
▁맞지	-15000
▁메흐	-15001
▁멜리	-15002
▁명시	-15003
▁목을	-15004
▁묻혀	-15005
▁물라	-15006
▁미수	-15007
▁미화	-15008
▁바랍	-15009
▁바랬	-15010
▁바바	-15011
▁발리	-15012
▁밤을	-15013
▁배정	-15014
▁백과	-15015
▁벤처	-15016
▁봉인	-15017
▁봉착	-15018
▁북경	-15019
▁불리	-15020
▁비리	-15021
▁비참	-15022
▁사의	-15023
▁상실	-15024
▁상트	-15025
▁서머	-15026
▁섬유	-15027
▁성지	-15028
▁쇼를	-15029
▁숨겨	-15030
▁스몰	-15031
▁시리	-15032
▁신병	-15033
▁싣고	-15034
▁실감	-15035
▁아세	-15036
▁아티	-15037
▁안을	-15038
▁야외	-15039
▁에르	-15040
▁연못	-15041
▁영유	-15042
▁오디	-15043
▁오지	-15044
▁오클	-15045
▁와일	-15046
▁왕복	-15047
▁왜냐	-15048
▁용기	-15049
▁용서	-15050
▁우파	-15051
▁의상	-15052
▁인텔	-15053
▁일환	-15054
▁자민	-15055
▁자수	-15056
▁자정	-15057
▁잘라	-15058
▁재결	-15059
▁재계	-15060
▁재앙	-15061
▁재해	-15062
▁점심	-15063
▁정박	-15064
▁조립	-15065
▁존엄	-15066
▁좁은	-15067
▁주입	-15068
▁중립	-15069
▁지향	-15070
▁진도	-15071
▁척추	-15072
▁철강	-15073
▁철거	-15074
▁청색	-15075
▁첼시	-15076
▁춤을	-15077
▁카펠	-15078
▁캠퍼	-15079
▁쿠르	-15080
▁토드	-15081
▁투여	-15082
▁투하	-15083
▁트위	-15084
▁파커	-15085
▁팔아	-15086
▁퍼뜨	-15087
▁평결	-15088
▁포도	-15089
▁표기	-15090
▁프란	-15091
▁하누	-15092
▁하위	-15093
▁햇볕	-15094
▁행크	-15095
▁허리	-15096
▁홈구	-15097
▁황폐	-15098
▁회상	-15099
▁후인	-15100
▁훔쳐	-15101
검사를	-15102
계선을	-15103
관계에	-15104
레이터	-15105
리라고	-15106
방안을	-15107
보나레	-15108
상황을	-15109
센터에	-15110
소시엄	-15111
스럽고	-15112
스에게	-15113
시한을	-15114
안에는	-15115
어사전	-15116
었었다	-15117
여사는	-15118
이라크	-15119
있다는	-15120
줬다고	-15121
지역은	-15122
측에서	-15123
카메라	-15124
케이션	-15125
텍사스	-15126
품으로	-15127
하기가	-15128
하에서	-15129
하자고	-15130
했거나	-15131
협회는	-15132
ands	-15133
ones	-15134
reed	-15135
ries	-15136
week	-15137
▁ben	-15138
▁end	-15139
▁hal	-15140
▁low	-15141
▁sun	-15142
▁uae	-15143
▁ump	-15144
▁wom	-15145
▁www	-15146
▁감행한	-15147
▁강화된	-15148
▁거리가	-15149
▁거슬러	-15150
▁게임은	-15151
▁격차가	-15152
▁격차를	-15153
▁계획된	-15154
▁고유가	-15155
▁공개될	-15156
▁공동의	-15157
▁공연은	-15158
▁관계로	-15159
▁교수의	-15160
▁교회에	-15161
▁군부는	-15162
▁그래픽	-15163
▁그래함	-15164
▁기관인	-15165
▁기준에	-15166
▁길이의	-15167
▁까지는	-15168
▁깨끗한	-15169
▁나아갈	-15170
▁나이에	-15171
▁나중에	-15172
▁나토의	-15173
▁남자와	-15174
▁내각을	-15175
▁내놓은	-15176
▁내부에	-15177
▁넘어서	-15178
▁놀랐다	-15179
▁누군가	-15180
▁느꼈다	-15181
▁다이앤	-15182
▁다이어	-15183
▁단계를	-15184
▁당선된	-15185
▁당시의	-15186
▁당하는	-15187
▁대가를	-15188
▁대령은	-15189
▁데에는	-15190
▁독재자	-15191
▁동북아	-15192
▁돼있다	-15193
▁뒤이어	-15194
▁드레스	-15195
▁등록된	-15196
▁디얄라	-15197
▁마리화	-15198
▁매카트	-15199
▁면밀히	-15200
▁명확한	-15201
▁목사가	-15202
▁목사의	-15203
▁몰려들	-15204
▁몰아넣	-15205
▁무기와	-15206
▁물의를	-15207
▁미소를	-15208
▁미확인	-15209
▁반대의	-15210
▁반응이	-15211
▁반하는	-15212
▁발견해	-15213
▁발표될	-15214
▁방송사	-15215
▁버려진	-15216
▁법안의	-15217
▁병사가	-15218
▁보고된	-15219
▁분야의	-15220
▁불만이	-15221
▁비공개	-15222
▁사라질	-15223
▁사진기	-15224
▁사회를	-15225
▁상태는	-15226
▁서울대	-15227
▁선거인	-15228
▁선고를	-15229
▁성향을	-15230
▁성화를	-15231
▁세포를	-15232
▁센트럴	-15233
▁소녀는	-15234
▁소년은	-15235
▁소니의	-15236
▁소행성	-15237
▁손상된	-15238
▁손으로	-15239
▁수반과	-15240
▁수십년	-15241
▁스타가	-15242
▁승객과	-15243
▁식량과	-15244
▁신문의	-15245
▁실었다	-15246
▁쓰러져	-15247
▁아내는	-15248
▁안락사	-15249
▁암스테	-15250
▁애도의	-15251
▁억원의	-15252
▁얼굴에	-15253
▁없이는	-15254
▁여기서	-15255
▁여기에	-15256
▁염두에	-15257
▁예상한	-15258
▁예언자	-15259
▁오늘의	-15260
▁외국계	-15261
▁우연히	-15262
▁운항을	-15263
▁운항이	-15264
▁원칙을	-15265
▁위기의	-15266
▁은행인	-15267
▁음와이	-15268
▁의문이	-15269
▁의장의	-15270
▁의혹이	-15271
▁이곳의	-15272
▁이르게	-15273
▁이상은	-15274
▁이스마	-15275
▁인도는	-15276
▁입장에	-15277
▁있을까	-15278
▁자체가	-15279
▁잠비아	-15280
▁장식된	-15281
▁전당대	-15282
▁절반이	-15283
▁제품이	-15284
▁제한을	-15285
▁조약을	-15286
▁좋았다	-15287
▁주위를	-15288
▁지금의	-15289
▁지도부	-15290
▁직원은	-15291
▁진지한	-15292
▁찍었다	-15293
▁차원의	-15294
▁차질이	-15295
▁체계를	-15296
▁초안을	-15297
▁초콜릿	-15298
▁촉발된	-15299
▁총리도	-15300
▁총선이	-15301
▁추락해	-15302
▁축제를	-15303
▁출마를	-15304
▁충돌한	-15305
▁충돌해	-15306
▁치료에	-15307
▁친구를	-15308
▁카르발	-15309
▁카이로	-15310
▁커플은	-15311
▁클라크	-15312
▁통신에	-15313
▁통제를	-15314
▁통증을	-15315
▁파손된	-15316
▁판매가	-15317
▁포드는	-15318
▁폭풍이	-15319
▁프로디	-15320
▁프리츨	-15321
▁피고인	-15322
▁하나다	-15323
▁하락을	-15324
▁하반기	-15325
▁하지는	-15326
▁해결될	-15327
▁해외로	-15328
▁해제를	-15329
▁홀에서	-15330
▁환자는	-15331
났습니다	-15332
스타인은	-15333
인이었다	-15334
잉글랜드	-15335
투표에서	-15336
하였으나	-15337
함으로서	-15338
▁food	-15339
▁home	-15340
▁rctv	-15341
▁some	-15342
▁than	-15343
▁가르시아	-15344
▁가정에서	-15345
▁감소했다	-15346
▁것인지는	-15347
▁결정하지	-15348
▁경찰들이	-15349
▁고마움을	-15350
▁공격하고	-15351
▁구조대는	-15352
▁국가들에	-15353
▁근본적인	-15354
▁금융감독	-15355
▁나왔다고	-15356
▁늘어나고	-15357
▁달한다고	-15358
▁당선자의	-15359
▁대사관이	-15360
▁도착하자	-15361
▁등장하는	-15362
▁마스터스	-15363
▁말했으나	-15364
▁매니저인	-15365
▁머레이는	-15366
▁못한다고	-15367
▁민주적인	-15368
▁발생하기	-15369
▁비서실장	-15370
▁사드르가	-15371
▁사형집행	-15372
▁상승하며	-15373
▁소송에서	-15374
▁수감됐다	-15375
▁수준이다	-15376
▁수행했다	-15377
▁스튜어트	-15378
▁승객들은	-15379
▁시간동안	-15380
▁시도했다	-15381
▁시리즈의	-15382
▁시민권을	-15383
▁시민단체	-15384
▁식당에서	-15385
▁신중하게	-15386
▁실시됐다	-15387
▁심사위원	-15388
▁아이다호	-15389
▁아프간의	-15390
▁않았다면	-15391
▁앞서있다	-15392
▁어렵다고	-15393
▁어린이가	-15394
▁억류되어	-15395
▁없었으며	-15396
▁여성들의	-15397
▁연구하고	-15398
▁연기됐다	-15399
▁연말까지	-15400
▁연방정부	-15401
▁영향으로	-15402
▁와이오밍	-15403
▁완화하기	-15404
▁왜냐하면	-15405
▁위원회에	-15406
▁위험성을	-15407
▁유엔사무	-15408
▁유전자를	-15409
▁의구심을	-15410
▁의원들과	-15411
▁이라크군	-15412
▁이뤄지는	-15413
▁이제까지	-15414
▁이혼했다	-15415
▁인권단체	-15416
▁인질들은	-15417
▁인터폴은	-15418
▁일주일에	-15419
▁있는지에	-15420
▁있음에도	-15421
▁저질렀다	-15422
▁전까지는	-15423
▁전당대회	-15424
▁제기됐다	-15425
▁조사결과	-15426
▁조종사가	-15427
▁주문했다	-15428
▁주인공인	-15429
▁즈보나레	-15430
▁지지했다	-15431
▁지켜보고	-15432
▁촉구하고	-15433
▁취소됐다	-15434
▁측에서는	-15435
▁쿠즈넷소	-15436
▁태어났다	-15437
▁통신과의	-15438
▁트로피를	-15439
▁파견했다	-15440
▁파예드의	-15441
▁포괄적인	-15442
▁포기하고	-15443
▁폭발물이	-15444
▁프로듀서	-15445
▁하루종일	-15446
▁함부르크	-15447
▁항의했다	-15448
▁확신하고	-15449
▁회복하고	-15450
▁획득했다	-15451
▁후세인은	-15452
▁힐러리의	-15453
폴리스에서	-15454
▁heart	-15455
▁가능하다고	-15456
▁경기장에서	-15457
▁관계당국이	-15458
▁나이트클럽	-15459
▁네그로폰테	-15460
▁뉴올리언스	-15461
▁대선후보가	-15462
▁미얀마에서	-15463
▁민간인들을	-15464
▁바스라에서	-15465
▁밝혀졌다고	-15466
▁본격적으로	-15467
▁불가능하다	-15468
▁사르코지의	-15469
▁아프리카의	-15470
▁예정이지만	-15471
▁이라크군이	-15472
▁중앙정보국	-15473
▁지시했다고	-15474
▁집중적으로	-15475
▁체포됐으며	-15476
▁평론가들은	-15477
▁합법적으로	-15478
▁france	-15479
▁window	-15480
▁떨어졌습니다	-15481
▁소프트웨어를	-15482
▁아프리카에서	-15483
▁어린이들에게	-15484
▁와인하우스가	-15485
▁인도네시아는	-15486
▁핵프로그램을	-15487
ployment	-15488
▁express	-15489
▁마터호른에서의	-15490
▁굽	-15491
▁돋	-15492
▁몫	-15493
▁뻗	-15494
▁슐	-15495
▁왓	-15496
▁죠	-15497
▁찔	-15498
▁캡	-15499
▁퀘	-15500
계와	-15501
고에	-15502
권과	-15503
나왓	-15504
다피	-15505
당할	-15506
더드	-15507
독립	-15508
되다	-15509
드르	-15510
디다	-15511
라기	-15512
라브	-15513
레티	-15514
르담	-15515
릭스	-15516
매설	-15517
먼의	-15518
면허	-15519
목이	-15520
물과	-15521
방향	-15522
설이	-15523
솔린	-15524
신원	-15525
안토	-15526
열차	-15527
완다	-15528
운하	-15529
을때	-15530
작가	-15531
쟁이	-15532
저우	-15533
전과	-15534
전인	-15535
전한	-15536
정과	-15537
정희	-15538
제와	-15539
차관	-15540
채를	-15541
천후	-15542
철도	-15543
치다	-15544
카라	-15545
크와	-15546
킨스	-15547
탄이	-15548
테이	-15549
통은	-15550
투아	-15551
트랙	-15552
튼이	-15553
파일	-15554
판매	-15555
판은	-15556
풋볼	-15557
호프	-15558
히지	-15559
att	-15560
iam	-15561
ich	-15562
ics	-15563
ink	-15564
ner	-15565
▁mp	-15566
▁가계	-15567
▁감수	-15568
▁값싼	-15569
▁강연	-15570
▁같아	-15571
▁개구	-15572
▁개는	-15573
▁개리	-15574
▁거행	-15575
▁건스	-15576
▁겪을	-15577
▁고독	-15578
▁고맙	-15579
▁곤란	-15580
▁공백	-15581
▁공적	-15582
▁관제	-15583
▁교역	-15584
▁굶주	-15585
▁급히	-15586
▁기용	-15587
▁끄는	-15588
▁나포	-15589
▁난처	-15590
▁날려	-15591
▁날에	-15592
▁남긴	-15593
▁났다	-15594
▁낳을	-15595
▁내기	-15596
▁노린	-15597
▁놀랐	-15598
▁놓인	-15599
▁늘릴	-15600
▁다닐	-15601
▁다스	-15602
▁다할	-15603
▁다해	-15604
▁단언	-15605
▁돌진	-15606
▁동기	-15607
▁동아	-15608
▁들려	-15609
▁때와	-15610
▁러브	-15611
▁레비	-15612
▁로브	-15613
▁로젠	-15614
▁로즈	-15615
▁루고	-15616
▁리베	-15617
▁마츠	-15618
▁막바	-15619
▁많을	-15620
▁매설	-15621
▁명절	-15622
▁모나	-15623
▁몸싸	-15624
▁미안	-15625
▁믿지	-15626
▁바우	-15627
▁반경	-15628
▁배의	-15629
▁법규	-15630
▁변형	-15631
▁보궐	-15632
▁복수	-15633
▁분배	-15634
▁분주	-15635
▁분화	-15636
▁불빛	-15637
▁블래	-15638
▁블리	-15639
▁비춰	-15640
▁빨라	-15641
▁사귀	-15642
▁사립	-15643
▁상아	-15644
▁생길	-15645
▁서기	-15646
▁선교	-15647
▁세골	-15648
▁세관	-15649
▁소란	-15650
▁속출	-15651
▁숨져	-15652
▁스즈	-15653
▁시모	-15654
▁식수	-15655
▁신기	-15656
▁실내	-15657
▁쌓인	-15658
▁아드	-15659
▁약을	-15660
▁양이	-15661
▁어드	-15662
▁어미	-15663
▁에워	-15664
▁여개	-15665
▁연습	-15666
▁연패	-15667
▁오닐	-15668
▁오퍼	-15669
▁올림	-15670
▁왔던	-15671
▁외모	-15672
▁워커	-15673
▁월로	-15674
▁위는	-15675
▁유독	-15676
▁이빨	-15677
▁잉그	-15678
▁자가	-15679
▁재규	-15680
▁적도	-15681
▁전술	-15682
▁정원	-15683
▁져야	-15684
▁조율	-15685
▁주니	-15686
▁주소	-15687
▁주어	-15688
▁죽고	-15689
▁증폭	-15690
▁지대	-15691
▁지어	-15692
▁직무	-15693
▁찍힌	-15694
▁참패	-15695
▁체첸	-15696
▁총회	-15697
▁최다	-15698
▁추기	-15699
▁충청	-15700
▁치르	-15701
▁칠면	-15702
▁침대	-15703
▁카누	-15704
▁카렌	-15705
▁캐시	-15706
▁컨셉	-15707
▁탔다	-15708
▁터져	-15709
▁템파	-15710
▁토레	-15711
▁토튼	-15712
▁트래	-15713
▁트러	-15714
▁패러	-15715
▁퍼부	-15716
▁페어	-15717
▁편에	-15718
▁푸미	-15719
▁프렌	-15720
▁핑크	-15721
▁한창	-15722
▁할로	-15723
▁해줄	-15724
▁헤어	-15725
▁호는	-15726
▁활주	-15727
▁회전	-15728
▁횡단	-15729
▁휘말	-15730
갔지만	-15731
네이루	-15732
되었을	-15733
라이트	-15734
러시아	-15735
렀으며	-15736
레이트	-15737
로에서	-15738
루스코	-15739
목으로	-15740
바이잔	-15741
사건과	-15742
사로서	-15743
습니까	-15744
영장을	-15745
왔지만	-15746
이라면	-15747
인민당	-15748
장관을	-15749
정이다	-15750
정책에	-15751
조직을	-15752
테이프	-15753
포스트	-15754
프레드	-15755
하였고	-15756
협회의	-15757
화하고	-15758
회사를	-15759
goti	-15760
ives	-15761
roll	-15762
tain	-15763
urch	-15764
ving	-15765
▁but	-15766
▁ent	-15767
▁inv	-15768
▁mid	-15769
▁pal	-15770
▁sad	-15771
▁san	-15772
▁toe	-15773
▁가깝게	-15774
▁가담한	-15775
▁가솔린	-15776
▁가정집	-15777
▁강풍을	-15778
▁개정된	-15779
▁개최될	-15780
▁거래에	-15781
▁거부할	-15782
▁건물은	-15783
▁것들을	-15784
▁게임의	-15785
▁결혼한	-15786
▁계약이	-15787
▁고르바	-15788
▁고릴라	-15789
▁공약을	-15790
▁과정이	-15791
▁관절염	-15792
▁광우병	-15793
▁교전은	-15794
▁교회의	-15795
▁구속된	-15796
▁그런데	-15797
▁그려진	-15798
▁그리핀	-15799
▁그린존	-15800
▁금지된	-15801
▁금지를	-15802
▁급격한	-15803
▁급속한	-15804
▁기업체	-15805
▁기원전	-15806
▁기자인	-15807
▁기회로	-15808
▁나갔다	-15809
▁나온다	-15810
▁년동안	-15811
▁농산물	-15812
▁뉴델리	-15813
▁단장은	-15814
▁대만에	-15815
▁대열에	-15816
▁대운하	-15817
▁대학에	-15818
▁대학이	-15819
▁댈러스	-15820
▁도메인	-15821
▁도시는	-15822
▁동료인	-15823
▁동맹을	-15824
▁동의를	-15825
▁들어서	-15826
▁로날드	-15827
▁르완다	-15828
▁리치는	-15829
▁마련해	-15830
▁마스크	-15831
▁마을로	-15832
▁맥주를	-15833
▁메신저	-15834
▁며칠간	-15835
▁명만이	-15836
▁모델로	-15837
▁모두는	-15838
▁모였다	-15839
▁목격자	-15840
▁목록에	-15841
▁무거운	-15842
▁무대에	-15843
▁무혐의	-15844
▁미스터	-15845
▁밀라노	-15846
▁밀란의	-15847
▁밀접한	-15848
▁바리케	-15849
▁바이에	-15850
▁박사의	-15851
▁박신원	-15852
▁박정희	-15853
▁반대를	-15854
▁반대해	-15855
▁밝혔고	-15856
▁방침을	-15857
▁방화를	-15858
▁버틀러	-15859
▁벌어들	-15860
▁벌이다	-15861
▁보건부	-15862
▁보안군	-15863
▁복장을	-15864
▁부담을	-15865
▁부드러	-15866
▁부문에	-15867
▁부인은	-15868
▁부정적	-15869
▁북쪽에	-15870
▁불안을	-15871
▁불행한	-15872
▁비난의	-15873
▁산업에	-15874
▁상금을	-15875
▁샤리아	-15876
▁서류를	-15877
▁선거유	-15878
▁선언을	-15879
▁성공회	-15880
▁성매매	-15881
▁세레나	-15882
▁소령은	-15883
▁소유주	-15884
▁손실이	-15885
▁쇼핑을	-15886
▁수상은	-15887
▁수상자	-15888
▁수입이	-15889
▁수집한	-15890
▁스테판	-15891
▁승객이	-15892
▁승리가	-15893
▁승용차	-15894
▁승인한	-15895
▁시신의	-15896
▁시위자	-15897
▁신문이	-15898
▁신선한	-15899
▁신원은	-15900
▁실업률	-15901
▁싶다는	-15902
▁쏟아져	-15903
▁아시안	-15904
▁아이튠	-15905
▁아제르	-15906
▁아지즈	-15907
▁아폴로	-15908
▁악화된	-15909
▁않았기	-15910
▁암으로	-15911
▁업계의	-15912
▁업무에	-15913
▁여당이	-15914
▁여론이	-15915
▁연구원	-15916
▁열리기	-15917
▁영상은	-15918
▁영어로	-15919
▁예산이	-15920
▁올라온	-15921
▁올스타	-15922
▁왕복선	-15923
▁외곽에	-15924
▁위원장	-15925
▁은행을	-15926
▁의도가	-15927
▁이들과	-15928
▁이외의	-15929
▁이자율	-15930
▁인공위	-15931
▁인물로	-15932
▁인물이	-15933
▁인수가	-15934
▁인수를	-15935
▁일했다	-15936
▁임시로	-15937
▁입원해	-15938
▁자르카	-15939
▁잔혹한	-15940
▁장기를	-15941
▁재건축	-15942
▁저소득	-15943
▁저작권	-15944
▁전국의	-15945
▁전달할	-15946
▁정교회	-15947
▁정부군	-15948
▁정치가	-15949
▁제이슨	-15950
▁제작자	-15951
▁조선일	-15952
▁조용히	-15953
▁조직이	-15954
▁조직인	-15955
▁존슨은	-15956
▁졸업생	-15957
▁주목할	-15958
▁주석이	-15959
▁주장인	-15960
▁주제로	-15961
▁주최한	-15962
▁죽음이	-15963
▁중동의	-15964
▁중령은	-15965
▁증가에	-15966
▁증상을	-15967
▁지명된	-15968
▁지역과	-15969
▁직원과	-15970
▁진압을	-15971
▁질병에	-15972
▁쪽으로	-15973
▁차세대	-15974
▁착용한	-15975
▁체중이	-15976
▁초드리	-15977
▁총재가	-15978
▁촬영된	-15979
▁최상의	-15980
▁친구의	-15981
▁케이스	-15982
▁쿠알라	-15983
▁크메르	-15984
▁탈출한	-15985
▁파리의	-15986
▁팔렸다	-15987
▁편안한	-15988
▁평했다	-15989
▁폭우가	-15990
▁푸틴의	-15991
▁하늘을	-15992
▁하이킹	-15993
▁학교는	-15994
▁한가지	-15995
▁한통이	-15996
▁항의를	-15997
▁핸드폰	-15998
▁헌법에	-15999
▁헝가리	-16000
▁현상을	-16001
▁혐의도	-16002
▁화산이	-16003
▁화성의	-16004
▁확보해	-16005
▁환자를	-16006
▁회복을	-16007
▁흐름을	-16008
▁희생을	-16009
민주당은	-16010
받았다고	-16011
아메리카	-16012
업자들은	-16013
조사에서	-16014
크라멘토	-16015
하면서도	-16016
ather	-16017
ected	-16018
gress	-16019
▁bill	-16020
▁expl	-16021
▁spec	-16022
▁usgs	-16023
▁가이트너	-16024
▁가족들의	-16025
▁강화하기	-16026
▁거부하는	-16027
▁걱정하고	-16028
▁결혼했다	-16029
▁경쟁력을	-16030
▁계속됐다	-16031
▁고위관리	-16032
▁관광객을	-16033
▁국가안전	-16034
▁국경지역	-16035
▁국내에서	-16036
▁군사력을	-16037
▁군인들을	-16038
▁극장에서	-16039
▁극적으로	-16040
▁금요일에	-16041
▁기각했다	-16042
▁기록됐다	-16043
▁기자들과	-16044
▁남자아이	-16045
▁납치됐다	-16046
▁내놓았다	-16047
▁단체들이	-16048
▁담당자인	-16049
▁당선됐다	-16050
▁대학교의	-16051
▁도로매설	-16052
▁동성결혼	-16053
▁두번째로	-16054
▁들어주지	-16055
▁로비스트	-16056
▁리트비넨	-16057
▁멕시코의	-16058
▁명이었다	-16059
▁목격했다	-16060
▁무가베는	-16061
▁무너지고	-16062
▁민간인을	-16063
▁민족주의	-16064
▁밀리밴드	-16065
▁바랍니다	-16066
▁발표되지	-16067
▁방문했을	-16068
▁방코델타	-16069
▁배경으로	-16070
▁배아줄기	-16071
▁벌였으며	-16072
▁베이루트	-16073
▁병사들은	-16074
▁보고서의	-16075
▁보였으며	-16076
▁보이지만	-16077
▁불쾌감을	-16078
▁사망했을	-16079
▁사용자가	-16080
▁상황으로	-16081
▁생각된다	-16082
▁서비스는	-16083
▁석방했다	-16084
▁선수들과	-16085
▁성명서를	-16086
▁수용소에	-16087
▁스트리트	-16088
▁시상식은	-16089
▁시스템의	-16090
▁시위대의	-16091
▁심리에서	-16092
▁아버지를	-16093
▁아시아와	-16094
▁안보리는	-16095
▁앨라배마	-16096
▁양곤에서	-16097
▁연구소는	-16098
▁영국군은	-16099
▁영어사전	-16100
▁우승으로	-16101
▁위협적인	-16102
▁유권자가	-16103
▁유니세프	-16104
▁유명인사	-16105
▁이사회는	-16106
▁이틀간의	-16107
▁일상적인	-16108
▁자이언트	-16109
▁전문가는	-16110
▁전시작전	-16111
▁제한하는	-16112
▁주지사를	-16113
▁중앙일보	-16114
▁지지자들	-16115
▁참석하는	-16116
▁총리와의	-16117
▁총회에서	-16118
▁추정되고	-16119
▁충돌했다	-16120
▁카불에서	-16121
▁크리스틴	-16122
▁탈출했다	-16123
▁통과하는	-16124
▁티셔츠를	-16125
▁파손됐다	-16126
▁파악하고	-16127
▁파예드는	-16128
▁패션계의	-16129
▁포기하는	-16130
▁폭락했다	-16131
▁폭발했다	-16132
▁프랑스를	-16133
▁환경에서	-16134
▁환자들은	-16135
▁회사에서	-16136
▁획기적인	-16137
데자네이루	-16138
▁child	-16139
▁found	-16140
▁organ	-16141
▁구조작업을	-16142
▁국제올림픽	-16143
▁다우지수가	-16144
▁디스플레이	-16145
▁만들어졌다	-16146
▁미항공우주	-16147
▁바에따르면	-16148
▁베를루스코	-16149
▁소식통들은	-16150
▁신행정수도	-16151
▁압도적으로	-16152
▁애틀랜티스	-16153
▁외무장관이	-16154
▁운동가들은	-16155
▁재정경제부	-16156
▁정상회담에	-16157
▁조사에서는	-16158
▁주장했다고	-16159
▁주장했었다	-16160
▁줄리아니는	-16161
▁중국에서는	-16162
▁중앙일보는	-16163
▁탈레반측은	-16164
▁토론회에서	-16165
▁페널티킥을	-16166
▁플레이오프	-16167
▁플로리다와	-16168
▁피해자들을	-16169
▁합의에따라	-16170
▁희망한다고	-16171
▁report	-16172
▁travel	-16173
▁관광객들에게	-16174
▁아제르바이잔	-16175
▁열린우리당은	-16176
▁예정이었으나	-16177
▁요하네스버그	-16178
▁이슬라마바드	-16179
▁캘리포니아에	-16180
▁economy	-16181
▁방코델타아시아	-16182
▁오사마빈라덴의	-16183
▁캘리포니아에서	-16184
▁soldiers	-16185
ci	-16186
fc	-16187
▁긱	-16188
▁눌	-16189
▁룩	-16190
▁릴	-16191
▁빔	-16192
▁썩	-16193
▁쐈	-16194
▁쭉	-16195
▁콴	-16196
▁홉	-16197
가루	-16198
고로	-16199
고의	-16200
구와	-16201
그러	-16202
금의	-16203
난을	-16204
더미	-16205
더와	-16206
됐기	-16207
랜더	-16208
럼을	-16209
레오	-16210
루즈	-16211
르다	-16212
린이	-16213
린트	-16214
마뱀	-16215
목에	-16216
민순	-16217
박물	-16218
반이	-16219
병원	-16220
보드	-16221
보지	-16222
분석	-16223
석현	-16224
세의	-16225
수비	-16226
슬링	-16227
시마	-16228
시킴	-16229
애를	-16230
에겐	-16231
예프	-16232
유는	-16233
인들	-16234
주간	-16235
지사	-16236
최초	-16237
탐사	-16238
테스	-16239
토야	-16240
토프	-16241
티네	-16242
팀인	-16243
파와	-16244
패닉	-16245
행은	-16246
히기	-16247
히드	-16248
ady	-16249
ago	-16250
emy	-16251
ges	-16252
gin	-16253
ism	-16254
ote	-16255
uss	-16256
▁bp	-16257
▁el	-16258
▁ip	-16259
▁가루	-16260
▁가시	-16261
▁각성	-16262
▁강철	-16263
▁개로	-16264
▁개에	-16265
▁거울	-16266
▁걸림	-16267
▁겪게	-16268
▁결장	-16269
▁경력	-16270
▁고층	-16271
▁곡을	-16272
▁공업	-16273
▁공작	-16274
▁과속	-16275
▁규명	-16276
▁그외	-16277
▁그저	-16278
▁금치	-16279
▁깨고	-16280
▁끝낼	-16281
▁나뭇	-16282
▁날로	-16283
▁누출	-16284
▁늦추	-16285
▁다나	-16286
▁다둘	-16287
▁달고	-16288
▁당연	-16289
▁대성	-16290
▁독극	-16291
▁드미	-16292
▁디젤	-16293
▁디카	-16294
▁때를	-16295
▁로야	-16296
▁로키	-16297
▁로하	-16298
▁룰라	-16299
▁리비	-16300
▁먼지	-16301
▁명씩	-16302
▁무척	-16303
▁물과	-16304
▁미식	-16305
▁발작	-16306
▁방금	-16307
▁보니	-16308
▁불꽃	-16309
▁불사	-16310
▁산체	-16311
▁살상	-16312
▁삼각	-16313
▁서던	-16314
▁서두	-16315
▁선사	-16316
▁설교	-16317
▁섬의	-16318
▁성실	-16319
▁성행	-16320
▁셰르	-16321
▁소더	-16322
▁순위	-16323
▁스펙	-16324
▁스폰	-16325
▁아쿠	-16326
▁애슐	-16327
▁액션	-16328
▁야만	-16329
▁어윈	-16330
▁어쩔	-16331
▁언젠	-16332
▁에반	-16333
▁엠마	-16334
▁온도	-16335
▁우체	-16336
▁원심	-16337
▁유머	-16338
▁유언	-16339
▁육박	-16340
▁음향	-16341
▁의거	-16342
▁의논	-16343
▁의류	-16344
▁이타	-16345
▁인접	-16346
▁일생	-16347
▁일일	-16348
▁자궁	-16349
▁자는	-16350
▁잠겨	-16351
▁잠깐	-16352
▁저가	-16353
▁저하	-16354
▁적혀	-16355
▁전두	-16356
▁제왕	-16357
▁조업	-16358
▁좌우	-16359
▁죽게	-16360
▁중개	-16361
▁중장	-16362
▁즐겁	-16363
▁즐겨	-16364
▁증산	-16365
▁진짜	-16366
▁진척	-16367
▁집결	-16368
▁짙은	-16369
▁참수	-16370
▁창업	-16371
▁천명	-16372
▁출항	-16373
▁출현	-16374
▁치타	-16375
▁친미	-16376
▁카니	-16377
▁칼데	-16378
▁컨설	-16379
▁키르	-16380
▁타개	-16381
▁탈퇴	-16382
▁티나	-16383
▁파는	-16384
▁파일	-16385
▁페리	-16386
▁품질	-16387
▁피그	-16388
▁피를	-16389
▁하르	-16390
▁한꺼	-16391
▁할인	-16392
▁해발	-16393
▁핵을	-16394
▁헬만	-16395
▁현저	-16396
▁현존	-16397
▁형을	-16398
▁혼인	-16399
▁화상	-16400
▁희박	-16401
객들이	-16402
과정을	-16403
기관인	-16404
기구가	-16405
기구를	-16406
나이트	-16407
됐는지	-16408
라이너	-16409
란티스	-16410
리아스	-16411
명하게	-16412
법안에	-16413
사건의	-16414
센터를	-16415
여행을	-16416
임에도	-16417
자라고	-16418
자에서	-16419
졌는데	-16420
졌었다	-16421
주의를	-16422
친구를	-16423
판에서	-16424
하게도	-16425
해주고	-16426
회사의	-16427
회의가	-16428
bass	-16429
ison	-16430
ting	-16431
tish	-16432
▁big	-16433
▁den	-16434
▁epl	-16435
▁lib	-16436
▁nhc	-16437
▁set	-16438
▁uci	-16439
▁won	-16440
▁가옥이	-16441
▁가치는	-16442
▁가혹한	-16443
▁갈수록	-16444
▁감소할	-16445
▁개막식	-16446
▁개성공	-16447
▁개인적	-16448
▁개최할	-16449
▁검사가	-16450
▁게임이	-16451
▁경선에	-16452
▁경영자	-16453
▁고객을	-16454
▁과정은	-16455
▁구조조	-16456
▁국가적	-16457
▁국회는	-16458
▁군부의	-16459
▁군인을	-16460
▁그래도	-16461
▁그룹이	-16462
▁기네스	-16463
▁기념행	-16464
▁기사에	-16465
▁기존에	-16466
▁기지에	-16467
▁나타날	-16468
▁난동을	-16469
▁날씨는	-16470
▁남우주	-16471
▁납치를	-16472
▁낳았다	-16473
▁내각의	-16474
▁노리는	-16475
▁눈으로	-16476
▁뉴욕과	-16477
▁다윈은	-16478
▁달했다	-16479
▁당선이	-16480
▁대니얼	-16481
▁대선은	-16482
▁대승을	-16483
▁대우를	-16484
▁대응을	-16485
▁대표로	-16486
▁던지는	-16487
▁도달할	-16488
▁도요타	-16489
▁독립한	-16490
▁독특한	-16491
▁됐지만	-16492
▁되는데	-16493
▁들어갔	-16494
▁들어올	-16495
▁따르지	-16496
▁때부터	-16497
▁라덴은	-16498
▁라시드	-16499
▁롤링은	-16500
▁마다가	-16501
▁만델라	-16502
▁만든다	-16503
▁말라는	-16504
▁머리가	-16505
▁목표에	-16506
▁무게가	-16507
▁물체가	-16508
▁바다가	-16509
▁바오로	-16510
▁반면에	-16511
▁반응은	-16512
▁반지를	-16513
▁받기도	-16514
▁받도록	-16515
▁발간된	-16516
▁발견할	-16517
▁발레리	-16518
▁밝혀질	-16519
▁버리고	-16520
▁버스가	-16521
▁벌어질	-16522
▁본사가	-16523
▁볼티모	-16524
▁부담이	-16525
▁부모님	-16526
▁분쟁에	-16527
▁불과한	-16528
▁불길에	-16529
▁불참을	-16530
▁붙였다	-16531
▁비난해	-16532
▁비스타	-16533
▁사망할	-16534
▁사업은	-16535
▁사업의	-16536
▁사용이	-16537
▁사용자	-16538
▁사이를	-16539
▁사진에	-16540
▁산업을	-16541
▁샌안토	-16542
▁생산된	-16543
▁서둘러	-16544
▁성장률	-16545
▁세기에	-16546
▁센터에	-16547
▁소동이	-16548
▁소유즈	-16549
▁소재로	-16550
▁소지한	-16551
▁송민순	-16552
▁수단이	-16553
▁수하물	-16554
▁승리의	-16555
▁승부차	-16556
▁승인할	-16557
▁시대가	-16558
▁신생아	-16559
▁실적을	-16560
▁실행에	-16561
▁실험이	-16562
▁심리를	-16563
▁싶다면	-16564
▁아내인	-16565
▁아디다	-16566
▁아르메	-16567
▁아름다	-16568
▁아메드	-16569
▁아브라	-16570
▁아프카	-16571
▁악천후	-16572
▁안에는	-16573
▁않을까	-16574
▁알아야	-16575
▁어렸을	-16576
▁얻는데	-16577
▁없음을	-16578
▁여행할	-16579
▁역할이	-16580
▁연합의	-16581
▁영국을	-16582
▁영업이	-16583
▁영토를	-16584
▁예술가	-16585
▁오디오	-16586
▁오르고	-16587
▁오사카	-16588
▁올해로	-16589
▁요소가	-16590
▁운동이	-16591
▁운명을	-16592
▁월에서	-16593
▁윌슨은	-16594
▁유용한	-16595
▁유조선	-16596
▁음베키	-16597
▁의사인	-16598
▁이겼다	-16599
▁이미지	-16600
▁이어져	-16601
▁이와는	-16602
▁인구는	-16603
▁인질이	-16604
▁일부다	-16605
▁일종의	-16606
▁일하던	-16607
▁자국민	-16608
▁자전거	-16609
▁작품이	-16610
▁장군이	-16611
▁장벽을	-16612
▁재건을	-16613
▁재결합	-16614
▁전쟁은	-16615
▁전투로	-16616
▁정권에	-16617
▁정당은	-16618
▁정치를	-16619
▁정통한	-16620
▁정해진	-16621
▁제의를	-16622
▁제품의	-16623
▁주간의	-16624
▁즐거운	-16625
▁증상이	-16626
▁지방을	-16627
▁지분을	-16628
▁지시한	-16629
▁지지한	-16630
▁지켜본	-16631
▁직원을	-16632
▁차량과	-16633
▁처음엔	-16634
▁천문학	-16635
▁철회할	-16636
▁추방된	-16637
▁추측이	-16638
▁췌장암	-16639
▁취하는	-16640
▁카르자	-16641
▁키티호	-16642
▁타이어	-16643
▁탐사선	-16644
▁통과된	-16645
▁통치를	-16646
▁트럭에	-16647
▁트럭을	-16648
▁파란색	-16649
▁팬들을	-16650
▁편이다	-16651
▁평양에	-16652
▁포기한	-16653
▁포즈를	-16654
▁폭동을	-16655
▁표결에	-16656
▁표현을	-16657
▁푸미폰	-16658
▁프레슬	-16659
▁학교와	-16660
▁학생은	-16661
▁학생의	-16662
▁합류할	-16663
▁해변에	-16664
▁해안의	-16665
▁했는지	-16666
▁행복한	-16667
▁혐의는	-16668
▁협력해	-16669
▁협상의	-16670
▁홍석현	-16671
▁화성에	-16672
▁화재를	-16673
▁화합을	-16674
▁확정될	-16675
▁흡연을	-16676
관계자는	-16677
니케이션	-16678
랜드에서	-16679
로부터의	-16680
연설에서	-16681
중앙은행	-16682
하기에는	-16683
ences	-16684
iforn	-16685
▁case	-16686
▁dead	-16687
▁deal	-16688
▁four	-16689
▁grow	-16690
▁isaf	-16691
▁kill	-16692
▁move	-16693
▁rock	-16694
▁tech	-16695
▁감소하고	-16696
▁개체수가	-16697
▁결심했다	-16698
▁결정하는	-16699
▁경기후퇴	-16700
▁경우에는	-16701
▁공격적인	-16702
▁과도하게	-16703
▁관광객은	-16704
▁관리들과	-16705
▁국무총리	-16706
▁그녀에게	-16707
▁글로리아	-16708
▁금융기관	-16709
▁기점으로	-16710
▁노력하는	-16711
▁늘어났다	-16712
▁대법원에	-16713
▁대사관에	-16714
▁대표적인	-16715
▁동료들은	-16716
▁동점골을	-16717
▁드미트리	-16718
▁들어가기	-16719
▁들었다고	-16720
▁떠오르던	-16721
▁라왈핀디	-16722
▁매들린이	-16723
▁메시지는	-16724
▁모색하고	-16725
▁목소리가	-16726
▁무하마드	-16727
▁미시간주	-16728
▁바탕으로	-16729
▁박물관에	-16730
▁박물관은	-16731
▁받았었다	-16732
▁발표하는	-16733
▁방문한다	-16734
▁백과사전	-16735
▁벗어나기	-16736
▁베이징의	-16737
▁변호사와	-16738
▁보도자료	-16739
▁부정부패	-16740
▁북대서양	-16741
▁불필요한	-16742
▁사드르의	-16743
▁사무실에	-16744
▁사살하고	-16745
▁사용하여	-16746
▁사직서를	-16747
▁사회에서	-16748
▁상임이사	-16749
▁선거기부	-16750
▁센터에서	-16751
▁수십명의	-16752
▁수치이다	-16753
▁스프레이	-16754
▁시리아는	-16755
▁시상식을	-16756
▁압수했다	-16757
▁억달러에	-16758
▁에스트라	-16759
▁엑스파일	-16760
▁여러차례	-16761
▁연구진이	-16762
▁영향력이	-16763
▁영화제작	-16764
▁왕세자의	-16765
▁외교관은	-16766
▁요구한다	-16767
▁요청으로	-16768
▁우리당은	-16769
▁우승했다	-16770
▁이해하고	-16771
▁인사들과	-16772
▁임명했다	-16773
▁장례식에	-16774
▁전세계의	-16775
▁정부에게	-16776
▁정상들이	-16777
▁주둔중인	-16778
▁중소기업	-16779
▁중심부에	-16780
▁지도부가	-16781
▁지불하고	-16782
▁지역에는	-16783
▁지지자의	-16784
▁지질조사	-16785
▁진압하기	-16786
▁진행자인	-16787
▁집권당인	-16788
▁차량에서	-16789
▁참여하고	-16790
▁청와대는	-16791
▁충돌하는	-16792
▁측면에서	-16793
▁캐나다의	-16794
▁태풍으로	-16795
▁토요일에	-16796
▁통제하는	-16797
▁트레이드	-16798
▁파예드가	-16799
▁파이낸셜	-16800
▁페르난데	-16801
▁포함하는	-16802
▁피해자가	-16803
▁한꺼번에	-16804
▁항공사가	-16805
▁항구도시	-16806
▁해적들이	-16807
▁홀랜드는	-16808
▁확보해야	-16809
▁확인하지	-16810
▁환자들을	-16811
▁환자에게	-16812
▁히스패닉	-16813
평균지수는	-16814
▁after	-16815
▁green	-16816
▁paris	-16817
▁right	-16818
▁their	-16819
▁고속도로를	-16820
▁관계자들의	-16821
▁관광객들을	-16822
▁국무장관과	-16823
▁국제사회는	-16824
▁기대한다고	-16825
▁뉴잉글랜드	-16826
▁당국자들이	-16827
▁동물원에서	-16828
▁동의했다고	-16829
▁레바논에서	-16830
▁마다가스카	-16831
▁무장단체의	-16832
▁비상사태가	-16833
▁비행기에서	-16834
▁새크라멘토	-16835
▁서부텍사스	-16836
▁성공시켰다	-16837
▁소비자들은	-16838
▁소탕작전을	-16839
▁소행이라고	-16840
▁시민들에게	-16841
▁실질적으로	-16842
▁싱가포르의	-16843
▁아이슬란드	-16844
▁오래전부터	-16845
▁외국인들이	-16846
▁위원회에서	-16847
▁제조업체인	-16848
▁조심스럽게	-16849
▁지지자들을	-16850
▁청문회에서	-16851
▁캐나다에서	-16852
▁하락했다고	-16853
▁헌법재판소	-16854
ifornia	-16855
▁negoti	-16856
▁return	-16857
▁국제축구연맹	-16858
▁마드리드에서	-16859
▁미항공우주국	-16860
▁소비자들에게	-16861
▁아프카니스탄	-16862
▁알자와히리는	-16863
▁엔터테인먼트	-16864
▁크리스티아누	-16865
▁플로리다에서	-16866
▁attacks	-16867
▁british	-16868
▁million	-16869
▁service	-16870
▁자살폭탄테러로	-16871
▁business	-16872
▁newsweek	-16873
▁이슬라마바드에서	-16874
▁committee	-16875
▁california	-16876
hs	-16877
mn	-16878
ok	-16879
ys	-16880
▁꾀	-16881
▁낚	-16882
▁놈	-16883
▁딱	-16884
▁락	-16885
▁뭐	-16886
▁뮬	-16887
▁뷰	-16888
▁셈	-16889
▁쇄	-16890
▁윗	-16891
▁율	-16892
▁춘	-16893
▁탕	-16894
▁흠	-16895
가락	-16896
간을	-16897
고리	-16898
고문	-16899
교회	-16900
구는	-16901
군요	-16902
낸다	-16903
뉴얼	-16904
다를	-16905
대기	-16906
더가	-16907
든지	-16908
들만	-16909
때로	-16910
로워	-16911
록을	-16912
리히	-16913
마라	-16914
반을	-16915
버릴	-16916
범을	-16917
본이	-16918
블리	-16919
사찰	-16920
상도	-16921
선박	-16922
세르	-16923
셨다	-16924
손은	-16925
수아	-16926
시민	-16927
식간	-16928
실의	-16929
심에	-16930
업계	-16931
오던	-16932
이치	-16933
자나	-16934
자다	-16935
자리	-16936
잡한	-16937
젠은	-16938
중생	-16939
증에	-16940
지휘	-16941
차의	-16942
천히	-16943
충돌	-16944
쿠스	-16945
크에	-16946
타노	-16947
타닉	-16948
탄의	-16949
토바	-16950
티리	-16951
판무	-16952
편의	-16953
포럼	-16954
플리	-16955
학적	-16956
행에	-16957
행이	-16958
cil	-16959
eep	-16960
lar	-16961
let	-16962
ple	-16963
ror	-16964
uck	-16965
▁er	-16966
▁fo	-16967
▁ic	-16968
▁mg	-16969
▁tg	-16970
▁가오	-16971
▁간다	-16972
▁갈망	-16973
▁감동	-16974
▁강대	-16975
▁강탈	-16976
▁갖기	-16977
▁건에	-16978
▁격분	-16979
▁결백	-16980
▁경색	-16981
▁계승	-16982
▁고령	-16983
▁고전	-16984
▁공영	-16985
▁과실	-16986
▁관례	-16987
▁교량	-16988
▁구가	-16989
▁구소	-16990
▁구직	-16991
▁권장	-16992
▁규탄	-16993
▁그어	-16994
▁금주	-16995
▁기를	-16996
▁까다	-16997
▁꿈이	-16998
▁끝이	-16999
▁난투	-17000
▁내륙	-17001
▁내외	-17002
▁냉장	-17003
▁넘기	-17004
▁넘길	-17005
▁넘쳐	-17006
▁농림	-17007
▁뇌의	-17008
▁누워	-17009
▁다름	-17010
▁다저	-17011
▁당수	-17012
▁당직	-17013
▁대거	-17014
▁대배	-17015
▁동거	-17016
▁됐을	-17017
▁되자	-17018
▁뒤쳐	-17019
▁듣게	-17020
▁따르	-17021
▁딸은	-17022
▁라벨	-17023
▁래드	-17024
▁로게	-17025
▁리옹	-17026
▁리츠	-17027
▁마신	-17028
▁마우	-17029
▁마자	-17030
▁마테	-17031
▁만드	-17032
▁매진	-17033
▁메탄	-17034
▁명단	-17035
▁몰린	-17036
▁무언	-17037
▁무패	-17038
▁묶여	-17039
▁미만	-17040
▁미용	-17041
▁민영	-17042
▁바닷	-17043
▁바락	-17044
▁방을	-17045
▁버려	-17046
▁법이	-17047
▁변함	-17048
▁보라	-17049
▁본선	-17050
▁봤을	-17051
▁부에	-17052
▁부친	-17053
▁분개	-17054
▁불량	-17055
▁비관	-17056
▁비전	-17057
▁사교	-17058
▁사료	-17059
▁사하	-17060
▁살던	-17061
▁살된	-17062
▁상기	-17063
▁새우	-17064
▁생겼	-17065
▁서포	-17066
▁세와	-17067
▁세울	-17068
▁속도	-17069
▁속의	-17070
▁수성	-17071
▁수에	-17072
▁순조	-17073
▁슬픈	-17074
▁시급	-17075
▁시술	-17076
▁식별	-17077
▁신흥	-17078
▁십자	-17079
▁씨앗	-17080
▁아비	-17081
▁아인	-17082
▁알츠	-17083
▁양도	-17084
▁에비	-17085
▁여사	-17086
▁연일	-17087
▁열광	-17088
▁예고	-17089
▁오델	-17090
▁오찬	-17091
▁옳은	-17092
▁외설	-17093
▁원로	-17094
▁웰스	-17095
▁위배	-17096
▁의대	-17097
▁의정	-17098
▁이병	-17099
▁일광	-17100
▁일조	-17101
▁입힌	-17102
▁있으	-17103
▁자페	-17104
▁재가	-17105
▁적법	-17106
▁적의	-17107
▁전제	-17108
▁전후	-17109
▁정계	-17110
▁정복	-17111
▁제휴	-17112
▁좁혀	-17113
▁종전	-17114
▁좌석	-17115
▁주먹	-17116
▁주제	-17117
▁증오	-17118
▁지아	-17119
▁지을	-17120
▁찍어	-17121
▁체험	-17122
▁총파	-17123
▁최장	-17124
▁추운	-17125
▁취업	-17126
▁치뤄	-17127
▁친지	-17128
▁카펫	-17129
▁캐피	-17130
▁콜럼	-17131
▁크랜	-17132
▁클랩	-17133
▁클릭	-17134
▁키팅	-17135
▁타디	-17136
▁타바	-17137
▁태워	-17138
▁투병	-17139
▁트랙	-17140
▁특혜	-17141
▁파기	-17142
▁페레	-17143
▁포크	-17144
▁프랜	-17145
▁피에	-17146
▁필리	-17147
▁하우	-17148
▁한명	-17149
▁할렘	-17150
▁햇빛	-17151
▁헬렌	-17152
▁호프	-17153
▁확립	-17154
▁휘두	-17155
▁휘트	-17156
겠는가	-17157
국가로	-17158
나르도	-17159
냈지만	-17160
라리온	-17161
명령을	-17162
밀하게	-17163
버스터	-17164
부대를	-17165
비용을	-17166
비치가	-17167
소리가	-17168
스키는	-17169
시설에	-17170
위원은	-17171
일정을	-17172
자료를	-17173
자리를	-17174
자원부	-17175
장관의	-17176
장치가	-17177
총장이	-17178
평의회	-17179
할머니	-17180
행진을	-17181
협상을	-17182
호에서	-17183
화하기	-17184
book	-17185
ects	-17186
ines	-17187
lest	-17188
line	-17189
omes	-17190
ould	-17191
ures	-17192
ying	-17193
▁bid	-17194
▁ces	-17195
▁chr	-17196
▁cri	-17197
▁cut	-17198
▁dar	-17199
▁gdp	-17200
▁gol	-17201
▁hit	-17202
▁ill	-17203
▁iwc	-17204
▁kbs	-17205
▁maj	-17206
▁mtv	-17207
▁pen	-17208
▁rev	-17209
▁ser	-17210
▁tak	-17211
▁tsa	-17212
▁ver	-17213
▁way	-17214
▁가격의	-17215
▁가까워	-17216
▁가량이	-17217
▁가져야	-17218
▁간단히	-17219
▁감소한	-17220
▁감시를	-17221
▁강원도	-17222
▁강타해	-17223
▁개월을	-17224
▁검정색	-17225
▁것이나	-17226
▁경수로	-17227
▁경제성	-17228
▁곤경에	-17229
▁공격수	-17230
▁공급할	-17231
▁공상과	-17232
▁공원에	-17233
▁공장이	-17234
▁공항이	-17235
▁굉장히	-17236
▁교과서	-17237
▁교육부	-17238
▁구성원	-17239
▁국민은	-17240
▁국방성	-17241
▁국영언	-17242
▁극도로	-17243
▁금메달	-17244
▁기술로	-17245
▁기지로	-17246
▁나아가	-17247
▁남쪽에	-17248
▁내각이	-17249
▁내리기	-17250
▁냄새가	-17251
▁넣으며	-17252
▁노력해	-17253
▁노리고	-17254
▁노벨상	-17255
▁노출된	-17256
▁놀이공	-17257
▁높았다	-17258
▁느끼게	-17259
▁느끼지	-17260
▁다리에	-17261
▁다시는	-17262
▁단백질	-17263
▁달라는	-17264
▁달성할	-17265
▁대만이	-17266
▁대처할	-17267
▁대표의	-17268
▁대하여	-17269
▁도로는	-17270
▁도왔다	-17271
▁도움의	-17272
▁되도록	-17273
▁떠나는	-17274
▁라덴의	-17275
▁로리언	-17276
▁로브는	-17277
▁마을이	-17278
▁만나게	-17279
▁만약에	-17280
▁만토바	-17281
▁말하자	-17282
▁망원경	-17283
▁맞교환	-17284
▁맞추고	-17285
▁메릴린	-17286
▁메이도	-17287
▁메트로	-17288
▁모두의	-17289
▁모습은	-17290
▁몰디브	-17291
▁무조건	-17292
▁미쳤다	-17293
▁바나프	-17294
▁박사와	-17295
▁박차를	-17296
▁받기로	-17297
▁버클리	-17298
▁번화가	-17299
▁벌였던	-17300
▁벌이며	-17301
▁범인을	-17302
▁변하지	-17303
▁병원은	-17304
▁보내며	-17305
▁보안에	-17306
▁보았다	-17307
▁볼드윈	-17308
▁부근의	-17309
▁부위에	-17310
▁부채를	-17311
▁분리된	-17312
▁불안이	-17313
▁불편을	-17314
▁블랙홀	-17315
▁블레이	-17316
▁빠지게	-17317
▁사랑과	-17318
▁사례를	-17319
▁사이먼	-17320
▁사임한	-17321
▁사장이	-17322
▁사진과	-17323
▁상승은	-17324
▁생기는	-17325
▁서서히	-17326
▁서울을	-17327
▁석방될	-17328
▁선관위	-17329
▁선물로	-17330
▁선물을	-17331
▁선보일	-17332
▁선수의	-17333
▁설명할	-17334
▁설치할	-17335
▁성명에	-17336
▁성화가	-17337
▁세골렌	-17338
▁세력과	-17339
▁세상에	-17340
▁섹시한	-17341
▁셰퍼드	-17342
▁소동을	-17343
▁소속된	-17344
▁속도가	-17345
▁솔직히	-17346
▁쇼에서	-17347
▁수년간	-17348
▁수술이	-17349
▁수십만	-17350
▁수영을	-17351
▁수위를	-17352
▁순간을	-17353
▁순식간	-17354
▁순이익	-17355
▁스타인	-17356
▁시도로	-17357
▁신뢰할	-17358
▁신문을	-17359
▁신시내	-17360
▁신중한	-17361
▁신체적	-17362
▁실적이	-17363
▁심슨의	-17364
▁심슨이	-17365
▁십자가	-17366
▁아내를	-17367
▁안았다	-17368
▁안전이	-17369
▁애도를	-17370
▁앤더슨	-17371
▁언론인	-17372
▁없다면	-17373
▁여중생	-17374
▁연기에	-17375
▁예방접	-17376
▁오르지	-17377
▁오전에	-17378
▁오페라	-17379
▁온난화	-17380
▁올라와	-17381
▁요청에	-17382
▁용기를	-17383
▁용의가	-17384
▁원인에	-17385
▁유가는	-17386
▁유지될	-17387
▁유지해	-17388
▁유태인	-17389
▁의무가	-17390
▁의식이	-17391
▁의심을	-17392
▁이견을	-17393
▁이목을	-17394
▁이익이	-17395
▁이해를	-17396
▁인류가	-17397
▁인물을	-17398
▁인수제	-17399
▁입장이	-17400
▁잇따라	-17401
▁있느냐	-17402
▁자녀가	-17403
▁자치구	-17404
▁작곡가	-17405
▁잡스는	-17406
▁재개를	-17407
▁재단은	-17408
▁잭슨이	-17409
▁적절히	-17410
▁전국에	-17411
▁정당한	-17412
▁정상은	-17413
▁정착촌	-17414
▁정찰위	-17415
▁제보를	-17416
▁제재가	-17417
▁제조한	-17418
▁제한된	-17419
▁조류독	-17420
▁조사해	-17421
▁조용한	-17422
▁종말론	-17423
▁주기로	-17424
▁주민은	-17425
▁죽음과	-17426
▁중심의	-17427
▁지냈던	-17428
▁지켰다	-17429
▁진영의	-17430
▁집권한	-17431
▁찾아야	-17432
▁천천히	-17433
▁총선은	-17434
▁출연할	-17435
▁치안을	-17436
▁친밀한	-17437
▁카드를	-17438
▁카타르	-17439
▁커플이	-17440
▁콜린스	-17441
▁쿼터백	-17442
▁탄압을	-17443
▁투자에	-17444
▁파이어	-17445
▁파티에	-17446
▁판매될	-17447
▁패배한	-17448
▁패트로	-17449
▁퍼시픽	-17450
▁폭행을	-17451
▁풍선을	-17452
▁하루가	-17453
▁하리리	-17454
▁하토야	-17455
▁학살을	-17456
▁학생을	-17457
▁학위를	-17458
▁한글판	-17459
▁한동안	-17460
▁항공모	-17461
▁행해진	-17462
▁헤드폰	-17463
▁호주에	-17464
▁확고한	-17465
▁확정된	-17466
▁획득한	-17467
▁효력을	-17468
▁후보작	-17469
▁흑인이	-17470
▁흔들며	-17471
▁흔적이	-17472
▁흥미를	-17473
▁흥분한	-17474
▁흩어져	-17475
▁희생된	-17476
▁힘들게	-17477
스테이션	-17478
시간으로	-17479
연구소의	-17480
적이지만	-17481
지대에서	-17482
iance	-17483
illed	-17484
▁acad	-17485
▁aids	-17486
▁clin	-17487
▁eads	-17488
▁free	-17489
▁iran	-17490
▁irna	-17491
▁live	-17492
▁test	-17493
▁감행했다	-17494
▁개발하고	-17495
▁거래에서	-17496
▁검문소를	-17497
▁경기침체	-17498
▁고등학생	-17499
▁고르바초	-17500
▁공약으로	-17501
▁공화당이	-17502
▁관리하고	-17503
▁광장에서	-17504
▁국가들을	-17505
▁국가주석	-17506
▁국제유가	-17507
▁규정했다	-17508
▁기다렸다	-17509
▁기대된다	-17510
▁나라에서	-17511
▁나타난다	-17512
▁나토군이	-17513
▁납치했다	-17514
▁넘어섰다	-17515
▁노동조합	-17516
▁농장에서	-17517
▁다가오는	-17518
▁달러에서	-17519
▁대변인을	-17520
▁대항하는	-17521
▁돌고래가	-17522
▁들어왔다	-17523
▁들어있다	-17524
▁마련하고	-17525
▁메모리얼	-17526
▁무자비한	-17527
▁무책임한	-17528
▁문제점을	-17529
▁물리치고	-17530
▁민병대가	-17531
▁민주노동	-17532
▁반발했다	-17533
▁발견하지	-17534
▁발령했다	-17535
▁발생했을	-17536
▁방송과의	-17537
▁백악관이	-17538
▁벌였지만	-17539
▁보건부는	-17540
▁보안군이	-17541
▁본국으로	-17542
▁부양책을	-17543
▁부족하다	-17544
▁부회장은	-17545
▁불안정한	-17546
▁블레이크	-17547
▁사람이다	-17548
▁산사태가	-17549
▁상징으로	-17550
▁생물학적	-17551
▁생존자를	-17552
▁석유수출	-17553
▁설명하지	-17554
▁성장률을	-17555
▁성장률이	-17556
▁세계경제	-17557
▁세계최초	-17558
▁수도에서	-17559
▁수직착륙	-17560
▁스타디움	-17561
▁승리해야	-17562
▁시작하고	-17563
▁시작한다	-17564
▁실업률이	-17565
▁심장마비	-17566
▁아들에게	-17567
▁아프간을	-17568
▁어려움에	-17569
▁어머니의	-17570
▁엉덩이는	-17571
▁여러분이	-17572
▁연구팀이	-17573
▁예상했던	-17574
▁위태롭게	-17575
▁이동했다	-17576
▁이례적인	-17577
▁이어갔다	-17578
▁이어지고	-17579
▁이전에도	-17580
▁이해하는	-17581
▁인신매매	-17582
▁일으키고	-17583
▁자부심을	-17584
▁자신만의	-17585
▁작가조합	-17586
▁장식했다	-17587
▁적대적인	-17588
▁정부군은	-17589
▁제작했다	-17590
▁조승희가	-17591
▁죽음으로	-17592
▁준이치로	-17593
▁중국과의	-17594
▁중단해야	-17595
▁중요하게	-17596
▁지원했다	-17597
▁지적하며	-17598
▁지켜봤다	-17599
▁진행하고	-17600
▁질병통제	-17601
▁집행유예	-17602
▁처음부터	-17603
▁촬영했다	-17604
▁축하하기	-17605
▁충격적인	-17606
▁충분하지	-17607
▁친구들은	-17608
▁타이타닉	-17609
▁투표권을	-17610
▁판매량이	-17611
▁판사에게	-17612
▁퍼센트로	-17613
▁퍼센트를	-17614
▁프랑스로	-17615
▁프랑스에	-17616
▁피해자의	-17617
▁핵심적인	-17618
▁현장으로	-17619
▁확산되는	-17620
▁활주로를	-17621
▁후보였던	-17622
dition	-17623
erence	-17624
▁early	-17625
▁toeic	-17626
▁unhcr	-17627
▁years	-17628
▁구호물품을	-17629
▁국토안보부	-17630
▁근로자들이	-17631
▁기본적으로	-17632
▁다이애나의	-17633
▁마라도나는	-17634
▁모여들었다	-17635
▁무장세력과	-17636
▁바이러스의	-17637
▁받아들이고	-17638
▁법무장관은	-17639
▁법무장관이	-17640
▁북서쪽으로	-17641
▁북아일랜드	-17642
▁불러일으키	-17643
▁사무국장은	-17644
▁석방됐다고	-17645
▁선고받았다	-17646
▁시에라리온	-17647
▁시위자들을	-17648
▁심장마비로	-17649
▁알카에다에	-17650
▁암스테르담	-17651
▁약속했다고	-17652
▁어린이들은	-17653
▁여론조사에	-17654
▁왕세자비가	-17655
▁용의자들은	-17656
▁유권자들을	-17657
▁의미한다고	-17658
▁이루어지는	-17659
▁인터내셔널	-17660
▁인플루엔자	-17661
▁전달했다고	-17662
▁정치인들이	-17663
▁주식시장은	-17664
▁중심부에서	-17665
▁즉각적으로	-17666
▁지역에서도	-17667
▁지지자들의	-17668
▁최고경영자	-17669
▁콜로라도주	-17670
▁파바로티의	-17671
▁폭탄테러는	-17672
▁폭탄테러의	-17673
▁플루토늄을	-17674
▁현대자동차	-17675
▁회원국들은	-17676
위원회에서는	-17677
▁global	-17678
▁height	-17679
▁indust	-17680
▁nation	-17681
▁produc	-17682
▁progra	-17683
▁senate	-17684
▁경제학자들은	-17685
▁고속도로에서	-17686
▁공공장소에서	-17687
▁구조대원들은	-17688
▁국경지역에서	-17689
▁남부지역에서	-17690
▁말레이시아의	-17691
▁발생했습니다	-17692
▁불가능하다고	-17693
▁와인하우스는	-17694
▁우크라이나가	-17695
▁이탈리아에서	-17696
▁주식시장에서	-17697
▁준결승전에서	-17698
▁지도자들에게	-17699
▁workers	-17700
▁뉴욕상업거래소	-17701
▁리우데자네이루	-17702
▁테러리스트들이	-17703
▁japanese	-17704
▁꽂	-17705
▁꽉	-17706
▁늑	-17707
▁랭	-17708
▁씩	-17709
▁얇	-17710
▁젤	-17711
▁챌	-17712
▁켜	-17713
▁팻	-17714
▁흙	-17715
가며	-17716
건물	-17717
건에	-17718
공을	-17719
교섭	-17720
구성	-17721
균형	-17722
금에	-17723
기서	-17724
나요	-17725
내용	-17726
네오	-17727
농축	-17728
단계	-17729
동에	-17730
두아	-17731
뒀다	-17732
든은	-17733
란은	-17734
러코	-17735
론에	-17736
롭다	-17737
류와	-17738
르노	-17739
르모	-17740
르베	-17741
리안	-17742
린의	-17743
린첨	-17744
메일	-17745
면이	-17746
모니	-17747
민이	-17748
반은	-17749
버른	-17750
범의	-17751
벨트	-17752
병과	-17753
보관	-17754
보이	-17755
브르	-17756
빌은	-17757
사르	-17758
생의	-17759
서비	-17760
설에	-17761
섬에	-17762
세서	-17763
소인	-17764
수이	-17765
슬람	-17766
슬로	-17767
시앙	-17768
신고	-17769
씨로	-17770
압을	-17771
야에	-17772
양이	-17773
역이	-17774
열로	-17775
위와	-17776
이은	-17777
인터	-17778
자도	-17779
자연	-17780
점인	-17781
조의	-17782
종은	-17783
중의	-17784
차에	-17785
처로	-17786
츠와	-17787
케는	-17788
코프	-17789
키마	-17790
킨은	-17791
통계	-17792
투자	-17793
티와	-17794
파는	-17795
품의	-17796
피는	-17797
하의	-17798
향의	-17799
헤딘	-17800
홍보	-17801
화할	-17802
회복	-17803
회장	-17804
효율	-17805
ada	-17806
ann	-17807
ful	-17808
per	-17809
raw	-17810
rup	-17811
ube	-17812
ump	-17813
usp	-17814
▁om	-17815
▁가방	-17816
▁갖지	-17817
▁겪는	-17818
▁견디	-17819
▁결성	-17820
▁공립	-17821
▁공헌	-17822
▁관통	-17823
▁교정	-17824
▁교훈	-17825
▁구두	-17826
▁권위	-17827
▁귀가	-17828
▁그간	-17829
▁근접	-17830
▁기내	-17831
▁깨닫	-17832
▁꼬리	-17833
▁꾸며	-17834
▁나눈	-17835
▁나도	-17836
▁나미	-17837
▁난무	-17838
▁냉소	-17839
▁넘긴	-17840
▁넣을	-17841
▁네브	-17842
▁농경	-17843
▁늘고	-17844
▁다임	-17845
▁단편	-17846
▁달링	-17847
▁대미	-17848
▁대부	-17849
▁대슐	-17850
▁도둑	-17851
▁돌고	-17852
▁두지	-17853
▁등교	-17854
▁뚫고	-17855
▁라운	-17856
▁랜디	-17857
▁루머	-17858
▁루터	-17859
▁마른	-17860
▁말씀	-17861
▁매번	-17862
▁목사	-17863
▁무작	-17864
▁뭔가	-17865
▁미라	-17866
▁밀수	-17867
▁바꾼	-17868
▁버밍	-17869
▁번식	-17870
▁법사	-17871
▁법은	-17872
▁법조	-17873
▁별칭	-17874
▁본질	-17875
▁봉투	-17876
▁부합	-17877
▁불고	-17878
▁불륜	-17879
▁비축	-17880
▁비키	-17881
▁빚을	-17882
▁뼈가	-17883
▁사안	-17884
▁산시	-17885
▁살기	-17886
▁살라	-17887
▁살레	-17888
▁상표	-17889
▁생생	-17890
▁생선	-17891
▁샤프	-17892
▁섭씨	-17893
▁성분	-17894
▁수신	-17895
▁수학	-17896
▁스머	-17897
▁슬림	-17898
▁시가	-17899
▁신년	-17900
▁신랑	-17901
▁신혼	-17902
▁싸우	-17903
▁쌓여	-17904
▁아델	-17905
▁아서	-17906
▁아타	-17907
▁안된	-17908
▁알릴	-17909
▁알메	-17910
▁압델	-17911
▁압승	-17912
▁양을	-17913
▁어스	-17914
▁어지	-17915
▁엄격	-17916
▁영사	-17917
▁예의	-17918
▁오웬	-17919
▁와코	-17920
▁완구	-17921
▁요트	-17922
▁용이	-17923
▁웃는	-17924
▁원동	-17925
▁유류	-17926
▁이룰	-17927
▁이맘	-17928
▁이모	-17929
▁이의	-17930
▁익사	-17931
▁익숙	-17932
▁일렉	-17933
▁잃어	-17934
▁자폭	-17935
▁잠들	-17936
▁장병	-17937
▁적임	-17938
▁전락	-17939
▁전한	-17940
▁정몽	-17941
▁정황	-17942
▁제레	-17943
▁조니	-17944
▁조롱	-17945
▁좋을	-17946
▁주모	-17947
▁주시	-17948
▁주와	-17949
▁주행	-17950
▁죽이	-17951
▁중유	-17952
▁중이	-17953
▁집값	-17954
▁철폐	-17955
▁청산	-17956
▁추돌	-17957
▁추억	-17958
▁추후	-17959
▁츠방	-17960
▁칸은	-17961
▁퀘벡	-17962
▁타격	-17963
▁타당	-17964
▁타워	-17965
▁탈세	-17966
▁태도	-17967
▁텐트	-17968
▁트럼	-17969
▁티켓	-17970
▁팔로	-17971
▁퍼붓	-17972
▁표본	-17973
▁풍경	-17974
▁프래	-17975
▁하노	-17976
▁하라	-17977
▁한일	-17978
▁한해	-17979
▁합쳐	-17980
▁해온	-17981
▁헤엄	-17982
▁혹등	-17983
▁환급	-17984
▁휠체	-17985
▁흉내	-17986
▁흑색	-17987
▁흔히	-17988
▁흡입	-17989
가격이	-17990
국장이	-17991
기관은	-17992
기관이	-17993
기구인	-17994
느냐는	-17995
는다면	-17996
닷컴은	-17997
당하고	-17998
당하는	-17999
때보다	-18000
랜드의	-18001
레이는	-18002
로서의	-18003
문제로	-18004
법원이	-18005
베이스	-18006
사들을	-18007
섰다고	-18008
업체에	-18009
위츠는	-18010
은행의	-18011
자였다	-18012
즈에서	-18013
치료를	-18014
타니아	-18015
편으로	-18016
해지는	-18017
행위로	-18018
회사에	-18019
회의는	-18020
ests	-18021
ters	-18022
tice	-18023
ties	-18024
▁abn	-18025
▁bel	-18026
▁bom	-18027
▁des	-18028
▁gaz	-18029
▁kid	-18030
▁let	-18031
▁num	-18032
▁가득한	-18033
▁가정을	-18034
▁가지는	-18035
▁가지의	-18036
▁갈등을	-18037
▁개월의	-18038
▁개최를	-18039
▁거리의	-18040
▁건강검	-18041
▁결승에	-18042
▁계기로	-18043
▁공세를	-18044
▁관리인	-18045
▁광고에	-18046
▁교통부	-18047
▁교회는	-18048
▁구글은	-18049
▁구성에	-18050
▁국경에	-18051
▁국민들	-18052
▁국왕의	-18053
▁군대에	-18054
▁군사작	-18055
▁권총을	-18056
▁권했다	-18057
▁그들과	-18058
▁그레그	-18059
▁기관은	-18060
▁기록은	-18061
▁기록인	-18062
▁기록할	-18063
▁기사는	-18064
▁기숙사	-18065
▁기한을	-18066
▁나라에	-18067
▁나이키	-18068
▁내각은	-18069
▁내용도	-18070
▁노던록	-18071
▁노력은	-18072
▁노워크	-18073
▁노인성	-18074
▁논란의	-18075
▁높이기	-18076
▁높이는	-18077
▁뉴스가	-18078
▁다루고	-18079
▁다비드	-18080
▁단체로	-18081
▁대검찰	-18082
▁대사와	-18083
▁대사의	-18084
▁대체로	-18085
▁도쿄의	-18086
▁돈으로	-18087
▁돌아간	-18088
▁동결된	-18089
▁동부의	-18090
▁때때로	-18091
▁라이더	-18092
▁래드클	-18093
▁레이드	-18094
▁레이크	-18095
▁리스트	-18096
▁리투아	-18097
▁마가렛	-18098
▁마피아	-18099
▁만화를	-18100
▁매몰된	-18101
▁멜버른	-18102
▁모델이	-18103
▁모레스	-18104
▁모색할	-18105
▁모자를	-18106
▁몸집이	-18107
▁못했을	-18108
▁무력을	-18109
▁무릎을	-18110
▁문서는	-18111
▁문제도	-18112
▁문화의	-18113
▁물리적	-18114
▁물질의	-18115
▁미연방	-18116
▁미프로	-18117
▁바꾸기	-18118
▁바다위	-18119
▁바람을	-18120
▁바쿠바	-18121
▁박수를	-18122
▁반도체	-18123
▁받았을	-18124
▁방송인	-18125
▁방에서	-18126
▁배트맨	-18127
▁배후로	-18128
▁벌인다	-18129
▁법으로	-18130
▁벗어날	-18131
▁병사를	-18132
▁보고에	-18133
▁보내게	-18134
▁보안이	-18135
▁보이스	-18136
▁보트를	-18137
▁부대의	-18138
▁부문의	-18139
▁부장은	-18140
▁분노한	-18141
▁불쾌한	-18142
▁붕괴로	-18143
▁비아그	-18144
▁비정상	-18145
▁사무차	-18146
▁사업가	-18147
▁사원에	-18148
▁사형이	-18149
▁사형제	-18150
▁사회가	-18151
▁사회당	-18152
▁살리기	-18153
▁상업적	-18154
▁생산이	-18155
▁생존을	-18156
▁서한을	-18157
▁선수를	-18158
▁선수인	-18159
▁선정한	-18160
▁세력에	-18161
▁세력은	-18162
▁세우는	-18163
▁소요될	-18164
▁수천만	-18165
▁숨겨진	-18166
▁스탠리	-18167
▁승리에	-18168
▁시간당	-18169
▁시대의	-18170
▁시도가	-18171
▁시드르	-18172
▁시민권	-18173
▁시설의	-18174
▁시위의	-18175
▁시켰다	-18176
▁시행할	-18177
▁신문사	-18178
▁심리가	-18179
▁심의를	-18180
▁아래로	-18181
▁아마드	-18182
▁아스카	-18183
▁아시프	-18184
▁안보와	-18185
▁알라헴	-18186
▁압력에	-18187
▁애슐리	-18188
▁양상을	-18189
▁없으나	-18190
▁에드로	-18191
▁엘리엇	-18192
▁연계된	-18193
▁연료로	-18194
▁영향에	-18195
▁옆에서	-18196
▁오마바	-18197
▁올랐고	-18198
▁와일드	-18199
▁요금을	-18200
▁우세를	-18201
▁운동에	-18202
▁위성이	-18203
▁위협은	-18204
▁윈프리	-18205
▁유대교	-18206
▁유로에	-18207
▁유발할	-18208
▁유치를	-18209
▁은퇴를	-18210
▁의미로	-18211
▁이름과	-18212
▁이후의	-18213
▁인종적	-18214
▁일이며	-18215
▁일했던	-18216
▁임신을	-18217
▁입후보	-18218
▁자유가	-18219
▁자유당	-18220
▁작년에	-18221
▁작품상	-18222
▁잔해를	-18223
▁장착한	-18224
▁잭슨의	-18225
▁저명한	-18226
▁정당의	-18227
▁정보국	-18228
▁정했다	-18229
▁제네바	-18230
▁제안은	-18231
▁제퍼슨	-18232
▁조그만	-18233
▁조명을	-18234
▁조세프	-18235
▁조속한	-18236
▁조속히	-18237
▁조직에	-18238
▁조직원	-18239
▁졸리는	-18240
▁좋겠다	-18241
▁주권을	-18242
▁중질유	-18243
▁증가를	-18244
▁증명할	-18245
▁지구와	-18246
▁지금도	-18247
▁지었다	-18248
▁지지해	-18249
▁지출이	-18250
▁진료를	-18251
▁집권당	-18252
▁징후가	-18253
▁차에서	-18254
▁차이는	-18255
▁찾아온	-18256
▁처해질	-18257
▁청문회	-18258
▁체중을	-18259
▁체포한	-18260
▁초고속	-18261
▁최신작	-18262
▁치르게	-18263
▁침체가	-18264
▁침팬지	-18265
▁케이프	-18266
▁키스를	-18267
▁터키와	-18268
▁통합을	-18269
▁퇴진을	-18270
▁투표한	-18271
▁파견한	-18272
▁패했다	-18273
▁평양을	-18274
▁폭발한	-18275
▁폭설이	-18276
▁프란체	-18277
▁프레이	-18278
▁피그미	-18279
▁피살된	-18280
▁피해로	-18281
▁핀란드	-18282
▁하니야	-18283
▁하라고	-18284
▁하락해	-18285
▁하루를	-18286
▁학교가	-18287
▁항생제	-18288
▁행복을	-18289
▁헬만드	-18290
▁현금을	-18291
▁협박을	-18292
▁호텔은	-18293
▁화제가	-18294
▁환영을	-18295
▁환율은	-18296
▁활력을	-18297
▁회복할	-18298
▁회장을	-18299
▁회장인	-18300
드립니다	-18301
위원회를	-18302
주에서는	-18303
짐에따라	-18304
쳤습니다	-18305
현장에서	-18306
ating	-18307
ative	-18308
ities	-18309
▁appe	-18310
▁auth	-18311
▁disp	-18312
▁inde	-18313
▁king	-18314
▁left	-18315
▁list	-18316
▁poll	-18317
▁sing	-18318
▁stop	-18319
▁susp	-18320
▁강조하며	-18321
▁건물들이	-18322
▁경매에서	-18323
▁경찰서로	-18324
▁계획으로	-18325
[...]
