<pad>	0
<s>	0
</s>	0
<unk>	0
<PAD>	0
<BOS>	0
<EOS>	0
<UNK>	0
▁.	-3.2046
을	-3.59011
는	-3.72038
의	-3.75834
은	-3.98575
▁	-3.99689
를	-4.07084
가	-4.34082
에	-4.40924
이	-4.45727
고	-4.71768
에서	-5.13913
한	-5.15418
로	-5.19073
▁이	-5.24956
▁일	-5.26582
인	-5.30021
▁그	-5.34717
으로	-5.44175
▁있다	-5.45126
과	-5.4878
▁고	-5.56321
와	-5.57197
도	-5.63235
▁수	-5.64981
▁밝혔다	-5.7035
▁말했다	-5.72667
할	-5.79734
▁년	-5.88222
▁있는	-5.906
하고	-5.97209
지	-6.02844
다	-6.09251
▁전	-6.17702
▁대한	-6.20844
▁위해	-6.22533
했다	-6.23842
하는	-6.25377
▁이번	-6.28079
▁미국	-6.29234
▁한	-6.29884
▁전했다	-6.30438
▁월	-6.31262
▁지난	-6.37966
▁현지시간	-6.40855
▁정부	-6.41831
며	-6.42241
▁대해	-6.48166
던	-6.51857
▁며	-6.5195
▁미	-6.52348
된	-6.53947
▁중	-6.53974
해	-6.55754
▁것으로	-6.56141
나	-6.57729
▁명	-6.57797
▁것	-6.58044
기	-6.58878
▁명이	-6.59772
에게	-6.59971
▁것이라고	-6.61144
▁있다고	-6.68137
으며	-6.6872
▁그러나	-6.69952
▁것을	-6.70739
▁더	-6.75038
히	-6.75278
▁이라크	-6.76718
s	-6.79674
스	-6.82105
▁다른	-6.83511
게	-6.84319
▁명의	-6.87104
자	-6.88421
▁대통령	-6.89487
▁중국	-6.91287
하게	-6.91343
운	-6.93005
▁한편	-6.95052
이다	-6.95384
▁북한	-6.97228
▁이라고	-6.98222
▁또	-6.98261
▁약	-6.98731
▁오바마	-6.98998
▁만	-6.99198
지만	-6.99748
▁주	-7.00017
▁경찰	-7.02745
▁등	-7.03354
▁에	-7.03794
▁대변인	-7.06174
들이	-7.06253
▁후	-7.0659
▁총리	-7.07254
▁많은	-7.10265
▁위한	-7.10459
하기	-7.10921
▁우리	-7.11331
▁부시	-7.11477
▁통해	-7.11647
▁이후	-7.12283
하지	-7.14748
▁대통령은	-7.15266
▁내	-7.15638
적인	-7.15927
▁세	-7.16129
▁영국	-7.16707
리	-7.16801
▁가장	-7.17375
만	-7.17656
하며	-7.17665
▁두	-7.19179
▁동안	-7.19472
했으며	-7.19778
▁같은	-7.19915
들	-7.20238
까지	-7.21109
▁것이다	-7.21518
▁않았다	-7.23622
▁한국	-7.24432
될	-7.24817
▁말	-7.29444
▁개	-7.32122
▁세계	-7.32396
▁주장했다	-7.3249
▁할	-7.32568
시	-7.33045
▁가	-7.33144
▁한다	-7.34091
▁될	-7.34403
▁이들	-7.35177
▁현재	-7.3541
▁달러	-7.3546
트	-7.35594
▁있	-7.35856
▁문제	-7.36135
▁것은	-7.36853
라	-7.36908
▁관련	-7.37084
▁또한	-7.37251
드	-7.37947
▁바	-7.38755
▁때	-7.39587
▁일부	-7.42048
▁이상	-7.42192
▁알	-7.42483
▁the	-7.4262
▁보도했다	-7.42696
으나	-7.43017
▁대	-7.43022
면	-7.43113
▁했다	-7.4332
상	-7.43335
▁시	-7.43386
▁덧붙였다	-7.43645
▁최근	-7.43807
및	-7.43899
서	-7.442
▁지역	-7.45008
어	-7.45015
▁경우	-7.45411
▁있었다	-7.45664
▁영화	-7.47955
사	-7.48981
▁자신의	-7.49069
▁모든	-7.49562
했다고	-7.4975
▁것이	-7.50519
▁후보	-7.51179
했던	-7.52031
▁새로	-7.5241
▁함께	-7.53736
▁당시	-7.54234
수	-7.54289
▁라고	-7.54672
▁시간	-7.56164
▁미군	-7.56768
▁일본	-7.57598
▁그리고	-7.5858
거	-7.58635
일	-7.58883
▁조사	-7.59447
에따르면	-7.6004
주	-7.60155
됐다	-7.60415
▁로	-7.60579
▁계획	-7.60617
▁뒤	-7.61121
▁경제	-7.61829
▁cnn	-7.62037
야	-7.6256
▁s	-7.64462
▁예정이다	-7.64509
▁수도	-7.65069
▁모두	-7.65628
▁결과	-7.65632
▁설명했다	-7.65744
▁에서	-7.66609
▁있습니다	-7.66612
▁to	-7.66872
▁있으며	-7.67325
▁러시아	-7.68535
▁몇	-7.68961
▁처음	-7.69295
▁프랑스	-7.695
▁의	-7.69858
라고	-7.69996
도록	-7.70907
▁아직	-7.7099
▁유엔	-7.71659
▁당국	-7.71808
성	-7.72418
▁공격	-7.72902
보다	-7.7303
▁하는	-7.73219
▁큰	-7.73279
▁없다	-7.73309
▁사실	-7.74181
▁이란	-7.74429
▁파키스탄	-7.74507
▁위	-7.74719
▁이스라엘	-7.75323
간	-7.75476
▁계속	-7.75849
▁경기	-7.76617
▁사고	-7.77919
▁분	-7.78074
해야	-7.78336
▁회담	-7.78845
진	-7.79034
▁그녀	-7.79087
니	-7.79284
▁지난해	-7.79408
▁국가	-7.79535
▁제	-7.79856
▁올해	-7.79862
▁라	-7.80423
▁나	-7.80438
▁대통령이	-7.80494
▁지	-7.80604
르	-7.81377
▁민주당	-7.81876
▁사건	-7.82214
들을	-7.8271
▁않을	-7.82923
▁클린턴	-7.83446
이라고	-7.83503
▁열린	-7.83689
▁차	-7.83706
▁억	-7.83975
비	-7.84582
▁사람들	-7.84654
▁이날	-7.84792
하다	-7.85392
▁성명	-7.85609
▁비	-7.86457
한다	-7.87362
아	-7.87462
했	-7.87647
했습니다	-7.882
▁번째	-7.88441
▁발표했다	-7.89045
▁발생한	-7.89744
▁하고	-7.89768
▁받고	-7.90567
▁받았다	-7.90808
면서	-7.90859
▁테러	-7.90962
▁존	-7.91808
적	-7.91986
부	-7.92322
▁달	-7.92785
▁미국의	-7.93008
▁다시	-7.93015
▁지원	-7.93423
선	-7.93614
때문에	-7.93889
크	-7.94036
하	-7.94306
▁그들	-7.94385
▁된다	-7.94519
▁여성	-7.94567
▁사	-7.94705
▁이라	-7.94787
▁of	-7.94921
▁관계자	-7.95255
치	-7.96076
▁가운데	-7.96076
▁a	-7.963
▁핵	-7.96516
▁발표	-7.96646
즈	-7.97615
▁반	-7.97635
하여	-7.97725
▁사람들이	-7.97729
장	-7.97851
▁사망했다	-7.97925
▁있을	-7.9797
입니다	-7.9799
당	-7.98568
▁주요	-7.99057
▁해	-7.99294
었다	-7.99538
▁오	-7.99558
▁이에	-7.99712
▁의해	-7.99781
화	-7.99952
▁됐다	-8.00422
부터	-8.01031
대	-8.02186
▁사람	-8.02397
▁국제	-8.02771
▁초	-8.02812
▁장관	-8.0291
▁조	-8.03049
▁데	-8.03074
적으로	-8.03107
▁인해	-8.03272
에따라	-8.03666
▁자	-8.04532
에도	-8.04662
이나	-8.04876
소	-8.0495
습니다	-8.05072
▁아	-8.05514
▁첫	-8.0563
▁사망	-8.05972
▁선거	-8.06084
▁채	-8.06213
▁않은	-8.06293
▁관계	-8.06624
▁조치	-8.06653
하지만	-8.06878
▁보고	-8.07239
▁시위	-8.07408
처럼	-8.07901
▁때문	-8.08326
▁tv	-8.08827
▁혐의로	-8.09103
▁아프간	-8.09136
▁거	-8.0932
▁결정	-8.09694
▁지금	-8.09725
▁이미	-8.0984
용	-8.1038
▁기록	-8.1077
▁안	-8.1113
전	-8.11193
세	-8.11458
이며	-8.11565
▁승리	-8.11634
길	-8.12183
하면서	-8.12657
▁연구	-8.13268
▁위치한	-8.13922
▁군	-8.14034
▁매우	-8.14137
▁번	-8.14498
▁있었	-8.14721
▁원	-8.14926
▁마	-8.15228
▁이슬람	-8.15766
타	-8.16401
▁총	-8.17427
로부터	-8.17455
▁없는	-8.17593
원	-8.17744
▁?	-8.17831
▁정보	-8.18116
에서는	-8.18184
▁방문	-8.18249
▁피해	-8.1828
▁비난	-8.18409
▁줄	-8.18435
▁km	-8.18606
▁팔레스타인	-8.18716
e	-8.18826
▁노	-8.18883
le	-8.19008
▁살	-8.1953
▁추가	-8.19534
▁회사	-8.19814
되어	-8.19892
▁오늘	-8.20185
▁in	-8.2029
됐	-8.2037
▁뉴욕	-8.2043
보	-8.2049
▁않고	-8.20549
레	-8.20565
▁의원	-8.20658
▁대부분	-8.20802
▁한다고	-8.20966
▁강	-8.21012
▁기자	-8.21146
마	-8.2115
▁조지	-8.2175
▁탈레반	-8.218
프	-8.21855
▁대선	-8.2195
였	-8.21973
▁아이	-8.22323
▁기	-8.22405
▁지지	-8.22482
▁부	-8.22495
우	-8.22597
▁있다는	-8.22787
▁호주	-8.22926
▁인도	-8.23079
▁유럽	-8.2353
▁년간	-8.23663
▁joins	-8.23764
▁어떤	-8.23764
ing	-8.23803
▁정도	-8.23828
▁잘	-8.23941
▁다	-8.23947
▁지적했다	-8.24379
▁활동	-8.24607
식	-8.24902
였다	-8.25584
▁점	-8.25742
▁혐의	-8.25796
▁소속	-8.26105
▁인터넷	-8.26139
명	-8.26208
▁원문기사보기	-8.26475
▁포함	-8.26622
▁시장	-8.26626
▁하지	-8.26691
▁간	-8.26793
▁독일	-8.27011
▁새	-8.27048
돼	-8.27049
▁감독	-8.27469
▁개의	-8.27489
했지만	-8.27498
▁대표	-8.27518
▁내용	-8.27628
디	-8.27794
질	-8.27823
▁협상	-8.27859
▁우려	-8.28231
▁프로그램	-8.28376
▁구	-8.28519
라는	-8.28971
▁대학	-8.28972
▁예정	-8.29024
티	-8.29595
d	-8.29706
▁부상	-8.30135
▁w	-8.30199
▁없다고	-8.30653
미	-8.30869
y	-8.30955
▁여러	-8.31062
▁최고	-8.31403
▁않는다	-8.31413
함	-8.31641
▁m	-8.31709
▁성	-8.31745
▁받은	-8.31776
바	-8.31885
안	-8.31994
▁보고서	-8.32018
파	-8.32032
려	-8.32069
▁못했다	-8.32335
▁발생했다	-8.32407
제	-8.32433
▁하	-8.32906
▁상원의원	-8.33027
▁입장	-8.33069
▁주장	-8.33488
▁매케인	-8.33649
▁요구	-8.34036
▁사용	-8.34096
코	-8.34655
▁관리	-8.34723
▁상	-8.34789
합니다	-8.34824
▁의회	-8.34886
ed	-8.35143
되었다	-8.35236
린	-8.35467
되는	-8.35698
▁박사	-8.35852
▁개월	-8.35869
▁올림픽	-8.35875
▁많	-8.36086
▁오후	-8.36169
▁도	-8.36354
▁폭탄	-8.36575
▁시작	-8.36668
▁카	-8.37074
구	-8.37264
▁판매	-8.37344
▁북한이	-8.38229
▁전쟁	-8.38337
▁모습	-8.38394
▁발생	-8.3894
▁보	-8.38973
▁보도	-8.3907
권	-8.3918
▁된	-8.39277
▁언론	-8.40071
▁단체	-8.40329
▁인터뷰에서	-8.40359
▁남자	-8.40483
산	-8.405
▁자동차	-8.4075
러	-8.40805
▁준비	-8.41234
토	-8.41545
오	-8.41782
▁컴퓨터	-8.41939
관	-8.41973
▁앞으로	-8.42258
▁이러	-8.42263
▁있어	-8.42312
▁기술	-8.42704
▁곳	-8.42735
▁나는	-8.4276
▁않	-8.42805
▁것에	-8.43093
▁생각	-8.432
▁터키	-8.43233
▁갖고	-8.43411
되지	-8.43428
▁현지	-8.437
▁차량	-8.4388
▁공화당	-8.43888
카	-8.43896
▁마지막	-8.44022
▁미얀마	-8.4421
▁강조했다	-8.44316
▁ap	-8.44613
▁배	-8.44644
▁병원	-8.44701
되고	-8.44819
▁변화	-8.44922
▁경찰이	-8.45068
▁무	-8.45192
▁합의	-8.45429
▁개발	-8.45451
▁인쇄	-8.45673
▁물	-8.4576
▁떨어진	-8.45781
▁가진	-8.45945
▁앞서	-8.46547
▁교수	-8.46565
▁석방	-8.46629
▁반대	-8.46646
▁우주	-8.46759
▁방송	-8.472
▁오전	-8.47417
▁힐러리	-8.47581
국	-8.47606
▁남부	-8.47623
▁폭발	-8.47651
▁사이	-8.47723
차	-8.4785
▁비난했다	-8.47929
▁주지사	-8.48021
▁지도자	-8.48133
▁정책	-8.48215
▁오는	-8.48295
하는데	-8.48303
내	-8.48441
▁미국과	-8.4847
이었다	-8.48476
▁독해	-8.48595
▁차례	-8.48666
▁평화	-8.48743
▁여	-8.48772
▁않았	-8.49192
▁규모	-8.49249
▁자신이	-8.493
▁버락	-8.49308
설명	-8.49477
었던	-8.49501
▁검찰	-8.49577
▁정	-8.49764
▁백악관	-8.50088
▁상태	-8.50377
▁피	-8.5072
▁증가	-8.50787
▁아시아	-8.50811
▁상황	-8.50979
▁다음	-8.51133
모	-8.51188
▁이어	-8.51344
는데	-8.51368
▁노력	-8.51621
▁미국이	-8.5167
▁해결	-8.52043
▁원문	-8.52075
▁지난달	-8.52101
▁의사	-8.52209
들에게	-8.52325
릴	-8.52507
▁없었다	-8.52594
물	-8.52818
▁도시	-8.52883
▁스페인	-8.53044
▁좋은	-8.53846
▁무샤라프	-8.54104
▁인근	-8.54259
▁지역에서	-8.54325
법	-8.54547
노	-8.54652
▁관한	-8.54794
▁볼	-8.54832
▁있지만	-8.54961
▁집	-8.55009
▁연방	-8.55016
▁이용	-8.55327
▁타	-8.55418
▁안전	-8.55467
▁이를	-8.55655
▁날	-8.55797
▁아무	-8.55949
▁마리	-8.5598
브	-8.5599
▁없이	-8.56276
▁전문가들	-8.56294
▁가지	-8.56441
▁파	-8.56442
▁와	-8.56511
▁보인다	-8.56649
al	-8.56711
▁투표	-8.56764
▁리	-8.56821
▁이런	-8.56876
▁영향	-8.56902
▁저	-8.5705
▁치료	-8.57131
단	-8.57213
▁까지	-8.57439
▁야당	-8.57662
▁여행	-8.57704
으로부터	-8.57904
▁이름	-8.57928
▁장	-8.57944
▁이탈리아	-8.58014
정	-8.58435
▁김	-8.58509
직	-8.58545
▁최소	-8.58807
▁보다	-8.5883
▁불	-8.5893
▁생산	-8.5935
▁않다	-8.59365
들의	-8.59395
▁모	-8.59462
▁금융	-8.59739
조	-8.59753
▁가족	-8.59916
▁사망자	-8.59922
▁불법	-8.59947
▁가능성	-8.60027
하기로	-8.60179
호	-8.60206
▁미국은	-8.60232
난	-8.60413
▁미사일	-8.60583
▁산	-8.60877
▁이전	-8.60997
▁행사	-8.61184
▁연기	-8.61382
▁밤	-8.61434
▁중요한	-8.61464
c	-8.61465
▁재	-8.61471
▁하나	-8.61559
▁위협	-8.6156
▁상승	-8.61617
온	-8.61637
▁공식	-8.61895
▁년에	-8.62064
▁역사	-8.62064
▁for	-8.62355
▁artic	-8.62465
▁당	-8.62503
▁검사	-8.62544
▁최초	-8.62558
▁신	-8.62618
▁만에	-8.62744
씨	-8.62884
▁논의	-8.62984
▁없	-8.63246
▁주둔	-8.63293
중	-8.6366
▁알카에다	-8.63783
▁매	-8.63958
데	-8.64071
▁알려졌다	-8.64184
▁양	-8.64329
▁사태	-8.64408
▁인	-8.64464
▁유	-8.64724
박	-8.64775
▁포인트	-8.64808
▁비행기	-8.6492
▁외	-8.65091
했었다	-8.6525
▁발언	-8.65414
▁대통령과	-8.65988
▁정치적	-8.66158
▁돈	-8.66244
하도록	-8.66342
▁팀	-8.66439
▁가격	-8.66547
▁씨	-8.66612
▁말했습니다	-8.6693
▁법원	-8.66995
▁용의자	-8.67021
▁이야기	-8.67073
터	-8.67157
▁필요	-8.67171
▁은행	-8.67243
▁방법	-8.67398
▁관심	-8.67441
▁반면	-8.67485
▁주민들	-8.6753
피	-8.6792
▁것입니다	-8.67941
▁부토	-8.68291
▁사망한	-8.6831
점	-8.68672
신	-8.68945
루	-8.69038
▁코리아	-8.6916
▁무기	-8.69252
u	-8.69438
▁자신들	-8.69441
▁대해서	-8.6953
▁런던	-8.69652
▁자금	-8.69658
▁불구하	-8.69679
▁조직	-8.69938
▁정치	-8.69943
▁서비스	-8.69951
▁일간	-8.69966
▁위험	-8.69985
▁전에	-8.70022
▁회장	-8.70092
▁살해	-8.70248
▁학교	-8.70585
포	-8.70672
▁반군	-8.707
▁자신	-8.70722
▁최대	-8.70789
체	-8.71064
측	-8.71205
▁골	-8.71287
▁인질	-8.715
▁e	-8.71635
계	-8.71721
들과	-8.71896
발	-8.7205
▁관계자들	-8.7206
더	-8.72136
▁한나라당	-8.72207
▁열	-8.72226
▁것이라는	-8.72348
▁출신	-8.72463
▁높은	-8.72518
력	-8.72545
▁인용	-8.72681
▁뉴스	-8.72866
▁벌이	-8.73015
▁공	-8.73018
▁지난주	-8.73055
▁북부	-8.73162
▁언급	-8.73329
▁바그다드	-8.7342
▁의하면	-8.73534
▁올	-8.73578
▁군사	-8.73697
▁공급	-8.73837
▁역할	-8.73897
▁가능성이	-8.74046
▁강력	-8.74113
▁발	-8.74167
해서	-8.74283
사전	-8.7437
▁자살	-8.74412
▁천	-8.74457
▁수사	-8.74521
▁게임	-8.74608
방	-8.74626
▁선	-8.7489
▁소식	-8.74913
▁만명	-8.74958
▁중단	-8.75021
▁더욱	-8.75042
임	-8.75042
▁뜻	-8.75053
▁심	-8.75092
▁건물	-8.75137
▁소	-8.75138
츠	-8.75413
▁으로	-8.75525
▁왔다	-8.75579
됐다고	-8.75639
▁지역에	-8.75827
▁못	-8.75867
▁알고	-8.75874
위	-8.75929
▁특	-8.76069
▁선수	-8.76248
▁공동	-8.7632
▁것이며	-8.76531
▁n	-8.76545
▁국경	-8.7663
▁우승	-8.76938
▁아버지	-8.76978
▁지구	-8.76987
▁호	-8.77248
▁서울	-8.77268
시킬	-8.77343
요	-8.77584
▁고위	-8.77654
▁거래	-8.78296
▁적	-8.78361
▁운동	-8.78363
▁아니다	-8.78491
▁필요한	-8.78596
▁어제	-8.78646
군	-8.78928
▁핵무기	-8.78941
o	-8.79119
▁앞	-8.79133
▁이와	-8.79154
▁나라	-8.7927
▁되는	-8.79319
▁병력	-8.79323
▁기업	-8.79604
여	-8.79642
▁코	-8.79658
▁korea	-8.79757
▁법안	-8.79943
t	-8.79962
▁하루	-8.80007
이자	-8.80042
▁부족	-8.80057
동	-8.80146
형	-8.80168
▁시작했다	-8.80268
▁사르코지	-8.80276
▁감소	-8.80308
▁아이들	-8.80321
▁금지	-8.80332
▁확인	-8.80371
키	-8.80531
▁포	-8.80558
▁com	-8.80596
▁법	-8.80718
▁위기	-8.80849
▁하마스	-8.80901
▁어	-8.80912
▁티베트	-8.80951
▁라이스	-8.80985
▁행위	-8.8101
▁결국	-8.81299
▁요청	-8.81366
▁않는	-8.81392
▁충돌	-8.81403
▁투자	-8.81472
▁아들	-8.8162
▁독립	-8.81621
▁만달러	-8.81644
▁스	-8.81654
▁시위대	-8.8169
▁폭탄테러	-8.81692
▁보호	-8.81966
▁아침	-8.81977
▁전화	-8.81988
▁이제	-8.8211
▁관련된	-8.82246
▁각	-8.82303
er	-8.82357
위원회	-8.82438
▁그것	-8.82492
▁기자회견에서	-8.82559
회	-8.82573
하겠다고	-8.82631
든	-8.82633
▁콜롬비아	-8.82657
▁동영상	-8.82851
▁국방부	-8.83087
▁공항	-8.83105
▁행동	-8.83118
▁아니라	-8.83195
▁직접	-8.83246
▁건강	-8.83365
▁보였다	-8.83516
▁표	-8.83643
문	-8.83809
자들	-8.83825
▁이같	-8.83955
▁브라운	-8.84054
이라는	-8.84145
▁남성	-8.84205
▁노무현	-8.84393
▁캘리포니아	-8.84418
런	-8.84429
▁워싱턴	-8.84508
▁여부	-8.84555
▁사람이	-8.84646
▁위해서	-8.84729
▁부인	-8.8475
▁and	-8.84761
▁la	-8.84791
시켰다	-8.84807
▁레	-8.8491
▁억원	-8.85189
▁타고	-8.85283
▁받을	-8.85646
하면	-8.85748
실	-8.85895
▁있고	-8.85932
▁비행	-8.86084
▁eu	-8.86202
▁서	-8.86298
된다	-8.86854
▁자유	-8.87014
▁주택	-8.87066
▁건설	-8.87208
날	-8.87231
▁발견	-8.87368
▁보안	-8.87375
유	-8.87445
▁역시	-8.87622
친	-8.87662
▁대화	-8.8774
n	-8.87807
감	-8.87997
란	-8.88101
종	-8.88166
▁특별	-8.88189
▁어떻게	-8.88322
▁회의	-8.88907
▁이유	-8.88979
▁년까지	-8.89084
▁열리는	-8.89153
▁음악	-8.89187
▁시신	-8.89251
▁받았	-8.89389
▁이유로	-8.89616
▁빌	-8.8977
▁베이징	-8.89795
▁기간	-8.89904
▁p	-8.89907
▁협력	-8.8995
한다고	-8.90084
▁곧	-8.90212
▁폴	-8.90258
▁연설	-8.90292
▁문제에	-8.90413
▁판결	-8.90456
▁폐쇄	-8.90575
▁철수	-8.9059
▁년대	-8.90695
다고	-8.90752
▁문	-8.90801
▁사건에	-8.90857
▁국무부	-8.9091
▁손	-8.90915
하자	-8.91151
▁숨졌다	-8.91516
▁에너지	-8.91729
▁석유	-8.91975
▁데이비드	-8.92034
급	-8.92049
b	-8.92059
▁한국인	-8.92179
울	-8.92229
긴	-8.9246
▁박	-8.92484
▁아프가니스탄	-8.92489
▁신문	-8.92796
▁월에	-8.93039
▁드	-8.93185
네	-8.93293
공	-8.9343
▁기회	-8.93601
▁호텔	-8.93676
▁체포	-8.93685
▁있게	-8.93796
▁진행	-8.93912
▁대선후보	-8.93945
▁말하는	-8.94166
▁대사	-8.94211
▁변호사	-8.94248
▁과학자들	-8.94448
▁종	-8.94547
하던	-8.94637
▁공개	-8.94647
혀	-8.9469
▁같다	-8.94788
▁도로	-8.94887
▁증거	-8.94896
하려	-8.94951
▁범죄	-8.94982
▁현	-8.95028
설	-8.95029
져	-8.95036
▁남	-8.95116
▁수술	-8.95151
▁승인	-8.95157
▁있기	-8.95215
▁생활	-8.95274
▁내년	-8.95275
그	-8.95319
▁우	-8.95443
버	-8.95485
▁양국	-8.9552
▁구조	-8.95535
▁상원	-8.95639
▁전망	-8.95834
속	-8.9584
▁사회	-8.95875
▁전세계	-8.95884
▁발견했다	-8.95957
▁발사	-8.96007
▁아니	-8.96047
▁주변	-8.961
▁너무	-8.96141
▁교육	-8.96148
▁눈	-8.96266
▁납치	-8.96267
▁대규모	-8.96291
▁통신	-8.96315
▁입	-8.96367
▁요구했다	-8.96379
▁수준	-8.96608
▁생각한다	-8.96797
▁길	-8.96881
▁훈련	-8.96988
▁타임즈	-8.97887
▁인구	-8.9797
▁온	-8.98035
경	-8.98101
▁비디오	-8.98277
▁어린이	-8.98304
▁개인	-8.98339
▁의견	-8.98409
▁동물	-8.98413
반	-8.98442
▁저장	-8.98456
▁만원	-8.98488
▁co	-8.98568
▁재개	-8.98609
▁성공	-8.9873
▁재판	-8.98809
하려는	-8.98839
▁실	-8.98946
▁화재	-8.99022
▁경고	-8.99107
▁위원회	-8.99126
▁나타났다	-8.99128
▁결혼	-8.99134
▁정상	-8.99188
▁했다고	-8.99298
▁이동	-8.99305
병	-8.99375
▁전투	-8.99387
▁힘	-8.99476
▁약어표	-8.99488
▁앞두고	-8.9949
▁목표	-8.99497
심	-8.99685
▁대사관	-8.99701
▁포함한	-8.99746
▁예정이라	-8.99849
▁비롯	-8.999
▁하락	-9.00053
▁통	-9.00255
▁성장	-9.00504
▁심각한	-9.00521
▁d	-9.00553
재	-9.00636
▁레바논	-9.00671
▁로버트	-9.00727
▁딸	-9.00787
▁관할	-9.0086
▁민간인	-9.00911
▁사진	-9.00935
▁전체	-9.00962
▁억달러	-9.01138
▁사업	-9.01225
지는	-9.01234
▁인간	-9.01237
▁난	-9.01297
▁방	-9.01341
▁아닌	-9.01552
▁g	-9.01627
▁것이라	-9.01632
▁태국	-9.01766
▁안에	-9.01877
영	-9.01923
▁판사	-9.01956
▁여전	-9.02014
▁해외	-9.02177
으로써	-9.02394
▁출전	-9.02484
▁경선	-9.02497
▁방안	-9.02618
▁못하	-9.02666
▁여객기	-9.03285
▁멕시코	-9.0329
▁경기에서	-9.03438
a	-9.03719
st	-9.03938
스트	-9.03977
▁제안	-9.04136
▁임무	-9.04203
m	-9.04314
▁국민	-9.04355
▁인도네시아	-9.04447
▁대신	-9.04476
량	-9.0448
▁들	-9.04496
학	-9.04508
▁수치	-9.04545
▁작전	-9.04684
▁명과	-9.04687
민	-9.0472
▁친	-9.04733
▁촉구했다	-9.04744
▁수입	-9.04772
▁건	-9.05019
▁애	-9.05032
▁작은	-9.0506
되었	-9.05183
▁f	-9.05231
▁스타	-9.05282
▁네	-9.05294
▁퍼센트	-9.0536
▁밝혀졌다	-9.05386
슨	-9.05515
▁가지고	-9.05549
▁항	-9.05617
청	-9.05684
▁시도	-9.05704
▁그들의	-9.05926
▁예	-9.06002
▁입은	-9.0611
하라	-9.06145
▁친구	-9.06158
로서	-9.06158
▁인정	-9.0617
▁마이클	-9.06228
▁헬기	-9.06276
▁이상이	-9.06329
▁푸틴	-9.06665
▁최종	-9.06671
연	-9.06721
▁지도자들	-9.06727
▁규정	-9.06744
▁열차	-9.06803
▁마을	-9.06817
▁대회	-9.06844
▁국민들	-9.06957
▁온라인	-9.06995
r	-9.07052
판	-9.07084
▁제재	-9.07142
▁경쟁	-9.07329
▁안보	-9.07332
▁선택	-9.07346
역	-9.07366
▁입었다	-9.07575
▁아기	-9.07626
▁예상	-9.07719
▁바로	-9.07787
▁us	-9.07957
▁폭력	-9.07985
▁c	-9.08017
▁시설	-9.08097
▁b	-9.08192
▁막	-9.08277
▁un	-9.08321
▁당신	-9.08438
▁받아	-9.08524
▁이라크에서	-9.08551
▁돌	-9.08719
▁증시	-9.08894
▁환경	-9.09276
▁낮	-9.09532
▁행정부	-9.0955
▁말한다	-9.0968
▁얼마	-9.09721
▁인권	-9.09738
▁메시지	-9.09792
▁부대	-9.09804
행	-9.09837
▁라디오	-9.09874
▁연합	-9.09916
▁본	-9.10036
▁살고	-9.10086
▁그들이	-9.10221
▁무장	-9.10285
▁배우	-9.10409
▁밝힌	-9.10682
▁이것	-9.1078
▁측	-9.10786
▁대의원	-9.10819
▁여자	-9.109
▁아프리카	-9.10922
▁경고했다	-9.11079
▁대만	-9.11105
▁중인	-9.11106
▁필요하다	-9.11205
▁만약	-9.11217
▁관리들	-9.11234
▁그런	-9.11429
▁보내	-9.1144
▁개선	-9.11458
론	-9.11467
교	-9.11579
▁속	-9.11582
▁팔	-9.11612
▁도움	-9.11745
▁치	-9.11804
▁힐	-9.11902
▁서로	-9.12012
▁외국	-9.12027
▁미국인	-9.12161
▁운영	-9.12349
▁남편	-9.12352
▁출연	-9.12366
▁즉	-9.12422
▁경	-9.12613
▁화요일	-9.12636
▁책임	-9.12666
▁발표한	-9.12776
후	-9.12988
▁비해	-9.13001
▁계약	-9.13036
▁항공	-9.13069
▁의장	-9.13163
▁시스템	-9.13177
▁지수	-9.13423
너	-9.13425
▁외국인	-9.1345
▁산업	-9.13606
▁밝혔	-9.13653
▁벌였다	-9.13654
▁주식	-9.13721
▁담	-9.1384
▁관계자가	-9.13989
▁세금	-9.14
복	-9.14007
▁홍콩	-9.14033
▁원인	-9.14567
▁가치	-9.14623
▁광고	-9.1471
▁지방	-9.14752
▁알리	-9.14789
▁스미스	-9.14869
▁없을	-9.14911
▁소송	-9.14984
▁시즌	-9.1514
▁약속	-9.15156
▁여명	-9.15304
▁짐바브웨	-9.15345
▁과거	-9.15414
졌다	-9.15443
▁on	-9.15539
있는	-9.15583
▁얻	-9.15624
▁부부	-9.15671
금	-9.15678
건	-9.15742
▁미국에서	-9.15774
▁같이	-9.15801
▁기록했다	-9.15881
▁중동	-9.15944
▁공연	-9.15988
강	-9.16255
▁상당	-9.16259
▁사무총장	-9.16305
워	-9.16357
▁브라질	-9.16494
▁내렸다	-9.16496
었다고	-9.16562
▁시아파	-9.16788
▁연료	-9.1684
▁걸	-9.16908
▁거리	-9.16945
▁빈	-9.17028
▁베	-9.17079
p	-9.17099
▁밖에	-9.17208
▁만나	-9.17477
▁사임	-9.17836
i	-9.18032
▁유지	-9.18072
▁총선	-9.18076
▁일본의	-9.18116
▁일정	-9.18155
▁각각	-9.18261
de	-9.1829
▁권리	-9.18306
▁평균	-9.18366
엔	-9.18377
▁앤	-9.18508
▁년부터	-9.18664
▁부통령	-9.18692
▁제작	-9.18741
▁정권	-9.18783
▁해군	-9.18949
▁감시	-9.18962
▁작품	-9.18981
출	-9.18994
▁웹사이트	-9.19007
▁비용	-9.19079
팀	-9.19215
▁기대	-9.19217
▁파업	-9.19259
▁수단	-9.19502
▁확보	-9.19514
▁합의했다	-9.19675
▁가스	-9.19742
▁이수지	-9.19743
▁시험	-9.19743
▁나오	-9.19766
▁않아	-9.19767
▁국내	-9.19982
▁다양	-9.20084
▁개최	-9.20329
무	-9.20451
▁텍사스	-9.20482
▁처리	-9.20493
▁사이에	-9.20587
▁환자	-9.20588
▁구성	-9.20818
▁소식통	-9.20835
▁놓	-9.20859
▁하기	-9.20961
▁위원장	-9.21016
▁사건이	-9.21067
▁주말	-9.21173
▁암	-9.21293
▁케냐	-9.21298
▁과정에서	-9.21335
▁국영	-9.21337
▁대가	-9.21383
래	-9.21568
▁회	-9.21604
▁내무부	-9.21751
▁학생	-9.21757
▁여름	-9.21761
▁걸쳐	-9.21766
▁발견됐다	-9.21785
증	-9.21807
▁반응	-9.21838
▁인상	-9.21961
▁담당	-9.22095
▁상황이	-9.22126
했을	-9.22188
▁키	-9.22202
▁h	-9.22331
▁메	-9.22423
▁완전	-9.22714
작	-9.22885
▁것과	-9.22976
▁결정했다	-9.23131
시켜	-9.23151
석	-9.23275
▁be	-9.23412
▁강제	-9.23507
▁선고	-9.23684
▁동부	-9.23704
▁몸	-9.23755
▁갈	-9.23809
▁그룹	-9.23823
▁유일	-9.23901
k	-9.23938
▁주민	-9.2396
▁이곳	-9.23969
▁동	-9.2403
▁부상했다	-9.24057
▁벌	-9.24064
앞서	-9.24077
통	-9.24144
품	-9.24337
▁대상으로	-9.24539
▁단	-9.24724
▁온몸	-9.24852
▁후세인	-9.24854
▁주재	-9.24885
▁되었다	-9.24938
▁디	-9.25129
es	-9.25155
▁캐나다	-9.25158
▁촬영	-9.25654
음	-9.25834
▁바이러스	-9.25909
▁바란다	-9.25915
▁어머니	-9.26054
▁페	-9.26359
▁베네수엘라	-9.2644
▁익명	-9.2644
▁야후	-9.2645
▁알려진	-9.26458
▁맞	-9.26893
▁해안	-9.26895
▁서부	-9.26911
▁곳에서	-9.2698
▁발견된	-9.27033
▁k	-9.2704
▁제공	-9.27074
었습니다	-9.27339
▁루	-9.27435
▁상대로	-9.27437
▁기상캐스터	-9.27512
해왔다	-9.27621
줄	-9.27645
▁누	-9.27752
저	-9.27854
▁마치	-9.28025
▁파병	-9.2805
▁차베스	-9.28059
▁로마	-9.28085
▁통제	-9.28172
▁다리	-9.28217
▁집단	-9.28277
두	-9.283
▁남한	-9.28323
▁일까지	-9.28367
▁인기	-9.28409
기도	-9.2847
약	-9.28487
▁여론조사	-9.2851
▁북핵	-9.28583
▁이래	-9.28637
▁민주주의	-9.28667
▁희망	-9.28694
▁플로리다	-9.28774
▁경찰에	-9.2884
▁지명	-9.28861
▁왕자	-9.28887
▁대변인이	-9.28897
▁요청했다	-9.28957
▁패	-9.29132
▁추	-9.29218
▁받는	-9.29278
▁통과	-9.29383
▁항공사	-9.2942
기구	-9.29485
▁책	-9.29573
▁논쟁	-9.29684
▁유권자들	-9.29687
▁진압	-9.29689
▁크게	-9.29783
▁소녀	-9.29846
▁자료	-9.29848
▁회복	-9.29888
▁사망하	-9.30023
▁받지	-9.30078
하였다	-9.30113
▁되고	-9.30258
▁밝혔습니다	-9.30282
h	-9.30307
▁예상된다	-9.30313
▁제품	-9.30363
▁하원	-9.30395
▁총격	-9.30435
▁사과	-9.30493
▁때까지	-9.30555
▁위성	-9.30661
▁무장세력	-9.30698
▁접근	-9.30717
▁버스	-9.30789
▁사는	-9.30881
▁편	-9.30918
▁변호사는	-9.30966
류	-9.3119
▁연	-9.31375
▁별	-9.31461
▁수출	-9.31587
▁있지	-9.31701
케	-9.31792
f	-9.3184
▁발전	-9.31884
▁인터뷰	-9.31894
▁탑승	-9.31918
▁쿠바	-9.31959
중인	-9.31975
한다는	-9.3208
▁강한	-9.32158
▁사퇴	-9.32169
▁밝히	-9.32301
▁거대	-9.32351
많은	-9.32364
록	-9.32403
▁적이	-9.32423
▁최악	-9.32487
▁무장단체	-9.32504
▁나온	-9.32545
▁수상	-9.32597
▁백	-9.32778
▁마크	-9.32796
▁전국	-9.32879
▁암살	-9.32907
색	-9.32971
▁토	-9.3302
▁따른	-9.33059
▁의료	-9.33097
▁실험	-9.3314
▁국회	-9.3315
▁u	-9.33214
▁머리	-9.33358
갈	-9.33372
▁일부터	-9.33404
▁도움이	-9.33477
▁아니라고	-9.33478
▁제한	-9.33478
▁음식	-9.33512
▁세력	-9.3356
▁평가	-9.33575
▁되어	-9.33618
힌	-9.33623
▁사실이	-9.33764
하겠다	-9.33824
되기	-9.33875
▁수색	-9.33948
▁성폭행	-9.34194
▁받게	-9.34289
▁커	-9.34309
▁임기	-9.34347
▁직원	-9.34386
▁의미	-9.345
▁주간	-9.34578
▁상원의원이	-9.34775
▁필리핀	-9.34778
▁한다는	-9.3482
처	-9.34886
▁질문	-9.34993
▁차이	-9.35044
▁적어	-9.35078
▁명령	-9.35139
았다	-9.35317
▁nasa	-9.3536
▁매년	-9.35372
테	-9.35407
▁거부	-9.35423
▁파리	-9.35691
▁월요일	-9.35713
▁동료	-9.35761
층	-9.3582
기로	-9.35959
▁시간이	-9.35972
▁압력	-9.36004
▁있음	-9.36015
▁달리	-9.36056
▁정부와	-9.36131
▁확인했다	-9.36135
▁기사	-9.36145
▁중국은	-9.36254
▁주도	-9.36269
▁선수들	-9.36303
▁이집트	-9.36314
▁북한에	-9.36353
▁못한	-9.36353
▁가능한	-9.36389
▁학생들	-9.36411
▁가자지구	-9.36412
▁사우디	-9.36536
▁들어	-9.36558
등	-9.36582
▁비밀	-9.36606
▁무역	-9.36646
▁시리아	-9.36783
▁가졌다	-9.36843
대로	-9.36856
▁과	-9.36862
▁불만	-9.36919
▁감염	-9.36973
▁칸	-9.36988
▁항공기	-9.37014
▁파괴	-9.37019
료	-9.37087
▁두고	-9.37118
▁어느	-9.37128
▁고통	-9.37136
▁언급했다	-9.37203
▁자세	-9.37244
▁나왔다	-9.37304
▁인수	-9.37329
▁인질들	-9.37369
본	-9.37387
▁공격으로	-9.37572
▁기소	-9.37628
분	-9.37706
▁뇌	-9.37757
▁중에	-9.37889
▁개혁	-9.37924
▁밝히지	-9.37994
지역	-9.38021
▁찾아	-9.38192
탄	-9.38223
▁여론	-9.38312
▁후에	-9.38493
▁외교	-9.385
▁국가들	-9.38517
▁보냈다	-9.38522
업체	-9.38627
▁사람들을	-9.38739
▁명으로	-9.3883
동안	-9.38856
▁나머지	-9.3892
▁이끄는	-9.38922
▁영어	-9.3901
생	-9.39125
▁사랑	-9.39195
다면	-9.39336
▁인물	-9.39464
▁구체적	-9.39532
▁t	-9.39546
▁권력	-9.39552
▁사형	-9.39589
▁향해	-9.39626
▁긴장	-9.3965
▁부상자	-9.39736
▁사람들에게	-9.3976
▁병	-9.39768
▁개국	-9.39775
▁살인	-9.39892
른	-9.40049
▁지진	-9.40055
▁관해	-9.40088
▁신고	-9.40108
▁식량	-9.40128
▁병사	-9.40155
▁전시	-9.40289
▁올랐다	-9.4035
▁아내	-9.40444
▁군대	-9.40571
▁안정	-9.40583
튼	-9.40702
▁희생자	-9.4072
▁공습	-9.40746
▁제임스	-9.40748
▁장면	-9.4077
▁지나	-9.40776
▁일자리	-9.40886
개	-9.40977
▁국무장관	-9.40999
인한	-9.41055
▁업체	-9.41154
▁붕괴	-9.41298
▁싶다	-9.41367
▁잘못	-9.41369
▁소재	-9.41392
시키는	-9.41483
▁허가	-9.41603
▁의원들	-9.41732
▁센터	-9.41989
▁참석	-9.41997
▁다음달	-9.42001
▁흑인	-9.42022
▁막기	-9.42172
▁미군이	-9.42188
▁되지	-9.42214
▁위반	-9.42271
▁사령관	-9.42289
▁만큼	-9.42346
▁질	-9.42472
▁전기	-9.42516
▁강화	-9.42527
업	-9.4254
커	-9.42594
▁목숨	-9.42613
▁자회담	-9.42635
양	-9.42992
▁기관	-9.43015
▁해야	-9.43133
쉬	-9.43192
▁예측	-9.43204
▁오른	-9.4326
▁팬들	-9.43281
▁숨지고	-9.43364
▁주장하고	-9.43374
센터	-9.43388
▁설치	-9.4344
▁맥	-9.43443
▁부모	-9.43578
베	-9.43769
근	-9.43842
▁허리케인	-9.43875
▁국방장관	-9.43878
으로서	-9.43888
▁자체	-9.43912
▁수천명	-9.43917
▁나이	-9.43918
▁질문에	-9.44047
▁고용	-9.44077
▁만들어	-9.44094
▁죽음	-9.44374
▁위로	-9.44388
▁제기	-9.44413
▁소말리아	-9.44512
▁어떠한	-9.44512
▁소리	-9.44556
▁복귀	-9.44586
▁임시	-9.44586
▁비판	-9.44705
▁쇼	-9.44936
▁잡	-9.44979
▁왜	-9.45181
▁마음	-9.45188
▁달러에	-9.45272
▁일반	-9.45274
▁기지	-9.45383
▁마련	-9.45425
▁끝에	-9.45492
▁파견	-9.45584
쳐	-9.45617
▁시기	-9.45685
▁헌법	-9.45784
▁삶	-9.45798
▁확대	-9.45798
▁마약	-9.45826
▁물론	-9.45829
▁게	-9.45896
▁야	-9.45901
▁계획이	-9.45997
▁자리	-9.46009
▁곳에	-9.46148
▁당선인	-9.46224
망	-9.46228
▁따라	-9.46336
하기도	-9.46361
▁j	-9.4638
▁시카고	-9.46386
▁유로	-9.46386
▁선출	-9.46437
▁외무부	-9.46473
▁사장	-9.46501
▁중앙	-9.46528
▁수요일	-9.46551
▁문화	-9.4657
▁사원	-9.46578
▁작업을	-9.46591
▁갖	-9.46615
▁석	-9.46641
▁여성이	-9.4672
▁되	-9.46776
▁섬	-9.46803
▁넘는	-9.4683
g	-9.4687
▁실시	-9.46903
▁설명	-9.46915
▁직원들	-9.47003
▁정부에	-9.47008
락	-9.47099
▁시민	-9.47125
▁칼	-9.47129
▁뿐	-9.47275
l	-9.47369
en	-9.47487
▁움직임	-9.47541
거리	-9.47778
▁접촉	-9.47839
▁입고	-9.4795
▁해리	-9.48242
▁유명한	-9.48304
들에	-9.48305
▁베컴	-9.48423
▁경제적	-9.48431
▁찰스	-9.48439
▁이라크에	-9.48452
▁이란이	-9.48479
▁금	-9.48501
▁양측	-9.48548
v	-9.48658
되	-9.4868
▁추진	-9.48755
▁목적	-9.48784
▁참가	-9.48795
▁도착	-9.48798
▁이달	-9.48807
▁선언	-9.48809
회사	-9.48912
▁종교	-9.48965
▁북	-9.48982
▁fbi	-9.4909
▁혼란	-9.49167
▁내려	-9.49219
▁교전	-9.49244
▁심장	-9.49282
▁제조	-9.49293
▁존스	-9.49349
▁발생해	-9.49394
리자	-9.49664
ar	-9.49685
▁출마	-9.49777
▁추락	-9.49815
▁아베	-9.49834
▁전력	-9.49891
▁대중	-9.5006
▁수익	-9.50069
▁사상	-9.50084
▁아주	-9.50215
▁사진을	-9.50248
▁전문가	-9.50292
▁교통	-9.50305
메	-9.50389
▁관련해	-9.50421
▁구매	-9.50434
▁좀	-9.50435
▁긴급	-9.50437
▁미래	-9.50452
▁넘	-9.50453
▁나가	-9.50491
▁일요일	-9.50578
▁자녀	-9.50604
▁샤	-9.50806
▁korean	-9.50806
▁사항	-9.50833
단체	-9.50834
ion	-9.50852
▁상대	-9.50901
▁귀	-9.51004
▁피해자	-9.51054
마다	-9.51152
▁지도자인	-9.51158
림	-9.51225
▁진	-9.5125
▁진출	-9.51253
퍼	-9.51267
▁병원에	-9.51308
▁부분	-9.51326
▁잠	-9.51502
▁자국	-9.51513
▁최고의	-9.51562
▁비슷	-9.51592
▁신원	-9.51692
▁시상식	-9.518
▁국제사회	-9.51811
▁경험	-9.51956
▁결의안	-9.52101
인들	-9.52155
▁누구	-9.52186
▁검토	-9.52346
▁고문	-9.5242
▁착륙	-9.52464
▁유권자	-9.52487
▁선두	-9.52507
▁총재	-9.52537
▁충격	-9.52598
▁여명이	-9.52626
▁주민들이	-9.52639
주의	-9.52698
▁집중	-9.52745
▁주가	-9.5287
▁거주하	-9.5287
▁교회	-9.52964
이었	-9.52985
▁감	-9.5316
▁현장	-9.53163
▁게이츠	-9.53187
▁로켓	-9.53193
▁절차	-9.53197
▁작년	-9.53203
▁정당	-9.53271
▁공군	-9.53314
▁것인지	-9.5334
▁승객	-9.53488
▁가질	-9.535
▁일이	-9.53699
만이	-9.53795
▁그리스	-9.53841
▁젊은	-9.53852
시키고	-9.53897
▁선거에서	-9.53956
▁체포됐다	-9.53956
▁카운티	-9.5397
tal	-9.53996
▁유명	-9.54156
▁폭력사태	-9.54191
▁엘	-9.54243
▁순간	-9.54287
▁인사	-9.54373
장을	-9.54484
▁이전에	-9.54505
각	-9.54512
▁항의	-9.5452
▁목표로	-9.54561
▁빨	-9.54654
▁월부터	-9.54727
▁받	-9.54747
▁목요일	-9.54773
▁정상회담	-9.54774
▁쿠	-9.5478
▁위치	-9.54794
▁is	-9.54821
▁해제	-9.54846
▁여사	-9.54884
▁구속	-9.55026
▁노조	-9.55078
▁관광	-9.55101
▁위에	-9.55118
▁보기	-9.55123
▁반대하는	-9.55154
▁선정	-9.55302
▁숨진	-9.5533
▁정말	-9.55456
▁방문한	-9.55492
▁크	-9.55548
▁id	-9.5577
▁수석	-9.55782
▁배치	-9.55884
▁군인	-9.55995
▁연속	-9.56028
▁표현	-9.56069
▁시행	-9.56168
▁대응	-9.56182
▁판	-9.563
▁단지	-9.56627
▁퍼	-9.56693
▁코소보	-9.5673
▁모델	-9.56738
▁동결	-9.56739
▁총기	-9.56752
▁남북	-9.56767
▁이라크전	-9.56782
▁가까	-9.56937
▁보여주	-9.5694
▁전략	-9.56951
있다	-9.57008
▁연장	-9.57102
▁임명	-9.57119
▁추정	-9.57152
▁실패	-9.57215
▁나타나	-9.57455
▁스위스	-9.57484
협회	-9.5768
▁여성들	-9.5772
▁올라	-9.57801
▁패배	-9.57804
투	-9.57838
▁변	-9.57907
▁가량	-9.57958
▁약간	-9.5803
or	-9.5804
▁국립	-9.58169
▁잉글랜드	-9.58185
▁몇몇	-9.58185
▁신화통신	-9.58187
렸다	-9.58269
▁지지자들	-9.58311
▁매일	-9.58316
▁전달	-9.58342
▁있는지	-9.58395
▁들고	-9.58454
아니라	-9.58571
정부	-9.58579
▁불리	-9.58714
▁보이는	-9.58728
▁당했다	-9.58816
렌	-9.58874
▁사이트	-9.58889
▁판단	-9.58944
▁차기	-9.58986
▁도중	-9.59042
▁피트	-9.59112
▁마일	-9.5915
▁도전	-9.59174
▁회담에서	-9.59217
액	-9.59256
▁윌리엄	-9.59515
▁작업	-9.59531
▁버지니아	-9.59552
▁조건	-9.59566
▁걱정	-9.59568
▁bbc	-9.59664
▁고양이	-9.59669
▁감사	-9.597
▁유죄	-9.59702
▁밝혀지지	-9.59702
▁카메라	-9.59746
▁대형	-9.59794
▁연합군	-9.59837
되었습니다	-9.59912
장관	-9.59944
▁압박	-9.5995
센	-9.60048
▁약물	-9.6007
▁결	-9.60105
▁작성	-9.60137
남	-9.60155
했는데	-9.60185
배	-9.60289
▁re	-9.60318
▁다이애나	-9.60368
on	-9.60374
▁도쿄	-9.60401
▁블레어	-9.60407
▁스포츠	-9.60484
▁나토	-9.60495
었	-9.60497
▁소비자	-9.60498
▁연구소	-9.60508
▁급	-9.6065
▁자주	-9.6066
▁체포했다	-9.6071
▁휴대폰	-9.6071
쿠	-9.60823
▁영	-9.60824
▁여당	-9.60825
▁세기	-9.60872
▁허용	-9.6102
an	-9.61052
▁어려움	-9.61112
▁효과	-9.61141
▁올메르트	-9.61159
▁스스로	-9.61161
▁전까지	-9.612
▁노래	-9.61201
▁주의	-9.61205
자인	-9.61213
로써	-9.6129
▁됐	-9.61358
▁군부	-9.61374
▁탄	-9.61387
▁관광객	-9.61465
ly	-9.61466
▁오래	-9.61776
턴	-9.61783
▁연설에서	-9.61784
시키기	-9.61888
▁분기	-9.61903
▁오랫동안	-9.61917
▁탁신	-9.61917
▁할리우드	-9.61917
▁핵심	-9.61982
▁노동	-9.62005
▁만든	-9.62044
▁실수	-9.62055
집	-9.62166
▁한반도	-9.62284
▁취소	-9.62287
초	-9.62324
지도	-9.62449
▁병원에서	-9.62452
▁영국의	-9.62458
▁아마	-9.62555
▁가능	-9.62563
▁대비	-9.62675
▁빠른	-9.62681
▁비상사태	-9.62683
▁확실히	-9.62746
▁공장	-9.62779
▁분석	-9.62811
▁옷	-9.62816
▁장기	-9.62828
▁외무장관	-9.63024
▁이와같	-9.63105
▁참여	-9.63117
▁주에서	-9.63171
리아	-9.63242
▁내부	-9.63244
▁전통	-9.63364
▁집회	-9.63422
▁겪고	-9.63449
▁그렇게	-9.63449
▁직후	-9.63458
▁높이	-9.63645
▁극	-9.63716
▁성적	-9.63727
▁뉴	-9.63756
▁굴	-9.63845
하다고	-9.63859
▁문서	-9.63946
▁운행	-9.64002
▁new	-9.6412
▁사기	-9.64137
▁홍보	-9.64208
▁담배	-9.64236
▁마무리	-9.6426
▁테	-9.64267
▁개봉	-9.64268
▁수백명	-9.6428
▁구호	-9.6428
▁동시	-9.64325
▁실제	-9.64493
회의	-9.64612
▁프로젝트	-9.64613
▁유세	-9.64675
스러운	-9.64677
▁글	-9.64877
tp	-9.64965
▁기억	-9.64972
▁없어	-9.64982
▁크리스토퍼	-9.65006
▁감축	-9.65011
▁산불	-9.65019
▁하며	-9.65022
▁오랜	-9.65025
▁조작	-9.65056
▁맞아	-9.65199
자들이	-9.65208
▁투입	-9.65213
▁대법원	-9.65259
▁대책	-9.65429
링	-9.65437
▁이밖에	-9.65793
▁처벌	-9.65796
▁샤리프	-9.65797
▁원자로	-9.65817
▁단계	-9.6584
▁조금	-9.65848
절	-9.65855
▁제출	-9.65881
▁분쟁	-9.65895
▁의심	-9.65943
름	-9.65954
▁알게	-9.66003
▁능력	-9.66027
▁사무실	-9.66259
▁차지했다	-9.66284
▁완화	-9.66291
▁버	-9.66334
▁북한과	-9.66355
▁생	-9.66372
▁여왕	-9.66388
▁실시된	-9.66413
▁애플	-9.66417
▁넣	-9.66419
▁중심	-9.66462
표	-9.66529
▁크리스마스	-9.66583
▁민병대	-9.66587
▁우크라이나	-9.66587
▁ms	-9.66607
▁스피어스	-9.66616
▁알려지	-9.66657
▁내각	-9.66676
▁빠르	-9.66697
▁cat	-9.66703
▁증가했다	-9.66703
▁수천	-9.66709
▁윌리엄스	-9.66744
▁집행	-9.66834
▁끝	-9.66838
▁가족들	-9.66921
▁집에서	-9.66932
▁망명	-9.67027
▁수행	-9.67051
▁둔	-9.67057
년	-9.67117
매	-9.67199
▁고래	-9.67217
▁만명이	-9.67253
▁청와대	-9.67296
▁폭풍	-9.67362
▁지배	-9.67376
▁난민	-9.67378
▁iaea	-9.67387
▁보이고	-9.67406
니다	-9.67411
▁나타냈다	-9.6745
▁주년	-9.67479
▁그러	-9.67539
▁수정	-9.67554
▁목사	-9.67584
▁위기에	-9.67645
▁소장	-9.67665
▁한국은	-9.67688
▁후보에	-9.67731
▁보좌관	-9.67764
왔다	-9.67846
▁일에	-9.67867
▁제거	-9.67883
페	-9.67961
▁넘어	-9.67978
▁의원이	-9.67983
▁부인했다	-9.68037
▁보건	-9.68098
▁속에	-9.6811
▁따	-9.68122
▁말레이시아	-9.68168
▁높다	-9.68193
▁무가베	-9.68194
▁일어난	-9.68194
▁배럴	-9.68199
▁cia	-9.68203
▁수백	-9.68204
▁날씨	-9.68249
▁받기	-9.68257
▁영상	-9.68262
▁시작된	-9.68352
하길	-9.68393
담	-9.68442
▁발생할	-9.68491
▁보안관	-9.68534
▁보장	-9.68551
▁블로그에	-9.68552
▁상황에서	-9.68593
승	-9.6868
▁그중	-9.68745
인지	-9.6876
▁현대	-9.68767
▁가수	-9.68774
▁r	-9.68814
▁법률	-9.68866
▁이미지	-9.68905
▁법적	-9.68967
▁네덜란드	-9.69006
▁찾기	-9.69006
▁치안	-9.69074
▁말하고	-9.69186
자가	-9.69195
▁중이다	-9.69355
w	-9.69444
입	-9.69476
족	-9.69505
▁월까지	-9.69547
싼	-9.69608
번	-9.69657
▁그에게	-9.6966
랑	-9.69672
▁부정	-9.69755
▁없었	-9.69796
▁세르비아	-9.69809
▁먼저	-9.69831
▁스티브	-9.69831
▁약속했다	-9.69834
태	-9.69847
▁목소리	-9.70086
▁않겠다	-9.70181
▁밀	-9.7023
▁마감	-9.70279
▁구성된	-9.70291
▁확산	-9.70353
▁중국이	-9.70355
▁장소	-9.70376
▁보낸	-9.70387
▁어려	-9.70429
▁듯	-9.70433
▁경찰과	-9.70521
▁위험한	-9.70579
▁등록	-9.70602
▁하워드	-9.70659
▁엄마	-9.70659
▁kg	-9.70665
▁작가	-9.7068
▁ht	-9.7068
▁기후	-9.70704
▁나무	-9.70781
▁고든	-9.70788
다른	-9.708
▁프라이머리	-9.70845
▁의혹	-9.70882
▁기자회견	-9.70896
▁최신	-9.7094
▁술	-9.70973
▁이용해	-9.70983
만한	-9.71009
▁비상	-9.71029
▁보이지	-9.71074
▁과학	-9.71162
겠다	-9.71189
▁떠나	-9.71229
냐	-9.71342
▁협의	-9.71391
▁north	-9.71486
▁규제	-9.71487
▁네팔	-9.7149
▁asp	-9.71494
▁사례	-9.71508
▁대표팀	-9.71546
▁나섰다	-9.71562
▁시민들	-9.71573
▁지급	-9.71586
▁마드리드	-9.71612
▁사용하는	-9.71648
▁폐	-9.71678
▁남성이	-9.71865
▁수니파	-9.71934
▁전자	-9.71937
▁긴	-9.71943
▁사상자	-9.72047
씩	-9.72128
▁수가	-9.72208
하였	-9.72218
▁머물	-9.72319
▁찾는	-9.72326
▁노대통령	-9.72331
이지만	-9.72343
▁미국인들	-9.72399
기간	-9.72401
▁후보로	-9.72429
▁떨어져	-9.72501
▁대단	-9.72516
▁다쳤다	-9.72579
ment	-9.72658
▁크기	-9.72678
▁권	-9.72727
▁않기	-9.72871
빌	-9.72935
▁실시한	-9.7301
▁현장에	-9.73014
▁못할	-9.7311
▁한미	-9.73126
▁쿠르드	-9.73168
▁캠프	-9.73174
▁알려져	-9.73178
▁진입	-9.73182
▁최소한	-9.73292
시킨	-9.7334
▁영향력	-9.73346
▁연구진	-9.73379
▁홍수	-9.73626
▁대통령에게	-9.7378
▁증언	-9.73832
▁소지	-9.73888
볼	-9.73916
▁집계	-9.73937
▁시작됐다	-9.73966
▁과정	-9.74013
▁모하메드	-9.74029
▁아바스	-9.74062
▁분노	-9.74113
▁있는데	-9.74211
▁만들	-9.74237
▁축구	-9.74283
▁태도	-9.7437
▁i	-9.74438
▁촉구	-9.7461
샤	-9.74704
▁명에	-9.74765
▁테러로	-9.74807
▁출발	-9.74829
▁프리	-9.74878
▁장난감	-9.74893
▁분위기	-9.749
▁구글	-9.74905
▁웹사이트에	-9.74911
▁원조	-9.74973
▁인정했다	-9.75016
▁비자	-9.75033
▁만드는	-9.75115
▁시리즈	-9.75173
▁집권	-9.75205
▁l	-9.75212
▁나와	-9.75331
▁니콜라	-9.75335
▁얼굴	-9.75399
▁하락했다	-9.75423
▁향	-9.75445
방송	-9.75667
▁해당	-9.75706
▁경계	-9.75728
▁체	-9.75735
▁정확한	-9.7576
▁farc	-9.75762
▁태풍	-9.75763
▁하다	-9.75816
▁주로	-9.75851
▁없습니다	-9.75859
▁의한	-9.75889
되면서	-9.75904
▁근무	-9.75906
▁경찰관	-9.75953
▁이끌	-9.7599
▁추정되	-9.76102
▁슈	-9.76114
천	-9.7613
▁당선자	-9.76157
▁얻었다	-9.76179
▁말한	-9.76215
▁역사적	-9.76262
▁실제로	-9.76391
▁들었다	-9.76453
▁임	-9.76468
▁특사	-9.76481
▁확신	-9.766
▁박물관	-9.76632
▁저녁	-9.76637
▁피터	-9.76638
준	-9.76758
▁성인	-9.76785
▁당한	-9.76804
▁쉽게	-9.76839
▁전문	-9.76839
▁민간	-9.76858
ce	-9.7688
열	-9.77119
으면	-9.77329
▁투	-9.77334
▁돼	-9.77415
▁부동산	-9.77421
ies	-9.77423
▁남북한	-9.77428
▁축하	-9.77443
▁south	-9.77522
▁김정일	-9.77522
▁아르헨티나	-9.77522
▁테이프	-9.77522
▁소년	-9.77534
▁조정	-9.77546
▁도착했다	-9.7758
겠다고	-9.77589
▁자신들이	-9.77648
▁송	-9.77649
▁놀라	-9.77682
▁대체	-9.77696
▁아부	-9.77729
▁허	-9.77828
▁캐	-9.77844
▁가격이	-9.77909
▁등이	-9.77936
▁at	-9.77966
▁세대	-9.78053
해졌다	-9.78072
당국	-9.78171
▁소비	-9.78229
▁유사	-9.78279
▁강도	-9.78369
▁진행되	-9.78392
것	-9.78406
▁토요일	-9.78415
▁말리키	-9.78415
▁콘돌	-9.78417
▁시대	-9.78472
▁중요하다	-9.78577
▁왕	-9.78594
▁후반	-9.78602
▁문제로	-9.78681
▁떨어졌다	-9.78695
▁헤	-9.78719
▁사용할	-9.78807
▁상황에	-9.78866
언	-9.78944
us	-9.78944
ation	-9.78957
▁지불	-9.79014
ic	-9.79033
까	-9.79084
▁살해한	-9.79087
▁보여	-9.79098
▁운전	-9.79193
▁연루	-9.79194
▁한국과	-9.79204
▁화성	-9.79218
추	-9.79228
▁개입	-9.79307
▁with	-9.79316
씬	-9.79316
▁활용	-9.79322
▁타격	-9.79335
범	-9.79342
▁침해	-9.79348
▁형	-9.79349
▁신속	-9.79358
▁찬성	-9.79365
▁휴가	-9.79385
▁입국	-9.79394
▁총장	-9.79401
▁반발	-9.79417
▁백만	-9.79425
▁무사	-9.79542
편	-9.7963
▁만들었다	-9.79653
▁장치	-9.79665
외	-9.7975
▁영국에서	-9.79916
▁제시	-9.79969
▁깊	-9.80043
▁오하이오	-9.801
▁징역	-9.8021
▁연락	-9.80238
▁웹	-9.803
▁지출	-9.80309
▁요	-9.80319
은행	-9.80326
국가	-9.80348
하려고	-9.80361
▁기타	-9.80373
▁시위자들	-9.80382
술	-9.80395
▁우주선	-9.80414
▁힐튼	-9.80494
▁미국에	-9.80498
in	-9.80554
▁숨	-9.80606
▁기구	-9.80638
▁이곳에서	-9.8069
▁초기	-9.80702
말	-9.80763
▁창	-9.80819
▁맺	-9.80884
▁경기에	-9.81001
▁적용	-9.81081
▁지적	-9.81108
▁엘리자베스	-9.81142
▁드라마	-9.81143
▁방해	-9.8118
▁검색어	-9.81188
▁참석한	-9.81214
▁물질	-9.81214
▁결혼식	-9.8124
▁태	-9.81279
▁않으면	-9.8132
▁영국군	-9.81361
▁평	-9.81377
▁교체	-9.81418
현	-9.81442
▁아파트	-9.81475
▁복제	-9.8154
격	-9.81563
먼	-9.81579
▁어린	-9.81651
▁쉬	-9.81665
▁월드컵	-9.81695
책	-9.81879
▁승무원	-9.81927
▁대처	-9.81959
▁요구한	-9.81962
▁당선	-9.82002
▁토론	-9.82039
▁외교부	-9.82045
활동	-9.82053
▁국장	-9.82056
▁긍정적	-9.82068
▁페일린	-9.82068
▁협조	-9.82068
▁fta	-9.82075
▁페르베	-9.82078
▁들어가	-9.82084
▁유럽연합	-9.8209
▁모른다	-9.8209
▁형성	-9.82125
▁민	-9.8219
▁환영	-9.82269
▁보이	-9.82378
▁예방	-9.82403
한다면	-9.82416
▁속에서	-9.82495
▁자산	-9.82505
▁해고	-9.82544
▁제외	-9.82623
광	-9.82634
이라	-9.82635
▁인식	-9.82678
▁수용	-9.82743
수가	-9.82744
▁요구하는	-9.82764
했는지	-9.82781
▁재정	-9.82797
살	-9.82833
▁방식	-9.82959
▁소프트웨어	-9.83003
▁열린우리당	-9.83003
▁결론	-9.83016
▁끝난	-9.83024
▁협정	-9.83052
▁없다는	-9.83069
▁원유	-9.83077
▁통화	-9.83081
▁대출	-9.83117
시설	-9.83202
▁고려	-9.83261
▁일환	-9.83325
▁클럽	-9.83346
졌	-9.8337
▁수반	-9.83405
렸	-9.83425
▁동맹	-9.83453
▁국	-9.83462
달	-9.83629
▁일반적	-9.83705
▁오픈	-9.83788
빈	-9.83902
목	-9.83916
▁언제	-9.83939
▁현장에서	-9.83942
▁싱가포르	-9.83946
▁잭슨	-9.83946
▁iraq	-9.83946
▁매들린	-9.83946
▁리버풀	-9.83947
▁벌금	-9.8395
▁개정	-9.83958
▁토니	-9.83965
▁공화당의	-9.83972
▁신용	-9.83982
▁갖추	-9.83984
▁귀국	-9.83991
▁저지	-9.84005
▁절반	-9.8401
▁조종사	-9.84083
▁방어	-9.84091
▁an	-9.8413
▁체포된	-9.84306
▁임신	-9.84328
령	-9.84389
▁삼	-9.84451
▁소유	-9.84457
▁관	-9.84466
스타	-9.84499
▁울	-9.8463
블	-9.84694
▁대표단	-9.84701
▁포함되어	-9.84744
▁범인	-9.84867
▁핵실험	-9.84902
▁사이클론	-9.84903
▁변경	-9.84915
▁신경	-9.84942
▁걸어	-9.85006
▁수감	-9.85107
▁선포	-9.85166
▁자격	-9.8517
▁신뢰	-9.85172
▁총선에서	-9.85194
▁이틀	-9.8524
레이	-9.85255
▁고속도로	-9.85268
플	-9.85291
▁역	-9.85317
▁되면	-9.85391
▁심리	-9.85421
▁엔	-9.85487
▁조사하고	-9.85646
규	-9.85762
▁자살폭탄테러	-9.85856
▁cbs	-9.8586
▁뉴질랜드	-9.8586
▁론스타	-9.85863
▁케네디	-9.85864
▁자연	-9.85885
▁속도	-9.85886
▁축제	-9.85887
▁루이스	-9.85894
▁ceo	-9.85902
▁나달	-9.85905
맨	-9.85941
▁트럭	-9.85961
▁공식적으로	-9.85973
▁금리	-9.85983
▁이것이	-9.86001
▁성화	-9.86023
결	-9.86041
▁충분	-9.86057
▁취임	-9.86255
▁부패	-9.86358
▁동의	-9.86437
▁왔	-9.86449
▁침체	-9.86468
▁이들이	-9.86479
▁한번	-9.86534
▁했	-9.86763
▁투자자들	-9.86767
▁빠져	-9.8683
▁캠페인	-9.86831
▁에이즈	-9.86849
▁지지하는	-9.86854
▁실행	-9.86859
▁헤럴드	-9.86895
▁압둘라	-9.86897
▁면	-9.8694
▁예산	-9.87006
▁이르는	-9.87015
▁회사들	-9.8704
▁이해	-9.87041
▁길이	-9.87129
▁세트	-9.87139
▁기자들	-9.87143
▁용의자들	-9.87216
▁터키군	-9.87226
▁일어나	-9.87272
▁재산	-9.87272
▁이혼	-9.87402
▁진정	-9.87423
▁지지율	-9.87461
▁동원	-9.87611
▁대피	-9.87622
춘	-9.87766
▁우라늄	-9.87811
▁포르투갈	-9.87812
▁힘든	-9.87847
채	-9.87883
▁층	-9.87921
▁풀	-9.87922
▁통합	-9.87956
▁중이라고	-9.87974
▁포드	-9.88041
▁안보리	-9.88098
▁행진	-9.88116
▁성공했다	-9.88205
▁곳으로	-9.8821
합	-9.88418
▁지지자	-9.88419
▁지진으로	-9.88473
▁수십	-9.88587
예	-9.88642
▁펜실베이니아	-9.88696
▁쥐	-9.88731
▁일본은	-9.88753
▁휘발유	-9.88801
▁반기문	-9.88804
▁민주화	-9.88825
▁육군	-9.88826
▁드러났다	-9.8883
▁오르	-9.88856
▁올렸다	-9.88923
▁중국과	-9.88986
대한	-9.89005
▁주고	-9.89097
▁진술	-9.89122
▁총리와	-9.89219
▁점령	-9.8923
▁테러가	-9.89318
▁목	-9.89343
▁철회	-9.89498
▁그린	-9.89499
▁평화적	-9.895
▁조사에서	-9.89585
▁중국에서	-9.89622
변	-9.89625
▁근	-9.89639
▁당선인은	-9.89684
▁회담에	-9.89731
▁워싱턴에서	-9.89747
▁한국군	-9.898
▁믿고	-9.89802
▁좋지	-9.89802
▁첼시	-9.89803
▁ppp	-9.89805
▁학살	-9.89805
▁로봇	-9.89808
▁나쁜	-9.89813
▁향후	-9.89814
▁소개	-9.89828
▁리비아	-9.89831
▁시드	-9.89832
▁학대	-9.89904
▁설립	-9.89905
▁가입	-9.89912
▁벨	-9.89936
▁본부	-9.90063
▁차관보	-9.90115
시간	-9.9024
▁경선에서	-9.90315
ch	-9.90344
▁아랍	-9.90554
ational	-9.90592
시장	-9.90673
▁주일	-9.90691
▁집에	-9.90692
▁교황	-9.90783
▁휴전	-9.9081
▁얘기	-9.90812
▁답변	-9.90815
▁입양	-9.90832
▁내린	-9.90838
▁센트	-9.9084
골	-9.9087
▁해결하기	-9.90934
▁통치	-9.90961
▁개월간	-9.91024
▁목격자들	-9.91055
▁상품	-9.91103
▁학생들이	-9.91146
▁ac	-9.91216
▁참	-9.91255
▁외부	-9.91269
▁전면	-9.91274
▁협회	-9.91325
습	-9.9136
x	-9.91388
▁포함해	-9.91468
▁지도부	-9.91521
▁필	-9.91549
▁밝혀	-9.91584
▁생명	-9.9161
머	-9.91691
▁중에는	-9.91769
▁해리포터	-9.91832
훨	-9.91832
▁국제유가	-9.91833
▁벌어진	-9.91835
▁불참	-9.91843
▁음모	-9.91845
▁선거운동	-9.91854
▁아카데미	-9.91858
▁반정부	-9.9188
랜드	-9.91927
▁잔해	-9.91949
▁편지	-9.92106
ia	-9.92191
▁가정	-9.92253
▁유리	-9.92267
▁연결	-9.92271
▁공개했다	-9.92311
▁차지	-9.92385
시키	-9.92498
▁대의	-9.92594
항	-9.9261
통신	-9.92616
▁격	-9.92631
▁잡지	-9.92648
▁장비	-9.92654
스터	-9.92719
창	-9.92863
▁콘서트	-9.92863
▁앨범	-9.92867
▁dna	-9.92868
▁방침	-9.9287
▁장식	-9.9288
▁가득	-9.92888
▁체니	-9.9293
▁신청	-9.92936
한영	-9.92947
▁선물	-9.92952
둔	-9.92954
▁질환	-9.93013
▁손실	-9.93052
리스	-9.93067
▁승	-9.93138
▁폐지	-9.93175
▁랭킹	-9.93182
만에	-9.93184
▁회담이	-9.93233
▁향하	-9.93251
▁응	-9.93262
▁충분한	-9.93486
사건	-9.93491
▁정부군	-9.93589
▁예정이	-9.93674
▁준	-9.93736
▁바다	-9.93762
▁벌인	-9.93768
▁맨체스터	-9.93903
▁화산	-9.93915
▁여기	-9.93931
▁진행된	-9.93933
▁영토	-9.93937
▁며칠	-9.93991
▁레이스	-9.94078
▁기념	-9.94081
흐	-9.94105
▁요구하고	-9.94116
▁성향	-9.94145
▁의료진	-9.94196
▁내에	-9.94197
▁의도	-9.94287
▁정신	-9.94367
▁수집	-9.94392
▁방법으로	-9.94404
▁바람	-9.94502
▁킹	-9.94539
▁주장하는	-9.94713
▁접	-9.94732
▁짐	-9.94746
▁매장	-9.94773
▁언급하지	-9.94778
▁기업들	-9.94844
▁관광객들	-9.94859
앙	-9.94879
었고	-9.94936
▁부활	-9.94955
▁무릎	-9.94957
▁페더러	-9.94957
▁못했	-9.94958
▁폭	-9.9496
▁머	-9.94961
▁맨유	-9.94965
▁who	-9.9497
▁기능	-9.94973
▁웨스트	-9.94989
▁특정	-9.95019
▁대북	-9.95082
▁콜	-9.95087
▁바그다드에서	-9.95152
▁밀란	-9.95182
▁것보다	-9.95184
쇼	-9.95251
▁계획에	-9.95334
▁이익	-9.95361
▁시절	-9.95363
▁보상	-9.95381
▁행	-9.95384
▁터	-9.95574
필드	-9.95615
▁방지	-9.95624
▁방문할	-9.95686
율	-9.957
▁레이	-9.95802
톤	-9.95837
▁지도	-9.95912
▁이메일	-9.96021
▁다르푸르	-9.96022
▁대다수	-9.96025
▁접속	-9.96034
▁다니	-9.96035
▁강경	-9.96089
▁대부분은	-9.96102
▁회원국	-9.96103
▁합	-9.96262
▁평양	-9.96266
th	-9.96292
▁대통령에	-9.96304
▁프로	-9.96304
▁혹	-9.96308
정책	-9.96354
▁대결	-9.96356
▁기도	-9.96481
탈	-9.96499
▁파타	-9.96551
▁성과	-9.9658
▁이스라엘과	-9.96593
▁노동자	-9.96621
독	-9.96644
▁직	-9.96669
▁유가	-9.96672
서는	-9.96679
▁장군	-9.967
▁고객	-9.9671
▁척	-9.96719
▁소니	-9.96763
때	-9.96841
▁존재	-9.96933
▁이웃	-9.97038
▁사드르	-9.97095
▁president	-9.97096
▁밖으로	-9.97096
▁헤즈볼라	-9.97096
▁세계대전	-9.97096
▁폭행	-9.97103
▁영변	-9.97104
▁리콜	-9.97106
▁야생	-9.9711
▁폭우	-9.97124
▁방문했다	-9.97149
▁생각하고	-9.972
▁크리스	-9.97225
▁다이아몬드	-9.97227
▁원하는	-9.97228
▁협상이	-9.97357
▁서명	-9.97401
▁잃었다	-9.97408
조치	-9.97422
▁존슨	-9.97436
힐	-9.97444
▁적절한	-9.97447
▁생존	-9.97466
▁지하	-9.97516
클	-9.97577
레스	-9.97614
▁마이크	-9.97633
달하는	-9.97634
▁뛰어	-9.97881
▁모습이	-9.97931
▁스티븐	-9.97935
ri	-9.98024
▁장관이	-9.9813
▁지키	-9.98142
▁이번주	-9.98151
▁멸종	-9.98182
▁온난화	-9.98183
므로	-9.98196
▁아이들이	-9.98201
▁마틴	-9.98205
▁진실	-9.98209
▁출시	-9.98215
▁잠시	-9.98288
▁니	-9.98299
▁will	-9.98329
▁밖에서	-9.9833
▁아일랜드	-9.98356
▁취할	-9.98413
▁빅	-9.98415
낼	-9.98444
▁발표된	-9.98465
▁생존자	-9.98488
▁상어	-9.98523
▁주는	-9.98541
지에	-9.98589
▁힘들	-9.98616
▁분야	-9.98619
▁모양	-9.98636
쯤	-9.98739
▁강조	-9.98798
▁나서	-9.98915
해지	-9.98938
▁이스라엘군	-9.99051
립	-9.99093
▁질병	-9.99163
▁태평양	-9.99282
▁현지시각	-9.99282
▁nbc	-9.99289
▁내전	-9.99302
▁버마	-9.99322
▁심문	-9.99333
▁목격자	-9.99357
▁경찰서장	-9.9938
지르	-9.99393
▁내용이	-9.99463
▁자기	-9.99471
▁포기	-9.99486
▁의무	-9.99491
▁바라고	-9.99516
▁심각	-9.99524
찬	-9.99527
▁말합니다	-9.99637
자로	-9.99779
▁말라	-9.99788
▁논란	-9.99956
▁올랐	-10
▁대부분이	-10.0004
it	-10.0004
▁차드	-10.0006
▁예상했다	-10.0006
▁억류	-10.002
▁제도	-10.0034
▁보면	-10.0034
▁전망이	-10.0034
▁as	-10.0036
웰	-10.0038
▁쿠데타	-10.0039
▁갑자	-10.0039
▁체결	-10.0041
▁우선	-10.0043
▁서방	-10.0045
▁공중	-10.0046
▁밑	-10.0049
▁보였	-10.0049
▁경보	-10.0054
▁기준	-10.0055
▁가자	-10.0055
▁사건과	-10.0073
축	-10.01
▁둘	-10.0122
▁음반	-10.0122
킬	-10.0126
▁스테	-10.0129
▁찾고	-10.0152
▁일주일	-10.0153
▁공공	-10.0155
▁핵시설	-10.0156
▁수백만	-10.0156
▁보통	-10.0157
▁구제	-10.0164
▁사건으로	-10.0165
▁담당자	-10.0174
▁아래	-10.0185
원들	-10.0191
겐	-10.0193
▁입원	-10.0195
▁인하	-10.0204
▁선박	-10.0208
▁사실상	-10.0218
▁가까이	-10.0221
▁보고했다	-10.0231
▁공격이	-10.024
▁cm	-10.0241
▁묻	-10.0248
▁현재까지	-10.0258
관리	-10.0262
죠	-10.0265
▁달라이라마	-10.0265
▁이렇게	-10.0265
▁훌륭	-10.0265
▁파운드	-10.0265
▁복구	-10.0267
▁의식	-10.0267
▁격차	-10.0268
▁수요	-10.027
▁일리노이주	-10.0272
▁베트남	-10.0276
▁원제	-10.0282
▁달성	-10.0287
▁돌아가	-10.0291
▁만날	-10.0295
▁화	-10.0299
취	-10.0301
▁부문	-10.0302
섬	-10.0312
▁원한다	-10.0314
▁일본에서	-10.0318
▁케	-10.032
▁교	-10.0321
▁되기	-10.0343
▁de	-10.0347
▁톤	-10.0347
▁처	-10.0348
들어	-10.0351
▁외교적	-10.0352
슈	-10.0356
▁업계	-10.0363
▁pa	-10.0364
놓고	-10.0365
▁전반	-10.0369
킨	-10.0379
▁나이지리아	-10.038
▁흡연	-10.038
▁카르자이	-10.038
▁교환	-10.0381
▁최선	-10.0383
▁동반	-10.0383
▁조사에	-10.0384
▁걸릴	-10.0385
▁신임	-10.0387
▁치러진	-10.0387
▁심슨	-10.0395
▁사용되	-10.0395
▁요원	-10.04
불	-10.0405
▁수감자	-10.0407
▁노출	-10.0408
연합	-10.0411
▁신호	-10.0416
▁벤	-10.0418
▁환자들	-10.0422
돌	-10.0423
만큼	-10.0426
손	-10.0427
겠	-10.0431
▁가구	-10.0433
▁제안했다	-10.0436
▁된다고	-10.0442
▁대상	-10.0443
▁교도소	-10.0446
▁남아	-10.0449
▁투어	-10.0454
▁실시되	-10.0467
▁광산	-10.0478
▁차전	-10.0482
▁입었	-10.0487
▁일본이	-10.0489
▁다우존스	-10.0497
▁에드워즈	-10.0497
▁라운드	-10.0497
▁설득	-10.0497
▁재무장관	-10.0497
▁폭동	-10.0498
▁느끼	-10.0502
▁시작한	-10.0506
▁검색	-10.0516
▁각국	-10.0518
▁브	-10.0529
봉	-10.0537
▁있어서	-10.0544
불어	-10.0554
▁본사	-10.0555
장이	-10.0556
▁다우	-10.0562
▁사인	-10.0567
▁절	-10.0577
▁국제적	-10.058
▁근거	-10.0582
▁동물원	-10.0583
▁소환	-10.059
▁오스트리아	-10.0614
▁덴마크	-10.0614
▁복잡	-10.0614
▁국왕	-10.0615
▁단순	-10.0615
▁노력하고	-10.0615
▁시장에서	-10.0618
▁시위에	-10.0628
사를	-10.0631
장에서	-10.0631
▁폐기	-10.0633
▁소수	-10.0636
쳤다	-10.0655
▁철도	-10.0678
▁감정	-10.0679
▁이하	-10.0681
▁목적으로	-10.0696
▁하게	-10.0708
했음	-10.0711
▁지진이	-10.0714
▁모인	-10.0717
리는	-10.0722
▁지휘	-10.0725
▁영화제	-10.0726
▁맞서	-10.0732
▁누군가	-10.0733
▁죽	-10.0733
▁그것이	-10.0734
▁봄	-10.0734
▁기존	-10.0735
▁성관계	-10.0736
▁매각	-10.0736
▁그와	-10.0737
▁부담	-10.0737
▁책임자	-10.0738
▁소설	-10.0738
▁카드	-10.074
▁삼성	-10.0742
▁북측	-10.0743
▁팬	-10.0747
▁군인들	-10.0748
▁차관	-10.0751
▁전투기	-10.0752
▁복용	-10.0754
▁주인공	-10.0758
라도	-10.0759
▁웃	-10.0761
성이	-10.0779
▁지연	-10.0784
엘	-10.0784
▁합동	-10.0788
▁대기	-10.0792
으	-10.0794
re	-10.0796
▁사전	-10.0804
▁상점	-10.0812
있	-10.0819
▁깨	-10.0823
▁티	-10.0831
▁주기	-10.0834
▁식	-10.0835
▁계속되고	-10.0836
관계	-10.0842
▁서울에서	-10.0848
후드	-10.0849
셔	-10.085
▁당신이	-10.0853
▁japan	-10.0854
▁방글라데시	-10.0854
▁주한미군	-10.0854
▁고등학교	-10.0854
▁농축	-10.0854
▁마카오	-10.0854
▁칠레	-10.0855
▁새끼	-10.0855
빠진	-10.0856
려고	-10.0857
▁커피	-10.0857
▁도입	-10.0858
▁상승했다	-10.086
▁공산당	-10.0862
칠	-10.0878
▁내릴	-10.0891
▁대답	-10.0896
▁휴	-10.0899
▁부르	-10.0901
▁부근에서	-10.0902
▁늘	-10.0904
▁청소년	-10.0908
자와	-10.0918
스키	-10.0919
들도	-10.0921
▁마르	-10.0921
▁수용소	-10.0929
▁ba	-10.093
▁o	-10.0931
▁거절	-10.0938
▁그림	-10.0939
▁기본	-10.0943
려는	-10.0947
▁어린이들	-10.0948
▁즉각적	-10.0948
▁지시	-10.0954
▁됩니다	-10.0962
▁경기장	-10.0965
랄	-10.0969
기관	-10.0972
ers	-10.0973
되면	-10.0975
▁스웨덴	-10.0976
▁네트워크	-10.0976
▁순방	-10.0977
▁검거	-10.0977
▁남아공	-10.0977
▁불안	-10.0981
▁해병대	-10.0981
▁발병	-10.0981
▁상처	-10.0981
▁사담	-10.0981
▁달라	-10.0982
▁부여	-10.0986
▁예비	-10.0987
▁따라서	-10.0988
▁점차	-10.0989
▁보수	-10.0992
영한	-10.1013
▁조성	-10.1014
순	-10.1019
▁국회의원	-10.1019
▁세우	-10.1027
이어	-10.1028
▁건의	-10.1036
▁회원	-10.1037
▁전날	-10.1047
▁체제	-10.1055
▁표시	-10.106
▁벌였	-10.1061
▁악화	-10.1062
▁기반	-10.1063
▁장애	-10.1067
▁구입	-10.1077
▁추적	-10.108
▁내놓	-10.1084
▁둘러	-10.1085
▁승리했다	-10.1085
▁공항에서	-10.1093
▁왕세자	-10.1095
▁자리에서	-10.1095
▁혜택	-10.1099
▁습격	-10.1099
▁카스트로	-10.1099
▁다니엘	-10.11
▁극복	-10.1101
▁증가하고	-10.1101
▁탐사	-10.1101
▁그래서	-10.1103
▁테러리스트	-10.1104
▁유감	-10.1105
▁보관	-10.1107
▁무력	-10.1107
았	-10.111
▁의지	-10.111
▁분명히	-10.111
▁이뤄지	-10.1113
▁행성	-10.1114
▁말까지	-10.1119
▁개방	-10.1125
▁사살	-10.1129
▁시내	-10.113
▁공격에	-10.114
▁많다	-10.1145
계획	-10.1165
왔	-10.1165
▁기다리고	-10.1167
▁오브	-10.1167
▁의회에	-10.1182
▁나갈	-10.1183
▁반군이	-10.1191
▁무대	-10.1191
▁주석	-10.1193
▁손상	-10.12
듯	-10.12
▁저항	-10.1205
▁실종	-10.1207
문제	-10.1218
▁희생자들	-10.122
▁uefa	-10.1224
▁ioc	-10.1224
▁챔피언스리그	-10.1224
▁겨울	-10.1225
▁페루	-10.1228
▁무료	-10.1229
▁가옥	-10.1229
▁색	-10.123
▁구출	-10.1231
▁이중	-10.1232
▁파산	-10.1235
웠다	-10.1237
▁plan	-10.1239
▁올린	-10.1249
▁명단	-10.125
로운	-10.1251
▁수감자들	-10.1254
▁잇	-10.1256
▁고발	-10.1262
▁줄어들	-10.1273
했기	-10.1274
렛	-10.1276
드시	-10.128
▁공원	-10.1284
▁펜	-10.1286
▁허락	-10.1296
시켰	-10.1301
영화	-10.1307
▁유치	-10.1321
▁수상자	-10.1323
▁그동안	-10.1325
▁운영하	-10.1326
▁잔	-10.1331
▁붉은	-10.135
▁원문기사	-10.1351
▁알래스카	-10.1351
▁정확히	-10.1351
▁파예드	-10.1351
▁완벽	-10.1351
▁운송	-10.1351
시아	-10.1351
▁북동부	-10.1351
▁의회에서	-10.1354
▁노예	-10.1354
▁소식이	-10.1361
▁열대	-10.1364
▁초점	-10.1365
▁가졌	-10.1368
▁권한	-10.1371
선수	-10.1376
▁조원	-10.1379
▁찬	-10.1384
▁고대	-10.1385
▁지켜	-10.1388
▁주지	-10.1396
▁하면	-10.1398
▁사라	-10.1399
▁모여	-10.141
대에	-10.1416
▁기독교	-10.1418
▁못하는	-10.1419
▁경매	-10.1427
▁베이징에서	-10.1433
el	-10.1439
▁연구원	-10.1439
▁선언했다	-10.1441
▁낸	-10.1442
▁이사	-10.1449
드는	-10.1463
▁바이	-10.147
▁만일	-10.1471
▁블랙	-10.1478
▁활주로	-10.1479
▁숫자	-10.1479
▁심지어	-10.1479
▁철저	-10.148
▁크루즈	-10.148
▁민감	-10.1481
▁자극	-10.1482
▁거뒀다	-10.1487
▁있다면	-10.1492
▁진화	-10.1497
▁의사들	-10.1506
▁고향	-10.1511
▁유전자	-10.1511
▁식품	-10.1512
▁형태	-10.1514
▁공화국	-10.1516
▁제공하는	-10.1519
▁운항	-10.152
▁샌프란시스코	-10.1526
▁거부했다	-10.1527
▁체계	-10.1531
▁얻기	-10.1535
▁it	-10.1541
▁결정에	-10.1543
숙	-10.1554
▁분명	-10.1556
▁의회의	-10.1557
항공	-10.1578
운동	-10.1589
▁곳이	-10.1597
▁스리랑카	-10.1602
▁중지	-10.1603
▁마찬가지	-10.1609
▁nato	-10.1609
▁폴란드	-10.1609
▁frb	-10.1609
▁레알	-10.161
▁커플	-10.161
▁중부	-10.1611
▁철군	-10.1612
▁입증	-10.1612
▁분열	-10.1615
▁현금	-10.1617
▁보고서에서	-10.1628
▁실패했다	-10.1628
il	-10.1629
행위	-10.1635
▁탈출	-10.1643
▁군정	-10.1647
▁타이	-10.1665
▁대선에서	-10.1669
▁빙하	-10.1672
▁수영	-10.1674
악	-10.1679
▁경영	-10.1681
애	-10.1681
▁pc	-10.1682
▁부정적	-10.1688
들로	-10.1691
▁한국에서	-10.1692
▁생각하는	-10.17
▁곡	-10.1701
사가	-10.1722
▁이양	-10.1724
▁야기	-10.1724
▁방향	-10.1724
▁중독	-10.1739
▁사우디아라비아	-10.174
▁절대	-10.1741
▁보여줬다	-10.1744
▁현상	-10.1746
▁소요	-10.1747
▁서신	-10.1747
▁공포	-10.1748
▁파악	-10.1753
▁호세	-10.1753
자는	-10.1754
▁안에서	-10.1757
▁뼈	-10.1759
▁사망했	-10.1762
▁독	-10.1768
▁늘어	-10.1768
▁이주	-10.1769
▁싸움	-10.1769
▁이곳에	-10.1778
▁폭탄이	-10.1779
▁답	-10.1781
▁만난	-10.1786
해줄	-10.1787
▁보안군	-10.1792
▁혁명	-10.1794
▁보인다고	-10.1795
▁신체	-10.1803
▁납치된	-10.1812
▁전개	-10.1812
▁선거에	-10.1817
▁뉴욕에서	-10.1818
▁광	-10.1821
사는	-10.1822
▁강요	-10.1826
▁유나이티드	-10.1834
▁외교관	-10.1837
인들이	-10.1842
▁폭격	-10.1854
▁챔피언	-10.186
▁노벨	-10.1868
▁태양	-10.1873
▁잃은	-10.1874
▁크라이슬러	-10.1874
▁토마스	-10.1874
▁관찰	-10.1874
▁아이디어	-10.1875
틀	-10.1881
▁신발	-10.1882
▁실종된	-10.1889
당한	-10.189
▁살아	-10.1892
▁발간	-10.1894
▁캘리포니아주	-10.1897
▁린	-10.1901
▁런던에서	-10.1915
▁달간	-10.1915
▁베이	-10.1917
et	-10.1918
▁gm	-10.192
▁고립	-10.1923
▁증권	-10.1931
시키려	-10.1933
▁좋아	-10.1935
▁라이트	-10.194
▁대회에서	-10.194
▁기대하고	-10.1943
▁수업	-10.195
올	-10.1955
벌	-10.1957
딘	-10.196
▁법정	-10.1969
▁여자친구	-10.1969
▁방송국	-10.1975
j	-10.1976
▁계속되	-10.1978
▁시장에	-10.1978
▁값	-10.1981
률	-10.1984
션	-10.1997
▁동티모르	-10.2009
▁라스베이거스	-10.2009
▁리조트	-10.2009
▁맞춰	-10.2009
▁타이틀	-10.2009
▁생긴	-10.2011
▁형제	-10.2014
▁인생	-10.2015
▁쓰나미	-10.2018
▁발생하지	-10.2018
▁세계은행	-10.2019
▁중순	-10.2025
▁대량	-10.2028
겨	-10.2029
▁무선	-10.203
상태	-10.2032
▁안전한	-10.2039
▁받아야	-10.2039
▁피해가	-10.2042
▁콩고	-10.2044
누	-10.2047
▁이사회	-10.2054
▁경제에	-10.2056
▁근처	-10.2059
도시	-10.2061
▁분간	-10.2061
▁하던	-10.2061
▁수상했다	-10.2075
▁재단	-10.2081
뿐	-10.2089
례	-10.2091
수록	-10.2091
▁만화	-10.2094
▁오염	-10.2097
▁해변	-10.2099
▁중요	-10.2102
▁데이	-10.2102
▁이송	-10.2121
▁사회적	-10.2127
▁거두	-10.2135
▁성화봉송	-10.2136
▁일리노이	-10.2138
▁감독이	-10.214
더라	-10.2141
▁증명	-10.2143
▁김대중	-10.2146
▁엄격	-10.2146
▁논평	-10.2146
▁첫번째	-10.2146
▁불러	-10.2146
▁은퇴	-10.2148
▁하원의원	-10.2148
▁회동	-10.215
▁돌아오	-10.2151
▁두바이	-10.2151
▁모기지	-10.2152
▁바르셀로나	-10.2152
▁구금	-10.2153
▁성공적	-10.2154
▁앞에	-10.2154
▁예전	-10.2156
▁높아지	-10.2158
▁교사	-10.2159
▁기계	-10.2159
▁금요일	-10.2159
▁총격전	-10.2162
la	-10.2162
▁케리	-10.2164
북	-10.2168
▁갖게	-10.2169
▁난사	-10.2169
▁한때	-10.2171
▁누리	-10.2174
▁보낼	-10.2181
▁신부	-10.2186
해주	-10.2192
▁표했다	-10.2194
낸	-10.2201
▁확실	-10.2201
▁시청	-10.2205
▁지시했다	-10.2207
▁클린턴이	-10.2216
▁명에게	-10.2224
▁측근	-10.2229
▁봤다	-10.2231
컵	-10.2237
▁진전	-10.2238
▁승리한	-10.2238
▁세상	-10.2239
▁출석	-10.2239
▁끌어	-10.2247
▁이스라엘이	-10.225
▁과학자	-10.2252
▁주제	-10.2254
▁년이	-10.2257
▁리그	-10.2262
지수	-10.2269
▁나누	-10.2274
▁넓	-10.2275
se	-10.2277
▁태어난	-10.2285
▁외환은행	-10.2285
▁중대	-10.2285
▁데이터	-10.2287
▁디자인	-10.2287
▁채택	-10.2287
▁불편	-10.2288
▁헨리	-10.2288
▁단속	-10.2288
▁우리나라	-10.2289
▁책임이	-10.2289
▁유력	-10.2293
▁항소	-10.2294
▁전역	-10.2295
ra	-10.2297
▁케이블	-10.2297
▁본선	-10.2297
▁기상	-10.2304
▁지역으로	-10.2305
▁만들어진	-10.2307
▁위조	-10.2307
▁것이고	-10.2307
▁보유하고	-10.231
▁사용한	-10.2311
▁불길	-10.2312
▁no	-10.2313
개발	-10.2314
▁보유	-10.2319
▁하와이	-10.232
▁회의에서	-10.2325
▁보트	-10.2326
▁mo	-10.2327
▁대학교	-10.2328
pe	-10.2341
▁니콜	-10.2342
▁뿐만	-10.2345
▁중국에	-10.2353
▁nu	-10.2361
▁바라	-10.2363
▁빚	-10.2364
▁주한	-10.2365
우스	-10.2367
▁의미한다	-10.238
▁호텔에서	-10.238
▁도시에서	-10.2383
▁이라크와	-10.2386
▁인류	-10.2388
▁지속	-10.2389
▁훼손	-10.2393
▁빛	-10.2393
▁추방	-10.2408
▁가는	-10.2416
▁아이오와	-10.2418
▁다수	-10.242
▁강타	-10.2421
▁거쳐	-10.2423
▁요르단	-10.2424
▁외교통상부	-10.2425
▁앓고	-10.2426
▁휴대전화	-10.2426
▁섹스	-10.2426
▁면담	-10.2427
▁떠	-10.2427
▁abc	-10.2428
▁가했다	-10.2428
▁해결책	-10.2429
▁프로그램에	-10.2432
▁신중	-10.2435
▁방화	-10.2436
▁마쳤다	-10.2436
▁오늘날	-10.2436
▁개표	-10.2437
▁여권	-10.2439
▁간단	-10.244
▁아메리칸	-10.244
▁달러로	-10.244
▁의석	-10.245
▁상태에	-10.245
▁몰	-10.2451
▁예수	-10.2458
조차	-10.246
▁주장에	-10.2462
▁천만	-10.2464
▁에도	-10.2465
▁응답자	-10.2483
드라	-10.2485
▁공간	-10.2489
▁악	-10.2489
▁전쟁에	-10.2494
▁여성의	-10.2495
랜	-10.2501
▁죽은	-10.2503
▁이끌어	-10.2505
▁민주	-10.2508
▁물건	-10.2509
▁경쟁자	-10.2515
▁고어	-10.2516
자들에게	-10.2517
쳤	-10.2517
▁분리	-10.2518
안에	-10.2519
젠	-10.2526
ol	-10.2531
▁비교	-10.2532
▁발생하는	-10.2532
뿐만	-10.2541
▁주목	-10.2551
전에	-10.2553
켓	-10.2559
혜	-10.2562
▁플레이	-10.2563
▁불능화	-10.2568
▁협박	-10.2568
▁가슴	-10.2568
▁찾을	-10.2568
▁격렬	-10.2569
기가	-10.257
▁급등	-10.257
▁종류	-10.2572
▁홀	-10.2572
▁무죄	-10.2573
▁참석했다	-10.2575
▁발전소	-10.2583
▁획득	-10.2585
▁크리스티	-10.2587
▁추정된다	-10.2591
익	-10.2599
▁것이었다	-10.2611
▁제대	-10.2611
극	-10.2614
▁부과	-10.2621
▁시에	-10.2621
▁국민들에게	-10.2621
▁아동	-10.2622
▁논란이	-10.2626
▁당수	-10.2627
▁백인	-10.263
▁명예	-10.2643
▁한국에	-10.2645
▁지속적	-10.2647
▁우리당	-10.2648
ir	-10.2656
▁혐의에	-10.2657
▁비용이	-10.2658
▁못한다	-10.2666
▁동성애자	-10.267
희	-10.267
완	-10.2671
▁표명	-10.2676
▁미국측	-10.2684
▁끼	-10.2685
▁중재	-10.2691
▁취	-10.2696
스와	-10.2701
▁벗어나	-10.2703
▁이후로	-10.2707
닝	-10.2709
▁이행	-10.2713
▁코미디	-10.2713
짝	-10.2713
▁스코틀랜드	-10.2713
▁일으킨	-10.2713
▁와인하우스	-10.2713
▁송환	-10.2714
▁저지른	-10.2715
ate	-10.2715
릭	-10.2717
▁나올	-10.2718
▁낸시	-10.2721
▁요소	-10.2724
스톤	-10.2725
▁펼쳤다	-10.2726
백	-10.2727
세력	-10.273
▁법원에	-10.2731
▁폭스	-10.2731
▁순위	-10.2735
▁업무	-10.2738
하고자	-10.2742
▁자원	-10.2748
▁계	-10.275
▁이내	-10.275
어야	-10.2757
▁방영	-10.2763
▁순찰	-10.2771
이기	-10.2775
▁얼음	-10.2783
▁돌아	-10.2783
▁보지	-10.2788
▁물가	-10.2795
▁행복	-10.2797
▁식당	-10.28
▁단체들	-10.2802
▁폭발물	-10.2805
▁기금	-10.2813
▁국방	-10.2818
▁만개	-10.2818
▁불가능	-10.2825
▁지목	-10.2828
상황	-10.283
ial	-10.2832
▁사망자수	-10.2835
거래	-10.2836
산업	-10.2837
자금	-10.2839
ne	-10.2841
▁엄청	-10.2847
▁사용자	-10.2847
▁제기했다	-10.2849
▁리처드	-10.2856
틴	-10.2858
▁주인	-10.2858
▁못해	-10.2858
▁곤잘레스	-10.286
▁블라고예비치	-10.286
▁블라디미	-10.286
▁오사마빈라덴	-10.286
▁합병	-10.2861
▁임금	-10.2862
▁고위관리	-10.2862
▁테스트	-10.2863
▁견해	-10.2869
주의자	-10.287
▁이루어졌다	-10.287
▁시기에	-10.2872
is	-10.2872
▁쓴	-10.2873
▁메일	-10.2875
▁홈	-10.2877
▁죄	-10.2879
▁적극적	-10.2885
▁방법이	-10.2889
▁답했다	-10.2892
▁델	-10.2896
▁코트	-10.2901
▁세포	-10.2906
ca	-10.2908
▁의문	-10.2911
▁황	-10.2912
▁봉쇄	-10.2919
▁주문	-10.2924
▁후보들	-10.2925
트리	-10.2929
대학	-10.2932
▁전해	-10.2936
▁수퍼	-10.2938
▁마감했다	-10.2939
총	-10.2944
폭	-10.2961
▁경찰서	-10.2961
▁초대	-10.2964
▁나타내	-10.2969
um	-10.2971
▁이라크군	-10.2978
▁몰아	-10.298
▁에어버스	-10.2988
경제	-10.2997
없이	-10.3
▁개장	-10.3002
▁시점	-10.3002
▁취재	-10.3007
▁선거캠프	-10.301
▁작동	-10.301
▁북서부	-10.301
▁화장실	-10.3011
▁숀	-10.3011
▁부총리	-10.3012
▁사막	-10.3013
▁government	-10.3014
▁분석가	-10.3015
▁노동당	-10.3016
▁상공	-10.3019
▁해양	-10.3021
▁그리	-10.3028
▁전환	-10.303
▁화해	-10.3031
밀	-10.3035
▁병사들	-10.3036
▁작	-10.3044
▁만났다	-10.3045
▁독도	-10.3051
om	-10.3055
▁재건	-10.3059
▁전원	-10.307
▁스키	-10.3082
환	-10.3087
▁하늘	-10.3088
▁비판했다	-10.3094
▁아프가니스탄에서	-10.3103
달라고	-10.3104
월	-10.3107
▁발언에	-10.3113
막	-10.3117
람	-10.3119
▁짓	-10.3124
▁인종	-10.3125
암	-10.313
▁자사	-10.3134
▁문제들	-10.3135
▁우주비행사	-10.3137
▁백악관에서	-10.3146
▁조기	-10.315
▁압둘	-10.3151
펠	-10.3152
▁시티	-10.3155
▁건축	-10.3158
▁나스닥	-10.3161
▁샤라포바	-10.3161
▁리차드	-10.3161
▁리히터	-10.3161
▁복무	-10.3161
▁from	-10.3161
글	-10.3162
▁패트릭	-10.3162
▁핵프로그램	-10.3162
▁직업	-10.3162
▁다윈	-10.3163
▁왕실	-10.3164
▁강풍	-10.3164
▁진영	-10.3164
▁생각했다	-10.3168
▁언어	-10.3168
▁얻어	-10.3168
▁배경	-10.3169
▁전세계적으로	-10.3174
▁직전	-10.3175
▁자유롭	-10.3176
▁스타일	-10.3179
▁들어갔다	-10.3181
▁해임	-10.3184
▁차단	-10.3184
▁아니었다	-10.3188
▁단어	-10.3192
▁정신적	-10.3194
▁록	-10.3197
움	-10.3197
▁시민들이	-10.3204
▁중간	-10.3207
▁비치	-10.3218
▁자제	-10.3218
히려	-10.3224
▁대상이	-10.323
▁합류	-10.3239
슬	-10.3246
▁환	-10.3247
▁윌	-10.3254
▁리드	-10.326
▁세인	-10.3275
▁트리	-10.328
▁공개된	-10.3284
▁맡은	-10.329
▁전역에	-10.3296
▁골프	-10.3296
▁열어	-10.3297
▁붙	-10.3299
▁이루	-10.3306
▁그렇지	-10.3307
▁덮	-10.3309
▁라이	-10.3311
▁디즈니	-10.3315
▁캄보디아	-10.3315
▁받아들일	-10.3315
▁남서부	-10.3315
▁둘러싸	-10.3315
clear	-10.3315
▁영웅	-10.3316
▁케빈	-10.3316
▁원칙	-10.3316
▁축소	-10.3318
▁법안이	-10.3321
▁불과	-10.3321
▁보복	-10.3322
▁법무부	-10.3323
▁공모	-10.3325
▁공개적으로	-10.3328
▁수십명	-10.3329
▁천명	-10.3334
▁완전한	-10.3336
▁뒤에	-10.334
▁논의하기	-10.3347
▁탈	-10.3349
▁보호하기	-10.3351
▁즉각	-10.3353
▁유럽의	-10.3366
적이	-10.3366
▁가능하다	-10.3368
▁불구	-10.3369
견	-10.337
▁공유	-10.3373
▁장례식	-10.3374
▁폭락	-10.338
▁청	-10.3381
▁측정	-10.3388
▁삭제	-10.339
▁자신에게	-10.3391
▁공항에	-10.3392
▁거리에	-10.3397
▁무엇	-10.3399
▁대치	-10.3401
▁시드니	-10.3401
ro	-10.3407
▁진술했다	-10.3413
▁숨졌	-10.3416
▁인근에	-10.342
▁농	-10.343
▁의학	-10.3433
에만	-10.3435
▁해적	-10.3436
▁출동	-10.3439
▁시장이	-10.3447
드리	-10.3456
ti	-10.3462
▁말해	-10.3463
▁오바마와	-10.3469
▁패션	-10.347
송	-10.3471
▁마이애미	-10.3471
▁비타민	-10.3471
▁알코올	-10.3471
▁중앙일보	-10.3471
됨	-10.3471
한글뉴스	-10.3471
▁디지털	-10.3471
▁가택연금	-10.3471
▁호랑이	-10.3471
▁거듭	-10.3471
▁활약	-10.3472
▁자치정부	-10.3472
▁라이벌	-10.3472
▁다우지수	-10.3472
▁산사태	-10.3473
▁새벽	-10.3473
텔	-10.3474
▁취임식	-10.3477
▁천재	-10.3477
▁들여	-10.3478
▁조류	-10.3481
▁만들고	-10.3481
▁쌀	-10.3487
▁맥주	-10.3488
▁떠났다	-10.3491
▁타임스	-10.3492
▁해산	-10.3492
▁채널	-10.3492
▁유대인	-10.3494
▁감염된	-10.3496
▁달려	-10.3498
▁회사가	-10.3501
▁이론	-10.3503
▁보는	-10.3503
짜리	-10.3507
▁우리에게	-10.3509
▁소문	-10.3509
▁한국이	-10.3511
▁영장	-10.3513
▁계획은	-10.3517
제를	-10.3526
▁지내	-10.3526
▁전부터	-10.3532
lo	-10.3533
▁잡고	-10.3535
염	-10.3541
아야	-10.3543
다시	-10.3545
▁평가했다	-10.3549
▁증가한	-10.3551
▁동쪽	-10.3551
▁모스크바	-10.3563
철	-10.3564
녀	-10.357
▁했었다	-10.3572
▁주었다	-10.3583
▁싶어	-10.3586
패	-10.3594
덴	-10.3598
▁워	-10.3599
▁근로자	-10.3608
▁한국인들	-10.361
조사	-10.3616
▁al	-10.3617
▁세계적	-10.3622
▁발굴	-10.3624
▁minister	-10.363
▁토네이도	-10.363
▁쌍둥이	-10.363
▁천연가스	-10.363
▁겨냥	-10.363
▁법무장관	-10.363
▁수석대표	-10.3631
▁로이터	-10.3631
▁마무	-10.3632
▁사생활	-10.3632
▁위안부	-10.3633
▁산림	-10.3634
▁폭파	-10.3634
▁벨기에	-10.3634
▁무엇보다	-10.3635
ta	-10.3636
▁선발	-10.3641
▁눈에	-10.3643
▁초반	-10.3643
▁회견	-10.3645
▁북쪽	-10.3646
▁치열한	-10.3649
▁형사	-10.365
▁선전	-10.3651
▁데에	-10.3651
▁에드	-10.3657
▁것인가	-10.3659
▁나에게	-10.3661
▁예상되	-10.3663
▁연구팀	-10.3664
▁조합	-10.3666
▁연금	-10.367
▁상태로	-10.3672
▁올리	-10.3679
▁돼지	-10.3683
▁부서	-10.3685
▁페이지	-10.3685
기에	-10.3686
▁호수	-10.3686
▁걸린	-10.3691
▁딕	-10.3691
▁블	-10.3692
▁out	-10.3697
▁영국인	-10.37
▁키스	-10.3702
▁로비	-10.3704
▁추산	-10.3708
▁움직이	-10.3709
▁투표에서	-10.3712
▁가족과	-10.3714
젤	-10.3715
▁노인	-10.3717
▁예루살렘	-10.3718
부대	-10.3719
▁배가	-10.3726
▁국민들이	-10.3729
▁감행	-10.373
▁분석가들	-10.3738
▁연관	-10.3748
향	-10.3751
▁조약	-10.3752
▁철	-10.3753
▁나왔	-10.3756
▁얻을	-10.3762
왕	-10.3763
▁연주	-10.3764
▁인디애나	-10.3769
카운티	-10.3771
▁부근	-10.3775
조직	-10.3777
경찰	-10.3777
▁쇼핑	-10.3788
멸	-10.379
▁뿌리	-10.3791
▁쓰촨성	-10.3791
▁아메리카	-10.3791
▁결선투표	-10.3791
▁침몰	-10.3791
▁보스턴	-10.3791
▁파트너	-10.3792
▁다섯	-10.3792
▁은신처	-10.3792
▁황금	-10.3792
▁사찰단	-10.3793
▁부채	-10.3796
▁엔진	-10.3799
▁악어	-10.38
▁재난	-10.3802
▁생일	-10.3802
▁하락세	-10.3803
▁카터	-10.3804
▁수위	-10.3808
▁들어오	-10.3808
▁경력	-10.3809
▁상승세	-10.3809
▁보험	-10.3809
▁world	-10.3811
▁미칠	-10.3811
같은	-10.3814
▁재무부	-10.382
▁차량에	-10.3823
▁구조대	-10.3827
▁조명	-10.3828
▁아프간에서	-10.3837
▁보내는	-10.3838
째	-10.3843
▁알카에다와	-10.3847
▁노스캐롤라이나	-10.3852
경기	-10.3858
▁밴드	-10.3863
▁정지	-10.3865
▁연구에	-10.3868
웨이	-10.3869
▁파티	-10.3871
▁프레스	-10.3876
▁사람에게	-10.3876
▁이재민	-10.3879
pa	-10.3884
▁피해자들	-10.3888
됐었다	-10.3899
▁현실	-10.3902
▁수리	-10.3903
해질	-10.3909
▁지점	-10.3915
치를	-10.3916
▁경험이	-10.3918
풍	-10.3929
▁상징	-10.3934
▁든	-10.3937
걸	-10.3938
▁시한	-10.3942
▁최저	-10.3944
갑	-10.3944
▁pkk	-10.3955
▁늦게	-10.3955
▁마이크로소프트	-10.3955
▁비핵화	-10.3955
▁알렉산더	-10.3955
▁왼쪽	-10.3955
▁이산화탄소	-10.3955
▁좋다	-10.3955
▁키바키	-10.3955
▁득점	-10.3955
▁오딩가	-10.3955
닷컴	-10.3955
▁거짓말	-10.3956
▁급격	-10.3956
▁his	-10.3957
▁포경	-10.3957
▁영업	-10.3957
▁아이폰	-10.3957
▁할머니	-10.3958
▁참여한	-10.3958
니아	-10.3959
▁체중	-10.3959
되며	-10.396
▁체코	-10.396
▁내리	-10.3961
주는	-10.3962
▁대립	-10.3964
▁킬로미터	-10.3966
▁분류	-10.3968
▁초청	-10.3968
▁날짜	-10.3976
▁근로자들	-10.3979
받	-10.398
▁밥	-10.3981
▁ch	-10.3987
▁원화	-10.3988
되어야	-10.3989
▁경영진	-10.3992
▁노선	-10.3996
▁가동	-10.4
▁공사	-10.4
▁흔들	-10.4
▁숙	-10.4001
돼야	-10.4002
▁급속	-10.4007
▁자본	-10.4009
▁앨	-10.401
▁물이	-10.4017
▁총상	-10.4019
▁장면이	-10.402
▁제조업체	-10.4023
▁차량이	-10.4026
▁기다리	-10.4031
▁일제	-10.404
▁떨어지	-10.4041
▁로한	-10.4043
▁인사들	-10.4049
▁언론에	-10.4051
▁미국인들이	-10.4052
▁이란과	-10.4052
▁치러	-10.4054
▁보고서에	-10.4056
▁동기	-10.4058
▁정의	-10.4061
냈다	-10.4063
잔	-10.407
▁보석	-10.4084
▁테러와	-10.4086
▁그대로	-10.4093
▁이식	-10.4097
공격	-10.4103
▁북미	-10.4105
▁화학	-10.4108
딩	-10.412
id	-10.412
▁옮겨	-10.412
▁천주교	-10.412
▁최	-10.4121
▁필라델피아	-10.4122
▁인플레이션	-10.4122
▁택시	-10.4122
▁over	-10.4122
▁탄압	-10.4123
▁사냥	-10.4124
▁소집	-10.4126
▁성격	-10.4126
▁음	-10.4129
▁호소	-10.4129
▁소위	-10.413
▁다음날	-10.4131
▁이뤄졌다	-10.4141
▁만남	-10.4143
▁화재로	-10.4149
▁양국간	-10.4149
한번	-10.4154
▁구조대원들	-10.4157
▁공기	-10.4158
▁통일부	-10.4163
▁리치	-10.4168
▁순	-10.4176
▁나오지	-10.4186
▁투쟁	-10.4187
▁만들기	-10.4187
▁월요일에	-10.4188
▁정치인	-10.4193
▁군사적	-10.4197
베나	-10.4198
▁분만	-10.4198
▁살이	-10.4199
▁방식으로	-10.4201
▁여론조사에서	-10.4202
▁기록한	-10.4202
▁것임	-10.4204
▁발생했	-10.421
▁홍수로	-10.4212
▁했습니다	-10.4222
▁학	-10.4223
▁남동부	-10.4231
▁극장	-10.4232
▁수상한	-10.4244
▁카페	-10.4245
된다고	-10.4247
델	-10.4254
▁시각	-10.4254
▁가족들이	-10.426
착	-10.4262
▁출판	-10.4262
새	-10.4278
▁존중	-10.4279
▁관계에	-10.4285
▁이루어지	-10.4286
▁기대한다	-10.4287
▁탄핵	-10.429
da	-10.4291
▁골키퍼	-10.4291
▁남자친구	-10.4291
▁구멍	-10.4292
▁china	-10.4292
▁포럼	-10.4292
▁일간지	-10.4292
▁not	-10.4293
▁푸	-10.4293
▁폭설	-10.4294
▁진행자	-10.4295
▁주최측	-10.4295
▁단어장	-10.4295
▁브랜드	-10.4295
▁진단	-10.4297
▁음주	-10.4298
▁날개	-10.4298
작전	-10.4301
▁특수	-10.4319
받았다	-10.4327
▁구간	-10.4329
▁공대	-10.4329
▁일본과	-10.4332
▁예술	-10.4333
▁수사관들	-10.4333
▁사법	-10.4335
▁예를들	-10.4338
▁미군과	-10.4344
▁표명했다	-10.4349
▁사람들과	-10.4349
▁마비	-10.4352
▁day	-10.4353
▁세워	-10.4355
▁가상	-10.4365
▁실망	-10.4369
▁신사	-10.4369
▁쓰	-10.4376
▁사태에	-10.4378
▁희생	-10.4384
▁바꾸	-10.4388
▁봉사	-10.4392
▁주장한	-10.4394
▁친구들	-10.4396
학교	-10.4403
▁세력이	-10.4405
▁기소됐다	-10.4414
▁토지	-10.4415
▁모르	-10.442
놓	-10.4423
▁내일	-10.4428
몬	-10.4431
▁먼	-10.4431
▁다이	-10.4438
▁제작한	-10.4445
참	-10.4448
연맹	-10.4448
슨은	-10.4456
▁제공할	-10.4457
베이	-10.4457
▁부상으로	-10.446
▁대륙	-10.446
사항	-10.4462
▁사우스캐롤라이나	-10.4464
▁코끼리	-10.4464
▁후진타오	-10.4464
▁hiv	-10.4464
▁균형	-10.4465
립니다	-10.4465
▁종결	-10.4466
▁징역형	-10.4467
▁라덴	-10.4468
▁비율	-10.4469
▁배후	-10.4472
▁기온	-10.4482
▁정식	-10.4483
▁비교적	-10.4483
▁용기	-10.4484
▁아난	-10.4484
▁성장률	-10.4486
▁보여준다	-10.4486
지역에서	-10.4488
▁갔다	-10.449
▁벽	-10.4492
▁당국자	-10.4494
▁마리아	-10.4496
허	-10.4497
▁최근에	-10.4499
▁확인됐다	-10.4501
▁스톤	-10.4511
▁전통적	-10.4512
▁여행객	-10.4527
▁자신과	-10.4528
▁fa	-10.4529
▁출연한	-10.4533
▁맡고	-10.4535
▁위협이	-10.4541
택	-10.4544
▁조각	-10.4545
▁생기	-10.4546
▁고객들	-10.4548
▁이에따라	-10.4557
▁초안	-10.4558
▁하나로	-10.4561
▁sh	-10.4567
적이고	-10.4571
▁받는다	-10.4574
▁청문회	-10.4579
▁낼	-10.4581
▁up	-10.4581
▁치르	-10.46
스가	-10.4601
▁마시	-10.4602
un	-10.4602
▁올라가	-10.4604
▁폭발이	-10.4606
▁중이었다	-10.461
력이	-10.4611
찰	-10.4612
ese	-10.4617
▁방송사	-10.4619
▁보잉	-10.462
▁가게	-10.4624
▁토론회	-10.4625
탕	-10.4627
▁결과에	-10.4628
싱	-10.4633
얼	-10.4633
▁여학생	-10.4633
▁뭄바이	-10.4639
▁선관위	-10.4639
▁쿠웨이트	-10.4639
▁테일러	-10.4639
▁스트레스	-10.4639
▁계좌	-10.4639
장치	-10.464
▁show	-10.464
▁시작했	-10.464
▁남극	-10.4641
▁줄리아니	-10.4642
▁케이트	-10.4642
▁스턴	-10.4643
▁실적	-10.4646
▁미디어	-10.4646
▁제목	-10.4647
▁거주	-10.4653
▁화상	-10.4659
ac	-10.4667
▁이란에	-10.4668
▁일으켰다	-10.4669
▁정상들	-10.4669
▁정전	-10.4672
▁피부	-10.4676
ts	-10.4677
▁보일	-10.4681
▁일어났다	-10.4692
비치	-10.4701
▁필요성	-10.4704
▁파도	-10.4709
▁근처에서	-10.4723
▁군은	-10.4724
버그	-10.4724
▁도착한	-10.4727
해야만	-10.4733
▁올려	-10.4742
▁문제의	-10.4747
▁끝나	-10.4756
니스	-10.476
삼	-10.4761
▁자택	-10.4762
▁헌	-10.4763
▁적절	-10.4763
스코	-10.4764
그룹	-10.4768
▁콘	-10.477
▁대피했다	-10.4777
▁애도	-10.4789
▁특파원	-10.479
▁남부에서	-10.479
▁사용해	-10.4791
▁가족이	-10.4795
침	-10.4796
압	-10.4799
▁승려들	-10.48
▁선포했다	-10.4802
▁다가	-10.4802
몰	-10.4804
▁하나인	-10.4809
▁유출	-10.4809
알	-10.4811
욕	-10.4813
▁비난하는	-10.4815
연구소	-10.4818
▁광범위	-10.4818
▁다큐멘터리	-10.4818
▁식료품	-10.4818
▁에콰도르	-10.4818
▁재검토	-10.4818
▁탱크	-10.4818
▁펠로시	-10.4818
▁마라톤	-10.4818
▁돌고래	-10.4818
▁전당대회	-10.4818
▁가벼	-10.4818
▁예멘	-10.4818
▁교통사고	-10.4818
▁nba	-10.4819
▁슈퍼	-10.4819
▁지붕	-10.4819
▁소규모	-10.4819
▁구축	-10.4819
▁관영	-10.482
▁보존	-10.482
▁동생	-10.4821
▁화려	-10.4822
사태	-10.4824
▁관계당국	-10.4824
▁감바리	-10.4825
▁기쁘다	-10.4825
▁입을	-10.4825
▁범행	-10.4826
▁묘사	-10.4827
▁파손	-10.4827
▁회원국들	-10.4833
▁치명적인	-10.4836
▁기차	-10.4838
▁부산	-10.484
▁재판관	-10.4843
▁발생하고	-10.4844
▁과도	-10.4847
▁시체	-10.4854
▁조용	-10.4854
▁국적	-10.4858
▁손에	-10.4859
▁서장	-10.4867
▁북쪽으로	-10.4868
▁사용했다	-10.4869
▁수립	-10.4876
▁물에	-10.4883
해진	-10.4886
▁중단했다	-10.4889
▁인원	-10.4897
업자	-10.49
▁무게	-10.4901
▁진행되는	-10.4906
▁참석할	-10.4907
▁분에	-10.4907
라스	-10.491
▁쓰고	-10.4914
▁위인	-10.4928
▁총회	-10.4931
▁이용하는	-10.4933
co	-10.4935
▁대로	-10.4943
▁노동자들	-10.4944
▁세계적으로	-10.4945
국인	-10.4948
▁팀이	-10.4956
▁내렸	-10.4962
▁침입	-10.4964
▁제출했다	-10.4968
▁경호원	-10.4978
▁착수	-10.4982
롭	-10.4984
▁북극	-10.4985
▁무슬림	-10.4986
▁배출	-10.4991
▁유럽에서	-10.4993
▁론	-10.4996
▁근육	-10.4997
켈	-10.4999
햄	-10.4999
▁감금	-10.5
▁dvd	-10.5
▁과반수	-10.5
▁국제원자력기구	-10.5
▁돕기	-10.5
▁듣고	-10.5
▁샌디에이고	-10.5
▁캐릭터	-10.5
▁협약	-10.5
▁화이트	-10.5
▁횡령	-10.5
▁펀드	-10.5
▁롬니	-10.5
▁봉송	-10.5
▁일어날	-10.5
▁침공	-10.5
▁소련	-10.5001
▁정책에	-10.5001
▁레이건	-10.5002
드로	-10.5002
▁운명	-10.5002
▁기밀	-10.5003
▁신규	-10.5003
▁판정	-10.5005
▁거부권	-10.5007
▁뇌물	-10.5007
▁지상	-10.5008
▁일치	-10.5008
▁경관	-10.5009
▁자문	-10.501
▁이륙	-10.501
▁숲	-10.5012
▁개정안	-10.5013
▁월드	-10.5015
▁마친	-10.5015
▁녹	-10.5018
▁늘어나	-10.5019
▁반박	-10.5022
제도	-10.5028
▁여성들이	-10.5029
▁ex	-10.5031
▁충돌이	-10.5035
▁차지하고	-10.5046
▁보여주고	-10.5046
▁일련	-10.5047
age	-10.5051
▁기부	-10.5051
▁해안에서	-10.5051
대표	-10.5054
▁지정	-10.5058
▁요리	-10.5061
▁부모들	-10.5064
▁지점에서	-10.5076
▁하이	-10.5084
▁품	-10.5085
▁실시할	-10.5086
▁수배	-10.5087
▁근거로	-10.5087
벨	-10.5094
▁통신이	-10.5101
▁연구원들	-10.5102
▁이름이	-10.5103
▁목격	-10.5105
▁주장한다	-10.5107
원이	-10.5107
▁신조	-10.511
▁x	-10.5113
▁고소	-10.5118
▁예정인	-10.512
ary	-10.5122
▁보냈	-10.5126
▁미스	-10.5138
▁공약	-10.5146
▁개시	-10.5147
법원	-10.5157
검	-10.5162
▁적십자	-10.5169
▁브리	-10.5171
▁성직자	-10.5175
▁생물	-10.5176
▁얼	-10.5179
넬	-10.5181
▁안전보장이사회	-10.5185
▁연쇄	-10.5185
▁확장	-10.5185
▁메르켈	-10.5185
▁지하철	-10.5185
▁party	-10.5185
▁발휘	-10.5185
▁녹음	-10.5186
▁특징	-10.5186
갔다	-10.5186
▁영화배우	-10.5187
▁저희	-10.5187
▁당초	-10.5189
▁래리	-10.5193
▁조지아주	-10.5193
▁항구	-10.5195
▁are	-10.5195
▁처해	-10.5197
▁붙잡	-10.5197
▁지분	-10.5199
▁진보	-10.52
비아	-10.5201
▁행사에	-10.5202
▁모임	-10.5203
▁맞추	-10.5206
▁하미	-10.5208
▁서울시	-10.5208
▁여지	-10.5209
▁오하이오주	-10.521
▁news	-10.5212
▁md	-10.5213
▁승무원들	-10.5213
▁지원할	-10.5217
▁냈다	-10.5219
▁탐	-10.522
사인	-10.522
ma	-10.5221
▁생산량	-10.5221
▁운전사	-10.5222
▁이르	-10.5225
위원장	-10.5229
▁선원	-10.5234
▁운영하고	-10.5236
해왔	-10.5238
▁원숭이	-10.5245
▁나이트	-10.5245
▁직원이	-10.5246
▁흥분	-10.5249
▁실종자	-10.525
▁누르	-10.5257
ty	-10.5257
▁검은	-10.5258
▁요금	-10.5259
▁투르	-10.5262
▁달린	-10.5262
▁발견한	-10.5265
▁달러화	-10.5265
▁확정	-10.5272
▁보게	-10.5278
▁사용하지	-10.528
▁ma	-10.5281
▁펼치	-10.5282
▁있어야	-10.5283
▁주식시장	-10.5284
▁가해	-10.5289
▁맞는	-10.5293
▁레스토랑	-10.5297
▁계속될	-10.5299
▁않았던	-10.53
▁와인	-10.5301
▁확신한다	-10.5307
들로부터	-10.5309
▁상태에서	-10.5309
기업	-10.5316
▁망	-10.5318
▁셀	-10.5318
▁생각이	-10.5318
▁소매	-10.5325
▁일본에	-10.5326
▁최고치	-10.5329
▁미치는	-10.5334
▁영화에	-10.5337
▁주전	-10.5341
▁합의한	-10.5342
▁국가에서	-10.5344
▁맨	-10.5352
놀	-10.5353
ver	-10.5353
▁포로	-10.5362
▁레드	-10.5362
▁데일리	-10.5365
▁중단할	-10.5366
헌	-10.5367
▁수사관	-10.5367
▁미시시피	-10.5372
릿	-10.5373
픽	-10.5373
▁obama	-10.5373
▁마흐디	-10.5373
▁매니저	-10.5373
▁먹이	-10.5373
▁프랭크	-10.5373
▁항공우주국	-10.5373
▁애완견	-10.5374
▁줄기세포	-10.5374
▁난민촌	-10.5374
▁앤드류	-10.5374
▁귀환	-10.5374
▁빌딩	-10.5375
▁쿠퍼	-10.5376
▁탄생	-10.5376
귀	-10.5377
▁리처드슨	-10.538
▁후보자	-10.538
▁소형	-10.5383
▁침대	-10.5383
▁추세	-10.5384
▁원래	-10.5385
▁매체	-10.5385
▁밝혀진	-10.5385
내내	-10.5387
정보	-10.5387
▁공산주의	-10.5388
▁수송	-10.5391
▁인민	-10.5394
▁후보와	-10.5403
▁베르	-10.5403
▁동의했다	-10.5407
▁구역	-10.5407
▁스타디움에서	-10.5408
▁낮추	-10.5409
▁텍사스주	-10.5413
▁정원	-10.5413
▁등급	-10.5418
포트	-10.542
▁증세	-10.5421
▁무어	-10.5421
▁다르다	-10.5426
▁깊이	-10.5428
▁직장	-10.5429
▁놀	-10.5429
▁테니스	-10.5429
스타인	-10.5431
▁용	-10.5433
▁동료들	-10.5436
▁어렵다	-10.5443
▁없게	-10.5446
▁윤	-10.5448
▁무리	-10.5451
▁건물이	-10.5455
▁만족	-10.5468
▁딸이	-10.5478
▁전달했다	-10.5483
▁작업에	-10.5484
포드	-10.5485
▁육	-10.5485
트라	-10.5501
▁아들이	-10.5508
▁일어났	-10.5508
▁협상에	-10.5509
▁추측	-10.5513
▁물품	-10.5517
▁하락한	-10.5517
▁동맹국	-10.5518
▁화요일에	-10.5518
능	-10.5522
▁쉽지	-10.5525
▁교황은	-10.5536
▁옆	-10.5539
▁견	-10.5539
존	-10.5541
▁소식통이	-10.5552
닥	-10.5552
▁통계	-10.5554
▁경호	-10.5557
▁애리조나	-10.5558
▁말했	-10.5562
▁하루에	-10.5563
▁foreign	-10.5566
▁플라스틱	-10.5566
▁침략	-10.5566
▁경기부양책	-10.5566
▁샘플	-10.5566
▁예비선거	-10.5566
▁어깨	-10.5566
▁헌법재판소	-10.5566
▁옐친	-10.5566
▁롤링	-10.5566
▁득표율	-10.5566
▁제정	-10.5567
▁응급	-10.5567
▁복역	-10.5567
▁솔직	-10.5567
▁영양	-10.5568
▁창출	-10.5568
▁끝날	-10.5569
▁창문	-10.5569
▁교도소에	-10.557
▁다국적군	-10.557
▁방출	-10.5571
▁졸리	-10.5572
▁운전자	-10.5575
꺼	-10.5576
▁발포	-10.5576
▁키우	-10.5576
▁최저치	-10.558
▁결과로	-10.5585
▁경비	-10.5593
▁옆에	-10.5599
▁테러범	-10.56
▁식사	-10.5606
▁행정	-10.5607
▁인력	-10.5607
마자	-10.5607
별	-10.5608
▁신문사	-10.5608
▁발견되었다	-10.5611
마리	-10.562
▁상상	-10.5621
▁공개됐다	-10.5622
▁즐	-10.5623
▁늘리	-10.5623
량이	-10.5628
▁겨	-10.5631
▁예정이었다	-10.5637
▁치러지	-10.5641
▁화물	-10.5644
▁청사	-10.5644
▁던지	-10.565
▁아르	-10.565
▁전복	-10.5651
▁촬영한	-10.5659
▁인근에서	-10.5659
▁해상	-10.5662
▁년만	-10.5666
ity	-10.5667
▁따르	-10.5669
▁학교에	-10.5669
▁함	-10.5675
▁승객들	-10.5675
▁조건으로	-10.568
▁모색	-10.5687
▁일으키	-10.5693
▁전부	-10.5695
▁대항	-10.5698
▁바라는	-10.5699
▁카불	-10.57
▁sc	-10.5701
▁후보인	-10.572
니는	-10.5722
군이	-10.5722
치는	-10.5724
소를	-10.5725
▁메이	-10.5728
▁문제와	-10.5729
▁받아들이	-10.5731
▁te	-10.5735
▁무고	-10.5735
▁거절했다	-10.5735
▁권고	-10.5736
▁자리에	-10.574
▁전반적	-10.5742
▁게재	-10.5746
시킨다	-10.5748
ist	-10.5749
▁빈곤	-10.5751
▁잡아	-10.5753
타르	-10.5757
넷	-10.5757
▁방문하는	-10.5761
▁뮤지컬	-10.5762
▁윔블던	-10.5762
▁일으킬	-10.5762
▁퍼거슨	-10.5762
▁배터리	-10.5762
▁여겨지	-10.5762
▁프리미어리그	-10.5762
▁데이빗	-10.5762
▁노르웨이	-10.5762
▁유혈사태	-10.5762
▁브리핑	-10.5762
▁낙태	-10.5762
▁검증	-10.5762
▁상륙	-10.5762
▁빠질	-10.5763
▁외무성	-10.5763
▁생방송	-10.5763
▁오마르	-10.5764
▁로딕	-10.5764
▁실업률	-10.5766
▁서양	-10.5767
▁알렉스	-10.5768
▁백신	-10.5768
▁조항	-10.5768
▁드러냈다	-10.5768
▁american	-10.5769
▁이뤄진	-10.5769
▁음성	-10.577
곤	-10.577
▁상호	-10.5771
▁접전	-10.5771
▁본토	-10.5772
▁발행	-10.5773
▁번역	-10.5775
▁분량	-10.5781
▁명인	-10.5784
▁요인	-10.5787
▁알렸다	-10.5787
▁지켜보	-10.5787
▁즐기	-10.579
▁정상화	-10.5792
▁제리	-10.5792
▁싸	-10.5793
보호	-10.5793
▁동일한	-10.5795
▁환호	-10.5802
▁알지	-10.5806
▁잡스	-10.5808
▁소득	-10.581
▁포장	-10.5815
▁유도	-10.5816
z	-10.5817
비용	-10.5819
▁자택에서	-10.5828
▁해서	-10.5829
▁테러에	-10.5834
▁go	-10.5836
▁후원	-10.5841
▁정권이	-10.5843
▁일본인	-10.5848
▁생각하지	-10.5851
금지	-10.5851
측이	-10.5853
▁심의	-10.5859
▁매달	-10.5864
▁래	-10.5868
▁국기	-10.587
▁투표에	-10.5877
▁비행사	-10.5881
▁포기하	-10.5888
에게서	-10.5895
▁이민	-10.5897
▁지지한다	-10.5901
▁연안	-10.5906
▁발표됐다	-10.5907
사의	-10.5909
▁실질적	-10.5919
육	-10.5933
▁지지자들이	-10.5935
▁얻고	-10.5941
▁동물들	-10.5946
푸	-10.595
웅	-10.5958
▁대표들	-10.596
▁상원의원과	-10.596
▁오토바이	-10.5962
▁카트리나	-10.5962
▁파바로티	-10.5962
▁피라미드	-10.5962
▁느낄	-10.5962
▁징계	-10.5962
▁정거장	-10.5962
▁보이콧	-10.5962
▁라파엘	-10.5962
▁여섯	-10.5962
▁암컷	-10.5962
▁라이언	-10.5963
▁mbc	-10.5964
▁오른쪽	-10.5966
▁상대방	-10.5967
▁통증	-10.5967
▁지원하는	-10.5967
▁회의에	-10.5969
▁모금	-10.597
▁플레이어	-10.597
▁돌파	-10.5971
▁지대	-10.5972
▁멀리	-10.5972
▁빠지	-10.5973
▁법원에서	-10.5974
ll	-10.5976
▁부실	-10.5978
▁유산	-10.5978
차량	-10.598
▁사설	-10.5981
▁산타	-10.5983
▁취해	-10.5983
▁버리	-10.5985
혔다	-10.5985
▁해병	-10.5992
으면서	-10.5994
입어	-10.5995
▁않는다면	-10.5998
▁플로리다주	-10.6
▁국가로	-10.6001
총리	-10.6002
▁쓸	-10.6003
▁노리	-10.6007
간에	-10.6007
세이	-10.6007
▁에어	-10.6007
▁감소했다	-10.6007
▁앉아	-10.6015
▁소유하고	-10.6016
련	-10.602
▁레바논군	-10.6028
▁처한	-10.6033
▁학생이	-10.6034
▁외치	-10.6036
▁입수	-10.604
▁참여할	-10.6043
▁실시했다	-10.6043
▁전해지	-10.6044
데이	-10.6059
스럽게	-10.6061
▁국민의	-10.6068
▁약세	-10.6074
▁계기	-10.6077
▁당국에	-10.6082
리스트	-10.6082
▁마을에서	-10.609
▁몰고	-10.6093
▁상하이	-10.6098
▁남자들	-10.6098
▁코커스	-10.6098
▁무장대원	-10.6101
상의	-10.6103
오는	-10.6107
▁두번째	-10.611
기록	-10.6117
▁웨	-10.6124
ive	-10.6128
▁제시했다	-10.6128
▁반영	-10.6129
▁단체인	-10.613
▁ra	-10.6131
▁하면서	-10.6132
▁주위	-10.6135
▁알아	-10.6137
▁st	-10.6141
▁살해했다	-10.6147
쪽으로	-10.615
▁온도	-10.6151
▁잠재적	-10.6151
측에	-10.6151
▁state	-10.6155
어로	-10.6156
▁감지	-10.6157
▁me	-10.6163
▁아름다	-10.6166
▁visit	-10.6166
▁관타나모	-10.6166
▁마돈나	-10.6166
▁객실	-10.6166
▁again	-10.6166
▁불가리아	-10.6166
▁imf	-10.6166
▁화합	-10.6167
▁비틀즈	-10.6167
▁fda	-10.6167
사회	-10.617
▁종료	-10.6171
▁테러조직	-10.6171
▁취한	-10.6173
▁서식지	-10.6174
▁로스	-10.6176
▁차별	-10.6177
▁전국적으로	-10.6178
▁보급	-10.6179
▁재임	-10.6179
▁재직	-10.618
▁내려졌다	-10.6181
▁개편	-10.6181
▁도심	-10.6181
▁탄소	-10.6182
헤	-10.6182
엄	-10.6182
▁범인이	-10.6184
벽	-10.6185
됩니다	-10.6189
▁열렸다	-10.6193
▁리비	-10.6195
▁대학에서	-10.6197
▁불이	-10.62
로스	-10.6203
기지	-10.6204
▁다음주	-10.6207
▁광장	-10.6215
▁원인이	-10.622
▁조지아	-10.6221
국이	-10.6222
▁모건	-10.6226
▁포함돼	-10.6233
▁방향으로	-10.6235
ss	-10.6235
▁해소	-10.6241
▁군인들이	-10.625
네스	-10.6253
었는지	-10.6254
▁범	-10.6258
▁해주	-10.6258
▁미터	-10.6271
본부	-10.6271
▁지불하	-10.6276
▁커지	-10.6281
▁플라	-10.6283
▁소식에	-10.629
▁화면	-10.6299
▁제출한	-10.63
▁중심가	-10.6308
▁le	-10.6312
▁최대의	-10.6313
▁프라이머리에서	-10.6326
리에	-10.6328
ter	-10.6328
대회	-10.633
▁본다	-10.6331
으려	-10.6333
▁악화되	-10.6334
▁개인적	-10.6336
검사	-10.634
▁이용한	-10.6344
됐을	-10.6348
▁싱	-10.6353
▁부당	-10.6354
이란	-10.6356
▁상승한	-10.636
▁농장	-10.6361
▁콜로라도	-10.6364
십	-10.6365
▁청구	-10.6366
▁뉴욕주	-10.6368
속도로	-10.6368
▁부딪	-10.6374
▁경기침체	-10.6374
▁끔찍	-10.6374
▁먹는	-10.6374
▁아테네	-10.6374
▁히틀러	-10.6374
룸	-10.6374
▁중남미	-10.6374
▁자유무역협정	-10.6374
▁take	-10.6374
▁공룡	-10.6375
▁급증	-10.6375
▁관람	-10.6375
▁벽돌	-10.6375
▁에이커	-10.6375
▁탈락	-10.6375
▁탄광	-10.6376
▁자선단체	-10.6376
▁talks	-10.6376
▁거짓	-10.6376
▁금액	-10.6377
▁점검	-10.6377
▁nk	-10.6381
▁야구	-10.6383
니까	-10.6383
▁자신감	-10.6384
▁이틀간	-10.6385
▁접수	-10.6385
▁촉진	-10.6385
정도	-10.6387
▁아마디	-10.6387
▁실린	-10.6387
▁고급	-10.6389
▁중요성	-10.6389
▁인형	-10.6391
▁존경	-10.6394
▁우즈	-10.6394
▁한국은행	-10.6395
램	-10.64
▁남용	-10.6401
▁좋아하는	-10.6404
▁dis	-10.6404
▁군함	-10.6405
▁겸	-10.6407
▁강세	-10.6409
▁세웠다	-10.6411
▁포함하여	-10.6412
▁여러분	-10.6412
지역에	-10.6416
▁라이브	-10.6418
▁노력이	-10.642
▁유발	-10.6422
없는	-10.6425
▁유튜브	-10.6432
▁털	-10.6445
주에서	-10.6447
▁각자	-10.6453
▁손해	-10.6456
바이	-10.646
▁대학생	-10.6463
평	-10.6465
▁설	-10.6473
▁약화	-10.6474
▁남편이	-10.6474
▁fir	-10.6478
▁당국자들	-10.6485
웨	-10.6487
▁소비자들	-10.6488
겠습니다	-10.6498
▁법안에	-10.6498
ry	-10.6502
▁조사한	-10.6503
▁국가들이	-10.6507
▁기소된	-10.6514
▁포함됐다	-10.6516
대가	-10.6517
▁맛	-10.652
▁로브	-10.6523
▁사용하고	-10.6524
▁잃었	-10.6525
겼다	-10.6528
▁미니	-10.6534
▁여기에	-10.6552
줬다	-10.6556
▁중이	-10.6556
▁그래	-10.6561
다란	-10.6566
▁건너	-10.657
▁퇴임	-10.6571
기자	-10.6579
잉	-10.6583
▁직면	-10.6584
▁매춘	-10.6585
▁opec	-10.6587
▁seoul	-10.6587
▁루아얄	-10.6587
▁에넹	-10.6587
▁우주왕복선	-10.6587
▁울포위츠	-10.6587
▁지지선언	-10.6587
▁허커비	-10.6587
▁징후	-10.6587
▁시라크	-10.6587
▁벌써	-10.6587
▁본격적	-10.6587
▁농업	-10.6587
▁center	-10.6588
▁파나마	-10.6588
▁드러내	-10.6588
▁범위	-10.6589
▁술집	-10.6589
▁함유	-10.6589
▁떠날	-10.6589
▁막대한	-10.659
▁사이클	-10.659
▁디스크	-10.659
▁매매	-10.6592
▁통과시켰다	-10.6593
▁서류	-10.6593
▁연계	-10.6594
▁소행성	-10.6594
▁형식	-10.6595
▁집권당	-10.6596
▁로저	-10.6598
▁경사	-10.6598
▁준수	-10.6598
▁국방성	-10.6599
▁위원	-10.6599
▁완	-10.66
▁민족	-10.66
▁정계	-10.6602
▁연간	-10.6604
▁자동	-10.6607
필	-10.6608
시오	-10.6609
▁승부	-10.6609
▁곰	-10.6613
▁얼마전	-10.6614
않	-10.6617
▁벌어졌다	-10.6617
▁내정	-10.6617
장인	-10.6622
▁표면	-10.6625
▁호소했다	-10.6628
vs	-10.6629
▁내려진	-10.6634
▁있을지	-10.6636
▁매케인이	-10.6637
업계	-10.6638
▁재미있	-10.6641
ap	-10.6646
전에서	-10.6652
▁있었습니다	-10.6653
▁나선	-10.6654
▁관여	-10.6659
장으로	-10.6661
▁이어지	-10.6663
▁do	-10.6664
버스	-10.667
▁르	-10.6679
린다	-10.6682
▁보조	-10.6684
▁세로	-10.669
▁불에	-10.6693
▁승인했다	-10.6695
▁고장	-10.6696
▁여부에	-10.6696
▁전역에서	-10.67
▁포함된	-10.6705
▁기분	-10.6718
▁타임	-10.6718
▁부족하다	-10.6719
▁어렵	-10.6725
▁베를린	-10.6727
▁촉발	-10.6728
at	-10.6729
▁so	-10.673
▁바스라	-10.6731
▁출산	-10.6734
▁항의하	-10.6736
▁바르	-10.6738
man	-10.674
▁운동가들	-10.6743
▁도달	-10.6745
분께	-10.6749
▁향상	-10.675
팅	-10.675
▁건강이	-10.6754
▁대전	-10.6757
▁참가자들	-10.6757
어서	-10.6765
사와	-10.6767
▁제공한	-10.6772
시대	-10.6776
물이	-10.6776
▁북부에	-10.6777
▁되찾	-10.6782
▁필요로	-10.6784
▁용의자로	-10.6785
▁열고	-10.6793
▁소탕	-10.6799
▁쓰레기	-10.6802
▁고이즈미	-10.6804
▁베네딕	-10.6804
▁싶지	-10.6804
▁옮기	-10.6804
▁조승희	-10.6804
톨	-10.6804
▁디자이너	-10.6804
▁쇠고기	-10.6804
▁포르노	-10.6804
▁교섭	-10.6805
▁저항세력	-10.6805
▁품목	-10.6805
▁경향	-10.6806
▁우울증	-10.6806
▁cdc	-10.6806
▁more	-10.6806
▁벗어	-10.6807
▁다룬	-10.6807
▁정착	-10.6807
▁계산	-10.6808
▁외곽	-10.6809
베르토	-10.6809
▁업체들	-10.681
▁핵개발	-10.681
▁신분	-10.681
▁지역사회	-10.6811
▁상담	-10.6811
▁왕세자비	-10.6811
▁도살	-10.6812
▁소동	-10.6815
▁에릭	-10.6818
▁많아	-10.6818
▁통보	-10.6819
▁몸에	-10.682
▁물체	-10.682
▁취했다	-10.6821
▁만년	-10.683
▁사체	-10.6831
충	-10.6836
▁지위	-10.6836
▁bo	-10.6837
op	-10.6837
▁나토군	-10.6838
▁뿐이다	-10.6838
팔	-10.6838
회담	-10.684
▁강전에서	-10.684
▁일이라고	-10.684
▁챔피언십	-10.6844
▁희망한다	-10.6846
▁서서	-10.6847
▁nation	-10.6847
뉴스	-10.6849
▁결승전에서	-10.6854
▁con	-10.6854
▁대법원장	-10.6854
▁지휘관	-10.6856
▁멀	-10.6858
▁슬	-10.686
▁도시인	-10.686
▁점거	-10.6863
▁계속된	-10.6868
학자	-10.687
공사	-10.6872
▁적발	-10.6873
▁지식	-10.6878
▁유전	-10.6879
▁농민들	-10.6881
▁걸리	-10.6882
▁되며	-10.6882
▁혼	-10.6887
▁스캔들	-10.689
▁진지	-10.6892
▁바위	-10.6892
▁모르는	-10.6898
▁고려하고	-10.6898
▁돌려	-10.6903
브라	-10.6904
▁탈레반측	-10.6905
국장	-10.6906
▁합의에	-10.6922
▁복	-10.6926
진다	-10.6926
▁가족들과	-10.6934
이션	-10.6936
▁갖는	-10.6937
▁맡	-10.6941
▁회장이	-10.6942
러스	-10.6943
▁하자	-10.6943
▁게리	-10.6943
ft	-10.6944
▁미국으로	-10.6951
되자	-10.6954
▁흔	-10.6963
▁탑승객	-10.6963
▁윈	-10.6966
▁추구하	-10.6974
▁상영	-10.6984
▁저자	-10.6985
▁대통령직	-10.6986
▁모자	-10.6989
▁무시	-10.6993
▁건강에	-10.6997
▁요원들	-10.7003
장에	-10.7003
▁다루	-10.7004
국으로	-10.7008
▁들어간	-10.7009
▁뉴햄프셔	-10.7009
▁경매에	-10.7009
ke	-10.7016
닌	-10.7019
▁tr	-10.702
▁브라이언	-10.702
▁상자	-10.7022
혈	-10.7024
랭	-10.7026
▁노트북	-10.7027
▁뉴올리언스	-10.7027
▁두려움	-10.7027
▁심장마비	-10.7027
▁아닙니다	-10.7027
▁압바스	-10.7027
▁최첨단	-10.7027
▁톰슨	-10.7027
▁open	-10.7027
▁대서양	-10.7027
▁무너지	-10.7027
▁윈도우	-10.7027
▁온실가스	-10.7027
▁부사장	-10.7027
▁글로벌	-10.7027
▁이자율	-10.7027
▁멈추	-10.7027
▁우간다	-10.7027
▁연례	-10.7028
▁가짜	-10.7028
▁정보부	-10.7029
▁붙여	-10.7029
▁파월	-10.703
▁타밀	-10.703
▁풍부	-10.703
▁고유가	-10.703
▁갈등	-10.703
▁비서실장	-10.7031
▁사용자들	-10.7031
▁공격했다	-10.7031
▁관측	-10.7031
▁오프라	-10.7031
▁개막	-10.7033
▁구름	-10.7034
▁열심	-10.7036
▁휴대	-10.7036
▁받아왔다	-10.7036
▁발급	-10.7036
▁미첼	-10.7037
▁경비대	-10.7038
▁무슨	-10.7038
▁발발	-10.7039
▁테러단체	-10.7039
▁조사할	-10.704
▁by	-10.704
▁기증	-10.704
▁문구	-10.7041
▁선임	-10.7042
▁스파이	-10.7047
▁독일인	-10.7048
▁파리에서	-10.7049
▁남측	-10.7052
▁신화	-10.7054
▁my	-10.7054
했었	-10.7055
달러	-10.7055
▁참석하지	-10.7055
▁되었	-10.7057
끼	-10.7059
▁보건부	-10.706
짐	-10.7063
쓰	-10.7066
▁부분이	-10.7072
est	-10.7072
▁확산되고	-10.7075
▁time	-10.7081
▁기상청	-10.7081
리고	-10.7084
▁프	-10.7085
▁완료	-10.7086
▁러드	-10.7088
▁가중	-10.7099
▁크레	-10.7101
▁은행들	-10.7104
▁학교에서	-10.7109
▁점수	-10.711
▁의상	-10.7111
▁착용	-10.7113
시위	-10.7115
▁반대로	-10.7117
▁정치인들	-10.7118
▁has	-10.7119
▁시인	-10.7123
▁작업이	-10.7128
▁제작사	-10.7141
▁당해	-10.7145
▁증상	-10.7147
ice	-10.7152
▁결정적인	-10.7152
스런	-10.7156
▁해적들	-10.716
▁테리	-10.7166
▁행위에	-10.7168
렉	-10.7171
▁국제공항	-10.7177
▁등장	-10.7181
▁달러가	-10.7184
원들이	-10.7186
▁입지	-10.7198
가격	-10.7199
▁정리	-10.7201
▁보도에	-10.7202
▁사진이	-10.7203
디아	-10.7208
▁불어	-10.7211
▁십	-10.7211
혼	-10.7216
▁명백	-10.7217
▁동성애	-10.7219
▁se	-10.7219
념	-10.722
▁언론과	-10.7222
▁반복	-10.7223
▁부지	-10.7225
▁au	-10.7228
▁대대적	-10.7234
▁반지	-10.7235
갔	-10.7237
스티	-10.7243
▁출입	-10.7251
▁에베레스트	-10.7252
▁마이	-10.7253
▁troop	-10.7254
▁그렇다	-10.7254
▁로드리게스	-10.7254
▁브래드	-10.7254
▁이브라힘	-10.7254
▁찾지	-10.7254
▁펼친	-10.7254
▁도요타	-10.7254
▁믿을	-10.7254
▁플루토늄	-10.7254
▁허드슨	-10.7254
▁빼앗	-10.7254
▁해수면	-10.7254
▁아마디네자드	-10.7254
▁인터폴	-10.7254
▁햄	-10.7254
▁남아프리카	-10.7254
▁빅토리아	-10.7254
▁야생동물	-10.7254
▁터널	-10.7254
▁의약품	-10.7254
▁남학생	-10.7255
▁금융위기	-10.7255
▁무덤	-10.7255
▁평화유지군	-10.7256
▁들어갈	-10.7257
▁이루어진	-10.7258
▁종이	-10.7258
▁예약	-10.7259
▁단행	-10.7259
▁남부에	-10.7259
▁완성	-10.726
▁채취	-10.726
▁밀려	-10.7261
▁유통	-10.7262
▁고위급	-10.7263
▁구류	-10.7265
▁양쪽	-10.7266
▁포터	-10.7266
▁베리	-10.7267
▁배제	-10.727
▁파키스탄군	-10.7272
▁적합한	-10.7274
▁군사력	-10.7274
▁입법	-10.7275
▁양보	-10.7276
▁house	-10.7278
▁빠졌다	-10.7278
▁임대	-10.7279
▁서안	-10.728
▁해체	-10.7282
▁준비하고	-10.7283
셀	-10.7286
▁경쟁력	-10.7286
ga	-10.7287
▁회수	-10.7288
▁체포됐	-10.7288
폰	-10.7289
▁남성들	-10.7291
▁선거법	-10.7292
▁주연	-10.7293
폐	-10.7293
빙	-10.7293
로우	-10.7295
값	-10.7299
시스템	-10.7301
roh	-10.7301
▁반전	-10.7302
▁선수로	-10.7304
▁벌여	-10.7306
▁경로	-10.7307
▁코치	-10.7309
▁미래에	-10.7315
▁나타내는	-10.7316
▁향한	-10.7321
▁직접적	-10.7322
▁ai	-10.7324
▁공무원	-10.7327
▁턱	-10.733
ve	-10.7331
▁사면	-10.7333
▁쪽	-10.7336
▁너무나	-10.7336
▁센	-10.7343
▁보인	-10.7345
해달라	-10.7347
▁법정에서	-10.7359
▁논	-10.7359
▁군이	-10.7361
▁따뜻	-10.7363
▁주에	-10.7368
▁시인했다	-10.7368
▁넘기	-10.7372
▁정기적	-10.7374
end	-10.7377
▁살았	-10.7378
▁위험성	-10.7388
▁all	-10.7391
리그	-10.7391
▁궤도	-10.7394
▁관객들	-10.7396
▁연구에서	-10.7398
am	-10.7399
▁변호	-10.7403
▁맞고	-10.7415
▁회전	-10.7416
▁목격했다	-10.742
▁연대	-10.7424
겼	-10.7429
혔	-10.743
▁뿐이라	-10.743
▁트	-10.7434
▁제이	-10.744
▁클	-10.7444
▁의존	-10.7462
▁러	-10.7462
▁좌절	-10.7467
퇴	-10.7468
▁폴리	-10.7474
▁국가에	-10.7477
▁은행에	-10.7478
▁파키스탄에서	-10.7478
코프	-10.7483
▁뉴욕시	-10.7485
▁washington	-10.7486
▁york	-10.7486
▁나눴다	-10.7486
▁느낌	-10.7486
▁망원경	-10.7486
▁성추행	-10.7486
▁스타벅스	-10.7486
▁아라비아	-10.7486
▁자르다리	-10.7486
▁최우선	-10.7486
▁토크쇼	-10.7486
▁확률	-10.7486
▁무승부	-10.7487
▁수류탄	-10.7487
▁시나리오	-10.7487
▁삭감	-10.7487
▁맥캔	-10.7487
▁에드워드	-10.7487
▁intern	-10.7487
▁활발	-10.7487
▁남자아이	-10.7487
▁긴밀	-10.7487
▁하원의장	-10.7488
▁교외	-10.7488
▁머레이	-10.7488
▁물고기	-10.7489
▁외환	-10.7489
▁추격	-10.7489
▁체류	-10.7489
▁송금	-10.7489
▁실현	-10.749
▁포스트	-10.7495
bush	-10.7495
▁간주	-10.7496
▁상금	-10.7499
▁해저	-10.7503
▁우세	-10.7505
▁낮아	-10.7507
▁상업	-10.7507
▁당부했다	-10.7508
▁맞이	-10.7508
▁저질렀다	-10.751
▁사라졌다	-10.7512
▁착수했다	-10.7513
▁맡았다	-10.7517
▁총통	-10.7518
널리	-10.7521
▁이득	-10.7521
▁상세	-10.7521
▁묻는	-10.7522
▁해당하	-10.7525
▁증	-10.7528
▁기본적	-10.753
▁목록	-10.7534
▁차질	-10.7534
칸	-10.7535
규모	-10.7535
덕	-10.7537
▁의견이	-10.7537
▁인터넷에	-10.7541
▁신도들	-10.7552
▁개인적으로	-10.7556
▁촉구하	-10.7557
▁위하여	-10.7557
▁생각해	-10.7558
▁새롭	-10.7559
▁다르	-10.756
▁화가	-10.7561
▁중심지	-10.7563
사업	-10.7563
▁기적	-10.7564
▁달한다	-10.7567
▁부검	-10.7574
▁수행할	-10.7576
▁주최	-10.7579
▁제공했다	-10.7594
리안	-10.7597
▁one	-10.7597
과정	-10.7604
▁일어나는	-10.7606
▁압수	-10.7607
ut	-10.761
▁행동에	-10.7617
▁힘들다	-10.7618
▁성공한	-10.7623
▁하에	-10.7623
관련	-10.7626
▁분야에서	-10.7634
버리	-10.7636
▁차례의	-10.7636
▁칭	-10.7636
▁이름으로	-10.7637
▁게릴라	-10.7638
▁멤버	-10.7641
▁브로	-10.7643
▁출연했다	-10.7643
▁방문해	-10.7643
▁크다	-10.7644
▁탈레반이	-10.7649
▁장관과	-10.7655
객	-10.7655
▁가방	-10.7655
▁사실에	-10.7656
▁강진이	-10.7656
▁테러리스트들	-10.7656
▁몰려	-10.766
▁방콕	-10.766
키로	-10.7667
▁검문소	-10.7668
▁제시한	-10.7672
소리	-10.7682
스케	-10.7682
▁명성	-10.7685
▁출생	-10.7687
▁패스	-10.7692
▁물러나	-10.7692
▁남아있는	-10.7692
어스	-10.7693
ara	-10.7701
▁성당	-10.7705
▁옹호	-10.7707
▁진전이	-10.7711
▁블루	-10.7714
▁암시	-10.7714
▁모른다고	-10.7719
징	-10.7719
행사	-10.7721
훈	-10.7723
▁갤런	-10.7725
▁높게	-10.7725
▁뉴델리	-10.7725
▁똑같	-10.7725
▁메드베데프	-10.7725
▁서브프라임	-10.7725
▁아웅산수치	-10.7725
▁유죄판결	-10.7725
▁세속주의	-10.7725
▁스크린	-10.7725
▁출구조사	-10.7725
▁국립공원	-10.7725
▁포셋	-10.7725
둘	-10.7726
▁권총	-10.7726
▁연패	-10.7726
▁say	-10.7726
▁증강	-10.7726
▁중앙은행	-10.7727
▁단독	-10.7727
▁카를로스	-10.7727
▁연구결과	-10.7728
▁연행	-10.7728
▁복원	-10.7729
▁환율	-10.7729
▁연출	-10.7729
▁vi	-10.7731
▁여러번	-10.7732
▁인권단체	-10.7732
상으로	-10.7734
▁부처	-10.7736
▁정기	-10.7737
▁부품	-10.7737
▁aig	-10.7738
▁뛰	-10.7738
▁수색작업	-10.7738
▁사용된	-10.7739
▁활성화	-10.774
▁고조되	-10.7744
▁유인	-10.7744
▁매력	-10.7746
▁재활용	-10.7746
▁its	-10.7747
▁카리	-10.7747
▁날아	-10.7751
▁체포되었다	-10.7751
▁th	-10.7753
▁안내	-10.7755
▁미성년자	-10.7755
▁루니	-10.7756
자르	-10.7757
▁도구	-10.7758
▁등에	-10.7758
▁v	-10.7761
▁이후에	-10.7761
▁수면	-10.7761
▁도디	-10.7761
기술	-10.7762
▁가난한	-10.7765
▁종교적	-10.7768
▁공정한	-10.7769
▁남아있다	-10.7773
▁건물에	-10.7774
▁두려워	-10.7777
▁대리인	-10.7777
▁맡았	-10.7777
▁업적	-10.7778
짓	-10.778
콜	-10.7781
폴	-10.7784
▁웨인	-10.7785
감독	-10.7788
▁선고했다	-10.7789
▁미리	-10.779
화된	-10.7791
버렸다	-10.7798
치고	-10.7801
▁간에	-10.7804
▁상당수	-10.7806
hi	-10.7811
▁딘	-10.7811
▁토대	-10.7818
▁영국과	-10.7819
▁말이	-10.7824
▁주권	-10.7826
▁안으로	-10.7826
▁시사	-10.7828
▁기분이	-10.7832
▁표준	-10.7833
내용	-10.7835
▁도착할	-10.7836
▁홍	-10.7837
▁기아	-10.7838
업자들	-10.784
▁위원장이	-10.784
▁이슈	-10.7841
▁열었다	-10.7841
▁막아	-10.7842
▁신장	-10.7848
▁방송에	-10.7849
▁결심	-10.785
▁궁	-10.7855
결과	-10.7858
▁출두	-10.7866
▁응답	-10.7869
▁자라	-10.788
▁떨어졌	-10.7889
▁판결이	-10.7897
▁사무	-10.7902
▁출신으로	-10.7903
▁석방됐다	-10.7905
▁지구에	-10.7907
▁예정이었	-10.7909
▁재정적	-10.7919
▁기각	-10.7931
▁수여	-10.7933
ick	-10.7934
▁받아들여	-10.794
▁바뀌	-10.7944
났다	-10.7944
▁제작자	-10.7945
옥	-10.7957
넨	-10.7963
▁소년이	-10.7967
▁국가비상사태	-10.7968
▁사과했다	-10.7968
▁상관	-10.7968
▁fifa	-10.7968
▁ibm	-10.7968
▁먹고	-10.7968
▁선거관리위원회	-10.7968
▁앞섰다	-10.7968
▁하이브리드	-10.7968
▁주유소	-10.7969
▁자전거	-10.7969
▁섹시	-10.7969
▁윈프리	-10.7969
▁티벳	-10.7969
▁최루탄	-10.7969
▁교착	-10.7969
▁켈리	-10.7969
▁부양책	-10.7969
▁좌석	-10.7969
▁바꿀	-10.7969
▁bda	-10.797
▁급습	-10.797
▁이뤄질	-10.797
▁돌아갈	-10.7971
▁설계	-10.7971
▁앨런	-10.7971
▁mdc	-10.7971
▁독감	-10.7971
▁추모	-10.7972
▁데리고	-10.7973
쪽	-10.7973
▁재배치	-10.7974
▁통행	-10.7975
▁줄이기	-10.7977
▁심판	-10.7978
▁휴일	-10.7979
▁ho	-10.7979
▁개체수	-10.7979
▁보증	-10.798
▁던진	-10.798
▁윌슨	-10.7982
▁출장	-10.7982
▁서브	-10.7983
▁피난	-10.7985
▁해석	-10.7986
▁전형적	-10.7987
▁인터	-10.7991
▁여파	-10.7994
▁도난	-10.7996
작업	-10.7996
▁탈북자	-10.7997
▁발견됐	-10.7998
▁않았습니다	-10.8001
▁셰	-10.8002
▁꽃	-10.8003
윈	-10.8007
▁아미	-10.8008
▁골드	-10.8014
▁산하	-10.8016
▁아프	-10.8017
▁공개하지	-10.8019
닉	-10.8022
▁얻게	-10.8024
▁드레스	-10.8025
▁전격	-10.8025
▁cd	-10.8027
롱	-10.8027
▁권고했다	-10.8029
▁외국인들	-10.803
확실한	-10.803
콘	-10.8031
▁국회에서	-10.8031
곡	-10.8032
▁명백한	-10.8032
tor	-10.8033
▁원장	-10.8033
벤	-10.8034
▁외상	-10.8039
▁사라지	-10.804
▁공주	-10.8043
▁win	-10.8044
▁메리	-10.8048
수술	-10.8049
▁피하기	-10.8052
▁활동에	-10.8052
▁김치	-10.8053
▁축	-10.8059
▁관객	-10.8065
▁분석했다	-10.8073
▁떠난	-10.8074
▁양자	-10.8075
▁수감된	-10.8076
▁war	-10.8076
▁였다	-10.8081
▁거리에서	-10.8081
교육	-10.8082
▁그랜드	-10.8085
▁이라크내	-10.8087
▁판매량	-10.8087
▁준다	-10.8091
나무	-10.8102
ha	-10.8103
▁사안	-10.8104
▁ro	-10.8108
▁지역인	-10.8108
▁방법에	-10.811
▁발견되지	-10.8115
▁거부한	-10.8131
▁출신인	-10.8134
데스	-10.8134
▁차지하는	-10.8137
에르	-10.8142
▁공격한	-10.8143
▁테러범들	-10.8156
▁것들	-10.8164
▁모두에게	-10.8168
▁조언	-10.8169
▁서쪽	-10.8176
▁초에	-10.8178
▁점이	-10.8181
▁군과	-10.819
▁가리	-10.8191
▁모아	-10.8191
▁동영상에서	-10.8191
▁am	-10.8198
▁현상이	-10.82
▁고안	-10.8205
▁담고	-10.8207
▁이씨	-10.8208
▁네바다	-10.8209
▁열리	-10.8214
룰	-10.8215
대사	-10.8217
▁아기들	-10.8217
콤	-10.8218
▁데이비스	-10.8218
냉	-10.8218
▁military	-10.8218
▁무렵	-10.8218
▁바티칸	-10.8218
▁스탈린	-10.8218
▁유람선	-10.8218
▁호나우두	-10.8218
▁국제우주정거장	-10.8218
▁맨해튼	-10.8218
▁깨끗	-10.8219
▁퇴진	-10.8219
▁국무총리	-10.8219
▁언덕	-10.8219
▁행렬	-10.8219
▁요즘	-10.8219
▁시티그룹	-10.8219
▁아스날	-10.8219
▁왜곡	-10.8219
▁유괴	-10.8219
▁국민투표	-10.822
▁보조금	-10.822
▁동참	-10.822
▁자발적	-10.822
▁절약	-10.8221
▁존스턴	-10.8221
▁자동차업계	-10.8221
▁연승	-10.8221
▁창설	-10.8222
▁불안정	-10.8222
▁역임	-10.8223
▁가끔	-10.8223
▁의원들이	-10.8223
▁모집	-10.8225
▁연방정부	-10.8225
▁개성	-10.8226
▁혼자	-10.823
▁만능	-10.8231
▁피랍된	-10.8233
▁시골	-10.8234
▁상병	-10.8234
▁합의문	-10.8234
분야	-10.8235
▁도청	-10.8236
▁수컷	-10.8236
▁부속	-10.8236
▁위생	-10.8237
▁지원금	-10.8238
됐는지	-10.8238
▁행동이	-10.8239
▁후임	-10.8243
▁준장	-10.8243
▁제치	-10.8243
land	-10.8246
▁눈물	-10.8248
▁화장	-10.8248
▁젊은이들	-10.8253
▁퀸	-10.8254
▁지나가	-10.8259
▁유물	-10.8259
▁발매	-10.8263
▁출전하지	-10.8267
▁유럽과	-10.8269
황	-10.8269
▁경주	-10.8273
▁po	-10.8275
▁매수	-10.8276
▁조선	-10.8278
▁불가능하다	-10.8278
라데	-10.8279
▁편의	-10.8282
▁칼리	-10.8283
좌	-10.8284
▁돌아와	-10.8285
동맹	-10.8285
▁pro	-10.8288
▁공개한	-10.8288
▁섭취	-10.8294
국의	-10.8296
▁전용	-10.8307
노조	-10.8309
▁병력이	-10.8313
▁호주에서	-10.8315
▁단장	-10.8317
쟁	-10.8319
▁아프간에	-10.8319
▁취하고	-10.8321
▁충	-10.8324
▁포트	-10.8325
라면	-10.8327
보기	-10.8328
▁학생들에게	-10.8329
▁본드	-10.833
카르	-10.8338
te	-10.834
▁유해	-10.8347
▁영화에서	-10.8356
▁변화에	-10.8363
▁내지	-10.837
▁갔	-10.8379
▁인정하지	-10.8379
위원	-10.8384
▁별도	-10.8384
▁판다	-10.8386
무라	-10.839
▁회사에	-10.8391
▁참가한	-10.8394
웠	-10.84
병원	-10.8409
▁지방에서	-10.8418
▁이적	-10.8426
이라면	-10.8443
▁의제	-10.8443
▁남겨	-10.8449
▁뉴저지	-10.8465
▁밴	-10.8467
▁용납	-10.8467
▁미라	-10.8471
렐	-10.8472
two	-10.8473
▁광부	-10.8474
▁음주운전	-10.8475
▁people	-10.8475
▁가즈프롬	-10.8475
▁내무장관	-10.8475
▁디트로이트	-10.8475
▁럼스펠드	-10.8475
▁마이스페이스	-10.8475
▁믿는다	-10.8475
▁박격포	-10.8475
▁억만장자	-10.8475
▁인명피해	-10.8475
▁저렴	-10.8475
▁창기라이	-10.8475
▁apec	-10.8475
▁러닝메이트	-10.8475
▁후지모리	-10.8475
▁라호르	-10.8475
▁피츠버그	-10.8475
▁코카인	-10.8475
▁가져올	-10.8475
▁알제리	-10.8475
▁국방위원장	-10.8475
▁아빠	-10.8475
▁미셸	-10.8476
▁돌아올	-10.8476
▁워렌	-10.8476
▁산맥	-10.8477
▁참배	-10.8477
▁서식하	-10.8477
▁lg	-10.8477
▁굿	-10.8478
▁클라크	-10.8478
▁치매	-10.8479
▁발령	-10.8479
▁방송에서	-10.848
▁매입	-10.8481
▁로켓포	-10.8481
▁부결	-10.8482
▁의심되는	-10.8483
▁파커	-10.8483
▁회계	-10.8484
▁시민권	-10.8484
▁구조작업	-10.8492
▁약탈	-10.8498
▁걸렸다	-10.8498
▁던졌다	-10.8501
▁전쟁이	-10.8502
▁분경	-10.8502
▁민주당이	-10.8505
▁해방	-10.8505
▁돌아왔다	-10.8507
▁투표율	-10.851
▁않습니다	-10.8511
▁sp	-10.8512
▁납치한	-10.8519
▁호텔에	-10.8519
▁전사	-10.852
▁진행될	-10.8524
▁당일	-10.8524
▁업무를	-10.8524
▁실패한	-10.8524
▁하비	-10.8525
뉴	-10.8527
▁한달	-10.8529
▁인치	-10.8531
▁덜	-10.8531
▁불과하다	-10.8533
느	-10.8534
▁진행중	-10.8536
▁강간	-10.8536
▁평화상	-10.8538
▁이스라엘에	-10.8542
균	-10.8543
▁민간인들	-10.8544
▁자치	-10.8548
▁클린턴과	-10.8548
▁해안에	-10.8551
홀	-10.8551
▁재고	-10.8554
▁빌리	-10.8556
조약	-10.8562
▁have	-10.8564
스크	-10.857
▁나치	-10.857
▁di	-10.8571
▁휘	-10.8573
▁것이기	-10.8575
▁출	-10.8576
▁롤	-10.858
▁부리	-10.858
▁시작됐	-10.8581
▁느	-10.8588
▁북부에서	-10.8588
▁아는	-10.8589
▁간부	-10.8593
ns	-10.8595
▁찾아내	-10.8603
▁유기	-10.8603
▁파크	-10.8605
▁인공	-10.8607
▁맞은	-10.861
▁틀	-10.8613
▁세운	-10.8615
▁교도소에서	-10.8617
▁수락	-10.8617
▁연말	-10.8626
담당	-10.8629
▁가르	-10.863
▁계속할	-10.8631
지원	-10.8632
ent	-10.8633
▁피랍	-10.8633
식이	-10.8637
▁비극	-10.864
sa	-10.8643
▁벌어지	-10.8646
▁부상자들	-10.8649
▁상사	-10.8652
하러	-10.8657
▁웨이	-10.8659
▁이슬라마바드	-10.8661
용으로	-10.8664
▁프랑스에서	-10.8667
어질	-10.8667
▁보좌관들	-10.8676
▁수사에	-10.8685
▁군중들	-10.8689
스테	-10.869
▁베어	-10.8695
더스	-10.8695
mb	-10.8709
▁시간에	-10.8716
▁가즈니	-10.8716
▁에티오피아	-10.8717
▁이들에게	-10.872
제품	-10.8723
핑	-10.8727
▁위치해	-10.8729
▁중점	-10.8732
▁잇따	-10.8734
▁아시아에서	-10.8734
냥	-10.8734
둥	-10.8735
소한	-10.8738
▁high	-10.8738
▁금메달	-10.8738
▁associat	-10.8738
▁엘리베이터	-10.8738
▁최고경영자	-10.8738
껏	-10.8738
넌	-10.8738
▁북극곰	-10.8738
▁secretary	-10.8738
▁라모스	-10.8738
▁남아프리카공화국	-10.8738
▁돌아다니	-10.8738
▁넬슨	-10.8738
▁떠오르	-10.8738
▁재배	-10.8739
▁포획	-10.8739
▁결합	-10.874
▁설정	-10.8741
▁석방된	-10.8741
▁배심원단	-10.8742
▁처형	-10.8742
▁진료	-10.8742
▁마찰	-10.8743
▁대테러	-10.8743
▁실무	-10.8743
▁파편	-10.8744
▁밀러	-10.8745
▁펄	-10.8746
▁포경선	-10.8746
▁때문이라	-10.8747
ting	-10.8747
▁예선	-10.8749
▁난민들	-10.8749
▁다가오	-10.875
▁던져	-10.875
▁환수	-10.8751
▁사이버	-10.8753
▁반등	-10.8754
돼있다	-10.8755
▁미셀	-10.8755
▁배포	-10.8757
▁소유주	-10.8759
자리	-10.8761
▁거친	-10.8762
▁사회당	-10.8762
▁사라진	-10.8764
▁사살했다	-10.8766
▁찾았다	-10.8766
▁넣었다	-10.8767
▁쉬운	-10.8767
▁맞았다	-10.8774
안토니오	-10.8776
▁먼지	-10.8781
▁그곳에서	-10.8781
▁대비해	-10.8788
▁기원	-10.8788
▁캔	-10.8791
▁전체가	-10.8792
▁여단	-10.8794
▁전파	-10.8794
원인	-10.8796
률이	-10.8801
▁로드	-10.8805
궁	-10.8807
▁성분	-10.8819
▁써	-10.882
칼	-10.8822
신문	-10.8831
▁열기	-10.8832
스카	-10.8832
▁독재자	-10.884
▁확인하기	-10.8843
인데	-10.8845
▁제공하기	-10.8846
▁것일	-10.8847
▁한명	-10.8848
▁수년	-10.8851
▁선택했다	-10.8854
ho	-10.8855
▁정부군과	-10.8857
▁기울	-10.886
▁월스트리트	-10.8864
자료	-10.8869
▁전시회	-10.887
▁표시했다	-10.8875
▁부위	-10.8876
▁걸려	-10.8876
▁남쪽	-10.8879
▁해왔다	-10.8881
▁대원들	-10.8882
▁대선에	-10.8883
▁폭로	-10.8883
pr	-10.8884
시장에서	-10.8888
돼있	-10.889
▁받으	-10.8897
▁ha	-10.8898
▁보유한	-10.8898
▁이른	-10.8905
▁유지할	-10.8905
▁모리	-10.8905
▁축출	-10.8906
▁약속한	-10.8906
▁일시적	-10.8906
▁과격	-10.8916
▁바지	-10.892
▁렌	-10.8924
▁목적이	-10.8925
▁회원들	-10.8941
▁서한	-10.8945
룬	-10.8949
점으로	-10.8953
▁장소에서	-10.8956
▁차지한	-10.8959
▁만났	-10.896
▁당황	-10.896
▁년형	-10.8965
▁즐기는	-10.8966
▁그들에게	-10.8971
▁장교	-10.8972
하겠	-10.8974
▁수요일에	-10.8977
버트	-10.8978
스탄	-10.899
▁소유한	-10.8991
탁	-10.8993
▁코스	-10.8993
▁벗	-10.8997
▁일단	-10.8997
▁풀어	-10.9001
▁활동이	-10.9001
▁중상	-10.9003
▁오스카	-10.9006
▁휩쓸	-10.9006
▁투명	-10.9007
▁해수욕장	-10.9008
▁human	-10.9008
▁굉장	-10.9008
▁브루니	-10.9008
▁시애틀	-10.9008
▁엉덩이	-10.9008
▁그린피스	-10.9008
▁크레이그	-10.9008
▁바하마	-10.9008
▁애완동물	-10.9008
▁흘러	-10.9008
▁대한민국	-10.9008
▁카지노	-10.9008
▁고등법원	-10.9008
▁사진들	-10.9009
▁브레이크	-10.9009
▁면접	-10.9009
▁스콧	-10.9009
▁무소속	-10.9009
▁동굴	-10.9009
▁밝혀냈다	-10.9009
▁슈퍼볼	-10.9009
▁오늘밤	-10.901
보드	-10.901
▁낭비	-10.901
▁불황	-10.901
▁치를	-10.901
▁좌파	-10.9011
▁장벽	-10.9011
▁추천	-10.9011
▁소총	-10.9011
▁텐트	-10.9011
▁절감	-10.9012
▁돌아온	-10.9012
▁정밀	-10.9012
▁외쳤다	-10.9012
▁풍	-10.9012
▁생명체	-10.9013
▁승점	-10.9013
▁유골	-10.9013
▁교내	-10.9014
▁치른	-10.9014
▁금속	-10.9014
▁창조	-10.9014
▁다행히	-10.9015
▁반환	-10.9015
▁소비자들이	-10.9015
▁보수당	-10.9016
▁휴식	-10.9017
▁매출	-10.9018
▁네바다주	-10.9018
▁기념식	-10.9019
▁위축	-10.9019
▁인도분	-10.9021
▁느낀다	-10.9021
▁병사들이	-10.9021
▁단식	-10.9023
bc	-10.9023
▁처음에	-10.9026
▁헐	-10.9026
학생	-10.9027
▁김씨	-10.9027
▁밀어	-10.9028
▁아민	-10.9029
▁할지	-10.9029
▁남미	-10.9032
▁알라	-10.9033
▁위협에	-10.9034
▁제보	-10.9034
▁무산	-10.9035
▁화제	-10.9035
▁공안	-10.9037
▁분야에	-10.9038
▁소화	-10.9039
▁케이시	-10.9042
▁구단	-10.9044
▁받아들이지	-10.9046
▁나체	-10.9048
▁출연해	-10.9048
▁버지니아주	-10.9049
▁경찰청	-10.9049
▁클린턴에	-10.9055
▁남쪽으로	-10.9055
▁근처에	-10.9056
시티	-10.9059
▁좋아한다	-10.9064
▁장성	-10.9066
▁통해서	-10.907
▁번지	-10.907
▁지지자들에게	-10.9071
▁이어졌다	-10.9072
▁원치	-10.9074
칭	-10.9076
ci	-10.9076
연구	-10.908
안전	-10.9083
▁거래됐다	-10.9085
▁피어	-10.9092
멜	-10.9093
납	-10.9095
척	-10.9097
▁컵	-10.9097
▁살아남	-10.9098
▁과제	-10.9098
▁유지하	-10.9099
캐	-10.9102
앤	-10.9102
김	-10.9102
타운	-10.9106
▁입어	-10.9106
때까지	-10.9108
▁국경지역	-10.9113
ah	-10.9117
me	-10.9118
ld	-10.9122
▁강타한	-10.9122
▁위장	-10.9122
▁복장	-10.9124
▁제일	-10.9124
tu	-10.9125
li	-10.9127
성에	-10.9129
▁언급한	-10.913
▁위안	-10.9138
▁입수한	-10.9139
되었는데	-10.9141
▁탄도	-10.9144
na	-10.9144
▁참여했다	-10.9145
▁전하고	-10.9146
▁러시아와	-10.9148
▁명단에	-10.9151
타임	-10.9151
▁내리는	-10.9153
▁재해	-10.9153
im	-10.9154
▁최고위	-10.9164
▁폭력사태로	-10.9165
▁성명서	-10.9167
ish	-10.9175
▁신원이	-10.9177
▁시일	-10.9177
▁인정받	-10.9183
▁법적으로	-10.9185
▁대안	-10.9192
▁세트에서	-10.9195
▁시청자들	-10.9199
▁리오	-10.9206
군의	-10.9207
▁종식	-10.9207
▁방문에	-10.921
ance	-10.921
▁결정이	-10.921
▁상원에서	-10.9212
▁목요일에	-10.9212
▁조국	-10.9214
ig	-10.9216
▁친환경	-10.9219
▁자녀들	-10.9222
▁이라크인	-10.9225
▁취소했다	-10.9228
▁쳐	-10.923
마르	-10.9237
▁압	-10.9241
▁안나	-10.9246
▁밝히기	-10.9249
▁발이	-10.9255
벨트	-10.9265
▁이민자들	-10.9267
▁피고인	-10.9267
tri	-10.927
fi	-10.927
까요	-10.9273
▁편집	-10.9275
tv	-10.9277
▁못하다	-10.9279
▁전쟁에서	-10.928
as	-10.928
▁재선	-10.9281
▁england	-10.9286
▁기준금리	-10.9286
▁듣지	-10.9286
▁머리카락	-10.9286
▁버냉키	-10.9286
▁슬픔	-10.9286
▁원자바오	-10.9286
▁크로아티아	-10.9286
▁텔레비전	-10.9286
▁트라볼타	-10.9286
▁헬리콥터	-10.9286
▁호날두	-10.9286
▁규칙	-10.9286
▁유수프	-10.9286
▁침묵	-10.9286
▁스튜디오	-10.9286
▁감바	-10.9286
▁바바라	-10.9286
▁휴스턴	-10.9286
▁election	-10.9286
▁멸종위기	-10.9286
▁신용카드	-10.9287
▁놀랄	-10.9287
▁처방	-10.9287
▁원주민	-10.9287
▁숨겨	-10.9287
▁모험	-10.9287
▁대선주자	-10.9288
▁논문	-10.9288
▁확인되	-10.9288
▁요르단강	-10.9288
▁남녀	-10.9288
▁레이저	-10.9289
축구연맹	-10.9289
▁반체제	-10.9289
▁도핑	-10.9289
▁구호품	-10.929
▁알려	-10.9291
▁금융시장	-10.9291
ff	-10.9293
▁탐사선	-10.9294
호가	-10.9296
▁역대	-10.9297
▁대기업	-10.9297
▁입력	-10.9298
▁가택	-10.9301
▁일어나지	-10.9301
▁코피	-10.9301
▁헬	-10.9304
▁지나치	-10.9304
▁졸업	-10.9304
업체들	-10.9305
▁첫날	-10.9311
▁끝났다	-10.9311
▁폴슨	-10.9312
사고	-10.9312
▁얻었	-10.9313
▁시카고에서	-10.9313
▁우승자	-10.9314
▁느끼는	-10.9315
▁라울	-10.9318
▁개발한	-10.9319
▁경비원	-10.9319
▁조씨	-10.9319
▁복지	-10.932
▁이르기	-10.932
▁여기서	-10.9326
▁장기적	-10.9329
▁작용	-10.9332
장비	-10.9334
▁계속하고	-10.9334
▁유명하다	-10.9334
▁중단됐다	-10.9335
▁개설	-10.9335
ant	-10.9336
▁약품	-10.9337
▁카르	-10.9338
▁선원들	-10.934
하에	-10.9342
▁결함	-10.9347
▁틸	-10.9352
▁프레	-10.9353
▁탈레반과	-10.9354
▁가족들에게	-10.9356
▁날이	-10.936
▁lo	-10.9362
▁선적	-10.9363
▁이른다	-10.9364
▁절도	-10.9364
▁세부	-10.9367
▁군중	-10.9368
▁처분	-10.9371
▁na	-10.9371
▁sk	-10.9377
▁시작될	-10.938
▁투기	-10.9382
투표	-10.9382
맥	-10.9383
▁개최된	-10.9387
서비스	-10.9388
▁중반	-10.9389
▁결승전	-10.9389
구조	-10.9393
세계	-10.9395
월드	-10.9397
▁세가	-10.9401
▁총리직	-10.9402
▁과정에	-10.9406
▁민주적	-10.9406
▁쓰는	-10.9413
시에서	-10.9414
▁강에	-10.9415
▁멜	-10.9415
▁대통령으로	-10.9423
▁강화할	-10.9424
▁바닥에	-10.9429
▁변호인	-10.9432
▁배심원	-10.9433
▁탐험	-10.9437
▁선박이	-10.944
▁조직원	-10.9444
▁움직임이	-10.9445
▁집회에	-10.945
▁남아있	-10.9454
▁돌입	-10.9467
기때문에	-10.9468
▁선출된	-10.9472
▁농민	-10.9474
▁들어와	-10.9474
▁피살	-10.9478
▁다수의	-10.9478
세포	-10.9479
▁공무원들	-10.948
▁연구가	-10.9481
바르	-10.9487
텐	-10.9488
city	-10.9491
▁형태로	-10.9496
▁취하지	-10.9497
▁자카르타	-10.9504
카드	-10.9507
▁조치로	-10.9517
▁물어	-10.9518
어요	-10.9519
럴	-10.952
사이트	-10.9521
▁급락	-10.9522
ot	-10.9523
부를	-10.9525
▁추락한	-10.9534
▁지수가	-10.9541
럽	-10.9546
치료	-10.9556
▁넘겨	-10.956
▁구제금융	-10.9561
▁or	-10.9563
▁음료	-10.9565
▁요청한	-10.9566
▁알바니아	-10.957
닛	-10.9572
▁court	-10.9572
▁뮌헨	-10.9572
▁산타클로스	-10.9572
▁애니메이션	-10.9572
▁애틀랜타	-10.9572
▁칸다하르	-10.9572
▁식민지	-10.9572
▁맥케인	-10.9572
▁브루스	-10.9572
▁마사지	-10.9572
▁히드로	-10.9572
▁적응	-10.9573
▁몸값	-10.9573
▁기획	-10.9573
▁집필	-10.9574
▁군사작전	-10.9575
▁금년	-10.9575
▁출국	-10.9576
▁가죽	-10.9576
▁마침	-10.9577
▁새겨	-10.9577
▁권위	-10.9578
▁소유권	-10.9579
▁추문	-10.958
▁장거리	-10.9581
▁모래	-10.9583
▁복수	-10.9583
▁대폭	-10.9584
▁칼라	-10.9584
▁불교	-10.9584
▁나와즈	-10.9584
▁모으	-10.9584
▁편안	-10.9585
▁신병	-10.9585
▁주주들	-10.9586
▁다이애나비	-10.9587
같이	-10.9588
▁받아들였다	-10.9588
▁대령	-10.959
▁구경	-10.9591
▁모았다	-10.9591
▁교육부	-10.9592
▁예선전	-10.9594
▁있겠	-10.9594
▁알렌	-10.9596
▁주말에	-10.9598
▁관점에서	-10.9602
▁상관없	-10.9604
▁변호사들	-10.9605
▁su	-10.9605
▁장기간	-10.9609
▁자정	-10.9609
▁예정되어	-10.9612
▁태우고	-10.9613
▁녹화	-10.9616
▁폭격기	-10.9617
▁여아	-10.9618
▁참사	-10.9619
▁프로그램이	-10.9619
▁주소	-10.9622
▁인명	-10.9622
라인	-10.9623
▁효율적	-10.9626
▁시계	-10.9629
냈	-10.9631
▁남성과	-10.9631
▁내고	-10.9631
▁여야	-10.9631
▁차원에서	-10.9632
▁발달	-10.9632
▁증언했다	-10.9639
▁그곳에	-10.964
▁인도주의적	-10.9641
▁하더라	-10.9642
였고	-10.9643
▁돈이	-10.9646
슬리	-10.9647
▁레이더	-10.9647
▁데비	-10.9647
받은	-10.9649
▁클로	-10.9652
▁제외하고	-10.9652
▁무시하	-10.9654
▁입원했다	-10.9661
▁구호단체	-10.9663
▁조절	-10.9664
▁대우	-10.9665
▁특별히	-10.9667
▁week	-10.9679
▁프라	-10.968
▁생존자들	-10.9684
▁확신했다	-10.9686
▁중심부	-10.9688
▁줄리	-10.969
베르	-10.9692
어진	-10.9693
디스	-10.9696
▁확인된	-10.9703
▁파키스탄에	-10.9707
▁제트	-10.9708
▁중계	-10.9711
▁이송됐다	-10.9718
▁대회에	-10.972
▁기울이	-10.9722
▁fr	-10.9727
▁투자자	-10.9728
▁들었	-10.974
▁선장	-10.9743
▁판결에	-10.9745
▁경우에	-10.9746
▁내리고	-10.9747
▁정치적으로	-10.9752
▁예술가	-10.9753
▁경제학자들	-10.9754
▁평양에서	-10.9755
▁있으	-10.9762
▁개발에	-10.9763
▁top	-10.9763
▁오바마에	-10.9764
ard	-10.9765
기금	-10.9767
▁대답했다	-10.9768
▁내용에	-10.9768
▁강화하고	-10.977
▁어린이들이	-10.977
▁초래	-10.9771
▁내게	-10.9771
▁국회의원들	-10.9772
▁없애	-10.9776
▁있었기	-10.9779
▁원하지	-10.978
▁분쟁이	-10.978
▁명령했다	-10.9788
▁장악	-10.9801
▁교전이	-10.9813
▁제작된	-10.9817
tion	-10.9821
부가	-10.9827
▁묵	-10.9828
베리	-10.9828
▁일으키는	-10.983
현정	-10.9835
만으로	-10.9837
able	-10.9838
▁열렸	-10.9839
▁재활	-10.984
▁엘리	-10.9842
▁금연	-10.9842
▁필립	-10.9843
▁자랑	-10.9845
▁실업	-10.9846
▁이슬람교	-10.9848
▁강행	-10.9853
일라	-10.9859
▁근무하	-10.9859
▁한다면	-10.9862
▁세탁	-10.9865
▁securit	-10.9866
▁끊임없	-10.9866
▁느꼈다	-10.9866
▁땅에	-10.9866
▁떨어질	-10.9866
▁마케팅	-10.9866
▁베어스턴스	-10.9866
▁베탕쿠르	-10.9866
▁부적절	-10.9866
▁브리트니	-10.9866
▁비즈니스	-10.9866
▁썼다	-10.9866
▁아칸소	-10.9866
▁에르도간	-10.9866
▁에스토니아	-10.9866
▁오케스트라	-10.9866
▁타협	-10.9866
▁테러지원국	-10.9866
▁펭귄	-10.9866
▁캔자스	-10.9866
▁되돌아	-10.9866
▁오렌지	-10.9866
▁prim	-10.9866
▁주당	-10.9866
▁맥도날드	-10.9866
▁소탕작전	-10.9866
▁줬다	-10.9867
▁고릴라	-10.9867
▁bank	-10.9867
▁남기	-10.9867
▁영광	-10.9868
▁호송	-10.9869
▁수만명	-10.9869
▁버튼	-10.9869
▁저택	-10.9869
▁조짐	-10.987
최지	-10.9871
▁영감	-10.9872
▁만여명	-10.9872
▁타결	-10.9872
▁적자	-10.9873
▁소속의	-10.9874
▁서약	-10.9874
▁개념	-10.9875
▁들어온	-10.9875
▁평소	-10.9876
▁포위	-10.988
▁풀려났다	-10.988
▁식수	-10.9881
▁파문	-10.9883
▁여유	-10.9883
▁mm	-10.9883
▁입구	-10.9884
▁공조	-10.9884
▁줄이는	-10.9885
▁연방준비제도이사회	-10.9886
▁가져다	-10.9887
▁말에	-10.9888
▁적극	-10.9889
▁갈라	-10.989
▁적십자사	-10.9891
▁겪었다	-10.9893
▁버전	-10.9894
▁국가인	-10.9896
▁미치지	-10.9898
▁유용	-10.9898
▁잡았다	-10.9899
▁앞선	-10.9899
▁하산	-10.9899
▁사회에	-10.9901
▁가자지구에서	-10.9907
▁지속되	-10.9908
▁일원	-10.9908
▁슛	-10.9908
ea	-10.9911
▁괴한	-10.9918
▁갖기	-10.9918
▁방문객들	-10.992
▁지역이	-10.9921
▁파일	-10.9925
▁해명	-10.9929
▁붕괴된	-10.9937
▁인도네시아에서	-10.9939
▁전년	-10.9945
농	-10.995
학과	-10.995
▁싶어한다	-10.9953
min	-10.9954
▁나아가	-10.9955
▁주차	-10.9958
▁성지	-10.9965
▁미만	-10.9967
▁세관	-10.997
▁청년	-10.997
▁펼쳐	-10.9971
▁도주	-10.9972
킹	-10.9975
얀	-10.9979
▁손자	-10.9982
협정	-10.9982
홍	-10.9982
떼	-10.9983
▁행사에서	-10.9984
▁중심에	-10.9985
▁말하면서	-10.9989
▁건수	-10.9989
▁심사	-10.9991
▁보호하고	-10.9997
▁국회에	-10.9997
▁재판이	-11.0002
▁재판에	-11.0006
▁프랑스와	-11.0009
▁유지하기	-11.0009
▁동맹국들	-11.0011
▁지원하기	-11.0015
▁파손됐다	-11.0017
▁킨	-11.0019
있었다	-11.0022
▁통신사	-11.0024
▁죽었다	-11.0027
▁여사와	-11.0033
▁오리	-11.0033
부분	-11.0035
▁비만	-11.0037
▁생산하는	-11.0037
▁자금이	-11.0041
▁관광지	-11.005
▁독재	-11.0056
▁제공하고	-11.0058
▁앙	-11.0071
▁쏟아	-11.0073
선거	-11.0081
▁사람과	-11.0084
▁바닥	-11.0085
▁논의했다	-11.0089
스에서	-11.0093
▁사임했다	-11.0094
▁부르는	-11.0096
▁고무	-11.0098
▁공판	-11.0101
▁물었다	-11.0108
▁높아	-11.0111
럼	-11.0113
▁클라	-11.0113
한국	-11.0113
▁가족에게	-11.0117
▁추락했다	-11.0121
▁벌어졌	-11.0127
▁의장이	-11.0128
워드	-11.0129
▁나타났	-11.013
받고	-11.013
▁전체에	-11.0134
▁인접	-11.0135
▁파파라치	-11.0136
▁요청할	-11.0139
당했다	-11.015
▁자행	-11.0151
해준	-11.0152
널	-11.0153
▁안전에	-11.0154
▁오클라호마	-11.0161
렘	-11.0162
ml	-11.0165
나갈	-11.0165
▁마을에	-11.0165
▁득표	-11.0168
▁종합	-11.0168
딜	-11.0169
겔	-11.0169
눌	-11.0169
▁골든글로브	-11.0169
▁구호물품	-11.0169
▁뉴욕타임스	-11.0169
▁동유럽	-11.0169
▁야스쿠니	-11.0169
▁유니세프	-11.0169
▁일으켜	-11.0169
▁좋게	-11.0169
▁침팬지	-11.0169
▁티셔츠	-11.0169
▁포괄적	-11.0169
▁항생제	-11.0169
▁황우석	-11.0169
▁흰색	-11.0169
렁	-11.0169
▁덕분에	-11.0169
▁유조선	-11.0169
▁다운로드	-11.0169
▁크로커	-11.0169
▁니케이	-11.0169
▁첩보	-11.0169
▁유적지	-11.0169
▁모로코	-11.0169
▁착취	-11.0169
▁혈액	-11.0169
▁바꿔	-11.017
▁트로피	-11.017
▁출범	-11.017
▁press	-11.017
▁양키스	-11.017
▁요새	-11.017
▁kim	-11.017
▁운반	-11.017
▁wto	-11.0171
▁폭등	-11.0172
▁하얀	-11.0172
▁대략	-11.0172
▁패리스	-11.0172
▁복권	-11.0172
▁근교	-11.0172
▁어두운	-11.0173
▁현지경찰	-11.0173
▁풍선	-11.0174
▁안된다	-11.0174
▁차원	-11.0174
▁아이돌	-11.0176
▁지도자들과	-11.0178
▁거둔	-11.0178
▁상반기	-11.0179
▁볼튼	-11.0179
▁엘바	-11.018
▁설문	-11.018
▁영원	-11.0181
▁소란	-11.0183
▁명칭	-11.0185
▁쏘	-11.0185
▁기술이	-11.0186
▁알려주	-11.0186
▁제프리	-11.0189
▁뒤집	-11.0189
▁부유	-11.0192
▁타이어	-11.0192
의원	-11.0193
▁모르겠다	-11.0193
▁입학	-11.0194
▁조속	-11.0195
▁줄여	-11.0195
▁묘지	-11.0197
▁예상보다	-11.02
▁의자	-11.0201
▁분실	-11.0206
▁미시간	-11.0206
사이	-11.0208
▁전염	-11.0209
▁기권	-11.021
▁플	-11.021
▁제방	-11.0211
▁주장했지만	-11.0213
▁지구에서	-11.0213
▁채권	-11.0213
▁실어	-11.0215
▁중령	-11.0217
▁주류	-11.0217
▁양성	-11.0218
▁투표할	-11.0219
후보	-11.0219
▁시위자	-11.0223
▁착용하	-11.0227
▁트레	-11.0228
▁gu	-11.0229
▁개최되	-11.0235
▁과시	-11.0235
po	-11.024
▁사용하기	-11.0242
레나	-11.0244
▁지낸	-11.0244
ted	-11.0249
▁추구	-11.0255
▁스텔	-11.0263
▁사랑하는	-11.0268
▁프레드	-11.0269
▁보도한	-11.0269
▁참가하	-11.0274
▁보낸다	-11.0275
▁보내기	-11.0276
▁끄	-11.0277
▁기리	-11.0278
▁usa	-11.028
▁기자들이	-11.0287
생활	-11.0287
▁명에서	-11.029
▁아시	-11.0298
▁과장	-11.0301
사진	-11.0304
생산	-11.0306
▁장착	-11.031
▁몽	-11.0312
▁설치된	-11.0314
▁장악하	-11.0315
워진	-11.0319
▁당의	-11.0328
▁흥미	-11.033
▁신도	-11.034
▁증인	-11.034
차이	-11.0343
▁ge	-11.0346
▁올리고	-11.0348
▁부문에서	-11.0354
▁친척	-11.0359
bi	-11.036
▁가기	-11.0363
▁납	-11.0365
우드	-11.0367
▁있거	-11.0371
연대	-11.0377
받아	-11.0389
▁나타난	-11.0391
▁사용한다	-11.0393
▁환경에	-11.0394
▁he	-11.04
▁전설	-11.0401
▁서울에	-11.0403
▁죽이	-11.0404
베스	-11.0406
▁이해할	-11.0414
iz	-11.042
▁명시	-11.0428
▁라인	-11.0429
▁클레	-11.0429
느냐	-11.0435
▁통일	-11.0444
▁부장	-11.0448
▁시까지	-11.0448
이기도	-11.0452
▁나섰	-11.0452
▁국무장관이	-11.0453
▁사육	-11.0454
▁파이	-11.0455
▁아바	-11.0459
잡	-11.0465
▁표결	-11.0471
리오	-11.0472
▁위협하	-11.0473
촌	-11.0474
▁피닉스	-11.0477
왈	-11.0477
▁자신에	-11.0479
▁지방의	-11.0479
▁아랍에미리트	-11.0481
밍	-11.0481
▁afp	-11.0481
▁london	-11.0481
▁nfl	-11.0481
▁wfp	-11.0481
▁걷는	-11.0481
▁국회의사당	-11.0481
▁로스앤젤레스	-11.0481
▁베이루트	-11.0481
▁불렀다	-11.0481
▁스튜어트	-11.0481
▁클루니	-11.0481
▁평화협상	-11.0481
▁마라도나	-11.0481
▁제니퍼	-11.0481
▁되풀이	-11.0481
▁모바일	-11.0481
▁셰이크	-11.0482
▁교과서	-11.0482
▁린제이	-11.0482
▁잔혹	-11.0482
▁lpga	-11.0482
▁취득	-11.0482
▁여자아이	-11.0482
▁진흙	-11.0482
▁페이스북	-11.0482
▁물러	-11.0482
▁침범	-11.0482
▁흐름	-11.0482
▁칭찬	-11.0482
▁정해지지	-11.0482
▁년전	-11.0483
▁닉슨	-11.0483
▁학년	-11.0483
▁가속화	-11.0483
▁호킹	-11.0483
▁연극	-11.0483
▁워너	-11.0484
▁스카이	-11.0484
▁불평	-11.0484
▁같습니다	-11.0484
▁학위	-11.0485
▁점프하	-11.0486
▁지연되	-11.0487
▁모터	-11.0487
▁식물	-11.0487
▁추출	-11.0488
▁병역	-11.0488
former	-11.049
▁뚫	-11.049
▁기술자	-11.049
▁극단주의자들	-11.0491
▁기습	-11.0491
▁현행	-11.0491
▁지르	-11.0492
▁유행	-11.0493
▁정교	-11.0493
▁우방	-11.0495
▁전대통령	-11.0496
▁세인트	-11.0496
▁광부들	-11.0498
▁연임	-11.0499
▁줄이고	-11.05
▁보호하는	-11.0501
▁가자지구에	-11.0503
▁전략적	-11.0504
▁회부	-11.0505
▁격리	-11.0506
▁동전	-11.0506
▁참여하는	-11.0507
▁가축	-11.0507
▁기후변화	-11.0509
▁인계	-11.051
▁정오	-11.0511
▁디스	-11.0512
▁그라운드	-11.0514
▁참여하지	-11.0514
▁호화	-11.0516
▁머리에	-11.0516
▁비유	-11.0516
▁불화	-11.0521
▁우리베	-11.0523
▁아이티	-11.0525
▁참석해	-11.0526
▁때로	-11.0526
▁이룩	-11.0527
▁봉	-11.0528
▁억제	-11.0529
▁열정	-11.053
▁연방수사국	-11.0532
▁시달리고	-11.0533
▁성공회	-11.0534
▁거주지	-11.0534
▁반미	-11.0536
▁fe	-11.0537
▁감시단	-11.0538
▁life	-11.0538
려진	-11.0541
▁뉴욕에	-11.0542
▁실력	-11.0545
▁비교해	-11.0555
▁솔	-11.0556
▁자크	-11.0559
▁개조	-11.056
달라	-11.0561
▁공정	-11.0563
▁독자	-11.0564
▁만여	-11.0565
▁바다로	-11.0571
▁당했	-11.0575
said	-11.0577
시켜야	-11.0577
▁위협했다	-11.058
▁사제	-11.0581
▁이어질	-11.0582
▁무장대원들	-11.0582
▁노력에	-11.0584
▁생성	-11.0585
▁선정됐다	-11.0585
았던	-11.0586
▁닐	-11.0587
안보	-11.0589
▁수용할	-11.0589
버릴	-11.0596
투어	-11.0599
▁끝나는	-11.0603
▁서명했다	-11.0605
▁단기	-11.0608
▁정신과	-11.0609
▁전범	-11.061
▁주교	-11.0611
▁우주인	-11.0615
▁해외에서	-11.0617
▁man	-11.0617
▁상의	-11.0622
시즌	-11.0622
▁하도록	-11.0623
개혁	-11.0623
축구	-11.0626
어져	-11.0628
▁인기가	-11.0629
▁들어가는	-11.064
▁되었습니다	-11.064
▁의원들에게	-11.0646
▁파손되	-11.0651
▁정보국	-11.0654
▁적당	-11.0654
머리	-11.0655
▁동영상에	-11.0657
▁청소년들	-11.0661
버린	-11.0666
lee	-11.0667
▁떼	-11.0671
르게	-11.0673
군은	-11.0678
요원	-11.068
▁확보했다	-11.0681
회견에서	-11.0683
▁아내와	-11.0684
▁오픈에서	-11.0684
▁염려	-11.0688
▁특이	-11.0691
▁리버	-11.0702
▁모스	-11.0707
▁선언한	-11.0708
▁당국과	-11.0709
여부	-11.0712
▁일상적	-11.0712
fa	-11.0713
▁힐튼이	-11.0714
▁관리자	-11.0714
▁어머니와	-11.0715
▁학생들과	-11.0721
▁참가했다	-11.0722
레이크	-11.0732
▁헤어	-11.0733
▁기간에	-11.0735
▁단계에	-11.0737
커스	-11.0737
▁유대	-11.0739
tra	-11.074
▁중단하고	-11.0741
회의에서	-11.0743
▁혼란에	-11.0745
해져	-11.0746
▁취급	-11.0747
▁본국	-11.0748
▁이뤄	-11.0754
▁지니	-11.0755
▁참석하기	-11.076
리어	-11.0761
전쟁	-11.0773
▁남편과	-11.0774
▁승자	-11.0776
기위해	-11.0779
보고	-11.0784
인들에게	-11.0788
▁소방관	-11.079
▁확고	-11.0792
퀴	-11.0793
국들	-11.0793
▁루이지애나	-11.0793
꾼	-11.0797
ine	-11.0797
▁국민이	-11.0799
▁work	-11.0799
▁살아가	-11.08
▁주장이	-11.0801
▁선거전	-11.0802
▁지지도	-11.0803
▁결의안에	-11.0804
팩	-11.0804
▁url	-11.0804
▁광우병	-11.0804
▁뉴캐슬	-11.0804
▁당나귀	-11.0804
▁매머드	-11.0804
▁무너져	-11.0804
▁싶은	-11.0804
▁이르렀다	-11.0804
▁집무실	-11.0804
▁카자흐스탄	-11.0804
▁국가주석	-11.0804
▁몸무게	-11.0804
▁재확인	-11.0804
마누엘	-11.0804
▁김선일	-11.0804
▁대주교	-11.0804
▁무너진	-11.0804
▁중산층	-11.0804
▁글래스고	-11.0804
▁예언자	-11.0804
▁지중해	-11.0804
▁영부인	-11.0804
▁세비야	-11.0804
▁퇴치	-11.0804
▁효력	-11.0804
▁수십억	-11.0804
▁맞붙	-11.0805
▁쇼핑몰	-11.0805
▁연휴	-11.0805
▁아마존	-11.0805
▁벌어들	-11.0805
▁둘째	-11.0805
▁왕복선	-11.0805
▁높아졌다	-11.0805
▁농담	-11.0805
▁공군기지	-11.0805
▁레논	-11.0806
▁예배	-11.0806
▁허블	-11.0806
▁취약	-11.0806
▁유혈	-11.0806
▁몰래	-11.0806
▁할아버지	-11.0807
▁당원	-11.0807
▁선데이	-11.0807
문화	-11.0807
▁밤새	-11.0808
▁공백	-11.0808
book	-11.0808
▁may	-11.0808
▁피닉스호	-11.081
▁종양	-11.0811
▁제패	-11.0813
▁천문학자들	-11.0813
▁폐기물	-11.0813
▁제안한	-11.0814
▁감량	-11.0814
▁우연	-11.0814
▁계열사	-11.0815
▁코너	-11.0815
▁책정	-11.0815
▁사법부	-11.0816
▁기름	-11.0816
▁난동	-11.0816
▁이례적	-11.0818
▁부른	-11.0819
▁정체	-11.0819
▁확실하지	-11.0821
▁지속될	-11.0821
▁버진	-11.0822
▁재발	-11.0824
▁off	-11.0825
▁강연	-11.0825
▁성경	-11.0825
▁감원	-11.0825
▁페르	-11.0826
▁상위	-11.0827
▁넣어	-11.0828
▁inter	-11.0829
▁패한	-11.083
▁있었는지	-11.0831
▁방치	-11.0833
▁청소	-11.0835
▁가결	-11.0835
▁정상회의	-11.0835
점에서	-11.0835
▁공세	-11.0836
ight	-11.0837
▁부통령이	-11.0839
▁시경	-11.0839
▁비행기에	-11.084
▁나란	-11.0844
▁전송	-11.0848
▁비난한	-11.0849
son	-11.0852
▁내정자	-11.0854
▁전례	-11.0855
▁페리	-11.0855
▁원자력	-11.0856
▁한쪽	-11.0858
논	-11.086
▁채우	-11.086
▁지키기	-11.0861
▁라이프	-11.0862
▁thi	-11.0864
▁가정에	-11.0864
베키	-11.0865
▁고려해	-11.0865
▁광대	-11.0865
▁비가	-11.0866
▁ban	-11.0868
▁공부	-11.0868
▁제약	-11.0869
▁면적	-11.0871
▁사업가	-11.0872
▁낙	-11.0874
▁고수	-11.0874
▁꾸	-11.0876
▁주가가	-11.0877
▁시작되었다	-11.0878
학회	-11.0879
▁리서치	-11.0881
▁발리	-11.0887
▁현안	-11.0887
▁가서	-11.0888
롤	-11.0901
▁구상	-11.0904
▁빙	-11.0906
▁하트	-11.0909
지구	-11.091
▁기소했다	-11.0912
▁돌리	-11.0915
▁조사하기	-11.0916
▁에스	-11.0921
▁취임한	-11.0921
선에	-11.0923
▁걸었다	-11.0925
▁노스	-11.0937
▁경영자	-11.0938
▁air	-11.0939
▁모스크바에서	-11.0943
▁조사단	-11.0947
▁증진	-11.0947
▁액	-11.0949
▁시점에서	-11.0954
▁문자	-11.0956
▁공격수	-11.0959
▁요구에	-11.0969
▁총선에	-11.097
▁적대	-11.0971
총장	-11.098
▁br	-11.0982
▁연기했다	-11.0983
▁수비	-11.0984
▁총격으로	-11.099
▁발의	-11.0993
▁출전한	-11.0996
▁여자들	-11.1
▁연이	-11.1005
▁you	-11.1007
▁강사	-11.1008
▁싸우	-11.1008
미국	-11.101
직에서	-11.1011
ian	-11.1022
나라	-11.1022
전선	-11.1026
레오	-11.103
▁가져	-11.1034
▁균	-11.1037
▁포기했다	-11.1037
바로	-11.1038
▁새해	-11.1047
▁의혹에	-11.1049
▁탈출했다	-11.1051
▁노동부	-11.1051
▁시작되는	-11.1055
▁모술	-11.1058
▁금지하고	-11.1059
▁구하기	-11.1062
첼	-11.1063
▁관리인	-11.1065
▁협상단	-11.1067
▁시스템이	-11.107
▁안드레	-11.1071
▁주인이	-11.1071
▁재무	-11.1076
장과	-11.1076
▁꺼	-11.1086
▁산책	-11.1087
▁짜	-11.1093
▁엄	-11.1094
▁제공한다	-11.1096
▁판결했다	-11.1097
▁산악	-11.1101
바리	-11.1103
▁공학	-11.1105
▁불가피	-11.1106
▁선고받	-11.1107
▁측에서	-11.1109
▁독일에서	-11.111
▁만명에	-11.111
▁측면	-11.1112
▁인도에서	-11.1112
어졌다	-11.1117
▁펜실베니아	-11.1117
▁자회담에	-11.1119
▁위스콘신	-11.112
▁켄터키	-11.1122
▁경제의	-11.1123
▁언	-11.1125
▁오해	-11.1128
▁수명	-11.1131
법안	-11.1131
▁플래	-11.1132
▁메릴랜드	-11.1132
▁pi	-11.1134
▁하버드	-11.1134
융	-11.1135
▁group	-11.1137
▁도널드	-11.1137
▁마흐무드	-11.1137
▁벤자민	-11.1137
▁상파울루	-11.1137
▁세계보건기구	-11.1137
▁우주정거장	-11.1137
▁잃지	-11.1137
▁촛불	-11.1137
▁커뮤니티	-11.1137
▁그루지아	-11.1137
▁피아노	-11.1137
▁부작용	-11.1137
▁안락사	-11.1137
▁닥터	-11.1137
▁불쾌	-11.1137
▁자서전	-11.1138
▁호르몬	-11.1138
▁퇴장	-11.1138
▁office	-11.1138
▁침투	-11.1138
▁타이완	-11.1138
▁지뢰	-11.1139
▁양육권	-11.1139
▁조셉	-11.1139
▁두뇌	-11.1139
▁여배우	-11.1139
▁풍경	-11.1139
▁녹색	-11.1139
▁승객들이	-11.1139
▁쿠르드족	-11.114
▁홈런	-11.1141
▁연방법원	-11.1141
▁control	-11.1141
▁국가안보	-11.1141
▁인디아나	-11.1141
▁해킹	-11.1142
▁침수	-11.1142
ster	-11.1142
▁재벌	-11.1142
▁아끼	-11.1142
▁토양	-11.1142
▁언제든	-11.1143
▁수비수	-11.1143
▁유예	-11.1144
▁지닌	-11.1144
▁임박	-11.1145
▁정보기관	-11.1145
▁토론토	-11.1146
▁조종	-11.1148
▁구단주	-11.1149
▁시설에	-11.1149
▁후퇴	-11.115
▁기초	-11.1151
▁약혼	-11.1151
▁필리스	-11.1152
▁닷	-11.1153
▁비준	-11.1153
▁교량	-11.1153
▁문신	-11.1153
▁닭	-11.1153
▁착	-11.1154
▁런던에	-11.1155
▁활기	-11.1157
▁차림	-11.1158
▁군복	-11.1158
▁결장	-11.1159
▁중에서	-11.1159
▁일축했다	-11.116
께	-11.116
▁국회의	-11.116
▁요트	-11.1162
▁구형	-11.1164
데르	-11.1165
▁경기도	-11.1165
▁지하드	-11.1167
▁감면	-11.1168
개의	-11.1169
▁get	-11.117
▁팜	-11.1173
▁군데	-11.1173
▁모욕	-11.1175
▁비방	-11.118
▁에디	-11.1187
▁나가는	-11.1188
▁발부	-11.1189
▁확실하다	-11.119
▁그럼	-11.1191
▁시장과	-11.1194
▁범죄에	-11.1196
▁산소	-11.1197
▁군부대	-11.1198
▁듀	-11.1201
▁가고	-11.1208
▁비평	-11.1213
▁안되	-11.1215
▁자선	-11.1218
▁우드	-11.1219
▁만나기	-11.1221
▁숨기	-11.1226
종일	-11.1227
▁엠	-11.123
▁끈	-11.1231
▁경찰서에	-11.1234
▁사회주의	-11.1236
▁거론	-11.1236
▁도시로	-11.124
▁알았다	-11.1245
▁부장관	-11.1249
▁이베이	-11.125
▁상원의원에	-11.1251
▁아이들과	-11.1254
▁벌어지고	-11.1256
▁카라	-11.1258
▁기반으로	-11.1259
▁추진하고	-11.1269
▁장려	-11.1271
▁제공해	-11.1271
▁밝혀내	-11.1275
답	-11.1284
▁신문에	-11.1289
웬	-11.129
솔	-11.1293
▁과학적	-11.1296
▁들리	-11.1297
힘	-11.1298
▁포함된다	-11.1302
▁관계자들과	-11.1303
▁판사들	-11.1306
ail	-11.1307
▁미소	-11.1307
▁표현했다	-11.1308
▁강진	-11.1313
▁시작해	-11.1317
▁물리치	-11.1322
▁부상당	-11.133
▁향했다	-11.1332
▁내년에	-11.1334
▁만료	-11.1344
▁관중	-11.1347
두고	-11.1356
▁사이트에	-11.1359
▁북부지역	-11.1375
▁기다려	-11.1378
▁취소됐다	-11.1383
▁벽에	-11.1385
▁감옥	-11.1389
구역	-11.1402
▁내장	-11.1405
하르	-11.1409
▁ka	-11.1411
▁문제점	-11.1418
▁아이들에게	-11.1423
ext	-11.1426
▁도시에	-11.1427
체제	-11.1429
ber	-11.1442
▁유입	-11.1444
▁났다	-11.1445
▁그때	-11.1446
▁보호할	-11.1449
▁소식통들	-11.1452
▁콩	-11.1454
▁곤	-11.1455
▁클리	-11.1455
▁지냈	-11.1456
렌스	-11.1457
▁동일	-11.1459
▁배급	-11.1463
스틴	-11.1466
일정	-11.147
▁국정원	-11.1471
효	-11.1474
▁매사추세츠	-11.1475
▁얻는	-11.1476
▁홈페이지에	-11.1477
튜	-11.148
▁국왕이	-11.1481
▁치솟	-11.1481
▁모니터	-11.1482
즘	-11.1482
▁death	-11.1482
▁police	-11.1482
▁service	-11.1482
▁냄새	-11.1482
▁매코맥	-11.1482
▁맥코맥	-11.1482
▁메사추세츠	-11.1482
▁미드필더	-11.1482
▁박테리아	-11.1482
▁뱅크	-11.1482
▁블룸버그	-11.1482
▁슈워제네거	-11.1482
▁스피처	-11.1482
▁악영향	-11.1482
▁알자와히리	-11.1482
▁암스트롱	-11.1482
▁오징어	-11.1482
▁오키나와	-11.1482
▁이스탄불	-11.1482
▁친선경기	-11.1482
▁캠벨	-11.1482
▁케르비엘	-11.1482
▁프로듀서	-11.1482
▁그루지야	-11.1482
▁수하르토	-11.1482
▁재정경제부	-11.1482
▁동계올림픽	-11.1482
▁바쿠바	-11.1482
▁흥행	-11.1482
▁research	-11.1482
▁아스널	-11.1482
▁도덕적	-11.1482
▁중서부	-11.1482
▁방사능	-11.1482
▁침착	-11.1482
▁무하메드	-11.1483
▁속옷	-11.1483
▁계곡	-11.1483
▁종신형	-11.1483
▁탔다	-11.1483
▁면밀	-11.1484
▁생겨	-11.1484
▁태양열	-11.1484
▁대피령	-11.1484
▁환경보호	-11.1484
▁블록	-11.1484
▁아닐	-11.1484
▁요격	-11.1484
▁맹세	-11.1485
▁아담	-11.1485
▁화석	-11.1486
▁불안감	-11.1486
▁몸집	-11.1487
▁품질	-11.1487
▁총알	-11.1488
▁피셔	-11.1488
▁소령	-11.1488
▁외교관계	-11.1489
직원	-11.1489
▁교토	-11.1489
▁성행위	-11.149
▁존드로	-11.149
▁항복	-11.1491
▁지침	-11.1491
▁곡물	-11.1491
▁여년	-11.1491
▁도망	-11.1492
▁대학살	-11.1492
▁참전	-11.1493
▁반대한다	-11.1493
▁원격	-11.1494
▁배제하지	-11.1494
▁용서	-11.1496
▁같았다	-11.1496
▁정통	-11.1496
▁사원에서	-11.1497
▁얼리	-11.1499
tic	-11.15
▁수백만명	-11.1501
▁지표	-11.1502
몬드	-11.1502
▁아카데미상	-11.1503
▁제트기	-11.1505
▁산악지역	-11.1505
▁시범	-11.1506
▁댄	-11.1508
ain	-11.1508
▁필립스	-11.1509
▁가르치	-11.1509
▁후보들이	-11.1512
▁만찬	-11.1512
▁z	-11.1513
▁인정한	-11.1516
▁남았다	-11.1517
▁크리스티나	-11.1517
▁운하	-11.1519
▁붐	-11.1519
▁빵	-11.1519
▁혼다	-11.1519
▁진행됐다	-11.152
▁구제안	-11.1523
▁리타	-11.1524
▁back	-11.1525
▁지문	-11.1529
▁시위대와	-11.153
▁염	-11.1533
▁미술	-11.1537
▁정책이	-11.1537
▁단서	-11.1538
▁가난	-11.154
▁생겼다	-11.1542
▁지속된	-11.1542
▁인자	-11.1544
ni	-11.1545
통이	-11.1548
▁car	-11.1548
▁상아	-11.1549
▁윤리	-11.1549
▁장악한	-11.1551
▁캐리	-11.1557
▁검토하	-11.1557
▁결의	-11.1557
▁일방적	-11.1558
▁성전	-11.1558
공항	-11.1559
▁부진	-11.1563
▁아프가니스탄에	-11.1563
▁팬들에게	-11.1566
디는	-11.1567
▁확인해	-11.1568
▁포기하지	-11.1569
▁미치	-11.1569
▁춤	-11.1571
지오	-11.1575
▁감옥에	-11.1577
▁확인하는	-11.1578
▁조치에	-11.158
▁du	-11.1586
▁칼로	-11.1586
▁급진	-11.159
▁집안	-11.1591
아누	-11.1592
조정	-11.1593
▁일째	-11.1596
▁강조하고	-11.16
▁기한	-11.16
을때	-11.1601
▁드는	-11.1603
부의	-11.1608
▁우리들	-11.1609
aw	-11.1611
▁반군과	-11.1619
▁환영했다	-11.1622
▁말했지만	-11.1622
▁통로	-11.1624
▁미친	-11.1629
비오	-11.1634
▁임명된	-11.1638
▁말로	-11.1646
굴	-11.1649
찌	-11.165
빛	-11.1653
▁신의	-11.1657
테러	-11.1657
▁금지하는	-11.1661
▁공원에서	-11.1665
▁돌보	-11.1665
▁이브	-11.1668
▁걸려있	-11.1672
▁헤이	-11.1673
▁임원	-11.1678
▁목격한	-11.168
▁제품에	-11.1682
해진다	-11.1683
동물	-11.1689
▁란	-11.1699
▁반대했다	-11.17
중이다	-11.1702
▁그레	-11.1706
▁실직	-11.1714
▁후보에게	-11.1714
야만	-11.1716
▁미군측	-11.1722
ny	-11.1724
mar	-11.1725
▁모의	-11.1726
아나	-11.173
▁장소로	-11.1733
▁광장에	-11.1734
▁듯한	-11.1737
▁같	-11.1738
▁폰	-11.1742
▁부근에	-11.1746
ze	-11.1752
▁로라	-11.1754
▁경제와	-11.1755
▁움직임에	-11.1758
▁제작자들	-11.1761
▁고고학자들	-11.1764
▁중국인	-11.1768
▁쌍	-11.177
▁주거	-11.1775
▁기숙사	-11.1778
▁일으켰	-11.1779
▁사무실에서	-11.1789
▁납치범들	-11.1789
▁봤	-11.179
▁면에서	-11.1795
오르	-11.18
▁법정에	-11.1801
▁건물에서	-11.1802
회장	-11.1802
▁박탈	-11.1806
파르	-11.1814
▁손님	-11.1814
▁국무	-11.1822
▁스탠	-11.1828
▁leader	-11.1828
▁연령	-11.183
▁나라들	-11.1831
픈	-11.1833
▁천억	-11.1837
틱	-11.1839
▁캐롤	-11.1839
▁bmw	-11.1839
▁market	-11.1839
▁united	-11.1839
▁구스마오	-11.1839
▁놀랐다	-11.1839
▁뉴멕시코	-11.1839
▁돕고	-11.1839
▁만장일치	-11.1839
▁모하마드	-11.1839
▁브리티시	-11.1839
▁사형집행	-11.1839
▁승용차	-11.1839
▁실업수당	-11.1839
▁애틀란타	-11.1839
▁자메이카	-11.1839
▁캠퍼스	-11.1839
▁크누트	-11.1839
▁클리블랜드	-11.1839
▁탈라바니	-11.1839
▁펼칠	-11.1839
▁피추시킨	-11.1839
긋	-11.1839
▁김계관	-11.1839
▁캥거루	-11.1839
▁깃발	-11.1839
▁세실리아	-11.1839
▁비영리	-11.1839
▁냉동	-11.1839
▁economic	-11.1839
▁빈민가	-11.1839
▁퍼트레이어스	-11.184
▁벨몬트	-11.184
▁월드시리즈	-11.184
▁issue	-11.184
▁제라드	-11.184
▁편집자	-11.184
▁러셀	-11.184
▁미망인	-11.184
▁공략	-11.184
▁노왁	-11.184
▁염두	-11.184
▁구조조정	-11.1841
▁메뉴	-11.1841
▁펠리	-11.1841
▁전염병	-11.1841
▁face	-11.1841
▁무엇인지	-11.1841
▁유효	-11.1841
▁격추	-11.1841
▁평범	-11.1842
▁검찰총장	-11.1842
▁보석금	-11.1842
▁완공	-11.1842
▁간섭	-11.1842
▁멈	-11.1842
▁외교정책	-11.1842
▁사마라	-11.1842
▁감추	-11.1843
▁페리노	-11.1843
▁악재	-11.1843
▁뜨거	-11.1843
▁밀림	-11.1843
▁방북	-11.1843
▁want	-11.1843
▁보상금	-11.1843
▁천억원	-11.1843
▁eta	-11.1843
▁건립	-11.1843
▁국영방송	-11.1844
▁교황청	-11.1844
▁제이미	-11.1844
▁탄약	-11.1844
▁chin	-11.1844
▁다짐	-11.1844
▁주치의	-11.1845
▁행방	-11.1845
▁머피	-11.1845
▁발목	-11.1846
▁브라	-11.1846
▁십대	-11.1846
▁저가	-11.1846
▁야심	-11.1847
▁피플	-11.1847
▁지질	-11.1847
▁안겨	-11.1848
roll	-11.1848
건물	-11.1848
▁타입	-11.1848
▁즐거	-11.1849
▁세균	-11.185
▁악성	-11.1851
▁월마트	-11.1851
▁북동쪽	-11.1851
▁폭풍우	-11.1852
▁왔습니다	-11.1852
▁구타	-11.1852
▁북서쪽	-11.1853
놨다	-11.1853
▁중단하라	-11.1854
▁교회에서	-11.1855
▁순찰대	-11.1855
▁대피소	-11.1857
부문	-11.1858
▁종파	-11.1859
▁유포	-11.1861
▁안건	-11.1863
▁터미널	-11.1863
▁막고	-11.1864
▁것이냐	-11.1864
▁번영	-11.1865
▁안심	-11.1867
▁was	-11.1867
▁대도시	-11.187
▁최상	-11.1872
▁상원의원직	-11.1872
▁공개되지	-11.1875
ction	-11.1876
▁만든다	-11.1877
대의	-11.1882
▁통상	-11.1882
▁기내	-11.1884
▁발견되	-11.1887
▁관료	-11.1887
▁맹	-11.1888
▁유아	-11.1889
▁달아	-11.189
▁자리잡고	-11.1891
▁속한	-11.1894
▁큐	-11.1894
▁메달	-11.1895
디어	-11.1896
▁갖는다	-11.1899
▁당장	-11.1903
▁제인	-11.1904
▁바퀴	-11.1905
▁범죄자들	-11.1908
국민	-11.1908
▁전달한	-11.1909
▁아버지와	-11.1909
▁신고했다	-11.1909
▁흐르	-11.1915
▁인정하	-11.1915
▁중장	-11.1916
▁연관된	-11.1917
▁전반적으로	-11.1932
▁환영한다	-11.1932
▁릭	-11.1936
▁매트	-11.1937
ba	-11.1938
▁칩	-11.1939
시기	-11.1941
율이	-11.1946
▁카페인	-11.1949
▁소유자	-11.195
▁감독상	-11.195
▁지도자로	-11.1951
▁이끌었	-11.1957
▁포착	-11.1959
▁둔화	-11.1961
▁만들었	-11.1962
▁보여주기	-11.1964
▁링	-11.1964
▁배로	-11.1964
▁민주당과	-11.1968
▁하나이다	-11.197
죄로	-11.1972
▁묘	-11.1973
▁든다	-11.1973
ell	-11.1975
▁일정이	-11.1984
▁했을	-11.1986
▁그쳤다	-11.1989
▁가려	-11.1993
▁전당	-11.1995
▁지났	-11.1998
▁방한	-11.2004
▁차가	-11.2008
▁양상	-11.2008
▁비극적	-11.2009
▁반도	-11.2011
▁페이스	-11.2013
▁불안한	-11.2016
▁떨어지는	-11.2016
섭	-11.2018
▁피해지역	-11.2018
▁살해하겠다	-11.2019
멘	-11.2021
셰	-11.2021
핀	-11.2023
▁핀	-11.2023
펜	-11.2023
▁무장괴한	-11.2025
단이	-11.2026
리노	-11.2029
▁들어있는	-11.2032
시키지	-11.2033
▁얼음이	-11.2034
▁모르고	-11.2034
▁제조사	-11.2035
▁기자들과	-11.2036
주택	-11.2037
▁개최지	-11.204
▁블로그	-11.2044
▁물리	-11.2046
▁시판	-11.205
▁주지사와	-11.2057
▁국민에게	-11.206
▁거치	-11.2069
▁기어	-11.2072
져야	-11.2073
▁fire	-11.2077
▁흔적	-11.208
▁시리아와	-11.208
▁세라	-11.2085
병력	-11.2086
▁다음과	-11.2089
▁목소리로	-11.2092
▁대변	-11.2093
▁미트	-11.2096
▁철수시키	-11.2096
▁갑작스	-11.2098
▁이라크전에	-11.2099
▁미국에서는	-11.2106
▁영국으로	-11.2107
▁시도한	-11.2108
va	-11.2111
▁하는데	-11.2117
▁덕	-11.2128
▁에이	-11.2129
득	-11.2129
▁내로	-11.2131
▁전설적	-11.2133
▁치고	-11.2134
▁진행할	-11.2135
▁오지	-11.2142
▁줄기	-11.2145
▁열려	-11.2146
▁국가들과	-11.2149
프레	-11.2153
▁부탁	-11.216
▁si	-11.2161
▁en	-11.2177
▁사업에	-11.2179
▁ad	-11.2179
▁최대한	-11.2182
▁ta	-11.2186
▁백악관에	-11.2187
▁암호	-11.2193
▁케이	-11.2194
줘	-11.2197
혐의로	-11.2198
▁당연	-11.2199
nd	-11.2202
▁델타	-11.2203
▁덧붙	-11.2204
▁콜린	-11.2205
▁이루어	-11.2206
▁미화	-11.2208
삭	-11.2209
▁머무	-11.2209
▁내셔널	-11.2209
▁화염	-11.221
믹	-11.221
▁consumer	-11.221
▁general	-11.221
▁peace	-11.221
▁꿈이	-11.221
▁넘어섰다	-11.221
▁댈러스	-11.221
▁브로드웨이	-11.221
▁색깔	-11.221
▁에탄올	-11.221
▁여동생	-11.221
▁올바른	-11.221
▁웨스트버지니아	-11.221
▁저작권	-11.221
▁초등학교	-11.221
▁따돌리	-11.221
▁무책임	-11.221
▁흡수	-11.221
▁최우수	-11.221
▁change	-11.221
▁financ	-11.221
▁하반기	-11.221
▁이벤트	-11.221
▁chief	-11.221
▁도메인	-11.221
▁셔츠	-11.221
▁하리리	-11.221
▁call	-11.221
▁습관	-11.221
▁다뤄	-11.221
▁앙겔	-11.221
트로터	-11.221
▁수하물	-11.221
▁겁니다	-11.221
▁투데이	-11.221
▁make	-11.221
▁비평가들	-11.2211
▁빨간색	-11.2211
▁압승	-11.2211
▁유혹	-11.2211
▁홀랜드	-11.2211
▁어휘	-11.2211
▁고속	-11.2211
▁후계자	-11.2211
▁디스커버리호	-11.2211
▁열쇠	-11.2211
▁결백	-11.2212
▁코스피	-11.2212
▁평결	-11.2212
▁부회장	-11.2213
▁삼림	-11.2213
▁도쿄에서	-11.2213
▁arm	-11.2213
▁영입	-11.2213
▁글렌	-11.2213
▁자치구	-11.2213
▁이른바	-11.2213
▁초대형	-11.2214
▁제재조치	-11.2214
▁에이미	-11.2215
▁스위	-11.2215
▁영역	-11.2216
▁벌금형	-11.2216
▁허위	-11.2217
세스	-11.2217
▁데니스	-11.2217
▁개헌	-11.2218
▁독점	-11.2219
▁전미	-11.2221
▁공통	-11.2222
▁자회담에서	-11.2223
▁경위	-11.2223
▁agenc	-11.2223
▁담겨있다	-11.2223
▁외출	-11.2223
▁자매	-11.2226
▁퇴직	-11.2227
▁소감	-11.2227
▁호흡기	-11.2227
▁공방	-11.223
▁오락	-11.223
▁실내	-11.223
▁어려워	-11.223
ite	-11.2231
▁걸프	-11.2231
▁늘어났다	-11.2231
▁악화될	-11.2232
▁국정	-11.2232
▁올릴	-11.2234
▁리더	-11.2235
▁시술	-11.2235
▁노동력	-11.2236
▁자회사	-11.2238
▁대담	-11.2238
▁동성	-11.2238
▁하려	-11.2242
▁분출	-11.2242
▁투표권	-11.2243
▁도왔다	-11.2244
▁불가피하다	-11.2245
세요	-11.2245
▁상정	-11.2245
▁놓았다	-11.2246
▁자유당	-11.2246
▁초래할	-11.2249
▁후보작	-11.2251
▁입장권	-11.2251
▁우파	-11.2251
▁업	-11.2252
▁장착된	-11.2254
티스	-11.2256
트릭	-11.2258
▁조카	-11.2264
▁박수	-11.2265
▁사이즈	-11.2266
▁딜러	-11.2267
▁정한	-11.2268
▁방사	-11.2271
▁보았다	-11.2271
▁정비	-11.2272
▁iss	-11.2272
▁올리는	-11.2273
▁위법	-11.2274
▁후임자	-11.2275
▁여개	-11.2276
니에	-11.2276
우주	-11.2276
▁상태였다	-11.2277
▁부인과	-11.229
▁수잔	-11.2291
▁될지	-11.2291
▁납치됐다	-11.2293
▁지미	-11.2295
▁부자	-11.2295
하자는	-11.2299
▁관해서	-11.2307
▁암살된	-11.2308
▁위기로	-11.231
▁입원한	-11.231
▁지목했다	-11.2312
▁폐쇄했다	-11.2315
▁고백	-11.2315
ii	-11.2317
▁확인한	-11.2323
다소	-11.2323
제로	-11.2329
▁용인	-11.2332
▁운동가	-11.2333
▁발생했던	-11.2338
공장	-11.234
▁그날	-11.2341
nt	-11.2341
▁마련했다	-11.2343
ms	-11.2346
이라도	-11.2347
▁정당이	-11.2347
▁pf	-11.2347
into	-11.2352
시키는데	-11.2361
▁내리기	-11.2362
관계자	-11.2363
▁톱	-11.2364
▁중유	-11.2365
▁여진이	-11.2369
▁무엇이	-11.2369
▁맡아	-11.237
▁star	-11.2374
▁잃어버	-11.2375
▁웹사이트에서	-11.2379
▁경찰들	-11.238
▁여행객들	-11.2382
▁복합	-11.2384
▁알리기	-11.2388
▁워터	-11.2388
▁여러분들	-11.239
▁펼치고	-11.2394
접	-11.2395
방법	-11.2396
푸르	-11.2398
▁우주에서	-11.2399
작업을	-11.2399
컴	-11.2404
억	-11.2405
▁북한에서	-11.2406
▁이탈	-11.2407
탑	-11.2407
묘	-11.2407
었으	-11.2407
▁피신	-11.2407
▁인적	-11.2409
ng	-11.2411
▁따뜻하	-11.2411
환경	-11.2412
하우스	-11.2416
▁측에	-11.2417
대책	-11.2418
▁영국에	-11.242
▁오를	-11.2428
▁시도했다	-11.2429
▁내주	-11.2435
▁개발도상국	-11.2436
▁적대적	-11.2439
▁주민이	-11.2441
▁임신한	-11.2446
▁괜찮	-11.2449
연구원	-11.2455
▁시작되	-11.2456
▁일년	-11.246
way	-11.2464
▁각료	-11.2465
▁게이	-11.2466
▁악의	-11.2474
▁공격할	-11.2475
▁수행하	-11.248
▁끝내	-11.2486
▁선보	-11.2489
▁중국인들	-11.2497
▁관심사	-11.25
▁다음으로	-11.25
▁예상되는	-11.2508
▁고려할	-11.251
과정에서	-11.2511
수단	-11.2512
▁공개할	-11.2515
자들과	-11.2518
▁녹아	-11.252
▁많지	-11.2522
▁조달	-11.2529
▁루스	-11.253
▁사진에	-11.2533
▁전인	-11.2534
▁거래가	-11.2535
▁마련하기	-11.2537
룩	-11.2538
▁직면한	-11.2549
▁없기	-11.255
▁참가자	-11.2555
▁per	-11.2556
▁상업적	-11.2556
▁납치했다	-11.2557
▁펼쳤	-11.2561
▁올렸	-11.2562
▁영구	-11.2566
▁흉	-11.2567
▁방문이	-11.2568
▁편이	-11.2573
▁필수	-11.2575
ee	-11.2576
▁정찰	-11.2578
▁데뷔	-11.2583
▁국세청	-11.2583
시스	-11.2583
▁부부의	-11.2584
쁜	-11.259
흘	-11.259
렬	-11.2592
대사관	-11.2593
쇠	-11.2593
▁끌려	-11.2594
덩	-11.2594
▁baghdad	-11.2594
▁pakistan	-11.2594
▁ufo	-11.2594
▁과테말라	-11.2594
▁국가보안법	-11.2594
▁높였다	-11.2594
▁닌텐도	-11.2594
▁두개골	-11.2594
▁리얼리티	-11.2594
▁마호메트	-11.2594
▁베테랑	-11.2594
▁보건복지부	-11.2594
▁엔터테인먼트	-11.2594
▁정동영	-11.2594
▁조선중앙통신	-11.2594
▁조코비치	-11.2594
▁집행유예	-11.2594
▁추수감사절	-11.2594
▁토마토	-11.2594
▁퍼레이드	-11.2594
겹	-11.2594
▁health	-11.2594
▁당분간	-11.2594
▁싱가폴	-11.2594
▁열렬한	-11.2594
▁제네바	-11.2594
무장혁명군	-11.2594
▁bbk	-11.2594
▁의구심	-11.2594
▁콜레라	-11.2594
▁뉴욕증시	-11.2594
▁수족관	-11.2594
▁태어나	-11.2594
▁유태인	-11.2594
▁white	-11.2594
▁링컨	-11.2594
▁원내대표	-11.2594
▁가볍	-11.2595
▁규명	-11.2595
▁좌익	-11.2595
▁대지진	-11.2595
▁의료보험	-11.2595
▁신용위기	-11.2595
▁결렬	-11.2595
▁꾸준	-11.2595
▁힌두교	-11.2595
▁검출	-11.2595
▁혼합	-11.2595
▁삼엄	-11.2595
▁참패	-11.2596
▁티켓	-11.2596
▁free	-11.2596
▁코미디언	-11.2596
▁비공개	-11.2596
▁배럭	-11.2596
▁연합뉴스	-11.2596
▁워커	-11.2596
▁설교	-11.2597
▁호주오픈	-11.2597
▁영예	-11.2597
▁과잉	-11.2597
▁신념	-11.2598
▁노리에가	-11.2598
▁사찰	-11.2598
▁격분	-11.2598
▁세번째	-11.2598
▁검진	-11.2598
▁응원	-11.2598
▁광경	-11.2598
▁이정인	-11.2598
▁깜	-11.2598
▁태양계	-11.2599
▁관행	-11.2599
▁후보자들	-11.26
▁포스터	-11.26
▁극심	-11.2601
▁계단	-11.2601
▁권유	-11.2601
▁서있	-11.2602
▁지폐	-11.2602
▁보수파	-11.2602
▁저격	-11.2603
▁순회	-11.2603
▁히트	-11.2604
▁나라에서	-11.2604
▁레저	-11.2605
▁섞	-11.2606
▁suv	-11.2606
▁재생	-11.2606
▁발작	-11.2607
▁성사	-11.2608
▁정부에서	-11.2608
▁남겼다	-11.2609
▁단호	-11.2609
▁장관들	-11.2609
▁비자금	-11.261
▁보류	-11.2611
▁체인	-11.2611
▁시사회	-11.2611
▁밀수	-11.2611
▁더이상	-11.2611
▁풍자	-11.2612
▁돌아갔다	-11.2613
▁소방관들	-11.2613
▁dc	-11.2613
▁기념일	-11.2614
▁맡게	-11.2614
▁사우스	-11.2614
▁여성에게	-11.2614
▁상원의	-11.2615
▁연예	-11.2616
▁zan	-11.2617
▁빨간	-11.2618
▁인플루엔자	-11.262
▁장난	-11.2621
▁국면	-11.2621
▁통신과	-11.2622
▁발견돼	-11.2623
▁야간	-11.2624
▁파키스탄이	-11.2626
▁정상적으로	-11.2626
▁단백질	-11.2628
▁호우	-11.2628
▁애쓰고	-11.2632
▁현직	-11.2634
▁제프	-11.2636
▁작곡가	-11.2645
▁차량은	-11.2647
▁석상	-11.2647
▁미사	-11.2648
▁하마스와	-11.2652
▁오고	-11.2655
▁결승에서	-11.2659
졌습니다	-11.2661
▁비율이	-11.2663
▁취해야	-11.2663
▁년째	-11.2663
▁심정	-11.2665
▁지명자	-11.2666
▁계층	-11.2667
▁잡혀있	-11.2668
oo	-11.2673
▁붙이	-11.2673
▁달에	-11.2673
▁봐	-11.2676
위기	-11.2678
▁범죄자	-11.268
▁람	-11.268
프리	-11.2681
▁찬사	-11.2683
▁논의하고	-11.2685
▁이끌었다	-11.2685
▁시민단체	-11.2687
▁가격에	-11.2689
▁분기에	-11.2703
▁흔들리	-11.2705
▁친구들과	-11.2706
▁헤르	-11.2707
▁부수	-11.271
▁페이	-11.2711
▁하원에서	-11.2712
▁와서	-11.2717
▁리사	-11.2721
▁코커스에서	-11.2726
▁팔려	-11.2729
▁보아	-11.2729
▁진행하는	-11.2733
▁나르	-11.2734
▁베를린에서	-11.2734
▁잡기	-11.2735
▁첸	-11.274
▁정보가	-11.2741
▁감자	-11.2741
▁돌입했다	-11.2743
▁배정	-11.2747
▁사무소	-11.2749
▁가할	-11.2751
▁강화했다	-11.2755
▁식으로	-11.2756
▁나갔다	-11.2757
▁홀에서	-11.276
▁결승전에	-11.2761
▁어디에	-11.2761
▁수의사	-11.2761
▁제기한	-11.2764
▁러시아에서	-11.2767
▁수반과	-11.2773
▁살아있는	-11.2773
▁재판소	-11.2776
▁문화적	-11.2781
▁가두	-11.2783
▁해변에서	-11.2784
▁개국이	-11.2784
▁조사했다	-11.2785
▁몬	-11.2791
피크	-11.2792
▁어디	-11.2793
응	-11.2793
▁의견에	-11.2795
전문	-11.2796
▁칠	-11.2798
▁파고	-11.2801
▁hd	-11.2802
교회	-11.2802
▁앤더슨	-11.2803
휴	-11.2804
몽	-11.2805
사령관	-11.2805
컨	-11.2806
첨	-11.2808
오픈	-11.281
돈	-11.281
떨어진	-11.2811
▁에바	-11.2811
▁여행사	-11.2814
▁정치범	-11.2814
명이	-11.2819
▁미수	-11.2825
to	-11.2826
▁길에	-11.2829
▁유지하는	-11.2832
▁참모	-11.2838
▁판매되	-11.2839
하일	-11.2845
▁기관들	-11.2847
▁헌신	-11.2848
임에	-11.2848
▁폭발했다	-11.2854
▁요한	-11.2855
수준	-11.2858
▁비리	-11.2859
▁파르	-11.286
주재	-11.286
▁공격하는	-11.2861
▁동원해	-11.2862
▁가담	-11.2871
▁개헌안	-11.2872
▁사태로	-11.2876
▁초과	-11.2886
▁갇혀	-11.2887
▁계획한	-11.2892
▁시작하는	-11.2897
▁빼	-11.2898
▁기념하기	-11.2903
▁대리	-11.2904
▁하락했	-11.2907
수사	-11.2908
▁대원	-11.292
▁덴버	-11.2924
▁개막식	-11.2924
▁버렸다	-11.2926
▁양곤	-11.2927
▁주문했다	-11.2928
▁방문객	-11.2928
▁재미	-11.293
발전	-11.2933
▁공장에서	-11.2934
데일	-11.2936
▁윤리적	-11.2937
▁위반한	-11.2938
북한	-11.2941
▁방문했	-11.2942
모어	-11.2943
▁맞이하	-11.2948
▁시작하기	-11.2949
줘야	-11.295
것을	-11.2951
▁까	-11.2952
ner	-11.2953
ure	-11.296
텍	-11.2961
▁구조대원	-11.2963
▁바탕	-11.2964
▁쇼에	-11.2966
▁q	-11.2972
▁호흡	-11.2975
▁도움으로	-11.2977
▁무기한	-11.2978
▁하겠다	-11.2979
님	-11.2979
▁america	-11.2979
▁year	-11.2985
롬	-11.2985
▁중동평화	-11.2989
준다	-11.2993
디오	-11.2994
▁갤럭시	-11.2994
▁곤돌라	-11.2994
▁농작물	-11.2994
▁라왈핀디	-11.2994
▁로맨틱	-11.2994
▁루마니아	-11.2994
▁마닐라	-11.2994
▁아웅산수지	-11.2994
▁얀코비치	-11.2994
▁엔데버호	-11.2994
▁이데올로기	-11.2994
▁짝짓기	-11.2994
▁치렀	-11.2994
▁카라카스	-11.2994
▁카톨릭	-11.2994
▁타블로이드	-11.2994
▁페널티킥	-11.2994
▁폴라로이드	-11.2994
▁횟수	-11.2994
돋	-11.2994
룽	-11.2994
▁wild	-11.2994
▁내비쳤다	-11.2994
▁동남아시아	-11.2994
▁로페즈	-11.2994
▁백화점	-11.2994
▁유망주	-11.2994
▁페르난도	-11.2994
▁report	-11.2994
▁카리스마	-11.2994
▁ftse	-11.2994
▁뮤직	-11.2994
▁자이툰	-11.2994
▁테이블	-11.2994
▁살모넬라균	-11.2994
▁평론가들	-11.2995
▁보스니아	-11.2995
▁대중교통	-11.2995
▁주사	-11.2995
▁동점골	-11.2995
▁소수민족	-11.2995
▁대통합민주신당	-11.2995
▁소아과	-11.2995
▁결승골	-11.2995
▁brit	-11.2995
▁밀접	-11.2995
▁범람	-11.2995
▁가자시티	-11.2995
▁나중에	-11.2995
▁부정선거	-11.2995
▁패널	-11.2996
▁관광산업	-11.2996
▁울머	-11.2997
▁난폭	-11.2998
▁평생	-11.2998
▁오스틴	-11.2998
▁표적이	-11.2999
▁연예인	-11.2999
▁기둥	-11.2999
▁홈페이지	-11.3
▁결별	-11.3
▁온천	-11.3
▁경제성장률	-11.3001
▁지칭	-11.3001
▁심장병	-11.3002
▁연구조사	-11.3002
▁매사추세츠주	-11.3002
▁도착했을	-11.3003
▁면허	-11.3003
자들에	-11.3003
▁바이오	-11.3003
▁억압	-11.3003
▁동행	-11.3004
▁선택한	-11.3004
▁페퍼	-11.3004
▁감동	-11.3004
▁숨지게	-11.3004
▁바스크	-11.3004
▁면제	-11.3005
▁외각	-11.3005
▁세레나	-11.3005
▁줄어	-11.3006
▁책임감	-11.3007
▁관세	-11.3008
▁사절	-11.3009
▁감안	-11.3009
▁천연	-11.3009
▁무너졌다	-11.301
느라	-11.3011
▁드문	-11.3012
▁과실	-11.3013
▁버크	-11.3014
▁삼았다	-11.3014
▁조업	-11.3016
▁정치에	-11.3017
티드	-11.3018
▁프린스	-11.3023
▁신비	-11.3024
▁반란	-11.3025
▁대승	-11.3025
군과	-11.3026
▁여정	-11.3027
▁상임	-11.3027
▁국민당	-11.3028
▁이끈	-11.3028
▁행운	-11.3034
net	-11.3035
▁투수	-11.3035
▁낙관적	-11.3037
▁질서	-11.3041
▁누드	-11.3043
▁많았다	-11.3043
▁양당	-11.3044
▁that	-11.3045
▁넘어서	-11.3046
▁하는지	-11.3051
▁어선	-11.3055
▁good	-11.3058
▁빗	-11.3058
▁덩어리	-11.306
▁뒤에서	-11.306
▁후임으로	-11.3066
▁샘	-11.3067
ious	-11.307
▁움직	-11.3071
▁번식	-11.3073
▁모닝	-11.3073
▁이룬	-11.3078
▁의뢰인	-11.308
▁대처하기	-11.3083
▁내기	-11.3084
전문가	-11.3088
▁걸스	-11.3089
▁살해됐다	-11.3091
▁무혐의	-11.3094
▁괴	-11.3098
▁유명인사	-11.3101
▁취하	-11.3102
▁방콕에서	-11.3105
▁불과했다	-11.3106
▁별로	-11.3107
▁포기할	-11.3108
▁행동으로	-11.3109
▁감기	-11.3111
되게	-11.3112
▁전통적으로	-11.3116
▁죽을	-11.3119
론자들	-11.3119
▁경선이	-11.3123
▁감행했다	-11.3124
▁지사	-11.3126
▁지정된	-11.3127
▁줄어들었다	-11.3129
ef	-11.3129
▁당원들	-11.3132
▁바스라에서	-11.3133
코르	-11.3135
▁도로에	-11.3136
▁동남	-11.3136
▁제안에	-11.3139
ical	-11.3139
ls	-11.314
노프	-11.314
▁발생하기	-11.3141
▁충고	-11.3145
▁퇴원	-11.3146
▁용의	-11.3146
성과	-11.315
▁맡기	-11.3151
▁거라고	-11.316
라이트	-11.3161
▁야당의	-11.3164
▁로한이	-11.3164
▁red	-11.3166
윤	-11.3168
▁험	-11.3169
▁이란에서	-11.3169
▁물질이	-11.3175
▁국경지역에	-11.3176
▁안다	-11.318
▁행한	-11.3181
▁분명한	-11.3182
▁구입한	-11.3182
▁말하지	-11.3187
▁수감됐다	-11.3189
▁소방	-11.3189
▁탑	-11.3191
게이트	-11.3193
▁지구로	-11.3193
▁퍼지	-11.3195
▁주자	-11.3198
▁심화	-11.3198
▁결승	-11.3209
▁선보였	-11.3212
▁관광객이	-11.3214
▁태국에서	-11.3215
▁도시들	-11.3218
덤	-11.3219
헤드	-11.3219
▁정직	-11.322
▁전선	-11.3221
▁발표하지	-11.3221
▁협정에	-11.3223
즐	-11.3226
▁공직	-11.3227
▁start	-11.3231
▁sa	-11.3232
fc	-11.3234
▁이목	-11.3237
스텐	-11.3237
보고서	-11.3238
▁파괴됐다	-11.324
사람	-11.3243
▁위치에	-11.3246
노동	-11.3251
통제	-11.3252
▁겐	-11.3255
▁남지	-11.3258
▁ps	-11.3262
▁이어진	-11.3265
▁후안	-11.3265
어지고	-11.3267
코스	-11.327
빌리	-11.3271
▁직면해	-11.3279
▁발생한다	-11.3287
▁지원한	-11.329
▁제어	-11.3304
처리	-11.3304
▁다쳤	-11.3304
▁단체에	-11.3306
▁강전	-11.3308
▁방송과	-11.3308
pp	-11.3318
▁일요일에	-11.3322
▁통근	-11.3322
▁down	-11.3324
▁의뢰	-11.3326
세르	-11.3326
학원	-11.3326
▁민주당원들	-11.3326
▁이외	-11.3329
▁놓여	-11.3337
▁복용한	-11.335
▁석방했다	-11.3352
▁여객기에	-11.3356
▁관료들	-11.336
▁보여준	-11.336
▁섬에	-11.3361
회에서	-11.3362
▁획득했다	-11.3362
▁맞았	-11.3363
로프	-11.3366
▁게임에서	-11.3369
▁침	-11.3371
▁사정	-11.3373
ok	-11.3373
▁한반도에서	-11.3375
▁선호	-11.3376
▁감염자	-11.3378
▁정부로부터	-11.3384
▁수성	-11.3385
▁승리하는	-11.3388
▁san	-11.3393
▁법무	-11.3394
▁괴한들	-11.3399
▁버몬트	-11.3401
▁다국적	-11.3403
▁we	-11.3404
▁나눠	-11.3404
▁경제성장	-11.3404
▁자연적	-11.3406
쾌	-11.3408
법에	-11.341
▁oecd	-11.3411
▁wwf	-11.3411
▁가톨릭	-11.3411
▁금융제재	-11.3411
▁레젭	-11.3411
▁몬타나	-11.3411
▁무크타다	-11.3411
▁버시바우	-11.3411
▁부정부패	-11.3411
▁브뤼셀	-11.3411
▁사카쉬빌리	-11.3411
▁쫓겨	-11.3411
▁컨퍼런스	-11.3411
▁콘크리트	-11.3411
▁콜레스테롤	-11.3411
▁프리메라리가	-11.3411
▁합참의장	-11.3411
윗	-11.3411
▁로널드	-11.3411
▁임산부	-11.3411
▁휴양지	-11.3411
쿤	-11.3411
▁오마바	-11.3411
▁팔루자	-11.3411
▁횡단	-11.3411
▁힉스	-11.3411
▁기번스	-11.3411
▁쟁점	-11.3411
▁about	-11.3411
▁뒤덮	-11.3411
▁이소연	-11.3411
▁주니어	-11.3411
▁아지즈	-11.3411
▁크리켓	-11.3411
▁페인트	-11.3411
▁home	-11.3411
▁농촌	-11.3411
▁근접	-11.3412
▁소요사태	-11.3412
▁번호판	-11.3412
▁와중에	-11.3412
▁호르타	-11.3413
▁여객선	-11.3413
▁불쾌감	-11.3413
▁동북아	-11.3413
▁간첩	-11.3413
▁평창	-11.3413
▁엄중	-11.3413
▁통계청	-11.3414
▁최후	-11.3414
▁싸울	-11.3414
▁연애	-11.3414
▁이루어질	-11.3414
▁총격사건	-11.3415
▁연습	-11.3415
▁주장해	-11.3415
▁평등	-11.3415
▁패션계	-11.3416
▁활력	-11.3416
▁피델	-11.3416
▁단절	-11.3417
▁정글	-11.3417
▁말라위	-11.3417
▁팔렸다	-11.3418
스테이트	-11.3418
▁금지령	-11.3418
▁포격	-11.3418
ew	-11.3418
▁union	-11.3418
▁평방	-11.3419
▁예금	-11.3419
▁테네시주	-11.3419
▁ab	-11.3419
▁저지르	-11.3419
▁rights	-11.342
돌프	-11.342
▁변동	-11.342
▁공습이	-11.342
▁추모식	-11.342
▁황제	-11.3421
▁테러공격	-11.3421
▁본래	-11.3421
▁수년간	-11.3421
▁지나친	-11.3421
▁베스트	-11.3422
▁완수	-11.3422
▁파악하	-11.3423
모토	-11.3423
▁울프	-11.3424
▁스탠리	-11.3425
▁철거	-11.3425
▁급파	-11.3426
▁테마	-11.3426
▁뉴저지주	-11.3427
▁반격	-11.3427
▁사격	-11.3428
▁액수	-11.3428
잡이	-11.3429
▁태아	-11.3429
▁터진	-11.3429
▁구분	-11.343
▁건조	-11.343
▁질식	-11.343
▁신종	-11.3433
▁데이트	-11.3434
▁인도와	-11.3434
▁발사된	-11.3434
▁앙리	-11.3435
▁정유	-11.3435
▁지도력	-11.3436
▁스노	-11.3437
▁경찰청장	-11.3437
▁선박에	-11.3438
▁안개	-11.3439
▁분양	-11.344
▁휩싸였다	-11.344
▁상실	-11.3441
▁외모	-11.3441
▁ak	-11.3443
▁분명하다	-11.3444
▁문학	-11.3444
▁압도	-11.3445
▁살리	-11.3445
▁두목	-11.3446
▁가즈니주	-11.3446
받을	-11.3446
▁상징적인	-11.3447
▁루이	-11.3448
▁조그	-11.3448
▁만톤	-11.3449
▁피고인들	-11.345
▁일본인들	-11.3451
▁반감	-11.3453
▁한국정부	-11.3453
di	-11.3455
▁도박	-11.3456
▁허리	-11.3457
▁작용할	-11.3457
▁핵문제	-11.3458
▁미쳤다	-11.3465
▁발사한	-11.3465
▁도와	-11.3466
▁보수적인	-11.3467
▁억류된	-11.3467
▁인파	-11.3468
▁앤드	-11.3468
▁열린다	-11.347
▁열리기	-11.347
▁독일과	-11.3471
▁아카	-11.3471
ame	-11.3473
▁접근할	-11.3478
▁작품상	-11.348
▁박물관에	-11.3481
▁흉기	-11.3481
▁배아	-11.3482
▁이건	-11.3482
▁과일	-11.3482
▁은행이	-11.3486
▁당선된	-11.3487
▁중년	-11.349
▁높이고	-11.349
치기	-11.3491
▁우주비행사들	-11.3493
ong	-11.3496
▁쉐	-11.3496
▁캄	-11.3496
▁심각하다	-11.3496
▁되면서	-11.3501
▁만행	-11.3501
▁켄	-11.3505
레즈	-11.3506
▁거부하	-11.3506
▁거물	-11.3508
▁노동자들이	-11.3509
▁전술	-11.351
▁개혁안	-11.3511
▁끝내고	-11.3512
▁맺었다	-11.3514
▁아랍어	-11.3514
▁알바	-11.3518
▁가하고	-11.3519
주기	-11.3524
▁만족한다	-11.3524
▁가한	-11.3525
▁차고	-11.3526
▁동해	-11.3527
롭게	-11.3528
ock	-11.3536
ill	-11.3538
▁외교관들	-11.3538
▁피로	-11.3541
▁이용자들	-11.3542
▁차지할	-11.3542
▁방위	-11.3545
▁이동했다	-11.3545
▁교도	-11.3547
아웃	-11.355
죄	-11.355
▁극적	-11.3551
▁여성으로	-11.3553
▁수직	-11.3553
코트	-11.3556
간다	-11.3558
▁발사했다	-11.3559
▁이상으로	-11.356
▁수습	-11.3562
▁치료제	-11.3564
▁이견	-11.3565
▁영화로	-11.3565
▁경쟁에서	-11.3566
▁등장하	-11.357
▁열리고	-11.3571
험	-11.3581
▁시대에	-11.3584
▁군의	-11.3587
▁전임	-11.3588
ors	-11.3592
▁결정될	-11.3599
▁워싱턴에	-11.3601
착륙	-11.3603
▁ve	-11.3609
▁빚어	-11.361
▁설립한	-11.3612
▁표기	-11.3613
▁앤더슨은	-11.3615
▁해치	-11.3616
마드	-11.3618
▁장소에	-11.362
▁관대	-11.3623
▁공격하기	-11.3624
▁들어가기	-11.3624
uni	-11.3628
▁고정	-11.363
▁마르코	-11.363
▁플로	-11.3635
rs	-11.3635
▁마이크로	-11.3636
▁can	-11.3637
▁전경	-11.3638
▁고집	-11.3642
자에	-11.3646
▁참가국들	-11.3646
▁통과한	-11.365
장소	-11.3651
▁파괴된	-11.3652
촉	-11.3656
▁실려	-11.3657
▁지지율로	-11.3658
▁시스템에	-11.3661
사실	-11.3665
▁중재자	-11.3666
여행	-11.3675
머스	-11.3675
▁합의안	-11.3677
나마	-11.3678
ney	-11.368
증권	-11.3681
▁장례식에	-11.3684
ore	-11.3685
▁클럽에서	-11.3685
▁메가	-11.3686
▁난자	-11.3687
▁대학생들	-11.369
▁일반인들	-11.369
더미	-11.3694
▁특파원이	-11.3696
▁하에서	-11.3697
마른	-11.37
▁수퍼대의원	-11.3701
문서	-11.3704
▁반군에	-11.3708
▁내용이다	-11.372
▁판매하는	-11.3723
학자인	-11.3725
▁명명	-11.3725
▁지점에	-11.3733
킨스	-11.3737
▁노력으로	-11.3737
중국	-11.3738
시에	-11.3742
이면	-11.3743
▁의원들과	-11.3745
▁미국내	-11.3746
해졌	-11.3755
▁교착상태	-11.3758
안이	-11.3761
▁쓰이	-11.3775
▁랜드	-11.3776
▁증가시키	-11.3779
▁인정하고	-11.3781
▁곳곳	-11.3782
▁치르는	-11.3791
▁최근까지	-11.3792
▁램	-11.3792
▁토로	-11.3792
▁들어갔	-11.3793
▁나갔	-11.3796
▁게임에	-11.3797
▁고전	-11.3801
▁간다	-11.3802
▁겪었	-11.3805
▁이라크로	-11.3809
▁저널	-11.3812
▁강화하기	-11.3813
▁비전	-11.3818
▁pop	-11.3821
▁전문의	-11.3821
▁정상에	-11.3821
▁도달했다	-11.3827
▁중태라	-11.3834
▁작년에	-11.3836
럭	-11.3836
▁테네시	-11.3837
▁검문	-11.3838
▁mi	-11.3839
롯	-11.3842
탔	-11.3845
▁풀려	-11.3845
▁페트로	-11.3845
▁냉전	-11.3846
셜	-11.3846
▁부상당했다	-11.3846
▁australia	-11.3846
▁school	-11.3846
▁그린스펀	-11.3846
▁급상승	-11.3846
▁낙하산	-11.3846
▁농산물	-11.3846
▁대량살상무기	-11.3846
▁디얄라	-11.3846
▁라우터바흐	-11.3846
▁선거캠페인	-11.3846
▁슈나이더	-11.3846
▁앨라배마	-11.3846
▁언색호	-11.3846
▁오차범위	-11.3846
▁잃게	-11.3846
▁지구온난화	-11.3846
▁카메론	-11.3846
▁테헤란	-11.3846
쭉	-11.3846
▁롱고리아	-11.3846
▁마스터스	-11.3846
▁올랜도	-11.3846
▁저녁식사	-11.3846
▁퇴역	-11.3846
▁유시프	-11.3846
▁획기적	-11.3846
▁클레이코트	-11.3846
▁administration	-11.3846
▁정부청사	-11.3846
▁리더십	-11.3846
▁괴롭	-11.3846
▁황교수	-11.3846
▁졸릭	-11.3846
▁사냥꾼	-11.3846
▁poll	-11.3846
▁검열	-11.3846
▁six	-11.3846
▁tax	-11.3846
▁gnp	-11.3847
▁자살폭탄	-11.3847
▁fun	-11.3847
▁선거일	-11.3847
▁검시관	-11.3847
▁아르빌	-11.3847
▁줄어든	-11.3847
▁호킨스	-11.3847
▁안젤리	-11.3848
▁토끼	-11.3848
▁무엇인가	-11.3848
▁동맹관계	-11.3848
▁우편	-11.3848
▁매케인과	-11.3848
▁반도체	-11.3848
▁그린랜드	-11.3848
▁자본주의	-11.3848
▁친밀	-11.3849
▁보도자료	-11.385
▁아바타	-11.385
▁기념품	-11.385
▁재능	-11.385
▁증산	-11.385
▁발송	-11.385
▁교역	-11.3851
▁불경기	-11.3851
▁증오	-11.3851
▁자유로운	-11.3852
▁늘어난	-11.3852
▁내다봤	-11.3852
▁친절	-11.3853
▁jp	-11.3853
▁샤론	-11.3853
▁서열	-11.3854
▁살짜리	-11.3854
▁회색	-11.3854
▁주머니	-11.3854
▁교차	-11.3854
▁탈세	-11.3855
▁오만	-11.3855
▁선거자금	-11.3856
▁섬유	-11.3856
▁출간	-11.3856
▁잔디	-11.3856
▁한국전쟁	-11.3856
▁누설	-11.3857
▁미시간주	-11.3859
▁라틴	-11.3859
▁악명	-11.3859
▁호위	-11.3859
▁년대에	-11.3859
▁총살	-11.3859
▁지난밤	-11.386
▁베이비	-11.386
▁동요	-11.386
▁인천	-11.386
▁상표	-11.386
▁학자들	-11.3861
▁없음	-11.3861
▁십만	-11.3861
▁시몬	-11.3862
▁온실	-11.3862
▁린다	-11.3863
▁점에서	-11.3864
▁파워	-11.3864
▁울리	-11.3864
사이드	-11.3866
▁태어났다	-11.3866
▁신설	-11.3867
▁충돌했다	-11.3867
▁들어보	-11.3868
▁스파이스	-11.3868
▁참수	-11.387
▁생선	-11.387
▁타운	-11.3872
▁탈당	-11.3873
▁노벨상	-11.3873
▁죄수	-11.3874
유지	-11.3874
런스	-11.3874
▁끌어들이	-11.3875
▁양호	-11.3875
▁피터슨	-11.3876
▁물리적	-11.3878
▁루디	-11.3878
▁유타	-11.388
라기	-11.388
▁본즈	-11.3881
▁선제	-11.3881
▁어미	-11.3881
▁제조회사	-11.3882
▁종전	-11.3882
벨리	-11.3882
▁제기되	-11.3882
▁aid	-11.3883
be	-11.3884
▁국토안보부	-11.3884
▁받았습니다	-11.3885
▁kt	-11.3886
▁단일	-11.3889
▁진상	-11.3889
▁모였다	-11.389
게임	-11.3893
▁비공식	-11.3893
up	-11.3895
▁피우	-11.3895
▁진정시키	-11.3896
단계	-11.3896
▁프로그램과	-11.3897
▁주입	-11.3897
▁보호소	-11.3897
▁자루	-11.3897
▁설립자	-11.3898
▁비행선	-11.3898
▁경유	-11.3899
▁놀이	-11.3899
▁졸	-11.39
▁못하면	-11.3901
센터에서	-11.3901
▁주정부	-11.3903
▁경상	-11.3905
▁허용하는	-11.3905
파인	-11.3907
▁의사당	-11.3907
▁끝나지	-11.3907
▁중국정부	-11.3908
▁싱글	-11.3908
▁이민법	-11.3908
물질	-11.391
▁만들어내	-11.3911
▁qu	-11.3911
▁기여	-11.3911
out	-11.3911
▁생활에	-11.3913
▁경의	-11.3913
▁들어서	-11.3914
▁들어주	-11.3916
▁주둔군	-11.3916
▁되려	-11.3917
▁신성	-11.3918
▁나아	-11.392
▁토로했다	-11.392
▁서울시장	-11.392
▁활	-11.3922
▁배에	-11.3923
▁성능	-11.3923
▁통과할	-11.3924
▁기대된다	-11.3924
▁서쪽으로	-11.3928
▁외계인	-11.3928
▁돌아가는	-11.393
▁불거	-11.3931
▁한가지	-11.3933
▁적군	-11.3934
ern	-11.3934
▁내리지	-11.3935
▁샤프	-11.3936
▁파업이	-11.3936
▁실종됐다고	-11.3937
▁밝혀지	-11.3938
▁만대	-11.3944
▁효과적인	-11.3947
▁자란	-11.3949
▁작전에	-11.3952
▁의미하는	-11.3953
▁줄었다	-11.3954
▁알려졌	-11.3957
▁대신해	-11.3959
▁서부지역	-11.396
▁무서	-11.396
▁맞지	-11.3969
▁근거지	-11.3971
▁관여하	-11.3972
여금	-11.3972
▁해준다	-11.3972
▁말했었다	-11.3973
▁격려	-11.3973
▁싶어하	-11.3974
▁의원과	-11.3975
▁생각된다	-11.3982
▁금지된	-11.3983
▁외곽에서	-11.3984
▁위크	-11.3986
▁막는	-11.3987
것이	-11.3989
▁팔레스타인과	-11.3993
▁살상	-11.3994
▁생각할	-11.3995
▁항해	-11.3997
cent	-11.3999
▁지불할	-11.4
▁해결하는	-11.4001
▁미군에	-11.4024
마저	-11.4025
▁요구해	-11.4028
▁정국	-11.403
▁로즈	-11.4034
▁아나	-11.4036
났	-11.404
▁수만	-11.4041
▁연인	-11.4041
▁시선	-11.4041
tt	-11.4043
▁식당에서	-11.4044
▁실시됐다	-11.4046
▁일종	-11.4049
▁순간에	-11.4049
▁건물들	-11.4051
▁투자가들	-11.4053
▁증거로	-11.4054
▁공급받	-11.4056
▁공해	-11.4057
▁되어야	-11.4058
대에서	-11.4067
▁바비	-11.4067
one	-11.4069
▁수행했다	-11.4069
▁멘	-11.4071
▁수행한	-11.4084
▁마련된	-11.4086
▁국내에서	-11.4096
▁제품들	-11.4098
팀이	-11.4103
리코	-11.4103
▁ev	-11.4104
재단	-11.4105
라트	-11.4106
휘	-11.4107
퍼스	-11.4107
▁시작한다	-11.4107
괴	-11.4109
▁일이었다	-11.4111
▁지방에	-11.4111
톱	-11.4112
head	-11.4112
팬	-11.4115
길에	-11.4116
▁행위로	-11.4118
▁아프리카에서	-11.4118
혁명	-11.4118
러운	-11.4119
번호	-11.4122
스트라	-11.4123
▁주도하고	-11.4133
지점	-11.4134
▁작고	-11.4136
▁브레	-11.4138
▁아파트에서	-11.4138
▁오르는	-11.4142
▁보도된	-11.4146
▁적지	-11.4148
▁파기	-11.4148
▁지배하	-11.415
▁다스	-11.415
방안	-11.415
▁배달	-11.4152
글리	-11.416
lin	-11.4161
워크	-11.4162
▁유럽에	-11.4164
범죄	-11.4167
▁여진	-11.4187
▁성공할	-11.4192
▁sun	-11.4192
der	-11.4193
화물	-11.4196
▁지어	-11.4201
▁가사	-11.4202
▁정말로	-11.4207
▁효과적	-11.4208
예프	-11.4208
▁영화화	-11.4211
▁def	-11.4214
▁나비	-11.4214
▁진출에	-11.4215
▁결함이	-11.4217
▁카라치	-11.422
▁후송	-11.4221
▁간부들	-11.4223
▁요인이	-11.4223
별로	-11.4228
▁연기됐다	-11.423
▁선포한	-11.4236
▁떠났	-11.4242
▁하스	-11.4244
정권	-11.4245
▁대조	-11.4248
▁친구와	-11.4251
▁모여들	-11.4251
▁내야	-11.4252
▁운전자들	-11.4256
▁파견했다	-11.4257
▁검찰에	-11.426
▁일본군	-11.4262
적이지	-11.4264
▁도착해	-11.4265
▁바그다드에	-11.4268
▁중단된	-11.4268
▁닉	-11.4272
▁너	-11.4273
▁압도적	-11.4278
클리	-11.4278
▁선박들	-11.428
▁사고에	-11.4281
▁우주비행	-11.4284
교수	-11.4285
▁위반했다	-11.4286
▁휩싸	-11.4289
▁우려하는	-11.429
▁산업이	-11.4292
▁구조됐다	-11.4293
므	-11.4295
▁피의자	-11.4299
▁총기난사	-11.43
▁믿음	-11.43
▁전화통화	-11.43
헴	-11.43
▁beijing	-11.43
▁claim	-11.43
▁defense	-11.43
▁hsbc	-11.43
▁movie	-11.43
▁nymex	-11.43
▁society	-11.43
▁street	-11.43
▁summit	-11.43
▁system	-11.43
▁가라앉	-11.43
▁국제사면위원회	-11.43
▁김경준	-11.43
▁돈세탁	-11.43
▁땅콩	-11.43
▁몰디브	-11.43
▁베스트셀러	-11.43
▁손해배상	-11.43
▁신천옹	-11.43
▁아라파트	-11.43
▁아이슬란드	-11.43
▁애널리스트	-11.43
▁우비넨	-11.43
▁자부심	-11.43
▁자이언트	-11.43
▁찍었다	-11.43
▁콘텐트	-11.43
▁페르난데스	-11.43
▁푸에르토리코	-11.43
▁해리왕자	-11.43
넥	-11.43
밭	-11.43
▁가금류	-11.43
▁가석방	-11.43
▁갱신	-11.43
▁무중력	-11.43
▁황박사	-11.43
▁폭넓	-11.43
▁발레리	-11.43
▁오페라	-11.43
▁프리킥	-11.43
▁break	-11.43
▁차세대	-11.43
▁진원지	-11.43
▁후쿠다	-11.43
▁플레이오프	-11.4301
▁놀랍	-11.4301
▁남서쪽	-11.4301
▁라시드	-11.4301
▁트레킹	-11.4301
▁브라더스	-11.4301
▁딜리	-11.4301
▁프레슬리	-11.4301
▁강아지	-11.4301
▁익사	-11.4301
▁설문조사	-11.4301
▁선제골	-11.4301
▁삭스	-11.4301
▁아이팟	-11.4301
ship	-11.4301
▁푸켓	-11.4301
▁왕궁	-11.4301
▁공동성명	-11.4301
▁화폐	-11.4301
▁gps	-11.4301
▁다툼	-11.4301
▁삼성그룹	-11.4301
▁포옹	-11.4302
▁탑재	-11.4302
▁이틀째	-11.4302
▁침실	-11.4302
▁지방선거	-11.4302
▁인디언	-11.4302
▁메이저	-11.4302
▁프라임	-11.4303
▁투항	-11.4303
▁기부금	-11.4303
▁물러난	-11.4303
▁미술관	-11.4303
▁기차역	-11.4303
▁지저스	-11.4304
▁보건당국	-11.4304
▁웃음	-11.4304
▁fund	-11.4304
▁단축	-11.4305
▁진열	-11.4305
▁post	-11.4305
▁우익	-11.4305
▁맞춘	-11.4305
▁헌터	-11.4305
▁않으려	-11.4305
▁감각	-11.4305
▁터너	-11.4305
▁다룰	-11.4306
▁해산물	-11.4306
▁빈번	-11.4306
▁석탄	-11.4307
▁무패	-11.4307
▁정교회	-11.4307
▁낙찰	-11.4308
▁데이브	-11.4308
▁직위	-11.4308
▁선진국	-11.4308
▁live	-11.4308
▁동등	-11.4308
▁교정	-11.4308
▁왕위	-11.4309
▁시께	-11.4309
▁북경	-11.4309
▁대기권	-11.4309
▁방위군	-11.431
▁공표	-11.431
▁변형	-11.431
▁선언문	-11.4311
▁디에고	-11.4311
▁공범	-11.4311
▁복부	-11.4311
▁사이먼	-11.4311
▁프로디	-11.4312
▁국토	-11.4312
▁나이키	-11.4312
▁연정	-11.4317
▁콜린스	-11.4317
▁랜	-11.4318
▁판명	-11.4318
▁서버	-11.4319
▁공항으로	-11.4319
▁시민이	-11.432
▁보리스	-11.4321
▁우주복	-11.4322
▁린치	-11.4322
▁솜	-11.4323
▁펴	-11.4323
▁골든	-11.4323
▁콜로라도주	-11.4323
▁조각상	-11.4324
▁나온다	-11.4324
▁선동	-11.4324
▁영아	-11.4325
▁비정부	-11.4326
▁호박	-11.4327
▁능력이	-11.4327
▁예보	-11.4328
▁역전	-11.4329
▁결성	-11.4329
▁시합	-11.4329
▁실바	-11.433
▁채무	-11.433
▁조직원들	-11.4331
▁좋았다	-11.4331
▁딴	-11.4331
▁풀어주	-11.4332
▁폐허	-11.4332
▁툴	-11.4333
▁리터	-11.4334
▁손님들	-11.4334
▁세르	-11.4337
▁sg	-11.4337
▁하위	-11.4337
▁주립	-11.434
▁제작진	-11.434
▁장관급	-11.4341
▁근본주의	-11.4342
▁잔인	-11.4343
▁내려오	-11.4346
▁포도	-11.4346
▁설치한	-11.4347
▁저명	-11.4347
▁주차장에서	-11.4347
▁발표에	-11.4348
었기	-11.4348
부장	-11.435
슬러	-11.4351
▁연어	-11.4351
블리	-11.4351
▁버스에	-11.4352
▁동부에	-11.4352
대상	-11.4352
▁승려	-11.4357
▁게시	-11.4358
▁돌아간	-11.436
링턴	-11.436
▁주식시장이	-11.4361
▁보험사	-11.4364
▁정부기관	-11.4364
▁감독과	-11.4365
▁목표물	-11.4365
▁비중	-11.4366
▁곳곳에서	-11.4369
리언	-11.4369
▁본부장	-11.4371
▁결정한	-11.4372
▁접어들	-11.4373
▁국제법	-11.4374
▁쓰지	-11.4374
▁겁	-11.4375
▁의류	-11.4377
단체인	-11.4379
▁그럴	-11.4379
▁교황이	-11.438
▁친구인	-11.4381
▁몰린	-11.4385
▁소행	-11.4386
▁법에	-11.4386
조건	-11.4387
▁남부지역에서	-11.4388
▁시사했다	-11.4388
▁템	-11.439
▁무장세력들	-11.4392
▁영해	-11.4393
▁다루는	-11.4396
▁경호원들	-11.4396
▁발표하면서	-11.4397
ence	-11.4398
▁경제학자	-11.4399
▁일자	-11.4399
▁아크	-11.44
▁당선됐다	-11.4401
▁주목할	-11.4402
▁후속	-11.4404
▁하사	-11.4406
▁때에	-11.4406
▁하퍼	-11.4407
▁줬	-11.4407
▁병이	-11.441
▁한국계	-11.4411
▁재료	-11.4411
▁기르	-11.4412
▁확인하지	-11.4412
▁낮게	-11.4414
▁여행자	-11.4414
▁배상	-11.4419
▁갇혀있	-11.4424
▁간호사	-11.4424
▁관여한	-11.4427
▁타이거	-11.4427
▁일부분	-11.443
und	-11.4431
허가	-11.4431
마라	-11.4433
▁일삼	-11.4439
▁젠	-11.4439
▁가계	-11.444
▁박스	-11.4441
▁류	-11.4442
▁결혼했다	-11.4442
▁움직이는	-11.4445
▁노력했다	-11.4446
▁space	-11.4447
io	-11.4449
▁영화들	-11.4449
▁이스트	-11.4451
▁기간이	-11.4451
▁떠나지	-11.4452
▁날에	-11.4458
▁전반에	-11.4459
▁베이징에	-11.4459
▁제시할	-11.4461
▁자신만	-11.4461
▁이유에	-11.4463
▁숨지	-11.4464
▁공화당원들	-11.4464
▁희생자들이	-11.4467
해줬다	-11.4469
▁설립된	-11.4474
▁단계적	-11.4475
▁우주로	-11.4476
▁esta	-11.4479
▁교통부	-11.4482
▁담겨	-11.449
▁토론회에서	-11.4494
지스	-11.4494
▁발표했	-11.4496
▁완화하기	-11.4503
▁총리로	-11.4507
▁이용자	-11.4507
▁사건에서	-11.4508
▁신자	-11.4509
▁계속됐다	-11.4512
▁바람에	-11.4514
▁투자가	-11.4523
▁ira	-11.4526
▁인터넷에서	-11.4528
▁매케인에	-11.4532
▁팔리	-11.4533
▁사항이	-11.4535
▁결심했다	-11.4536
▁프로젝트에	-11.4537
▁결정하기	-11.4537
▁목록에	-11.4539
▁압수했다	-11.4541
▁나사	-11.456
대통령	-11.456
▁드리	-11.4561
▁개들	-11.4567
▁올림픽에	-11.4571
▁참가국	-11.4577
▁신체적	-11.4577
ge	-11.4578
▁결정된	-11.4578
특	-11.4579
▁국제적으로	-11.4579
학자들	-11.4579
▁폭락했다	-11.458
▁진도	-11.458
민들	-11.4581
▁한국측	-11.4585
▁가정에서	-11.4585
딕	-11.4585
▁내부에	-11.4586
▁수행하는	-11.4586
▁한반도에	-11.4586
풀	-11.4588
form	-11.459
탐	-11.4591
책임자	-11.4592
밴드	-11.4593
투쟁	-11.4593
배우	-11.4593
분쟁	-11.4594
▁파키스탄과	-11.4596
▁퇴원했다	-11.4598
▁지아	-11.4606
요금	-11.4607
모양	-11.4608
▁이혼했다	-11.461
▁철학	-11.4616
체계	-11.4617
하기위해	-11.4623
웠던	-11.4623
▁지명에	-11.4625
▁그곳	-11.4628
▁지원했다	-11.463
▁악화된	-11.4631
리드	-11.4632
됐기	-11.4632
▁작가들	-11.4634
▁이행하	-11.4634
▁돼있다	-11.4634
▁앉아있	-11.4635
▁차지했	-11.4635
▁선정했다	-11.4635
▁과정이	-11.4647
▁블리	-11.4648
▁직원과	-11.4648
ron	-11.4653
리야	-11.466
실적	-11.4662
▁뒤지	-11.4663
▁홍콩에서	-11.4664
uri	-11.467
▁엑스	-11.4671
▁레바논에서	-11.4674
▁방송이	-11.4678
▁부분에	-11.4679
▁집회에서	-11.4682
스러워	-11.4685
▁시점에	-11.4687
▁여인	-11.4689
▁근본	-11.4689
▁중단시키	-11.4694
▁잡혀	-11.4696
▁캘리포니아에서	-11.4699
▁소방대원	-11.4702
▁고리	-11.4713
▁돌아왔	-11.472
▁항의했다	-11.472
▁해결에	-11.4721
바인	-11.4721
▁방문하고	-11.4724
▁치열	-11.4725
▁실종됐다	-11.4725
▁찾았	-11.4726
▁느껴	-11.473
▁젊은이들이	-11.4732
▁유대인들	-11.4733
▁ko	-11.4734
▁방안에	-11.4734
▁일조	-11.4735
▁반군들	-11.4737
▁미얀마에서	-11.4738
▁나타냈	-11.4738
▁불행	-11.4738
케르	-11.4743
티아	-11.4752
▁노출되	-11.4759
▁ph	-11.4759
▁통과하	-11.4759
▁대표와	-11.476
▁로이	-11.4762
▁protest	-11.4765
▁자바	-11.4765
▁주장했	-11.4766
▁미네소타	-11.4766
▁중력	-11.4767
끔	-11.4767
ition	-11.4768
▁미주리	-11.477
흥	-11.4772
▁일정에	-11.4772
▁pre	-11.4774
셋	-11.4775
▁agree	-11.4776
▁얼룩	-11.4776
▁와지리스탄	-11.4777
벡	-11.4777
▁black	-11.4777
▁candidate	-11.4777
▁ecb	-11.4777
▁public	-11.4777
▁science	-11.4777
▁가로질러	-11.4777
▁그랜드슬램	-11.4777
▁라스무센	-11.4777
▁레드삭스	-11.4777
▁마터호른	-11.4777
▁맞교환	-11.4777
▁매릴랜드	-11.4777
▁믿지	-11.4777
▁불필요	-11.4777
▁비아그라	-11.4777
▁빈라덴	-11.4777
▁생태계	-11.4777
▁소렌스탐	-11.4777
▁스콜세지	-11.4777
▁스탤론	-11.4777
▁식이요법	-11.4777
▁신용경색	-11.4777
▁싫어하	-11.4777
▁얼어붙	-11.4777
▁유네스코	-11.4777
▁제너럴	-11.4777
▁주미대사	-11.4777
▁질렀다	-11.4777
▁코네티컷	-11.4777
▁투탕카멘	-11.4777
▁팽팽	-11.4777
▁펌프	-11.4777
▁포틀랜드	-11.4777
▁푸에르타	-11.4777
덟	-11.4777
▁russia	-11.4777
▁알자지라	-11.4777
▁아메드	-11.4777
▁국가정보원	-11.4777
▁고마움	-11.4777
▁로드맵	-11.4777
▁만델라	-11.4777
▁헝가리	-11.4777
▁가이트너	-11.4777
▁남동쪽	-11.4777
▁텔레콤	-11.4777
▁밀리밴드	-11.4777
▁핑크	-11.4777
▁본거지	-11.4777
▁파이프라인	-11.4777
▁이뤄져야	-11.4777
▁아로요	-11.4777
▁실험에	-11.4777
▁외딴	-11.4777
▁거세지	-11.4777
▁journal	-11.4777
▁블레이크	-11.4777
▁납북	-11.4777
▁버클리	-11.4777
▁commission	-11.4777
▁몬테	-11.4778
▁불러일으키	-11.4778
▁투옥	-11.4778
▁park	-11.4778
▁완승	-11.4778
ease	-11.4778
▁재처리	-11.4779
▁세웠	-11.4779
▁신분증	-11.4779
▁촉구하고	-11.4779
▁우호적	-11.4779
▁음란물	-11.4779
▁점유율	-11.4779
▁청색	-11.478
▁보험금	-11.478
▁철강	-11.478
▁faa	-11.478
리트	-11.478
▁나이로비	-11.4781
▁정황	-11.4781
▁로얄	-11.4781
▁더미	-11.4781
▁증권거래소	-11.4781
▁러브	-11.4781
▁사절단	-11.4782
▁정확하게	-11.4782
▁봅	-11.4782
▁함정	-11.4782
▁사촌	-11.4782
▁그래함	-11.4782
▁위안화	-11.4783
▁잠재력	-11.4783
▁hit	-11.4783
▁창고	-11.4783
▁교실	-11.4783
▁바이든	-11.4783
▁투병	-11.4784
▁버려진	-11.4784
▁은폐	-11.4784
▁wti	-11.4784
▁부착	-11.4785
▁절단	-11.4785
▁붙였다	-11.4785
용품	-11.4785
▁유머	-11.4785
▁forces	-11.4786
▁inc	-11.4786
과학	-11.4786
▁첫째	-11.4786
▁경색	-11.4786
▁진심	-11.4787
▁있느냐	-11.4787
▁사탕	-11.4787
▁화물선	-11.4787
▁위헌	-11.4788
▁긴장감	-11.4788
▁노엘	-11.4788
▁통역	-11.4788
▁official	-11.4791
▁앞서있다	-11.4791
평가	-11.4792
▁인준	-11.4792
▁육상	-11.4792
▁파타당	-11.4792
▁마샤	-11.4793
▁전인대	-11.4794
▁엔화	-11.4795
▁대통령궁	-11.4795
▁판결문	-11.4796
▁시청률	-11.4797
▁들어있	-11.4798
▁애정	-11.4798
▁육성	-11.4799
▁있을까	-11.48
▁정당화	-11.4801
▁투하	-11.4801
▁달렸다	-11.4801
▁쿠즈	-11.4801
▁줄리아	-11.4801
▁히스	-11.4802
▁자체적으로	-11.4802
▁확산되	-11.4802
▁분배	-11.4805
▁박차	-11.4805
▁금융계	-11.4806
▁치우	-11.4807
▁장애물	-11.4807
▁공공장소에서	-11.4808
▁가이드	-11.4809
▁장점	-11.4809
▁루즈	-11.481
▁대열	-11.481
▁연맹	-11.4811
▁높았다	-11.4811
▁감행한	-11.4815
▁금주	-11.4815
▁감수	-11.4816
▁발명	-11.4817
▁내달	-11.4818
▁팔아	-11.4818
▁합법적으로	-11.4819
▁치아	-11.482
▁취업	-11.482
▁치료법	-11.4822
▁전념	-11.4822
▁사람으로	-11.4825
▁금연법	-11.4825
▁펜실베이니아주	-11.4828
▁들어왔다	-11.4829
▁매력적	-11.4831
▁크라우	-11.4833
▁테러범이	-11.4833
▁동상	-11.4835
▁인종차별	-11.4836
▁들소	-11.4837
▁합법적인	-11.4838
▁서울대	-11.484
▁신선	-11.4841
▁남부지역	-11.4841
▁집이	-11.4842
air	-11.4843
▁수영장	-11.4846
▁샬	-11.4846
▁이사장	-11.485
▁석방에	-11.4851
▁납치범	-11.4853
▁문어	-11.4856
▁왕국	-11.4857
▁사우	-11.4859
▁의존하고	-11.4862
▁양곤에서	-11.4862
▁출판사	-11.4863
▁투표소	-11.4863
▁예상치	-11.4864
▁사단	-11.4864
▁국가와	-11.4867
▁견디	-11.487
▁대통령으로서	-11.4872
▁차에	-11.4872
▁경찰관들	-11.4873
▁비티	-11.4873
▁당이	-11.4874
▁교착상태에	-11.4874
ger	-11.4876
▁올드	-11.4877
▁라파	-11.4877
▁이라크인들	-11.4877
▁움	-11.4879
▁측면에서	-11.488
▁이행할	-11.4883
▁실질적으로	-11.4885
▁전용기	-11.4885
▁조화	-11.4886
▁우주센터	-11.4886
than	-11.4888
▁빼고	-11.4888
▁주심	-11.4889
ton	-11.4891
▁언론인	-11.4892
▁혼인	-11.4892
▁음와	-11.4897
▁북한군	-11.4897
▁목에	-11.4898
▁생물학적	-11.4898
▁영화관	-11.49
▁분리주의자들	-11.4906
ift	-11.491
▁심리학	-11.4912
▁만회	-11.4913
▁맞을	-11.4916
▁오르기	-11.4918
▁이슬라마바드에서	-11.4918
▁토레	-11.4919
레시	-11.493
▁호주군	-11.493
▁손상된	-11.4931
▁변수	-11.4936
▁랩	-11.494
▁카불에서	-11.494
▁등정	-11.4941
▁이끌어내	-11.4945
▁적게	-11.4947
시민	-11.4948
▁모델로	-11.4953
▁고고학자	-11.4954
▁전사들	-11.4961
▁조사팀	-11.4961
▁확보해	-11.4962
▁친척들	-11.4971
▁궤도에	-11.4971
tive	-11.4974
▁연결하	-11.4976
▁측근들	-11.4983
▁충돌해	-11.4987
▁대응할	-11.4989
▁작전이	-11.499
▁임명했다	-11.499
▁서명한	-11.4991
▁착용한	-11.4992
▁확보에	-11.4993
▁경찰관이	-11.4993
▁수용소에	-11.4994
▁자식	-11.4994
▁엔지니어	-11.4994
▁발효	-11.4995
▁조차	-11.4995
▁등록된	-11.4998
▁중위	-11.5003
▁컨	-11.5005
내기	-11.5006
▁명만	-11.5008
란다	-11.5008
▁다치	-11.5011
▁그루	-11.5013
▁사고기	-11.5015
▁fc	-11.5016
▁검	-11.5016
머니	-11.502
▁벨리	-11.5022
▁하우스	-11.5024
▁잃어	-11.5029
tter	-11.5032
훈련	-11.5033
▁다운	-11.5037
▁가나	-11.5038
줬	-11.5049
▁행정부에	-11.505
▁입히	-11.5054
▁안고	-11.5059
▁시도하	-11.5059
▁결의안이	-11.5059
illi	-11.506
▁강화된	-11.506
▁바라보	-11.5062
▁유전적	-11.5064
켜	-11.5065
ile	-11.5069
▁우려해	-11.5078
▁얀	-11.5082
첸	-11.5086
▁제조업	-11.5088
털	-11.5089
사무소	-11.509
week	-11.509
핵	-11.5091
q	-11.5092
cy	-11.5093
▁치명적	-11.5095
금융	-11.5095
음악	-11.5096
▁포기한	-11.5097
민족	-11.5098
▁전비	-11.5098
▁프로그램에서	-11.5099
▁하와	-11.51
▁중단됐	-11.5102
▁글로	-11.5108
▁폭발물이	-11.5112
▁충족	-11.5115
▁일반인	-11.5116
이라크	-11.5116
부족	-11.5118
▁나이에	-11.5119
▁대면	-11.512
▁고등	-11.512
▁회복하고	-11.5124
노스	-11.5125
▁좌	-11.5127
공원	-11.5129
▁관계자와	-11.5146
▁과다	-11.515
상품	-11.5151
▁배우자	-11.5151
있으며	-11.5151
▁지원에	-11.5152
▁흐	-11.5153
메스	-11.5154
▁무장세력과	-11.5155
▁교회에	-11.5163
▁합법적	-11.5168
▁시행되	-11.5172
▁올림픽에서	-11.5175
▁벌여왔	-11.5175
▁집중적	-11.5176
감시	-11.518
▁민영	-11.5181
▁마련해	-11.5183
▁혈	-11.5183
▁소행이라	-11.5185
▁서기	-11.5189
▁요구한다	-11.519
▁처했다	-11.5192
▁해법	-11.5192
▁기업체	-11.5192
▁ag	-11.5195
▁공로	-11.5199
▁걸리는	-11.5201
▁의문이	-11.5202
▁파괴되	-11.5205
day	-11.5206
▁타지	-11.5206
▁월말	-11.5206
▁외계	-11.5212
▁공산	-11.5216
▁위험하다	-11.5219
▁이뤄졌	-11.5222
▁스티	-11.5222
▁가혹	-11.5224
▁수단으로	-11.5226
▁트럭이	-11.5228
▁격돌한	-11.5228
▁만나고	-11.5233
pt	-11.5233
▁중앙정보	-11.5237
▁정규	-11.5238
파크	-11.524
컷	-11.524
투자	-11.524
▁팀에	-11.524
▁미끄러	-11.5244
▁연구자들	-11.5245
▁나이로	-11.5249
▁몰리	-11.5252
▁태어났	-11.5253
▁해역	-11.5259
▁사령관이	-11.5261
▁밀집	-11.5262
▁조세	-11.5262
어드	-11.5264
ful	-11.5266
획	-11.527
▁기록됐다	-11.5271
▁뒤따	-11.5273
az	-11.5273
▁바다에	-11.5275
랙	-11.5276
▁노인들	-11.5276
돔	-11.5276
펀	-11.5276
엽	-11.5276
▁혐의와	-11.5276
▁glob	-11.5277
랫	-11.5277
▁나이트클럽	-11.5277
▁앵커	-11.5277
▁와이오밍	-11.5277
ough	-11.5277
▁rctv	-11.5277
▁support	-11.5277
▁uae	-11.5277
▁window	-11.5277
▁www	-11.5277
▁갖췄다	-11.5277
▁갤러리	-11.5277
▁끊어	-11.5277
▁네그로폰테	-11.5277
▁뉴욕상업거래소	-11.5277
▁뚜렷	-11.5277
▁매카트니	-11.5277
▁명확한	-11.5277
▁쌓인	-11.5277
▁쓰러져	-11.5277
▁아흐마디네자드	-11.5277
▁영유권	-11.5277
▁즈보나레바	-11.5277
▁초콜릿	-11.5277
▁해안경비대	-11.5277
▁햇볕	-11.5277
▁현수막	-11.5277
▁흑자	-11.5277
뜯	-11.5277
팍	-11.5277
푼	-11.5277
▁heart	-11.5277
▁신생아	-11.5277
▁자민당	-11.5277
▁홈구장	-11.5277
▁갱단	-11.5277
▁아폴로	-11.5277
▁딜런	-11.5277
▁피해여성	-11.5277
▁로날드	-11.5277
▁포츠머스	-11.5277
▁무자비	-11.5277
▁마리화나	-11.5277
▁몰아넣	-11.5277
▁프리츨	-11.5277
▁함부르크	-11.5277
▁통과된	-11.5277
▁아이다호	-11.5277
uck	-11.5277
▁강원도	-11.5277
▁해들리	-11.5277
▁휴이트	-11.5277
▁발자국	-11.5277
▁마스리	-11.5277
▁흘리	-11.5277
▁독특	-11.5277
▁룰라	-11.5277
▁게놈	-11.5277
▁food	-11.5277
▁연못	-11.5277
▁봉착	-11.5277
▁다이앤	-11.5277
▁오스만	-11.5277
▁rock	-11.5277
▁가르시아	-11.5277
▁에어웨이	-11.5277
▁웰스	-11.5277
▁눈보라	-11.5278
▁출항	-11.5278
▁혜성	-11.5278
que	-11.5278
▁무하마	-11.5278
▁도미니카	-11.5278
▁혼잡	-11.5278
번에	-11.5278
▁창업자	-11.5278
▁순결	-11.5278
▁잡혔다	-11.5279
▁잠비아	-11.5279
▁크로스	-11.5279
▁척추	-11.5279
▁매도프	-11.5279
▁라싸	-11.5279
▁막으려	-11.5279
▁사무국장	-11.528
▁지방법원	-11.528
▁제이슨	-11.528
▁관리들과	-11.528
▁거슬러	-11.528
▁돌풍	-11.528
▁내놓았다	-11.528
▁선고받았다	-11.5281
▁바랍	-11.5281
▁파이프	-11.5281
▁야외	-11.5282
▁참의원	-11.5282
▁test	-11.5282
▁단언	-11.5282
▁기원전	-11.5282
▁인질극	-11.5283
▁묻혀	-11.5283
▁훔쳐	-11.5283
▁떨어졌습니다	-11.5283
▁메모리	-11.5284
▁이용했다	-11.5284
▁법령	-11.5285
▁독립국가	-11.5285
▁인텔	-11.5286
▁재앙	-11.5286
▁투여	-11.5286
▁해리슨	-11.5286
▁악마	-11.5287
▁막았다	-11.5287
▁걸음	-11.5287
▁사라질	-11.5287
▁도착하자	-11.5287
▁mid	-11.5287
▁조사결과	-11.5287
▁초드리	-11.5288
▁사나	-11.5288
▁연구하는	-11.5288
▁비참	-11.5288
▁green	-11.5289
▁인수위원회	-11.529
▁수준에	-11.529
▁복사	-11.529
▁농부들	-11.5292
▁조립	-11.5292
▁카이로	-11.5292
▁조율	-11.5293
▁순수	-11.5293
▁공작	-11.5293
▁태세	-11.5294
▁남긴	-11.5295
▁실감	-11.5295
▁승진	-11.5298
▁살리기	-11.5299
▁부양	-11.5299
아주	-11.53
▁팔레스타인인	-11.53
▁prosecutor	-11.53
▁다행	-11.53
▁케이스	-11.53
▁구두	-11.5301
▁번개	-11.5301
▁배역	-11.5302
light	-11.5302
▁편집장	-11.5303
▁힐러리경	-11.5304
▁가져왔다	-11.5304
▁아이오와주	-11.5305
▁별개	-11.5305
비드	-11.5306
▁근본적	-11.5308
▁심리학자	-11.5309
▁들려	-11.531
▁점심	-11.531
▁멍	-11.5311
▁그래픽	-11.5311
▁센트럴	-11.5312
▁따내	-11.5313
▁서구	-11.5313
▁자들	-11.5313
▁임상	-11.5314
▁정박	-11.5314
▁목성	-11.5316
▁붕괴되	-11.5318
▁기종	-11.5319
▁예산안	-11.5321
▁레이드	-11.5322
▁버드	-11.5325
▁손길	-11.5325
▁불명	-11.5326
▁추종자들	-11.5327
▁마루	-11.5328
▁죽였다	-11.5328
▁동거	-11.5329
▁os	-11.533
▁도피	-11.533
▁기술자들	-11.533
▁동력	-11.5331
▁포즈	-11.5331
▁구성원	-11.5332
▁포크	-11.5333
▁미션	-11.5334
▁리우	-11.5334
▁low	-11.5336
▁토드	-11.5337
▁부인이	-11.5338
▁카디	-11.5339
▁띠	-11.534
▁참석하는	-11.5341
하느냐	-11.5342
▁티나	-11.5344
능력	-11.5345
▁중립	-11.5346
▁째	-11.5347
▁없었고	-11.5348
▁캐나다에서	-11.535
▁본인	-11.5353
▁따라잡	-11.5354
▁ser	-11.5357
▁관광객들에게	-11.5359
▁개정된	-11.536
▁적도	-11.5361
▁빨라	-11.5364
▁끌어내	-11.5364
▁기용	-11.5369
▁조심	-11.5369
▁마시는	-11.5371
▁공개될	-11.5373
▁기각했다	-11.5376
▁발표되지	-11.5379
▁밀리	-11.5382
▁ump	-11.5383
▁중태	-11.5383
eve	-11.5385
▁추락해	-11.5388
▁만연	-11.5389
▁북해	-11.539
▁무거	-11.5391
▁제의	-11.5391
▁이제까지	-11.5392
▁집어	-11.5395
▁버린	-11.5396
내려	-11.5404
▁여왕이	-11.5412
▁본회의	-11.5413
▁정해진	-11.5413
▁났	-11.5414
▁공격해	-11.5414
▁law	-11.5417
▁연행됐다	-11.5417
▁미얀마에	-11.542
▁마주	-11.542
▁두번째로	-11.542
▁지나간	-11.5422
▁부분에서	-11.5424
▁나타난다	-11.5425
▁지지했다	-11.5425
▁길게	-11.5425
판매	-11.5428
카트	-11.5429
ord	-11.5429
▁쓰인	-11.5432
▁슈퍼대의원	-11.5433
▁숨어	-11.5435
▁주시하	-11.5439
▁빌라	-11.5441
▁신뢰할	-11.5444
스프링스	-11.5446
인당	-11.5447
▁몰아내	-11.5448
▁잘라	-11.5451
bar	-11.5457
▁노린	-11.5464
ark	-11.5466
▁션	-11.5467
▁이집트에서	-11.5469
▁해일	-11.547
▁잡았	-11.5474
건설	-11.5475
아갈	-11.5478
다르	-11.5479
▁교사들	-11.5484
▁가져가	-11.5484
▁광장에서	-11.5485
▁이겨	-11.5487
▁head	-11.5488
▁위협받	-11.5491
비안	-11.5497
▁제품이	-11.5497
▁주석이	-11.5498
▁시간만	-11.5498
▁조사관	-11.5515
▁ya	-11.5516
▁발견해	-11.5516
▁지켜보고	-11.5518
▁결정하지	-11.5528
▁해안가	-11.5534
데릭	-11.5535
낸다	-11.5537
▁무대에	-11.554
▁납치됐	-11.5541
▁가야	-11.5541
▁주최한	-11.5543
▁차이나	-11.5546
이상	-11.555
▁경기장에서	-11.5552
▁라드	-11.5554
봤다	-11.5555
워스	-11.5556
▁대장	-11.5557
▁월스트리트에서	-11.556
▁주도하	-11.5563
▁외곽에	-11.5564
보면	-11.5566
▁ver	-11.5567
▁동물원에서	-11.5567
▁높이기	-11.5569
▁아서	-11.557
▁센터에서	-11.5578
▁여당이	-11.5581
▁시간으로	-11.5582
물리학	-11.5586
▁월터	-11.5587
▁운영되	-11.5594
▁보내지	-11.5604
▁구속했다	-11.5607
our	-11.5609
▁샌프란시스코에서	-11.5609
▁구속됐다	-11.561
뜨	-11.5612
앞	-11.5613
끄	-11.5615
재판소	-11.5615
▁북한측	-11.5617
전략	-11.5618
앨	-11.5618
▁동의한다	-11.5622
브레	-11.5626
▁상점들	-11.5629
red	-11.5631
관광	-11.5632
▁운항이	-11.5636
에너지	-11.5638
연방	-11.5639
▁생산된	-11.5644
▁이었다	-11.5659
▁팔레스타인인들	-11.5659
▁하드	-11.5665
▁bl	-11.5665
▁대상자	-11.5665
호프	-11.5666
신원	-11.5668
▁제국	-11.5675
▁심리적	-11.5675
할때	-11.5675
단지	-11.5679
▁효율	-11.5691
▁아사	-11.5692
▁mp	-11.5693
▁내부에서	-11.5694
▁고속도로에서	-11.5696
▁정신병	-11.5697
▁실종됐	-11.5705
▁앗아	-11.5705
▁방문한다	-11.571
▁않았다면	-11.5716
▁방에서	-11.572
▁마드리드에서	-11.5722
▁전제	-11.5723
마크	-11.5723
▁십년	-11.5724
▁모가디슈	-11.5725
▁차장	-11.5728
전화	-11.5728
▁나간	-11.5728
벨라	-11.5731
▁졌다	-11.5734
▁sen	-11.5737
▁임무에	-11.5738
▁하루만	-11.5747
▁che	-11.5749
▁금요일에	-11.575
▁들어왔	-11.5754
▁구사	-11.5755
▁조사하는	-11.5757
▁인체	-11.5759
▁설립했다	-11.5761
▁역할에	-11.5762
no	-11.5763
▁해왔	-11.5766
▁하기로	-11.5767
▁절반이	-11.5773
▁기념하	-11.5775
요원들	-11.5777
▁업무에	-11.578
▁아비	-11.5784
모리	-11.5784
▁시청자	-11.5792
▁right	-11.5793
▁회사에서	-11.5793
븐	-11.5794
▁수개월	-11.5796
칙	-11.5798
첩	-11.5799
▁했는지	-11.5799
듬	-11.5801
깃	-11.5801
▁meet	-11.5801
▁혐오	-11.5801
▁첨단	-11.5803
뮤	-11.5803
▁북대서양	-11.5803
employ	-11.5803
▁economy	-11.5803
▁hostage	-11.5803
▁strike	-11.5803
▁가깝게	-11.5803
▁가솔린	-11.5803
▁꿀벌	-11.5803
▁낳았다	-11.5803
▁니스텔로이	-11.5803
▁동성결혼	-11.5803
▁디스플레이	-11.5803
▁르완다	-11.5803
▁리트비넨코	-11.5803
▁메르세데스	-11.5803
▁미항공우주국	-11.5803
▁박정희	-11.5803
▁방코델타아시아	-11.5803
▁버틀러	-11.5803
▁베를루스코니	-11.5803
▁불매운동	-11.5803
▁선거유세	-11.5803
▁성매매	-11.5803
▁순이익	-11.5803
▁아제르바이잔	-11.5803
▁앙카라	-11.5803
▁애틀랜티스호	-11.5803
▁요하네스버그	-11.5803
▁인공위성	-11.5803
▁자르카위	-11.5803
▁정권인수팀	-11.5803
▁조선일보	-11.5803
▁좋겠다	-11.5803
▁찍힌	-11.5803
▁칠면조	-11.5803
▁키드먼	-11.5803
▁토튼햄	-11.5803
▁핸드폰	-11.5803
늬	-11.5803
옌	-11.5803
▁power	-11.5803
▁travel	-11.5803
▁usgs	-11.5803
▁니제르	-11.5803
▁밀라노	-11.5803
▁스즈키	-11.5803
▁영사관	-11.5803
▁잠수함	-11.5803
▁재규어	-11.5803
▁합법화	-11.5803
콥	-11.5803
▁나뉘어	-11.5803
▁원자재	-11.5803
▁사직서	-11.5803
▁오사카	-11.5803
▁카펠로	-11.5803
▁비너스	-11.5803
▁징조	-11.5803
▁와일드	-11.5803
▁핀란드	-11.5803
▁막바지	-11.5803
▁셰퍼드	-11.5803
▁옥스포드	-11.5803
▁관절염	-11.5803
▁대운하	-11.5803
▁사형선고	-11.5803
▁심장질환	-11.5803
▁반세기	-11.5803
▁페라로	-11.5803
▁블랙워터	-11.5803
▁프라이스	-11.5803
▁묵념	-11.5803
▁반짝이	-11.5803
▁참혹	-11.5803
▁즐거움	-11.5803
▁그리핀	-11.5803
▁노숙자	-11.5803
▁하이킹	-11.5803
▁몸싸움	-11.5803
▁액션	-11.5804
▁체첸	-11.5804
▁아이튠	-11.5804
▁역전승	-11.5804
▁파란색	-11.5804
▁드라이브	-11.5804
▁move	-11.5804
▁bill	-11.5804
▁빠져나가	-11.5804
▁음향	-11.5804
point	-11.5804
▁휘말	-11.5804
▁인내심	-11.5804
▁번화가	-11.5804
▁그린존	-11.5804
▁부유층	-11.5804
▁군복무	-11.5804
▁재건축	-11.5805
▁바오로	-11.5805
▁원주민들	-11.5805
▁크리스틴	-11.5805
▁곤경에	-11.5805
▁관례	-11.5805
▁쏟아져	-11.5805
▁형벌	-11.5805
▁휴먼	-11.5805
▁소방차	-11.5806
▁파라오	-11.5806
▁농부	-11.5806
▁불빛	-11.5806
▁좌우	-11.5806
▁정회장	-11.5806
▁오닐	-11.5806
▁soldiers	-11.5806
▁노워크	-11.5806
▁가정집	-11.5806
▁꾸미	-11.5807
▁괴물	-11.5807
▁연봉	-11.5807
▁생물체	-11.5808
▁환급	-11.5808
▁직무	-11.5808
▁뭉	-11.5809
▁같아	-11.5809
▁아흐메드	-11.5809
▁연합통신	-11.5809
▁이송됐으	-11.5809
▁마스크	-11.5809
▁어디서	-11.5809
▁카타르	-11.5809
▁라이더	-11.581
▁난항	-11.581
▁부국장	-11.581
▁접종	-11.581
▁리틀	-11.581
▁요구사항	-11.581
▁숨져	-11.5811
▁푸미	-11.5811
▁미주리주	-11.5811
▁가져오	-11.5811
▁샤리아	-11.5811
시킴	-11.5811
▁롭	-11.5812
▁우표	-11.5812
▁드러나	-11.5812
▁deal	-11.5812
▁카누	-11.5812
▁표범	-11.5812
▁기다렸다	-11.5813
▁제약회사	-11.5813
▁꼬리	-11.5813
▁티모	-11.5813
▁사귀	-11.5813
▁친분	-11.5814
▁과거사	-11.5814
▁난처	-11.5815
▁미시건주	-11.5815
▁반란군	-11.5815
▁속출	-11.5815
▁비틀	-11.5816
▁휘트	-11.5816
▁유타주	-11.5817
▁사과문	-11.5818
▁aft	-11.5818
▁굽	-11.5819
▁지켜봤다	-11.5819
▁경감	-11.582
▁루이지애나주	-11.582
▁카렌	-11.5821
▁타개	-11.5821
▁그레이스	-11.5821
▁사립	-11.5821
▁각료회의	-11.5822
▁백만명	-11.5822
▁만들어졌다	-11.5823
▁구제금융안	-11.5823
▁테디	-11.5824
▁생길	-11.5824
▁그런데	-11.5824
▁애리조나주	-11.5825
▁며칠간	-11.5826
뒀다	-11.5827
▁여건	-11.5827
▁넘겼다	-11.5827
▁김영	-11.5828
▁놓인	-11.5828
▁매설	-11.5828
▁벤치	-11.5829
▁회복세	-11.5833
▁표정	-11.5833
▁형량	-11.5833
▁펜실베니아주	-11.5835
▁해커	-11.5835
▁외신	-11.5835
▁적들	-11.5836
▁치타	-11.5838
▁거행	-11.5842
▁들렸다	-11.5842
▁들어있다	-11.5844
▁않았기	-11.5846
clu	-11.5847
▁블루스	-11.5848
▁민족주의	-11.5848
▁확정된	-11.5848
▁기준에	-11.5849
▁반경	-11.5851
▁연관성	-11.5852
▁주장했었다	-11.5853
▁소원	-11.5853
▁총력	-11.5853
▁돌진	-11.5855
▁날려	-11.5855
▁통과했다	-11.5855
▁구직	-11.5856
▁쉴	-11.5857
▁이빨	-11.5857
▁해외로	-11.5857
▁카카	-11.5859
▁압도적으로	-11.5859
▁문명	-11.5859
▁찔	-11.586
▁인내	-11.5863
▁책상	-11.5863
▁은신	-11.5865
▁쉽다	-11.5865
▁레비	-11.5867
▁보잉사	-11.5869
▁불행한	-11.5869
▁퓨	-11.587
▁끝나기	-11.587
▁수송기	-11.587
▁루트	-11.5871
▁반응이	-11.5872
▁입원해	-11.5872
▁질병에	-11.5873
▁최다	-11.5878
▁여론조사에	-11.5881
▁벌인다	-11.5881
▁우수	-11.5881
▁나포	-11.5882
▁정보원	-11.5882
▁가담한	-11.5883
변화	-11.5883
▁스트리트	-11.5891
▁의약	-11.5893
▁언론들	-11.5893
▁저하	-11.5894
▁산책로	-11.5895
▁나노	-11.5896
▁구속력	-11.5896
▁자질	-11.5898
▁개체	-11.5899
▁urge	-11.59
▁cut	-11.59
▁복도	-11.5901
▁명절	-11.5901
▁컬	-11.5902
▁상징으로	-11.5903
dict	-11.5904
▁예상한	-11.5904
▁호전	-11.5905
▁놓치	-11.5907
▁한창	-11.5908
▁국가적	-11.5911
ism	-11.5911
▁주행	-11.5917
▁힘들었	-11.5921
▁모색하고	-11.5921
▁교류	-11.5926
ler	-11.5928
▁국경지역에서	-11.5934
▁천국	-11.5935
▁다닐	-11.5935
▁정서	-11.5937
▁때가	-11.5942
▁이겼다	-11.5945
▁건스	-11.5946
ey	-11.5946
▁플로리다에	-11.5948
▁병장	-11.595
▁가시	-11.5951
▁인사들과	-11.5955
▁단계로	-11.5956
▁매도	-11.5962
▁추방된	-11.5965
▁사원에	-11.5967
▁인종적	-11.5975
▁남쪽에	-11.5976
바드	-11.5979
▁법규	-11.5981
▁진압하기	-11.5982
▁석유회사	-11.5985
▁지시한	-11.5986
▁청문회에서	-11.599
▁클레이	-11.601
▁국가들에	-11.601
▁고독	-11.6011
▁제한하	-11.6015
▁희생됐다	-11.6019
▁실직자	-11.6019
▁추측이	-11.6021
▁행복한	-11.6023
▁얼굴에	-11.603
▁기기	-11.6033
▁분주	-11.6035
ps	-11.6035
▁권했다	-11.6035
▁고민	-11.604
밀리에	-11.6042
arly	-11.6043
▁자랑하	-11.6043
▁조심스럽	-11.6044
▁wid	-11.6045
rop	-11.6046
▁크루	-11.605
▁시위대에	-11.6053
▁수단이	-11.6053
▁결혼한	-11.6055
▁물건들	-11.6055
▁이재민들	-11.6055
▁프린	-11.6065
곳	-11.6066
▁환경에서	-11.6066
▁도발적	-11.6072
▁번에	-11.6074
▁이르다	-11.6076
▁시드니에서	-11.6077
men	-11.6077
▁기업에	-11.6077
▁목적지	-11.6077
▁섭	-11.6079
▁져야	-11.6079
▁번호	-11.6085
ling	-11.6086
▁증상이	-11.6089
▁거부할	-11.609
▁매춘부	-11.6094
▁참여하고	-11.6094
▁콜로	-11.6101
▁보스	-11.6102
타카	-11.6103
▁부각	-11.6104
▁때보다	-11.6104
▁살아있	-11.6108
▁주어진	-11.6111
▁bp	-11.6115
빨	-11.6117
hot	-11.6118
브리지	-11.6118
▁위원회에	-11.6119
▁자원봉사자들	-11.6119
▁죽었	-11.6124
▁동원됐다	-11.6125
가렛	-11.6125
정치	-11.6133
▁사람들에	-11.6134
▁세상에	-11.6135
▁임원들	-11.6135
▁이어져	-11.6136
닐	-11.6138
▁레인	-11.6148
▁북쪽에	-11.6151
▁만들어지	-11.6154
밤	-11.6154
▁지지해	-11.6163
▁비난해	-11.6164
▁위원회에서	-11.6166
▁후보였	-11.6167
▁부문에	-11.6168
랩	-11.6171
▁현대적	-11.6171
붙	-11.6172
턱	-11.6173
시리즈	-11.6174
뒤	-11.6175
최초	-11.6175
카니	-11.6179
▁국무장관과	-11.6182
진압	-11.6186
워터	-11.6192
ali	-11.6197
▁마티	-11.6197
▁프로그램들	-11.6198
화씨	-11.62
▁다리에	-11.6201
▁불만이	-11.6203
▁소녀들	-11.6206
▁미미	-11.6209
▁정상회담에	-11.6212
▁어기	-11.6216
▁롱	-11.6217
▁죽고	-11.6222
▁조사관들	-11.6226
▁권장	-11.6226
▁별장	-11.6228
▁사용된다	-11.623
rate	-11.623
▁명이었다	-11.6232
방식	-11.6232
▁기독교인	-11.6234
▁이동하	-11.6234
▁아프간군	-11.6246
▁제작했다	-11.625
▁차량과	-11.6259
▁상반	-11.626
▁생겼	-11.6265
▁시달리	-11.6267
루드	-11.6269
▁느끼지	-11.6272
▁다해	-11.6272
▁노출된	-11.6273
▁손실이	-11.6277
▁존재하	-11.6279
철도	-11.6283
▁im	-11.6284
▁전차	-11.6288
▁허용했다	-11.6291
▁달했다	-11.6291
바락	-11.6294
▁헌법에	-11.6295
▁모델이	-11.6297
▁따르지	-11.6303
▁거부하는	-11.6305
▁설명하지	-11.6311
▁의거	-11.6314
관리국	-11.6318
ncy	-11.6321
▁단계에서	-11.6321
action	-11.6321
▁좋았	-11.6321
▁벌이다	-11.6324
▁유학	-11.6325
▁훔	-11.6326
자키	-11.633
▁촉진시키	-11.6332
▁corp	-11.6336
지역으로	-11.6336
▁덧붙였	-11.634
▁터뜨	-11.634
심리	-11.6341
▁극단주의	-11.6342
▁계열	-11.6343
▁역설	-11.6346
▁바람직	-11.6347
▁거래되	-11.6353
옹	-11.6355
▁사진기자	-11.6355
▁신행정수도	-11.6356
▁되자	-11.6356
▁kill	-11.6357
▁힌두	-11.6358
▁살모넬라	-11.6358
▁business	-11.6358
▁california	-11.6358
▁committee	-11.6358
▁dead	-11.6358
▁epl	-11.6358
▁expect	-11.6358
▁grow	-11.6358
▁isaf	-11.6358
▁million	-11.6358
▁nhc	-11.6358
▁paris	-11.6358
▁return	-11.6358
▁개성공단	-11.6358
▁걸림돌	-11.6358
▁경기후퇴	-11.6358
▁국제올림픽위원회	-11.6358
▁금강산	-11.6358
▁긱스	-11.6358
▁남우주연상	-11.6358
▁뉴잉글랜드	-11.6358
▁늦추	-11.6358
▁독극물	-11.6358
▁라크시미	-11.6358
▁상임이사국	-11.6358
▁새크라멘토	-11.6358
▁샌안토니오	-11.6358
▁서둘러	-11.6358
▁선거기부금	-11.6358
▁세골렌	-11.6358
▁아프카니스탄	-11.6358
▁악천후	-11.6358
▁애슐리	-11.6358
▁엑스파일	-11.6358
▁여러차례	-11.6358
▁옮겼다	-11.6358
▁유엔사무총장	-11.6358
▁이바노비치	-11.6358
▁재결합	-11.6358
▁제퍼슨	-11.6358
▁지켰다	-11.6358
▁췌장암	-11.6358
▁컸다	-11.6358
▁쿠즈넷소바	-11.6358
▁키티호크	-11.6358
▁하드웨어	-11.6358
▁헐리우드	-11.6358
▁홍석현	-11.6358
▁화성탐사	-11.6358
▁히스패닉	-11.6358
캇	-11.6358
▁석유수출	-11.6358
쯔	-11.6358
▁깁슨	-11.6358
▁나타날	-11.6358
▁불공정	-11.6358
▁승부차기	-11.6358
▁유동성	-11.6358
▁추기경	-11.6358
▁깁스	-11.6358
▁스프레이	-11.6358
▁다둘라	-11.6358
▁대법관	-11.6358
▁루카스	-11.6358
▁산체스	-11.6358
▁하니야	-11.6358
▁회교도	-11.6358
▁백과사전	-11.6358
▁즐겁	-11.6359
▁욕구	-11.6359
▁무효	-11.6359
▁어쩔	-11.6359
▁개구리	-11.6359
▁바시르	-11.6359
▁music	-11.6359
▁희귀	-11.6359
▁height	-11.6359
▁캐롤라인	-11.6359
▁진짜	-11.6359
▁진상조사	-11.6359
▁어렸을	-11.6359
▁교도통신	-11.6359
▁적혀있	-11.6359
▁글로리아	-11.6359
▁게이머	-11.6359
▁탈퇴	-11.6359
▁바레인	-11.6359
ress	-11.6359
▁즐겨	-11.636
▁부모님	-11.636
▁기념행사	-11.636
▁항구도시	-11.636
▁밀매	-11.636
▁four	-11.636
▁sex	-11.636
▁출현	-11.636
▁궁금	-11.636
▁진척	-11.636
▁잠자리	-11.636
▁그만두	-11.636
▁uci	-11.636
▁핵연료	-11.636
▁벌어질	-11.6361
▁오래전부터	-11.6361
▁big	-11.6361
▁case	-11.6361
▁양육	-11.6361
▁내보냈	-11.6361
▁어워드	-11.6361
▁액체	-11.6362
▁컬럼비아호	-11.6362
▁잠겨	-11.6362
▁주어지	-11.6362
▁쿠마르	-11.6362
▁플루	-11.6362
▁찰리	-11.6362
▁호황	-11.6362
▁디젤	-11.6362
▁들어올	-11.6362
▁어윈	-11.6362
▁평화협정	-11.6362
▁빙산	-11.6362
▁소방서	-11.6362
▁무척	-11.6363
▁실망감	-11.6363
▁오디오	-11.6363
▁야채	-11.6364
▁루머	-11.6364
▁이어갔다	-11.6365
▁돌파구	-11.6365
▁국제축구연맹	-11.6365
▁오리건주	-11.6365
▁항공편	-11.6365
▁변호사와	-11.6366
▁에밀리	-11.6366
▁attacks	-11.6366
▁지하실	-11.6366
▁중동평화회의	-11.6366
▁기네스	-11.6367
▁대위	-11.6367
▁수익금	-11.6368
▁변호인단	-11.6368
▁강철	-11.6369
▁충성	-11.6369
▁꺼내	-11.6369
▁누출	-11.637
▁빅토	-11.637
▁이뤘	-11.637
▁집결	-11.637
▁왕조	-11.6371
▁모여들었다	-11.6371
▁기사에	-11.6371
▁출산율	-11.6372
▁탈선	-11.6372
▁현저	-11.6373
▁진동	-11.6373
▁표본	-11.6373
▁밝혀질	-11.6373
▁제왕	-11.6373
▁의논	-11.6374
▁ces	-11.6374
▁기대감	-11.6375
▁궁극적으로	-11.6375
▁어류	-11.6375
▁부의장	-11.6376
▁말레이시아에서	-11.6376
▁아담스	-11.6377
▁종사하	-11.6377
대학교	-11.6378
▁bid	-11.6378
▁won	-11.6378
▁소유즈	-11.638
▁드물	-11.638
▁set	-11.6381
▁로렌스	-11.6381
▁관람객	-11.6383
▁비스타	-11.6383
▁과속	-11.6383
▁통제권	-11.6383
▁코란	-11.6384
▁만평	-11.6384
▁정복	-11.6384
▁않을까	-11.6385
▁과감	-11.6385
▁토티	-11.6385
▁지었다	-11.6386
▁표결에	-11.6387
▁요청했	-11.6387
eic	-11.6387
▁king	-11.6388
▁감당	-11.6388
▁안았다	-11.6389
▁조장하	-11.639
▁난관	-11.6391
▁망치	-11.6392
▁재계	-11.6392
▁친미	-11.6393
▁로렌	-11.6394
▁사료	-11.6394
▁알아야	-11.6395
▁적법	-11.6395
▁파이낸셜	-11.6397
▁썩	-11.6397
▁수사팀	-11.6397
▁점유	-11.6398
▁분개	-11.6398
▁가져야	-11.6399
▁성실	-11.64
프랑	-11.6402
▁준결승전에서	-11.6402
▁세기에	-11.6403
▁북극해	-11.6404
▁상태였	-11.6407
▁자재	-11.6407
▁거울	-11.6407
▁금지했다	-11.6409
▁되는데	-11.6409
▁불량	-11.6409
▁원형	-11.641
마트	-11.641
▁옮겨졌다	-11.6412
▁소비자들에게	-11.6414
주간	-11.6415
▁부패혐의	-11.6415
▁스티븐스	-11.6417
▁운동화	-11.6419
▁벗어나기	-11.642
▁분리된	-11.642
▁바탕으로	-11.6421
▁야드	-11.6422
▁변하지	-11.6423
클라	-11.6423
▁청와대에서	-11.6423
▁리마	-11.6423
▁주관	-11.6423
▁체스	-11.6424
imp	-11.6425
▁가혹한	-11.6425
▁지냈다	-11.6426
▁한국어	-11.6426
▁확정됐다	-11.6431
▁제압	-11.6433
▁눈으로	-11.6434
▁새우	-11.6438
자산	-11.6439
▁군용	-11.6439
▁쿠폰	-11.6442
▁음식점	-11.6443
▁계약서	-11.6446
▁계획이었다	-11.6446
▁자국민	-11.6446
▁주말까지	-11.6449
▁그녀에게	-11.6451
▁bet	-11.6456
▁명씩	-11.6456
▁클라인	-11.6456
▁내역	-11.6463
▁트럭에	-11.6465
▁카라치에서	-11.6466
▁선교	-11.6466
▁편에	-11.6468
▁삼바	-11.6468
▁반대해	-11.6469
▁선서	-11.6472
▁위권	-11.6474
▁지질학	-11.6478
▁육지	-11.648
▁발표되	-11.6481
▁중심부에서	-11.6483
▁축하하기	-11.6483
▁플로리다에서	-11.6484
▁생명에	-11.6485
▁franc	-11.6485
▁독자적	-11.6486
▁사임한	-11.6489
▁나빠	-11.6496
▁공약으로	-11.6496
mas	-11.6498
▁이탈리아에서	-11.6498
적이었다	-11.6501
▁담당하	-11.6505
▁바꾸기	-11.6506
▁생사	-11.651
▁싼	-11.6511
▁자동차회사	-11.6513
▁사령부	-11.6517
탈루	-11.6521
▁떠나기	-11.6522
▁통제하는	-11.6525
▁대미	-11.6531
▁가루	-11.6535
▁철회할	-11.6538
ness	-11.6542
▁농장에서	-11.6544
▁농구	-11.6552
▁배우들	-11.6556
▁뜨	-11.6557
▁사라져	-11.6561
▁우주국	-11.6561
▁다양성	-11.6561
▁주식시장에서	-11.6565
▁호스	-11.6568
ust	-11.6575
▁생산성	-11.6579
▁신뢰도	-11.658
▁타계했다	-11.6591
▁관중들	-11.6592
▁다녀	-11.6592
▁부위에	-11.66
▁자백	-11.66
▁화면에	-11.66
▁베니스	-11.6615
▁살아있다	-11.6616
▁가하는	-11.6617
▁예루살렘에서	-11.662
문제에	-11.6625
▁장애인	-11.6625
▁일부에서	-11.663
▁누구에게	-11.6631
▁회사측	-11.6637
▁way	-11.6638
▁컴	-11.6639
▁허가했다	-11.664
▁중심부에	-11.6643
하드	-11.6644
▁합류했다	-11.665
▁웬	-11.6651
▁참석자들	-11.6654
▁죽음이	-11.6662
▁팀장	-11.6666
▁블로거	-11.6669
▁중단해야	-11.6671
▁그외	-11.6671
상태에	-11.6674
▁당사자들	-11.6674
▁개별	-11.6677
▁외무장관이	-11.668
▁냈	-11.6682
▁사무실에	-11.6682
▁당선되	-11.6683
▁통신원	-11.6685
▁협력해	-11.6689
▁폭도	-11.6693
▁혁신적	-11.6696
▁흔적이	-11.6698
▁파티에	-11.6704
con	-11.6704
▁학자	-11.6705
▁거점	-11.6707
라프	-11.6709
원장	-11.671
▁자백했다	-11.6711
▁환자에게	-11.6716
▁납부	-11.6717
▁취하는	-11.6721
▁거주자	-11.6729
▁마련하고	-11.6729
▁물자	-11.6729
▁텐	-11.673
▁취하기	-11.6732
▁라만	-11.674
▁정부측	-11.6741
▁흥분한	-11.6741
▁제한된	-11.6741
▁시신들	-11.6745
▁사자	-11.6746
ator	-11.6746
ang	-11.6746
▁보니	-11.6747
죽	-11.6749
▁출연할	-11.6751
▁전화기	-11.6752
바오	-11.6756
▁시작된다	-11.6757
▁집권한	-11.6757
▁이해하는	-11.6758
space	-11.6759
자동차	-11.6762
랭킹	-11.6763
검찰	-11.6764
▁존재하지	-11.6765
▁신자들	-11.6766
업무	-11.6772
▁사회에서	-11.6773
▁제공되	-11.6778
집단	-11.6778
누르	-11.6779
▁센터에	-11.6784
신청	-11.6786
▁딸들	-11.6793
▁경제학	-11.68
▁대중들	-11.6804
▁cur	-11.6806
하든	-11.6807
▁bar	-11.681
▁여론이	-11.681
▁감소하고	-11.6811
시절	-11.6813
▁상황으로	-11.6816
중단	-11.6818
▁보라	-11.6818
▁넘었다	-11.682
▁전해진	-11.6821
▁발사됐다	-11.6821
▁보장하	-11.6829
▁수학	-11.683
ag	-11.6833
▁wh	-11.684
▁under	-11.6841
▁적었다	-11.6842
▁알았	-11.6848
▁cas	-11.6852
▁의대	-11.6853
▁충격적	-11.6853
▁다나	-11.6867
글판	-11.6868
▁일생	-11.6871
▁유독	-11.6873
▁대항하는	-11.6875
▁다할	-11.6881
▁해변에	-11.6885
▁압력에	-11.6894
▁분리주의	-11.6897
▁act	-11.6899
▁나토군이	-11.69
▁산업에	-11.6902
운영	-11.6907
▁소실	-11.6911
▁메디컬	-11.6915
▁작동되	-11.6918
▁결정하는	-11.6924
받았	-11.6926
▁정해	-11.6929
▁주차장	-11.6931
혁	-11.6931
▁미시건	-11.6933
▁이슬람교도들	-11.6935
▁브랜	-11.6935
▁기지에	-11.6935
▁준결승	-11.6936
▁죽어	-11.6941
둬	-11.6943
륜	-11.6945
왓	-11.6945
▁거래에서	-11.6945
▁국민과	-11.6946
놔	-11.6946
쿼	-11.6947
툰	-11.6947
▁공상과학	-11.6947
▁church	-11.6947
▁demand	-11.6947
▁eads	-11.6947
▁earth	-11.6947
▁industr	-11.6947
▁iwc	-11.6947
▁organization	-11.6947
▁program	-11.6947
▁unhcr	-11.6947
▁고르바초프	-11.6947
▁구소련	-11.6947
▁뇌졸중	-11.6947
▁더글라스	-11.6947
▁듣게	-11.6947
▁리우데자네이루	-11.6947
▁먹어	-11.6947
▁멋지	-11.6947
▁메릴린치	-11.6947
▁몰랐다	-11.6947
▁미확인	-11.6947
▁민주노동당	-11.6947
▁바나프샤	-11.6947
▁볼티모어	-11.6947
▁블래터	-11.6947
▁빈민층	-11.6947
▁샀다	-11.6947
▁스필버그	-11.6947
▁시에라리온	-11.6947
▁식품의약국	-11.6947
▁신시내티	-11.6947
▁아디다스	-11.6947
▁암스테르담	-11.6947
▁여중생	-11.6947
▁예방접종	-11.6947
▁위태롭게	-11.6947
▁인신매매	-11.6947
▁정찰위성	-11.6947
▁조류독감	-11.6947
▁좁혀	-11.6947
▁준이치로	-11.6947
▁찍어	-11.6947
▁타이타닉	-11.6947
▁통합민주당	-11.6947
▁트러스트	-11.6947
▁트리폴리	-11.6947
▁포유류	-11.6947
▁햇빛	-11.6947
▁확립	-11.6947
▁흩어져	-11.6947
띤	-11.6947
텀	-11.6947
퐁	-11.6947
▁irna	-11.6947
▁thai	-11.6947
▁마스터즈	-11.6947
▁언젠가	-11.6947
▁자페타	-11.6947
▁정보통신부	-11.6947
▁존엄성	-11.6947
▁항공모함	-11.6947
▁헤드폰	-11.6947
샨	-11.6947
▁kbs	-11.6947
▁상무부	-11.6947
▁영업이익	-11.6947
▁사이언스	-11.6947
▁다이어트	-11.6947
▁메이도프	-11.6947
▁에스트라다	-11.6947
▁타디치	-11.6947
▁흥정	-11.6947
▁노던록	-11.6947
▁카펫	-11.6947
▁버나드	-11.6947
▁대성당	-11.6947
▁스틸러스	-11.6947
▁치뤄	-11.6947
▁놀이공원	-11.6947
▁쿼터백	-11.6947
▁버크헤드	-11.6947
▁사진작가	-11.6947
▁강대국	-11.6947
▁고등학생	-11.6947
▁패트로스	-11.6947
▁검정색	-11.6947
▁senate	-11.6947
▁경수로	-11.6947
▁슬픈	-11.6947
▁북아일랜드	-11.6947
▁트랙	-11.6947
▁낭독	-11.6947
▁정착촌	-11.6947
▁고아원	-11.6947
▁작가조합	-11.6947
▁출혈	-11.6947
▁국영언론	-11.6947
▁현대자동차	-11.6947
▁당뇨병	-11.6947
▁씨앗	-11.6947
▁도망쳤다	-11.6947
▁gdp	-11.6948
▁체험	-11.6948
▁블랙홀	-11.6948
▁클릭	-11.6948
▁휴전협정	-11.6948
▁식별	-11.6948
▁검역	-11.6948
▁헬렌	-11.6948
▁볼드윈	-11.6948
▁극도로	-11.6948
▁항의시위	-11.6949
▁십자가	-11.6949
▁총파업	-11.6949
▁유대교	-11.6949
▁tsa	-11.6949
▁리옹	-11.6949
▁출처	-11.6949
▁신흥	-11.6949
▁축복	-11.6949
▁계승	-11.695
▁키팅	-11.695
▁다저스	-11.695
▁조세프	-11.695
▁크랜	-11.695
▁몰락	-11.695
▁force	-11.695
▁무효화	-11.695
▁부활절	-11.695
▁cru	-11.6951
▁탄원서	-11.6951
▁절망	-11.6951
▁연립	-11.6951
▁무장조직	-11.6951
▁살인사건	-11.6952
▁내륙	-11.6952
▁보건장관	-11.6952
▁올라왔다	-11.6952
▁mtv	-11.6952
▁용감	-11.6952
▁ask	-11.6952
▁제휴	-11.6953
▁흠	-11.6953
▁운용	-11.6953
▁머무르	-11.6953
▁특혜	-11.6953
▁작위	-11.6953
▁완구	-11.6954
▁프린트	-11.6954
▁최신작	-11.6954
▁엔론	-11.6954
ble	-11.6954
▁로리언	-11.6955
▁야망	-11.6955
▁소년병	-11.6955
▁종목	-11.6955
▁피켓	-11.6956
▁켄트	-11.6956
▁청산	-11.6956
▁바다위	-11.6956
▁돌렸다	-11.6956
▁절정	-11.6957
▁근방	-11.6957
▁상환	-11.6957
▁환경단체	-11.6957
▁물리학자	-11.6957
▁열광	-11.6958
▁결정적	-11.6958
▁견제	-11.6958
▁넘긴	-11.6959
▁통신망	-11.6959
▁오델	-11.6959
▁최장	-11.6959
▁폴락	-11.696
▁즉석	-11.696
▁최적	-11.696
▁할렘	-11.6961
▁aids	-11.6962
▁강탈	-11.6963
▁귀중	-11.6963
▁관제	-11.6964
▁years	-11.6964
▁경쟁자들	-11.6964
▁차이점	-11.6966
▁오찬	-11.6966
▁공석	-11.6966
▁국무회의	-11.6966
▁동점	-11.6967
▁황소	-11.6968
ird	-11.6969
▁악수	-11.697
▁지휘자	-11.6971
▁차량에서	-11.6971
▁도보	-11.6971
▁경찰국장	-11.6972
보관소	-11.6972
▁타워	-11.6972
▁배출량	-11.6973
▁밀크	-11.6974
▁휴전선	-11.6974
▁격전	-11.6975
▁배아줄기세포	-11.6976
▁인터내셔널	-11.6976
▁테크	-11.6976
▁주의보	-11.6977
▁지상군	-11.6978
▁파란	-11.6979
▁소포	-11.698
▁기지에서	-11.6981
▁틸리	-11.6982
▁관점	-11.6982
▁원석	-11.6982
드미	-11.6982
▁결선	-11.6983
▁어조	-11.6983
▁진술서	-11.6983
▁정문	-11.6984
▁쇼에서	-11.6985
▁관용	-11.6986
▁메모리얼	-11.6988
▁보내졌다	-11.699
▁되도록	-11.6991
▁다량	-11.6991
▁체력	-11.6991
▁의장직	-11.6991
▁중요하게	-11.6992
▁캐시	-11.6993
▁실업자	-11.6994
▁부친	-11.6994
▁기자실	-11.6994
▁베일	-11.6997
▁찾아야	-11.6998
▁뻔	-11.6999
▁희생된	-11.6999
▁내외	-11.7001
▁처사	-11.7001
▁천원	-11.7002
됐음	-11.7003
▁수천만	-11.7007
▁worker	-11.7007
▁실명	-11.7007
▁고객들에게	-11.7007
▁마신	-11.7008
▁빛나	-11.7009
▁아마드	-11.701
▁노동조합	-11.7011
학술	-11.7013
▁구조물	-11.7015
▁사업체	-11.7016
▁민주당원	-11.7017
▁넘쳐	-11.7018
없	-11.7018
군사훈련	-11.7018
▁공동체	-11.7019
▁스페인에서	-11.702
▁프레이	-11.7021
▁불법적으로	-11.7021
▁숨어있	-11.7022
▁마카	-11.7022
▁봤을	-11.7022
▁양식	-11.7025
투성이	-11.7025
▁오르지	-11.7027
▁마오	-11.7027
▁기자와	-11.7027
행해진	-11.7028
▁소치	-11.703
▁손잡	-11.703
▁정찰기	-11.7031
▁부탁했다	-11.7033
▁헌법상	-11.7034
▁딱	-11.7034
▁이슬람교도	-11.7034
▁스토	-11.7036
▁유지될	-11.7037
▁통과시키	-11.7037
▁에너지부	-11.7037
▁평양에	-11.704
▁교장	-11.7041
▁반대파	-11.7043
▁크리	-11.7045
▁장르	-11.7045
▁놈	-11.7045
▁시급	-11.7047
▁패했다	-11.7047
▁집계됐다	-11.705
▁피지	-11.7052
▁오프	-11.7054
▁꼬	-11.7056
▁화성에	-11.7056
▁급락했다	-11.7058
▁말하자	-11.706
▁영화계	-11.7062
▁셈	-11.7069
▁합의했	-11.7072
▁미렌	-11.7072
ham	-11.7073
▁수신	-11.7075
▁세울	-11.7076
▁개통	-11.7081
▁태워	-11.7082
때로	-11.7083
▁주었	-11.7083
▁많았	-11.7086
▁맞이했다	-11.7086
▁수염	-11.7086
▁묵인	-11.7087
▁살기	-11.7088
로윈	-11.7088
헌재	-11.7089
▁자카르타에서	-11.7089
▁신청했다	-11.7092
▁홀리	-11.7092
▁자동차업체	-11.7095
▁범인들	-11.7096
▁총리실	-11.7097
▁발견되었	-11.7097
well	-11.7098
▁장군이	-11.7101
▁볼트	-11.7101
▁승리해야	-11.7102
▁후회	-11.7103
▁건물들이	-11.7104
롤라	-11.7107
▁보석으로	-11.711
▁수출국	-11.7114
▁희	-11.7114
▁지역구	-11.7115
▁조니	-11.7116
스럽다	-11.7116
▁문화원	-11.7118
▁대구	-11.7119
▁해안지역	-11.7121
▁워싱턴주	-11.7121
▁자진	-11.7122
▁당선이	-11.7122
▁끝이	-11.7124
▁뷰	-11.7127
▁비슷하다	-11.7132
▁gra	-11.7137
▁재개했다	-11.7139
▁마자	-11.7142
▁깨어	-11.7147
▁개제	-11.7147
▁한동안	-11.715
▁향상시키	-11.715
▁대응하기	-11.7152
▁목장	-11.7156
▁갖지	-11.7157
사르	-11.7162
▁파장	-11.7162
▁않았었다	-11.717
▁흥미로	-11.7174
▁pm	-11.7177
▁지도부와	-11.7182
▁왔었다	-11.7182
프레드	-11.7188
▁초기에	-11.7189
▁장군과	-11.7193
▁일축	-11.7197
▁뒷받침	-11.7201
▁정했다	-11.7203
▁사망률	-11.7212
베르트	-11.7212
ash	-11.7214
▁유가족들	-11.7214
▁장착한	-11.7216
지도자	-11.7216
▁이민자	-11.7226
▁당사자	-11.7227
▁전후	-11.7229
담당자	-11.723
▁월경	-11.7232
▁수니파와	-11.7233
▁일으키고	-11.7236
▁모아이	-11.7239
▁하늘에서	-11.7246
▁터지	-11.7246
▁대법원에	-11.7247
▁도드	-11.7249
▁위력	-11.725
호선	-11.7252
▁초까지	-11.7253
ube	-11.7255
▁없다면	-11.7256
▁억명	-11.7258
대비	-11.7259
▁요가	-11.7261
▁채워	-11.7261
▁잠들	-11.7266
▁보자	-11.727
▁패배한	-11.7276
▁올라와	-11.7278
▁보이기	-11.7281
▁확산되는	-11.7283
▁아들에게	-11.7284
나단	-11.7286
▁경매에서	-11.7288
▁분쟁에	-11.729
블라	-11.7294
▁여러분이	-11.7295
▁사라졌	-11.7295
▁생물학자	-11.7301
▁선정한	-11.7307
▁임명됐다	-11.731
노동자당	-11.7312
스텔	-11.7315
▁사르	-11.7318
time	-11.7319
▁지원자들	-11.7322
▁브라질에서	-11.7326
had	-11.7336
▁실시하고	-11.7342
최	-11.7345
▁인용했다	-11.7346
▁대행	-11.7351
▁청년들	-11.7352
정지	-11.7353
▁도와주	-11.7353
▁타계	-11.7358
▁베니	-11.7359
▁바라지	-11.7362
▁바커	-11.7367
해냈다	-11.7372
▁시작되었	-11.7373
▁실적이	-11.7373
▁천장	-11.7374
▁회의적	-11.7374
▁토론회에	-11.7377
꾸	-11.7379
▁죽음으로	-11.738
nois	-11.7381
틸	-11.7382
잎	-11.7382
뷰	-11.7382
눈	-11.7383
프로그램	-11.7384
tory	-11.7385
공화국	-11.7387
잘	-11.7388
반응	-11.739
테니스	-11.739
차관보	-11.7391
▁주도했다	-11.7391
처분	-11.7392
▁영하	-11.7392
▁거래소	-11.7395
▁유튜브에	-11.7398
공연	-11.7405
▁유명인사들	-11.7406
ama	-11.7408
▁해결되	-11.7415
방위	-11.7416
▁조각들	-11.7417
재정	-11.7417
▁제압하	-11.7428
▁강타했다	-11.7428
▁폭도들	-11.7429
▁시위대들	-11.743
▁맺어	-11.7435
아래	-11.7436
데라	-11.7436
▁기여한	-11.7443
브리	-11.7445
▁지장	-11.7445
▁사유	-11.7446
▁주인공이	-11.7448
wi	-11.7454
바라크	-11.7458
▁jon	-11.746
▁생각했	-11.7461
▁선보이	-11.7463
▁멕시코에서	-11.7466
강한	-11.7475
▁정당한	-11.7489
▁선호하	-11.749
▁않겠	-11.7492
▁불확실	-11.7492
▁come	-11.7495
▁태우	-11.75
금치	-11.7501
▁비공식적	-11.7503
▁케냐에서	-11.7506
▁생중계	-11.7506
▁라벨	-11.751
▁스타디움	-11.751
▁베트남전	-11.751
▁시도했으	-11.7515
▁달링	-11.7526
봐야	-11.7528
▁베드	-11.7531
▁타마	-11.7532
▁다르지	-11.7532
▁거뒀	-11.7536
▁팬이	-11.7545
국적	-11.7545
▁관람객들	-11.7545
저널	-11.7548
▁연구실	-11.7548
▁빠졌	-11.755
▁고려하	-11.7553
▁알렉산드	-11.7554
▁천문학	-11.7555
nts	-11.7556
▁타임즈와	-11.7558
▁모국	-11.7561
▁공원에	-11.7561
▁면역	-11.7566
▁메인	-11.757
▁불러일으	-11.757
own	-11.7571
▁수마트라	-11.7571
톡	-11.7572
▁냉각	-11.7572
▁christ	-11.7572
▁academy	-11.7572
▁capital	-11.7572
▁conference	-11.7572
▁country	-11.7572
▁institute	-11.7572
▁job	-11.7572
▁second	-11.7572
▁갤론	-11.7572
▁건강검진	-11.7572
▁걷기	-11.7572
▁국가평의회	-11.7572
▁깨달았다	-11.7572
▁나미비아	-11.7572
▁나폴리타노	-11.7572
▁남동생	-11.7572
▁냉장고	-11.7572
▁대검찰청	-11.7572
▁디카프리오	-11.7572
▁떠올랐다	-11.7572
▁래드클리프	-11.7572
▁리투아니아	-11.7572
▁멜버른	-11.7572
▁멤피스	-11.7572
▁모레스모	-11.7572
▁바랐다	-11.7572
▁밸리	-11.7572
▁부동층	-11.7572
▁부총재	-11.7572
▁불균형	-11.7572
▁불러일으켰다	-11.7572
▁블록버스터	-11.7572
▁사무차장	-11.7572
▁사이언톨로지	-11.7572
▁알츠하이머	-11.7572
▁알카티리	-11.7572
▁옥수수	-11.7572
▁옵션	-11.7572
▁이스마일	-11.7572
▁전자메일	-11.7572
▁찾으려	-11.7572
▁츠방기라이	-11.7572
▁카르발라	-11.7572
▁퀘벡	-11.7572
▁트레일러	-11.7572
▁파키스탄인민당	-11.7572
▁프랑크푸르트	-11.7572
▁플레이스테이션	-11.7572
▁혹등고래	-11.7572
▁휠체어	-11.7572
▁흡입	-11.7572
랏	-11.7572
쑤	-11.7572
윅	-11.7572
팡	-11.7572
▁기울여야	-11.7572
▁매몰된	-11.7572
▁배트맨	-11.7572
▁볼리비아	-11.7572
▁재경부	-11.7572
▁헬만드	-11.7572
▁구속영장	-11.7572
▁비무장지대	-11.7572
▁인수제안	-11.7572
▁사로잡	-11.7572
▁리브니	-11.7572
▁서두르	-11.7572
▁wall	-11.7572
▁레코드	-11.7572
▁메케인	-11.7572
▁스콜스	-11.7572
▁자위대	-11.7572
▁산악지대	-11.7572
▁중질유	-11.7572
▁원동력	-11.7572
▁따돌렸	-11.7572
▁로드아일랜드	-11.7572
▁불가사의	-11.7572
▁산시성	-11.7572
▁africa	-11.7572
▁수수료	-11.7572
▁올림피	-11.7572
▁threaten	-11.7572
▁엘리엇	-11.7572
▁train	-11.7572
▁화학물질	-11.7572
▁trans	-11.7572
▁bomb	-11.7572
▁압델	-11.7572
▁벗겨	-11.7573
▁철폐	-11.7573
▁trial	-11.7573
▁레빈슨	-11.7573
▁교훈	-11.7573
▁watch	-11.7573
▁국가안보회의	-11.7573
▁봉투	-11.7573
▁추억	-11.7573
▁그래미	-11.7573
기동대	-11.7573
▁이루어졌	-11.7573
▁차량폭탄	-11.7573
▁당첨	-11.7574
▁도서관	-11.7574
▁불륜	-11.7574
▁마피아	-11.7574
▁list	-11.7574
▁부대변인	-11.7574
▁별칭	-11.7574
▁abn	-11.7574
▁슬림	-11.7574
▁놀라움	-11.7574
▁숙박	-11.7574
▁멜론	-11.7574
▁도둑	-11.7574
▁그레그	-11.7574
▁killed	-11.7574
▁입후보	-11.7574
▁게시물	-11.7574
▁희미	-11.7575
그너	-11.7575
▁스튜	-11.7575
▁축구선수	-11.7575
▁우주여행	-11.7575
▁장례	-11.7575
▁생애	-11.7575
▁대리모	-11.7575
▁정몽	-11.7575
▁지불했다	-11.7575
▁변했다	-11.7575
▁예상됩니다	-11.7575
▁알라위	-11.7576
▁필름	-11.7576
▁나눈	-11.7576
▁제국주의	-11.7576
▁케이프	-11.7577
▁벤처	-11.7577
▁청원서	-11.7577
▁대슐	-11.7577
▁집값	-11.7577
▁공헌	-11.7577
▁우려했다	-11.7577
▁로빈슨	-11.7577
▁신기록	-11.7578
▁출입국	-11.7578
▁태생	-11.7578
▁오웬	-11.7578
▁범죄행위	-11.7578
▁우편물	-11.7578
▁학계	-11.7578
▁단결	-11.7579
▁팻	-11.7579
▁누구인지	-11.7579
▁생생	-11.7579
▁관통	-11.7579
▁단편	-11.7579
▁프로스트	-11.7579
▁증파	-11.7579
▁급증했다	-11.7579
▁centr	-11.7579
▁홀더	-11.7579
▁절실	-11.758
▁공공연	-11.758
▁조롱	-11.758
▁레빈	-11.7581
▁코웰	-11.7581
▁불법행위	-11.7581
▁지방정부	-11.7581
▁대피시켰다	-11.7581
▁중단되	-11.7581
▁자동차산업	-11.7582
▁언니	-11.7582
▁법무상	-11.7582
▁지명되기	-11.7582
로프트	-11.7583
▁아델	-11.7584
▁바꾼	-11.7584
▁이맘	-11.7585
▁골절	-11.7586
▁생계	-11.7586
▁생체	-11.7586
▁물러났다	-11.7586
▁허브	-11.7586
▁od	-11.7586
▁군사정부	-11.7586
▁신랑	-11.7586
▁조직위	-11.7587
▁신년	-11.7587
▁자폭	-11.7587
▁메인주	-11.7587
▁팬더	-11.7587
▁증대	-11.7588
▁왕관	-11.7588
▁포탄	-11.7589
▁주연상	-11.7589
▁무력화	-11.759
▁던졌	-11.759
▁놓여있다	-11.759
▁브라이언트	-11.7591
▁실망했다	-11.7591
▁건축물	-11.7591
▁찾아온	-11.7592
▁전해드	-11.7592
▁풀려나	-11.7593
▁마술	-11.7593
▁심슨이	-11.7593
▁루터	-11.7594
▁호건	-11.7594
▁비축	-11.7595
▁해골	-11.7596
▁발판	-11.7596
▁통상적	-11.7597
▁라마	-11.7598
▁우위	-11.7599
▁외국인들이	-11.7599
▁거액	-11.76
▁중단시켰다	-11.7602
▁변명	-11.7602
▁부주의	-11.7602
▁부분적으로	-11.7603
▁인권문제	-11.7604
▁대사와	-11.7604
▁우정	-11.7605
▁times	-11.7605
▁꾸며	-11.7605
▁유실	-11.7605
▁there	-11.7606
▁동의안	-11.7606
▁아스	-11.7606
▁유로화	-11.7606
펠드	-11.7607
▁경미	-11.7608
▁states	-11.7608
▁주일간	-11.7608
▁찾아냈다	-11.7609
▁모방	-11.7611
▁남북간	-11.7611
▁국회의장	-11.7612
▁도출	-11.7612
▁분노한	-11.7612
▁궁지에	-11.7613
▁상속	-11.7613
▁신씨	-11.7615
▁어려움에	-11.7615
▁차분	-11.7616
▁사지	-11.7617
▁과오	-11.7619
▁신차	-11.7622
▁당내	-11.7622
▁궁전	-11.7622
▁있냐	-11.7623
키마	-11.7625
쿠르	-11.7626
▁주립대학	-11.7627
▁반사	-11.7627
▁유니버	-11.7627
▁깨진	-11.7628
▁벗기	-11.7628
▁주최하	-11.7629
▁말해주	-11.763
▁당파	-11.7631
▁자리잡	-11.7632
우트	-11.7634
▁하나였다	-11.7634
▁보았	-11.7636
▁등장한다	-11.7637
▁요리사	-11.7638
▁친부	-11.7639
▁주범	-11.7639
▁박탈당	-11.764
▁순교자	-11.7645
▁페어	-11.7645
▁감사원	-11.7648
▁생산업체	-11.7649
▁있었는데	-11.7651
▁연상	-11.7651
▁킴	-11.7652
▁정세	-11.7653
▁대금	-11.7655
▁정치인들이	-11.7657
▁키트	-11.7657
dom	-11.7658
▁기뻐	-11.7659
▁어스	-11.766
▁대개	-11.7662
▁섬에서	-11.7664
▁캘	-11.7665
▁편리	-11.7665
▁유발할	-11.7668
▁랜디	-11.767
▁살레	-11.7672
▁예외	-11.7673
▁합쳐	-11.7675
▁밝혀져	-11.7678
교사	-11.7679
▁소방대원들	-11.7681
▁덴	-11.7682
▁설명할	-11.7684
공학	-11.7684
▁경찰서로	-11.7685
▁art	-11.7686
▁east	-11.7689
▁xp	-11.769
▁좋아지	-11.7691
▁발표되었다	-11.7692
▁emi	-11.7692
제작	-11.7694
▁개막식에	-11.7695
▁구매자	-11.7695
▁크라	-11.7696
▁제출된	-11.7699
▁교대	-11.77
▁종업원	-11.7703
▁늘었다	-11.7704
▁애인	-11.7705
▁펼쳐지	-11.7707
▁지구와	-11.7708
▁낭	-11.7709
▁위함	-11.7713
▁흙	-11.7715
▁dai	-11.7716
▁죽어가	-11.7716
▁부모에게	-11.7718
▁받아들이기	-11.7719
▁코드	-11.7721
▁가속	-11.7721
▁비판하는	-11.7722
부장관	-11.7723
▁입소	-11.7724
▁애플사	-11.7725
▁의사회	-11.7726
렉스	-11.7732
▁오바	-11.7734
▁정면	-11.7735
▁직원들에게	-11.7736
받지	-11.7737
▁노르	-11.7741
▁주변국들	-11.7742
▁테러리스트들이	-11.7744
▁소매업	-11.7747
ague	-11.7747
rm	-11.7749
▁유지해	-11.775
▁미세	-11.775
▁해당한다	-11.7752
ek	-11.7754
▁살해되	-11.7756
▁결승에	-11.7761
▁돌아보	-11.7761
▁사이트에서	-11.7765
▁놓았	-11.7767
▁목록에서	-11.7768
▁양도	-11.7768
브론	-11.7771
▁영국으로부터	-11.7772
▁초고속	-11.7774
▁로게	-11.7777
공유	-11.7782
▁전락	-11.7785
ka	-11.7787
▁rate	-11.7791
▁쥐들	-11.7793
표한다	-11.7795
▁유사하다	-11.7799
war	-11.7801
▁남동부에서	-11.7804
▁올라갔	-11.7809
시피	-11.781
▁장갑	-11.7813
▁안면	-11.7813
▁켜	-11.7816
버렸	-11.7821
▁축출된	-11.7821
▁쓰여	-11.7823
▁sur	-11.783
▁정보통	-11.7831
▁도와주는	-11.7832
▁단원	-11.7836
▁축구팬들	-11.7836
hoo	-11.7841
▁촉	-11.7844
go	-11.7845
den	-11.7845
▁죽인	-11.7849
▁에드로	-11.7852
▁카바	-11.7857
▁파견한	-11.7858
분별	-11.7859
▁특성	-11.7865
gle	-11.7865
▁파라	-11.7867
▁착륙했다	-11.7871
▁케인	-11.7877
han	-11.7879
▁묘사한	-11.788
▁탐험가	-11.788
▁엑	-11.788
▁통과되	-11.7892
리프	-11.7893
▁감정적	-11.7893
▁베티	-11.7893
▁명중	-11.7903
키야	-11.7913
달아	-11.7917
▁투표했다	-11.7917
▁나간다	-11.7918
▁영국인들	-11.7922
▁인부	-11.7931
▁확산됐다	-11.7932
매장	-11.7934
저스	-11.7934
▁yout	-11.7936
▁아타	-11.7936
▁출발한	-11.7936
▁her	-11.7939
▁회복할	-11.7945
▁대비하고	-11.7946
▁공정하	-11.7952
▁축구팬	-11.7964
▁los	-11.7965
▁제조업체들	-11.7971
▁폐쇄됐다	-11.7972
▁참석한다	-11.7976
▁압박했다	-11.7978
▁알려왔	-11.7982
자본	-11.7986
늘	-11.7989
티브	-11.7991
▁하락하고	-11.7993
▁빛이	-11.7993
끈	-11.7995
▁언론사	-11.7995
▁월드컵에서	-11.8004
버거	-11.8007
▁인정한다	-11.8011
uch	-11.8016
▁관계없	-11.8017
▁삼아	-11.8017
▁존재한다	-11.8022
혹	-11.803
기남	-11.8033
회사들	-11.8035
있게	-11.8035
▁상대적	-11.8038
▁hel	-11.804
▁지나면	-11.8041
▁반기	-11.8042
▁연결된	-11.8043
▁전신	-11.8044
사령부	-11.805
페이스	-11.8051
칩	-11.8052
엠	-11.8052
쥐	-11.8053
잠	-11.8054
▁시도할	-11.8055
▁교수들	-11.8055
▁페이지에	-11.8056
조합	-11.8065
트너	-11.8066
▁딸에게	-11.807
km	-11.807
키스	-11.8078
▁슬로	-11.8081
▁안된	-11.8081
▁추진해	-11.8085
▁나쁘	-11.8088
▁신문들	-11.8091
▁이외에	-11.8106
▁인도주의	-11.8107
▁편으로	-11.8108
▁방영되	-11.8112
▁mon	-11.8113
▁폐쇄하기	-11.8115
행진	-11.8118
ana	-11.8121
▁들지	-11.8125
퍼트	-11.8126
▁남성에게	-11.814
레이즈	-11.8144
러진	-11.8146
▁아파	-11.8151
▁관리하는	-11.8152
▁경신	-11.8153
line	-11.8155
보라	-11.8158
연금	-11.8161
▁저질렀	-11.8169
▁주마	-11.8171
▁공적	-11.8172
▁열정적	-11.8176
ki	-11.8177
▁stop	-11.8177
펙	-11.8178
▁탈북자들	-11.818
▁적합	-11.8183
▁흉내	-11.8185
▁순례	-11.8188
▁vote	-11.819
▁걸렸	-11.8195
bel	-11.8201
▁비싸	-11.8202
략	-11.8203
▁싶었	-11.8205
nsc	-11.8213
▁마쳤	-11.8217
▁입찰	-11.8217
▁창립	-11.8217
랍	-11.8226
▁북동	-11.8228
얄	-11.8231
▁마텔	-11.8233
홉	-11.8235
▁디스커버리	-11.8235
▁콜롬	-11.8236
▁도미니	-11.8236
▁part	-11.8236
콕	-11.8237
▁원정	-11.8237
궈	-11.8238
▁오피니언	-11.8238
▁politic	-11.8238
▁alliance	-11.8238
▁depart	-11.8238
▁federal	-11.8238
▁hyun	-11.8238
▁invest	-11.8238
▁iucn	-11.8238
▁joint	-11.8238
▁major	-11.8238
▁problem	-11.8238
▁record	-11.8238
▁국제영화제	-11.8238
▁남태평양	-11.8238
▁다비덴코	-11.8238
▁댓글	-11.8238
▁루고보이	-11.8238
▁만토바니	-11.8238
▁무기징역	-11.8238
▁발렌시아	-11.8238
▁부드러운	-11.8238
▁비정상적	-11.8238
▁서유럽	-11.8238
▁세컨드라이프	-11.8238
▁슈퍼마켓	-11.8238
▁아르메니아	-11.8238
▁애틀랜틱	-11.8238
▁어소시에이션	-11.8238
▁유투브	-11.8238
▁잉그리드	-11.8238
▁출퇴근	-11.8238
▁칼데론	-11.8238
▁캠브리지	-11.8238
▁키프로스	-11.8238
▁타임스퀘어	-11.8238
▁티크리트	-11.8238
▁프랑수아	-11.8238
▁하르툼	-11.8238
▁해밀턴	-11.8238
긍	-11.8238
덱	-11.8238
▁buy	-11.8238
▁끊겼	-11.8238
▁대배심	-11.8238
▁미식축구	-11.8238
▁빈센트	-11.8238
▁시트콤	-11.8238
▁전두환	-11.8238
▁크라이튼	-11.8238
▁파딜라	-11.8238
▁핵폐기	-11.8238
▁견뎌	-11.8238
▁서포터	-11.8238
▁스타워즈	-11.8238
▁어리석	-11.8238
▁여기저기	-11.8238
▁즐긴다	-11.8238
▁테러리즘	-11.8238
▁패터슨	-11.8238
▁georg	-11.8238
▁아메바	-11.8238
▁은하계	-11.8238
▁dax	-11.8238
▁제레미	-11.8238
▁돌려보내	-11.8238
▁보너스	-11.8238
▁바이에른	-11.8238
▁미생물	-11.8238
▁국가안보보좌관	-11.8238
▁유연한	-11.8238
▁금리인하	-11.8239
▁무언가	-11.8239
▁전비법안	-11.8239
▁뛰어넘	-11.8239
▁어쩌	-11.8239
▁갑작스럽	-11.8239
▁말리부	-11.8239
▁구제금융법안	-11.8239
▁아스카리	-11.8239
▁부녀자	-11.8239
▁세르게이	-11.8239
▁선거인단	-11.8239
▁알라스카	-11.8239
▁종지부	-11.8239
▁some	-11.8239
▁소비에트	-11.8239
▁벗어났다	-11.8239
객들	-11.8239
▁산업자원부	-11.8239
▁어둠	-11.8239
▁얼룩말	-11.8239
▁peta	-11.8239
▁마지드	-11.8239
▁베이징올림픽	-11.8239
▁용도로	-11.8239
▁탈옥	-11.8239
▁소방당국	-11.8239
▁just	-11.8239
▁낫다	-11.8239
▁작별	-11.8239
▁thre	-11.8239
▁수감생활	-11.824
도날드	-11.824
▁겨누	-11.824
▁건강보험	-11.824
▁군사행동	-11.824
▁홈경기	-11.824
▁미뤄	-11.824
▁십먼	-11.824
▁슈렉	-11.824
▁투명성	-11.824
▁북극광	-11.824
▁스마트	-11.824
▁포털	-11.824
▁디즈니랜드	-11.8241
▁약물검사	-11.8241
▁압류	-11.8241
▁층짜리	-11.8241
▁피난처	-11.8241
▁우발적	-11.8241
▁날카로	-11.8241
▁콜롬보	-11.8241
▁order	-11.8241
▁업종	-11.8241
▁비밀요원	-11.8241
▁봉급	-11.8241
▁머독	-11.8242
▁복음	-11.8242
▁보험회사	-11.8242
▁부정행위	-11.8242
▁드럼	-11.8242
▁meeting	-11.8242
▁푸른	-11.8242
▁비웃	-11.8242
▁싸워	-11.8242
▁기관총	-11.8242
▁편견	-11.8242
▁페드로	-11.8242
▁루시디	-11.8243
▁give	-11.8243
▁축구스타	-11.8243
▁스노우	-11.8243
▁형편	-11.8243
▁교각	-11.8243
▁필사적	-11.8243
▁근절	-11.8243
▁cac	-11.8243
▁케이티	-11.8243
▁간접	-11.8243
▁알렉	-11.8243
▁결말	-11.8244
▁애견	-11.8244
▁윈터	-11.8244
▁암살사건	-11.8244
▁자치권	-11.8245
▁today	-11.8245
▁합작	-11.8245
▁짐작	-11.8245
▁폭발사고	-11.8245
▁girls	-11.8245
▁아프리카연합	-11.8245
▁하렐	-11.8245
▁반테러	-11.8245
▁에베레스트산	-11.8245
▁계급	-11.8245
▁애완용	-11.8245
▁헝	-11.8246
▁듀크	-11.8246
▁요한슨	-11.8246
▁경합	-11.8246
▁선례	-11.8247
▁휴회	-11.8247
▁가디언	-11.8247
▁무시했다	-11.8247
▁속편	-11.8247
▁사망원인	-11.8247
▁종말	-11.8247
▁소도시	-11.8248
▁주택시장	-11.8248
▁안타깝게	-11.8249
▁실천	-11.8249
▁폭력배	-11.8249
▁상향	-11.8249
▁난입	-11.8249
▁연합정부	-11.8249
▁설전	-11.8249
▁무례	-11.825
▁발머	-11.825
▁대국민	-11.825
▁보스톤	-11.825
▁투자은행	-11.825
▁부시대통령	-11.825
▁uk	-11.8251
▁변함없	-11.8251
▁해산시키기	-11.8251
▁플래시	-11.8252
▁평온	-11.8252
▁설비	-11.8253
▁로지스	-11.8254
▁들어설	-11.8254
▁대대	-11.8255
▁놀란	-11.8255
▁버몬트주	-11.8255
▁무레이	-11.8255
▁일기장	-11.8255
▁야유	-11.8256
▁상업용	-11.8256
▁결단	-11.8257
▁입건	-11.8257
▁메모	-11.8258
▁조엘	-11.8258
▁국세청장	-11.8258
wood	-11.8258
▁음료수	-11.8258
▁org	-11.8258
▁불확실성	-11.8259
▁김양	-11.826
▁매료	-11.826
▁용납하지	-11.826
▁가장자리	-11.826
▁종교단체	-11.8261
▁은둔	-11.8262
▁담요	-11.8262
▁역설했다	-11.8263
▁공금	-11.8263
▁용량	-11.8264
▁속력	-11.8264
▁근본주의자들	-11.8264
▁과연	-11.8265
▁아샤	-11.8265
▁매복	-11.8265
▁난방	-11.8266
▁위독	-11.8267
▁요크	-11.8267
▁천여	-11.8268
▁유영	-11.8269
▁왕비	-11.827
▁토미	-11.8271
▁당부	-11.8271
▁토레스	-11.8271
▁커뮤니케이션	-11.8272
▁군사위원회	-11.8272
▁검찰청	-11.8272
▁싶었다	-11.8272
▁골드만	-11.8272
▁호스트	-11.8273
▁당신들	-11.8273
▁서점	-11.8275
▁아쉬	-11.8275
ous	-11.8276
▁레노	-11.8276
▁것인데	-11.8277
▁시립	-11.8277
▁로빈	-11.8277
▁펼쳐진	-11.8279
스쿨	-11.828
▁고의적으로	-11.8281
▁거품	-11.8281
▁번복	-11.8282
▁거머쥐었	-11.8283
해준다	-11.8284
▁인권단체들	-11.8284
▁리츠	-11.8284
▁수감돼	-11.8285
▁소모	-11.8285
▁매직	-11.8285
▁money	-11.8285
▁나오기	-11.8287
▁정치국	-11.8287
먼트	-11.8287
▁동부지역	-11.8288
▁경계선	-11.8288
▁옹호하	-11.8289
▁잠재	-11.829
▁관장	-11.8292
▁심각성	-11.8292
▁뉴햄프셔주	-11.8292
▁게르	-11.8294
▁페니	-11.8294
▁꺼리	-11.8295
▁메르	-11.8295
▁거주민	-11.8297
▁요구했었다	-11.8297
▁유출된	-11.8298
▁등장했다	-11.83
▁연구소에서	-11.83
▁설사	-11.83
▁끝내기	-11.8302
▁보물	-11.8303
▁오버	-11.8304
정규직	-11.8305
▁엄청나	-11.8306
▁기울이지	-11.8306
▁함대	-11.8306
▁성범죄자	-11.8307
▁공개되	-11.8308
▁sw	-11.8308
▁간직	-11.8308
▁국어	-11.8309
ior	-11.831
▁기자단	-11.8311
▁소실됐다	-11.8312
▁생각되는	-11.8313
▁나누어	-11.8314
▁로케	-11.8315
▁속해	-11.832
▁해역에서	-11.8321
▁불안해	-11.8321
▁외화	-11.8322
▁교리	-11.8323
▁원내	-11.8324
▁직원인	-11.8325
▁전반전	-11.8325
▁주의회	-11.8332
▁이윤	-11.8333
▁헨	-11.8333
▁청장	-11.8335
▁지형	-11.8335
np	-11.8338
▁구성원들	-11.8338
▁웨스	-11.8339
▁거기에	-11.834
▁기미	-11.834
▁알바로	-11.8345
▁피랍됐	-11.8346
▁분단	-11.8351
▁수혈	-11.8351
▁과학기술	-11.8353
▁지원국	-11.8354
▁기숙사에서	-11.8355
▁밝혀졌	-11.8355
▁스타인	-11.8357
▁이루기	-11.8358
bra	-11.8364
▁조치들	-11.8367
▁키니	-11.8369
▁맛봤	-11.8371
사미	-11.8373
▁야스	-11.8373
▁채용	-11.8374
▁안정화	-11.8376
▁유니	-11.8376
▁출발했다	-11.8377
▁사육사들	-11.838
▁안정성	-11.8384
▁출동했다	-11.8386
▁투표자	-11.8387
▁기자였	-11.8389
▁도하	-11.839
▁뒤진	-11.8391
▁간주되	-11.8392
tan	-11.8393
▁다크	-11.8393
▁등반	-11.8396
▁크레인	-11.8397
▁용지	-11.8397
▁버렸	-11.84
▁추적하	-11.8401
▁아니었	-11.8409
▁시차	-11.8416
▁활동가들	-11.8419
▁가문	-11.8424
였음	-11.8425
▁저서	-11.8432
▁line	-11.8433
▁환경적	-11.8435
▁보수주의	-11.8436
▁고심하	-11.844
▁여자친구와	-11.844
▁김만	-11.8442
▁유나이티드와	-11.8443
▁잎	-11.8445
▁쉽	-11.8447
▁제출해야	-11.8448
▁유서	-11.845
▁선수들에게	-11.8451
▁접어	-11.8454
성분	-11.8455
▁인류학	-11.8455
▁각료들	-11.8463
▁상하이에서	-11.8471
ago	-11.8472
▁납세자들	-11.8474
▁같지	-11.8475
▁적용할	-11.8476
▁경제팀	-11.8482
▁헤리	-11.8484
▁건강상	-11.8491
ino	-11.8491
셰르	-11.8496
투스	-11.8497
▁친구들이	-11.8497
person	-11.8498
lb	-11.85
▁더위	-11.8501
▁침체에	-11.8501
환자	-11.8502
dy	-11.8502
▁피난민	-11.8504
▁구사하	-11.8504
▁봉인	-11.8509
▁만부	-11.8512
▁선출됐다	-11.8514
▁레스토랑에서	-11.8519
▁구리	-11.852
▁초소	-11.8522
▁부패와	-11.8522
lum	-11.8527
▁표현할	-11.8544
▁주위에	-11.8546
▁나일	-11.8553
▁덤	-11.8554
▁sup	-11.8558
▁팔린	-11.8561
▁끝나면	-11.8563
▁자비	-11.8567
▁근대	-11.857
▁계획안	-11.8574
▁추산되	-11.8577
▁거절한	-11.8579
▁일쯤	-11.858
▁특파원들	-11.8586
▁월급	-11.8587
▁직면하	-11.8591
▁이하로	-11.8594
▁메카	-11.86
▁이때	-11.8607
▁찌	-11.8608
▁경쟁사	-11.8609
▁무능	-11.8616
▁빠	-11.8619
타그	-11.8621
▁대피하	-11.8628
▁비서	-11.8631
▁날아가	-11.8632
▁표하고	-11.8634
▁공직자	-11.8636
▁장악했다	-11.8637
히코	-11.8637
봤	-11.8641
▁발전기	-11.8644
▁제소	-11.8648
ray	-11.8651
▁안전성	-11.8653
▁휴대폰으로	-11.8659
▁점령한	-11.866
란드	-11.8661
▁우려된다	-11.8665
▁미대사	-11.8667
▁도발	-11.8667
nel	-11.8674
해주기	-11.8676
▁상징인	-11.8678
그리	-11.8684
▁생산되	-11.8685
▁사망자들	-11.8691
▁한계	-11.8693
▁보리	-11.8705
▁성대	-11.8705
▁전사자	-11.8714
▁치료하는	-11.8717
▁비난한다	-11.8719
▁본부에서	-11.872
▁인도적	-11.8721
▁버려	-11.8724
▁싶어하지	-11.8731
▁구매자들	-11.8734
▁가방에	-11.8735
▁약화시키	-11.8736
▁강화하	-11.874
▁인물들	-11.8748
나갔다	-11.8748
▁요인들	-11.875
▁발견하고	-11.8751
잡지	-11.8754
활	-11.8754
▁개최국	-11.8757
▁매장에서	-11.8757
하듯	-11.8759
▁생물학	-11.8759
봐	-11.8759
엑	-11.8763
보험	-11.8765
춤	-11.8765
▁그러면	-11.8765
폭탄	-11.8765
잇	-11.8768
월드컵	-11.8768
모델	-11.8777
제조	-11.8778
▁수감됐	-11.8778
열차	-11.8786
▁당혹	-11.8786
장애	-11.8787
▁전장에	-11.8787
계약	-11.8789
소득	-11.8791
▁거론되	-11.8791
▁막지	-11.8793
대결	-11.8794
▁스캔들에	-11.8796
▁모기	-11.8796
모건	-11.8799
▁중단하겠다	-11.8801
그라	-11.8802
집회	-11.8816
▁참여하기	-11.8819
▁mc	-11.8823
일본	-11.8833
▁india	-11.8834
▁한국전	-11.8838
소니	-11.8839
▁확보하고	-11.8843
▁무차별	-11.8846
▁제시하지	-11.8847
▁성교	-11.8849
▁재기	-11.8852
▁자행한	-11.8856
▁미성년	-11.8859
▁나타낸	-11.8863
▁후보간	-11.8872
▁모욕적	-11.8878
식품	-11.8885
쿨	-11.8899
▁높았	-11.89
▁표지	-11.8908
랜스	-11.8911
▁강조하는	-11.8918
▁유언	-11.8926
▁상승했	-11.8929
▁chi	-11.8938
성명	-11.8939
▁참모총장	-11.8941
▁안타깝	-11.8942
▁곤란	-11.8942
▁상인들	-11.8945
▁터무니	-11.8945
슐	-11.8946
▁낙관	-11.8947
둑	-11.8947
▁매리	-11.8947
슬라브	-11.895
▁프란시스	-11.895
▁lead	-11.8951
▁경기부양	-11.8952
껴	-11.8952
궐	-11.8952
▁솔로몬	-11.8953
팽	-11.8953
▁crisis	-11.8953
▁microsoft	-11.8953
▁unveil	-11.8953
▁사우스다코타	-11.8953
▁스테로이드	-11.8953
▁스프린트	-11.8953
▁아쿠아리움	-11.8953
뚱	-11.8953
륭	-11.8953
through	-11.8953
▁campaign	-11.8953
▁council	-11.8953
▁envoy	-11.8953
▁great	-11.8953
▁illegal	-11.8953
▁john	-11.8953
▁kkk	-11.8953
▁missile	-11.8953
▁number	-11.8953
▁rbs	-11.8953
▁refugee	-11.8953
▁safe	-11.8953
▁sncf	-11.8953
▁withdraw	-11.8953
▁고혈압	-11.8953
▁공청회	-11.8953
▁나스랄라	-11.8953
▁네브라스카	-11.8953
▁뉴욕타임즈	-11.8953
▁다녔다	-11.8953
▁다빈치	-11.8953
▁대기오염	-11.8953
▁대선예비후보	-11.8953
▁델라웨어	-11.8953
▁독립선언	-11.8953
▁뒷좌석	-11.8953
▁드림라이너	-11.8953
▁레오나르도	-11.8953
▁루프트한	-11.8953
▁마르세유	-11.8953
▁만파운드	-11.8953
▁머물렀다	-11.8953
▁먹었다	-11.8953
▁메탄가스	-11.8953
▁모토로라	-11.8953
▁믿어지	-11.8953
▁바예스테로스	-11.8953
▁박스오피스	-11.8953
▁발렌타인	-11.8953
▁북방한계선	-11.8953
▁분리독립	-11.8953
▁비디오테이프	-11.8953
▁스릴러	-11.8953
▁스머프	-11.8953
▁시니오라	-11.8953
▁시베리아	-11.8953
▁아름답	-11.8953
▁아리조나	-11.8953
▁애국전선	-11.8953
▁에메랄드	-11.8953
▁엔터프라이즈	-11.8953
▁오마이뉴스	-11.8953
▁와코비아	-11.8953
▁외할머니	-11.8953
▁울프위츠	-11.8953
▁워싱턴포스트	-11.8953
▁인공심장	-11.8953
▁자와히리	-11.8953
▁조기총선	-11.8953
▁최연소	-11.8953
▁카메룬	-11.8953
▁카스파로프	-11.8953
▁컨소시엄	-11.8953
▁클랩튼	-11.8953
▁펠릭스	-11.8953
▁폴란스키	-11.8953
▁현충일	-11.8953
▁홀로코스트	-11.8953
▁히말라야	-11.8953
프로농구	-11.8953
▁europe	-11.8953
▁prevent	-11.8953
▁극단적인	-11.8953
▁빔보	-11.8953
▁알레르기	-11.8953
▁카제미	-11.8953
▁라말라	-11.8953
▁목걸이	-11.8953
▁부끄러	-11.8953
▁에버튼	-11.8953
▁크로포드	-11.8953
어느때보다	-11.8953
▁산티아고	-11.8953
▁우체국	-11.8953
▁현기증	-11.8953
▁분화구	-11.8953
▁아세안	-11.8953
▁카우치	-11.8953
▁허덕이	-11.8953
▁omx	-11.8953
▁알메이다	-11.8953
▁엘비스	-11.8953
▁퇴근	-11.8953
▁김일성	-11.8953
▁퇴출	-11.8953
▁direct	-11.8953
▁민주변화	-11.8953
▁임상실험	-11.8953
▁트레이드	-11.8953
▁불도저	-11.8953
▁삼성전자	-11.8953
▁떠다니	-11.8953
▁아침식사	-11.8953
▁오피스	-11.8953
▁스프링스틴	-11.8953
▁공동기자회견에	-11.8953
▁메세지	-11.8953
▁리프트	-11.8953
▁세비르	-11.8953
▁트레이시	-11.8953
▁etc	-11.8953
▁손가락	-11.8953
▁디아즈	-11.8953
▁행정명령	-11.8953
▁추도식	-11.8953
▁니가타	-11.8953
▁현명한	-11.8953
▁듀프레	-11.8953
▁버핏	-11.8953
▁쓰러진	-11.8953
▁월경작전	-11.8953
▁가오리	-11.8953
▁히트곡	-11.8953
▁민주변화운동	-11.8953
▁클리닉	-11.8953
▁stock	-11.8953
▁불상사	-11.8953
▁종합병원	-11.8953
▁히잡	-11.8953
▁재가동	-11.8953
▁빠져나갔다	-11.8953
▁결론지었다	-11.8953
▁적임자	-11.8953
▁슬럼	-11.8953
▁헐값	-11.8953
▁구급차	-11.8953
▁홍보담당자	-11.8953
▁슬램	-11.8953
▁골드버그	-11.8953
▁출몰	-11.8953
▁블랙베리	-11.8954
▁계절	-11.8954
▁데이비스컵	-11.8954
▁쥐스틴	-11.8954
▁완패	-11.8954
▁바꿨	-11.8954
▁아름다움	-11.8954
▁constitutional	-11.8954
▁평의회	-11.8954
▁강제진압	-11.8954
▁올라간다	-11.8954
▁천수이	-11.8954
▁사기꾼	-11.8954
▁겸손	-11.8954
▁용암	-11.8954
▁놀이기구	-11.8954
▁동북	-11.8954
▁베풀	-11.8954
▁마샬	-11.8954
▁감기약	-11.8954
▁선거운동본부	-11.8954
▁스페이스	-11.8955
▁enter	-11.8955
▁목욕	-11.8955
홍색	-11.8955
▁청취	-11.8955
▁패션쇼	-11.8955
▁폭염	-11.8955
▁출근	-11.8955
▁노골적	-11.8955
▁비겁	-11.8955
▁남아시아	-11.8955
▁유니티	-11.8955
▁fight	-11.8955
▁수세기	-11.8955
▁갈망하	-11.8955
▁금전적	-11.8956
▁달려있다	-11.8956
▁사형제도	-11.8956
▁검은색	-11.8956
▁육류	-11.8956
▁night	-11.8956
▁라디오뉴스	-11.8956
▁가져온	-11.8957
▁주모자	-11.8957
▁관습	-11.8957
phone	-11.8957
▁숙박비	-11.8957
▁베이커	-11.8957
▁입혔다	-11.8957
▁tam	-11.8958
▁뉴먼	-11.8958
▁응급실	-11.8958
▁실용적	-11.8958
▁상무위원	-11.8959
▁올리버	-11.8959
▁축구협회	-11.8959
▁패트	-11.8959
▁산업지수	-11.8959
▁환경운동	-11.8959
▁채굴	-11.8959
▁잠입	-11.896
▁유명해졌다	-11.896
▁성폭행범	-11.896
▁처방전	-11.8961
▁터졌다	-11.8961
▁임시정부	-11.8961
▁검시	-11.8961
▁담합	-11.8961
▁아이콘	-11.8961
▁청원	-11.8961
▁화산재	-11.8962
▁sola	-11.8962
▁열악	-11.8962
디언	-11.8962
▁자궁	-11.8962
자격	-11.8962
other	-11.8963
▁모스크	-11.8964
▁사무국	-11.8964
▁신랄	-11.8964
▁west	-11.8964
▁스토리	-11.8964
▁소득세	-11.8964
▁하향	-11.8964
▁교신	-11.8964
▁에릭슨	-11.8964
▁wta	-11.8965
▁잠복	-11.8965
▁어두	-11.8965
▁구슬	-11.8965
▁회생	-11.8966
▁수상작	-11.8966
▁정치활동	-11.8966
▁떼어	-11.8967
▁과열	-11.8967
▁담았다	-11.8967
▁독려	-11.8967
▁양빈	-11.8967
▁진학	-11.8967
▁변종	-11.8967
▁장시간	-11.8968
▁털어	-11.8969
▁성취	-11.897
▁모빌	-11.897
▁감형	-11.897
▁통치권	-11.897
▁축적	-11.8971
▁완강	-11.8971
▁거칠	-11.8972
▁친교	-11.8973
▁행보	-11.8973
▁벵	-11.8974
▁벗어나지	-11.8974
▁혼자서	-11.8975
▁간격	-11.8975
▁친지들	-11.8975
▁추위	-11.8975
▁응용	-11.8975
▁연주자	-11.8975
▁표출	-11.8975
▁usb	-11.8976
▁칼리드	-11.8976
▁자율	-11.8977
▁칭하며	-11.8978
▁파탄	-11.8978
▁아예	-11.8978
▁월터스	-11.8979
▁조종사들	-11.898
▁석권	-11.898
일간	-11.898
▁경고문	-11.898
▁동조	-11.898
▁돌발	-11.8981
▁도매	-11.8981
▁단단	-11.8981
▁탐지기	-11.8981
ready	-11.8982
▁없어질	-11.8983
▁신청자	-11.8983
▁카본	-11.8983
▁경영자들	-11.8984
▁않음	-11.8984
토프	-11.8984
▁실체	-11.8985
▁propos	-11.8985
▁재연	-11.8985
▁보수주의자들	-11.8985
▁인도양	-11.8985
▁증명서	-11.8985
▁중국어	-11.8986
▁상류	-11.8987
▁극우	-11.8987
요리	-11.8987
▁국정원장	-11.8988
less	-11.8988
▁쓰러졌다	-11.8989
▁형법	-11.8989
▁나빠지	-11.8989
▁nations	-11.899
▁달아나	-11.899
▁그렇지만	-11.8991
▁의문사	-11.8991
▁그라이브	-11.8991
▁위스콘신주	-11.8991
▁오메	-11.8991
▁만들어낸	-11.8992
▁세월	-11.8992
▁모친	-11.8993
▁아래서	-11.8993
▁환경부	-11.8993
▁유형	-11.8993
▁인출	-11.8995
툴라	-11.8995
▁의향	-11.8995
▁atp	-11.8996
▁소중	-11.8997
▁영국항공	-11.8998
▁별명	-11.8999
▁사본	-11.8999
▁공단	-11.9
▁시작하자	-11.9
▁폰다	-11.9002
▁쥬	-11.9003
▁맘	-11.9003
▁피력	-11.9003
▁보고됐다	-11.9004
▁올림픽위원회	-11.9005
▁농성	-11.9005
▁저조	-11.9006
▁병원측	-11.9006
▁특권	-11.9007
▁아론	-11.9007
▁건전	-11.9007
▁원정경기에서	-11.9007
▁동화	-11.9007
▁도와준	-11.9007
▁연비	-11.9008
▁배신	-11.9008
▁이민국	-11.9011
▁제마	-11.9011
▁푸드	-11.9013
▁초보	-11.9016
▁중학교	-11.9017
side	-11.9018
▁저지대	-11.9019
퍼드	-11.9023
광장	-11.9023
▁부호	-11.9029
▁실시간	-11.903
포르	-11.9031
▁영구적	-11.9031
▁동부지역에서	-11.9031
▁강행할	-11.9031
▁녹스	-11.9031
▁불타	-11.9033
▁보장받	-11.9034
▁피랍됐다	-11.9037
▁감독관	-11.9038
▁기법	-11.9039
▁받아들여지	-11.9039
▁뉴욕시장	-11.904
▁주거지	-11.9041
▁islami	-11.9042
▁시에나	-11.9043
▁나타낸다	-11.9043
▁얻어야	-11.9044
▁소비량	-11.9045
▁선진	-11.9045
▁호르	-11.9046
▁국가대표팀	-11.9047
▁최소화	-11.9048
▁공급하기	-11.9051
▁정당성	-11.9053
▁맞서기	-11.9053
▁오노	-11.9054
▁설치했다	-11.9056
▁마우	-11.9058
▁무시한	-11.9059
pass	-11.9059
▁마시지	-11.9059
▁통과시킨	-11.9059
▁입성	-11.906
▁모가디슈에서	-11.906
▁들어간다	-11.9068
▁거주지역	-11.9069
▁거미	-11.9071
▁제거하는	-11.9073
▁만족할	-11.9073
▁이루어지지	-11.9078
▁auto	-11.9079
▁확보하기	-11.9079
▁제외됐다	-11.9084
▁로키	-11.9091
▁프라하	-11.9092
▁잡히	-11.9093
▁개종	-11.9093
▁회복되	-11.9094
▁분산	-11.9096
▁힘들어	-11.9097
▁케네	-11.9098
▁무성	-11.9098
▁충분하다	-11.9102
▁옐로	-11.9103
▁석방되	-11.9106
▁멜로	-11.9107
▁발사해	-11.9108
▁스키장	-11.9112
▁노력해야	-11.9112
▁안치	-11.9116
▁조언했다	-11.9126
▁resign	-11.9127
플랜	-11.9129
▁가설	-11.9131
▁사죄	-11.9133
주민들	-11.9133
ina	-11.9134
▁살았다	-11.9134
▁신고서	-11.9138
우먼	-11.9138
▁제안했	-11.9139
▁취지	-11.9143
▁모술에서	-11.9143
▁정하지	-11.9147
▁보여주었다	-11.9149
▁행해졌	-11.9151
▁비명	-11.9152
▁샤리	-11.9154
▁가든	-11.9154
했어야	-11.9154
▁사랑한다	-11.9154
▁페러	-11.9157
▁싸우고	-11.9161
▁입게	-11.9163
▁발견하게	-11.9166
▁갑작스러	-11.9176
▁상원의원들	-11.9176
슈아	-11.9177
▁메이어	-11.9181
▁개헌안에	-11.9187
▁고려해야	-11.919
▁전달하는	-11.919
▁고소했다	-11.9191
끌어냈다	-11.9194
▁구성했다	-11.9205
▁봐야	-11.9208
▁제조업자	-11.9209
▁벤와	-11.921
웃	-11.9221
▁도서	-11.9221
▁철로	-11.9226
▁작품들	-11.9227
▁매치	-11.9233
▁연안에서	-11.9241
▁트로	-11.9245
▁작성했다	-11.925
▁필리	-11.9253
치오	-11.9255
ada	-11.9256
워졌다	-11.9258
▁구역에서	-11.9259
▁물려	-11.9266
▁알레	-11.9273
▁호프	-11.9273
▁알프레	-11.9275
▁코브	-11.9277
▁변기	-11.9287
gy	-11.9289
▁자료들	-11.9291
▁대표단과	-11.9291
▁재정비	-11.9292
▁적기	-11.9293
▁어부들	-11.9294
▁분파	-11.9297
젤리	-11.9298
▁배치되어	-11.9302
▁인하했다	-11.9303
▁배심원들	-11.9307
▁돌아가기	-11.9314
▁가파	-11.9318
▁기소장	-11.9325
▁무장괴한들	-11.9325
▁디지	-11.9329
▁지상에서	-11.934
aba	-11.9342
▁차트	-11.9346
▁주간지	-11.9353
▁도슨	-11.9357
▁취했	-11.9364
▁표준시	-11.9382
▁노스캐롤라이나에서	-11.9384
▁사퇴했다	-11.9387
▁대표자	-11.9393
▁일본측	-11.9398
▁평화롭	-11.94
▁보행	-11.9405
lan	-11.9406
▁부정했다	-11.941
▁보수적	-11.9412
▁수행하기	-11.9413
▁봉쇄했다	-11.9414
▁포착했다	-11.9418
재산권	-11.9431
▁사망하기	-11.9441
▁검사들	-11.9444
▁돌봐	-11.9457
었었다	-11.9474
▁보안국	-11.948
▁슈퍼대의원들	-11.9482
▁확정했다	-11.9485
▁구입했다	-11.9491
rry	-11.9492
▁두려워하	-11.9494
▁인기있	-11.9498
▁원만	-11.9505
▁연행했다	-11.9511
▁나와있	-11.9512
▁회피	-11.9515
▁제작됐다	-11.952
보좌관	-11.9527
싸	-11.9527
큐	-11.9528
▁시설들	-11.9531
켄	-11.9534
행동	-11.9534
졸	-11.9534
듀	-11.9535
낙	-11.9535
▁포로로	-11.9536
▁전해왔	-11.9536
기상청	-11.9536
빅	-11.9537
평균	-11.9537
미사일	-11.9538
▁추측되	-11.9539
리서치	-11.9541
포인트	-11.9543
▁지휘관들	-11.955
평화	-11.955
등록	-11.955
결정	-11.9554
소송	-11.9555
보낼	-11.9557
조각	-11.9558
▁제거했다	-11.9559
▁붕괴됐다	-11.956
▁warn	-11.956
다닐	-11.9567
▁배치된	-11.9573
▁환호하	-11.9574
▁부족해	-11.9575
쳐야	-11.9576
테오	-11.9578
▁전달하기	-11.9579
증세	-11.958
▁디나	-11.9586
세워	-11.9587
▁알리지	-11.9589
불안	-11.9591
▁둔화되	-11.9593
▁마련하는	-11.9598
수익	-11.96
드윈	-11.9603
▁멀어	-11.9604
▁안전하다	-11.9615
▁부과했다	-11.9642
▁서적	-11.9643
▁끝났	-11.9653
▁남았	-11.9671
▁준결승전	-11.9675
cle	-11.9678
gu	-11.968
▁쫓아	-11.9681
▁윌리암	-11.9684
오브	-11.9686
▁정당들	-11.9691
▁심기	-11.9693
▁드러냈	-11.9696
▁빠뜨	-11.9696
하원	-11.9699
▁행성들	-11.97
▁떨어뜨	-11.97
▁기장	-11.9706
▁붙어	-11.9706
▁확보하는	-11.971
▁price	-11.971
▁늘려	-11.9712
▁실시됐	-11.9715
▁far	-11.9715
reme	-11.9716
▁cl	-11.9717
셉	-11.9718
▁트래	-11.972
뇨	-11.972
ween	-11.9721
▁elect	-11.9721
벳	-11.9721
ould	-11.9722
▁launch	-11.9722
▁push	-11.9722
▁비무장	-11.9722
▁children	-11.9722
▁critic	-11.9722
▁french	-11.9722
▁intelligen	-11.9722
▁investigation	-11.9722
▁israel	-11.9722
▁nhk	-11.9722
▁radio	-11.9722
▁terror	-11.9722
▁toward	-11.9722
▁ucla	-11.9722
▁가깝다	-11.9722
▁광저우	-11.9722
▁국제통화기금	-11.9722
▁노스다코타	-11.9722
▁대북제재	-11.9722
▁댕기열	-11.9722
▁데이터베이스	-11.9722
▁도마뱀	-11.9722
▁동아시아	-11.9722
▁롤러코스터	-11.9722
▁만배럴	-11.9722
▁맞먹는	-11.9722
▁맨하탄	-11.9722
▁명확하지	-11.9722
▁무사콸라	-11.9722
▁묶어	-11.9722
▁밀워키	-11.9722
▁보궐선거	-11.9722
▁불공평	-11.9722
▁브래들리	-11.9722
▁사파테로	-11.9722
▁선글라스	-11.9722
▁선덜랜드	-11.9722
▁세계경제포럼	-11.9722
▁스폰서	-11.9722
▁쌓아	-11.9722
▁아틀레티코	-11.9722
▁에두아르	-11.9722
▁여우주연상	-11.9722
▁연방준비은행	-11.9722
▁유럽중앙은행	-11.9722
▁융통성	-11.9722
▁이슬라미야	-11.9722
▁인수합병	-11.9722
▁족자카르타	-11.9722
▁차이나데일리	-11.9722
▁츠요시	-11.9722
▁캄푸쉬	-11.9722
▁캐시미르	-11.9722
▁코리아타임즈	-11.9722
▁코뿔소	-11.9722
▁코펜하겐	-11.9722
▁콴타스	-11.9722
▁클래식	-11.9722
▁클리브랜드	-11.9722
▁통합러시아당	-11.9722
▁트랜스포머	-11.9722
▁트럼프	-11.9722
▁파라마운트	-11.9722
▁파르베즈	-11.9722
▁프리미엄	-11.9722
▁휘두르	-11.9722
퀘	-11.9722
텔레그래프	-11.9722
▁credit	-11.9722
▁snl	-11.9722
▁나뭇가지	-11.9722
▁노란색	-11.9722
▁닫았	-11.9722
▁무작위	-11.9722
▁성폭력	-11.9722
▁심사숙고	-11.9722
▁천안문	-11.9722
▁흘렀	-11.9722
▁냉소적	-11.9722
▁레예스	-11.9722
▁마들렌	-11.9722
▁배기가스	-11.9722
▁스펙터	-11.9722
▁애국심	-11.9722
▁주일미군	-11.9722
간담회에서	-11.9722
▁강렬한	-11.9722
▁복부비만	-11.9722
▁쓰러지	-11.9722
▁의사소통	-11.9722
▁친인척	-11.9722
▁트레이너	-11.9722
▁나르기스	-11.9722
▁유니폼	-11.9722
▁조연상	-11.9722
▁짐바브웨아프리카민족	-11.9722
▁카밀라	-11.9722
▁클래스	-11.9722
▁flu	-11.9722
▁안테나	-11.9722
▁백만장자	-11.9722
▁알래스카주	-11.9722
▁고프섬	-11.9722
▁끼치지	-11.9722
▁왓슨	-11.9722
▁헬멧	-11.9722
▁욕실	-11.9722
무차관	-11.9722
▁구덩이	-11.9722
▁에볼라	-11.9722
▁리스본	-11.9722
▁스트립	-11.9722
▁그랜트	-11.9722
▁의정서	-11.9722
operation	-11.9722
▁붐비는	-11.9722
▁grand	-11.9722
▁need	-11.9722
▁서부텍사스산	-11.9722
▁foundation	-11.9722
▁sars	-11.9722
▁이스트우드	-11.9722
▁marine	-11.9722
▁만수르	-11.9722
프로야구	-11.9722
▁장래에	-11.9722
▁발리우드	-11.9722
▁클라우디	-11.9722
▁트루먼	-11.9722
▁선두주자	-11.9722
▁물고문	-11.9722
▁혈압	-11.9722
▁스코어	-11.9722
▁에어컨	-11.9722
▁징수	-11.9722
▁현존하	-11.9722
▁컨트리	-11.9722
▁펠트	-11.9722
▁board	-11.9722
▁깨뜨	-11.9722
▁내보내	-11.9722
▁폭죽	-11.9722
▁휘둘	-11.9722
▁악몽	-11.9723
▁집주인	-11.9723
resume	-11.9723
▁곤봉	-11.9723
▁좌초	-11.9723
▁billion	-11.9723
▁다이빙	-11.9723
▁로하스	-11.9723
▁제주도	-11.9723
▁gold	-11.9723
▁압축	-11.9723
▁internet	-11.9723
▁혈통	-11.9723
ility	-11.9724
▁착각	-11.9724
▁차량폭탄테러	-11.9724
▁flight	-11.9724
▁전자제품	-11.9724
▁세계무역센터	-11.9724
▁hill	-11.9724
▁경범죄	-11.9724
▁권좌	-11.9724
▁언더파	-11.9724
▁장병들	-11.9724
▁과격단체	-11.9724
▁station	-11.9724
▁니켈	-11.9724
▁학습	-11.9724
▁비서관	-11.9724
▁추락사고	-11.9725
▁바이올	-11.9725
▁행정장관	-11.9725
▁dur	-11.9725
▁타깃	-11.9725
▁움직여	-11.9725
▁브랜슨	-11.9725
▁글로브	-11.9725
▁라마디	-11.9725
▁음란	-11.9725
▁출품	-11.9725
▁독살	-11.9725
▁보호구역	-11.9725
▁기반시설	-11.9725
▁클로버	-11.9726
▁지켜볼	-11.9726
▁심각해지	-11.9726
첸코	-11.9726
▁rall	-11.9726
▁행해지	-11.9726
▁왕립	-11.9726
▁교도관	-11.9726
▁미시시피강	-11.9726
▁상여금	-11.9726
▁부흥	-11.9726
▁충실	-11.9727
▁가리키	-11.9727
▁치욕	-11.9727
▁주가지수	-11.9727
▁특별검사	-11.9727
▁신탁	-11.9727
▁mls	-11.9727
▁자금지원	-11.9727
▁관절	-11.9728
▁붉은색	-11.9728
공간	-11.9728
▁스몰	-11.9728
▁아시안	-11.9728
▁헬러	-11.9728
▁한계선	-11.9728
▁유로스타	-11.9729
▁특검	-11.9729
▁낙타	-11.9729
▁휩쓸려	-11.9729
▁사흘	-11.973
▁출구	-11.973
▁평화회담	-11.973
▁올라있다	-11.973
▁도킹	-11.973
▁소멸	-11.973
▁떠올리	-11.973
▁계란	-11.973
▁대선결과	-11.9731
aut	-11.9731
▁적합하지	-11.9731
▁피해규모	-11.9732
▁cre	-11.9732
▁소방서장	-11.9732
▁삼판	-11.9732
▁dra	-11.9732
▁능가	-11.9732
▁쏘아	-11.9732
▁항목	-11.9732
▁목재	-11.9732
▁선거결과	-11.9733
▁솔라나	-11.9733
▁테너	-11.9734
▁채팅	-11.9734
▁메릴랜드주	-11.9734
▁양봉	-11.9734
▁도망치	-11.9735
▁변함	-11.9735
▁종족	-11.9735
▁소변	-11.9735
▁태형	-11.9736
▁조별	-11.9736
▁갈색	-11.9736
▁오존	-11.9736
▁영공	-11.9737
▁신변	-11.9737
▁온건	-11.9737
▁드물게	-11.9737
▁친근	-11.9738
▁청구했다	-11.9738
▁천만원	-11.9738
▁세르비아계	-11.9738
▁길거리	-11.9739
▁파열	-11.974
▁커져	-11.9741
▁코메	-11.9741
▁쇼핑센터	-11.9741
▁집행위원회	-11.9742
▁다수당	-11.9742
▁외교위원회	-11.9742
▁무관	-11.9742
▁실험실	-11.9743
▁열망	-11.9743
▁전국위원회	-11.9743
▁코스타	-11.9744
보르	-11.9745
▁셸	-11.9745
▁우울	-11.9746
▁앉아서	-11.9746
▁댄스	-11.9748
▁소탕하기	-11.9748
▁치유	-11.9748
▁성전환	-11.9749
▁클린트	-11.9749
▁동계	-11.9749
▁버티	-11.9749
▁군당국	-11.9749
▁청구서	-11.9751
▁유래	-11.9751
▁테러사건	-11.9751
▁확고히	-11.9752
▁바람직하다	-11.9752
▁우유	-11.9753
▁웬디	-11.9753
▁산출	-11.9753
▁실형	-11.9753
▁near	-11.9756
▁지낼	-11.9756
▁구입하는	-11.9756
▁철수시킬	-11.9756
▁합성	-11.9757
▁반입	-11.9757
▁led	-11.9758
ember	-11.9758
▁특유	-11.9758
▁내몰	-11.9758
▁배치했다	-11.9758
▁방중	-11.9758
▁헤비	-11.9758
▁모터스	-11.9759
▁현명하	-11.976
▁시설물	-11.9761
▁추측된다	-11.9761
▁총탄	-11.9761
▁로이드	-11.9761
무대	-11.9762
▁뒷받침할	-11.9762
▁쫓아내	-11.9762
▁국교	-11.9763
▁싸운	-11.9763
▁원료	-11.9763
▁석방하라	-11.9764
▁파병군	-11.9764
노브	-11.9765
▁천체	-11.9765
▁가르쳐	-11.9766
▁버니	-11.9767
▁원작	-11.9769
▁되어있다	-11.977
▁우선시	-11.9771
▁논리	-11.9771
▁담보	-11.9771
▁미끄러지	-11.9774
▁불신	-11.9774
▁cross	-11.9776
▁모리스	-11.9776
▁카라다	-11.9778
▁여신	-11.978
▁피랍자	-11.9781
▁날조	-11.9781
▁탄력	-11.9782
▁백명	-11.9784
▁안경	-11.9785
▁니콜슨	-11.9786
▁마련됐다	-11.9786
▁도처에	-11.9786
▁보내야	-11.9787
▁건국	-11.9788
▁road	-11.9788
▁정해졌	-11.979
▁훔쳤	-11.979
▁유린	-11.9791
▁있으면	-11.9793
▁개입하지	-11.9794
▁검찰관	-11.9796
▁인신	-11.9797
큐리	-11.9798
▁선거위원회	-11.9799
▁밝혀내지	-11.9799
▁마리오	-11.98
▁원더	-11.9801
▁기뻐했다	-11.9801
▁함자	-11.9803
▁전망된다	-11.9803
▁불확실한	-11.9803
▁게재했다	-11.9804
▁기조	-11.9805
▁추측했다	-11.9806
▁온스	-11.9806
▁실시하는	-11.9807
ball	-11.9808
▁찬스	-11.9809
stic	-11.981
▁흥미롭	-11.9811
추어	-11.9811
▁water	-11.9812
▁알약	-11.9813
▁외곽지역	-11.9817
▁상징하	-11.982
대장	-11.9824
▁후송됐다	-11.9825
▁방일	-11.9826
ise	-11.9826
▁중부지역	-11.9828
▁기본스	-11.983
▁예측하기	-11.983
▁공보	-11.983
드리스	-11.9831
▁인디애나주	-11.9832
▁화학적	-11.9836
▁풀기	-11.9837
▁기여했다	-11.9837
▁주장하면서	-11.9839
▁묘사하고	-11.9839
▁쏟아지	-11.984
▁여행객들이	-11.9841
▁중독자	-11.9841
▁마디	-11.9845
▁회복하기	-11.9845
▁발생했었다	-11.9846
첼로	-11.9852
▁농지	-11.9852
▁경신했다	-11.9853
▁윙	-11.9854
▁중추	-11.9855
타이거	-11.9858
▁현재로서	-11.9859
▁방법이라고	-11.986
▁인체에	-11.9861
소식	-11.9863
▁만두	-11.9865
▁맥스	-11.9866
▁사바	-11.9868
▁후원자	-11.9869
▁솔로	-11.987
▁다투	-11.987
▁보고타	-11.987
▁취급하	-11.9871
▁바꾸어	-11.9876
▁말하면	-11.9876
▁살펴보	-11.9878
▁기상학자	-11.9879
▁절대적	-11.9884
▁넘치	-11.9894
▁타오	-11.9894
▁연구센터	-11.9895
▁나쁘지	-11.99
▁공제	-11.9901
▁육박	-11.9903
▁선사	-11.9904
▁통근자들	-11.9907
▁이둘	-11.9912
▁확실시되	-11.9916
▁마이어	-11.9918
전문가들	-11.9919
▁사회자	-11.9921
▁오래전	-11.9922
▁오크	-11.9923
▁검문소에서	-11.9928
▁성당에서	-11.9928
▁설명하는	-11.9929
▁공판에서	-11.993
▁생산국	-11.9933
▁달성하기	-11.9935
▁tru	-11.9937
▁촉발됐다	-11.9937
▁가담했다	-11.9939
▁막사	-11.9941
느린	-11.9946
▁경제학자인	-11.9948
▁맺었	-11.995
인구가	-11.9953
▁골프장	-11.9954
▁제명	-11.9955
▁실장	-11.9963
▁만들려	-11.9971
▁사람이었다	-11.9973
▁바보	-11.9976
스버그	-11.9981
▁치르기	-11.9984
▁잠정적	-11.9984
▁유명해	-11.9987
▁조야	-11.9989
▁기관사	-11.9992
▁주중	-11.9994
▁if	-11.9995
▁팔기	-11.9998
▁국제공항에서	-12.0001
▁피살됐다	-12.0004
▁드러	-12.0005
▁세워졌	-12.001
▁생각하기	-12.0019
▁내린다	-12.0028
▁오염된	-12.0029
오차	-12.003
▁질문들	-12.0048
▁개발도상국들	-12.0053
▁선생님	-12.0058
▁회기	-12.0059
▁혁신	-12.0063
▁출두했다	-12.0063
하더라	-12.0065
▁금융기관	-12.0069
폴리스	-12.007
▁마니	-12.0073
▁jer	-12.0075
▁베라	-12.0078
▁학부모	-12.0078
▁연결되	-12.0078
통계국	-12.0078
▁학교측	-12.008
▁허락했다	-12.008
러드	-12.008
▁ten	-12.0082
▁ji	-12.0083
▁체포되	-12.0099
▁블로거들	-12.01
▁마린	-12.0102
▁개별적	-12.0118
▁올리기	-12.012
▁지불해야	-12.0122
▁루시	-12.0124
▁강화해	-12.0125
▁사과한다	-12.0131
▁엔지니어들	-12.0132
▁대항해	-12.0133
▁소비자에게	-12.014
▁중단한다	-12.0142
▁위주	-12.0142
▁용이하	-12.0158
▁지정했다	-12.016
▁순찰차	-12.0181
▁발효된	-12.0182
▁훈련시키	-12.0195
ung	-12.0198
▁세무	-12.02
▁조합원들	-12.0203
coming	-12.0215
▁돌려받	-12.0222
라이츠	-12.023
▁가수들	-12.0232
▁mac	-12.0232
▁피난민들	-12.0235
▁도착하기	-12.0237
▁자랑스럽	-12.0238
▁거라	-12.0247
▁장갑차	-12.025
▁서머	-12.026
▁개발자들	-12.0267
▁예일대	-12.0276
▁납치하려	-12.028
▁증명했다	-12.0282
▁문화부	-12.0288
▁잠정	-12.0302
▁로비스트	-12.0306
▁트랜	-12.0306
▁청중들	-12.0314
▁연결시키	-12.0315
▁이슬람인들	-12.0316
▁타자	-12.032
▁간호사들	-12.0328
르모	-12.0334
▁투입되	-12.0334
▁무기들	-12.0335
▁복귀했다	-12.0346
쉽	-12.0351
▁스파	-12.0352
놓는다	-12.0354
낭	-12.0363
▁동의하지	-12.0364
아버지	-12.0365
흙	-12.0365
따	-12.0365
▁대변하는	-12.0368
▁del	-12.0368
극적으로	-12.0369
헬	-12.0369
덜	-12.0369
싸움	-12.037
[...]
